unsigned char models_tiny_embedding_conv_model_tflite[] = {
  0x1c, 0x00, 0x00, 0x00, 0x54, 0x46, 0x4c, 0x33, 0x00, 0x00, 0x12, 0x00,
  0x1c, 0x00, 0x04, 0x00, 0x08, 0x00, 0x0c, 0x00, 0x10, 0x00, 0x14, 0x00,
  0x00, 0x00, 0x18, 0x00, 0x12, 0x00, 0x00, 0x00, 0x03, 0x00, 0x00, 0x00,
  0x44, 0x21, 0x00, 0x00, 0xb4, 0x18, 0x00, 0x00, 0x9c, 0x18, 0x00, 0x00,
  0x3c, 0x00, 0x00, 0x00, 0x04, 0x00, 0x00, 0x00, 0x01, 0x00, 0x00, 0x00,
  0x0c, 0x00, 0x00, 0x00, 0x08, 0x00, 0x0c, 0x00, 0x04, 0x00, 0x08, 0x00,
  0x08, 0x00, 0x00, 0x00, 0x08, 0x00, 0x00, 0x00, 0x0e, 0x00, 0x00, 0x00,
  0x13, 0x00, 0x00, 0x00, 0x6d, 0x69, 0x6e, 0x5f, 0x72, 0x75, 0x6e, 0x74,
  0x69, 0x6d, 0x65, 0x5f, 0x76, 0x65, 0x72, 0x73, 0x69, 0x6f, 0x6e, 0x00,
  0x0f, 0x00, 0x00, 0x00, 0x54, 0x18, 0x00, 0x00, 0x3c, 0x18, 0x00, 0x00,
  0x6c, 0x17, 0x00, 0x00, 0x3c, 0x17, 0x00, 0x00, 0x34, 0x17, 0x00, 0x00,
  0x2c, 0x17, 0x00, 0x00, 0x24, 0x17, 0x00, 0x00, 0x04, 0x17, 0x00, 0x00,
  0x74, 0x14, 0x00, 0x00, 0x6c, 0x14, 0x00, 0x00, 0x5c, 0x00, 0x00, 0x00,
  0x54, 0x00, 0x00, 0x00, 0x24, 0x00, 0x00, 0x00, 0x1c, 0x00, 0x00, 0x00,
  0x04, 0x00, 0x00, 0x00, 0x52, 0xe6, 0xff, 0xff, 0x04, 0x00, 0x00, 0x00,
  0x05, 0x00, 0x00, 0x00, 0x31, 0x2e, 0x35, 0x2e, 0x30, 0x00, 0x00, 0x00,
  0x0c, 0xe3, 0xff, 0xff, 0x6a, 0xe6, 0xff, 0xff, 0x04, 0x00, 0x00, 0x00,
  0x20, 0x00, 0x00, 0x00, 0xfb, 0x00, 0x00, 0x00, 0x3a, 0x00, 0x00, 0x00,
  0x30, 0x01, 0x00, 0x00, 0x38, 0xff, 0xff, 0xff, 0x6e, 0x01, 0x00, 0x00,
  0x9c, 0xfe, 0xff, 0xff, 0x00, 0x02, 0x00, 0x00, 0xfb, 0xff, 0xff, 0xff,
  0x3c, 0xe3, 0xff, 0xff, 0x9a, 0xe6, 0xff, 0xff, 0x04, 0x00, 0x00, 0x00,
  0x00, 0x14, 0x00, 0x00, 0xfb, 0x18, 0x2c, 0xfd, 0xee, 0x08, 0xeb, 0x19,
  0xfc, 0x43, 0x27, 0xca, 0x01, 0xfb, 0x0b, 0x15, 0xfa, 0x42, 0xe6, 0xd8,
  0x06, 0x2d, 0x14, 0x37, 0x03, 0x39, 0x32, 0xf7, 0xfc, 0x48, 0xe0, 0x1b,
  0x03, 0xdb, 0x2a, 0xf0, 0xf5, 0xe4, 0xfa, 0xfe, 0x05, 0xff, 0x15, 0x1f,
  0xfc, 0x07, 0xf6, 0x22, 0xf5, 0xeb, 0x11, 0xdb, 0x0d, 0xf2, 0x0f, 0x16,
  0xfb, 0xfc, 0x0a, 0xef, 0xf0, 0xf0, 0x1a, 0x03, 0x04, 0xf8, 0x19, 0xf7,
  0xfd, 0xea, 0x01, 0x18, 0xfd, 0x3c, 0x0c, 0xa6, 0x05, 0xe3, 0x1b, 0x0f,
  0xf5, 0x25, 0x01, 0xdc, 0xff, 0x07, 0x19, 0x16, 0x12, 0x1a, 0x19, 0xf1,
  0xf0, 0x28, 0x04, 0x1c, 0x15, 0xe2, 0x37, 0xe3, 0xf8, 0xe7, 0x1a, 0xf3,
  0x0d, 0xfb, 0x2b, 0xf7, 0xf2, 0x15, 0xfe, 0x18, 0x07, 0xf5, 0x28, 0xe8,
  0x10, 0xea, 0x03, 0x00, 0xfc, 0x09, 0x2d, 0xf6, 0xee, 0xdb, 0x0e, 0xf8,
  0x03, 0xea, 0x13, 0xe2, 0x02, 0xeb, 0x15, 0x0b, 0xf7, 0x23, 0xff, 0xc4,
  0x00, 0xeb, 0x1e, 0xfc, 0x02, 0x0d, 0x25, 0xce, 0xff, 0x08, 0x37, 0xef,
  0x01, 0x10, 0x24, 0xe0, 0x02, 0x09, 0x03, 0x23, 0xff, 0xec, 0x1f, 0xdb,
  0x07, 0xf1, 0xfe, 0x1e, 0x18, 0x0c, 0x2f, 0xef, 0x06, 0x16, 0x00, 0x11,
  0x10, 0x15, 0x16, 0xd8, 0x04, 0xd2, 0xf1, 0xf4, 0x12, 0x06, 0x22, 0xef,
  0xf2, 0xd0, 0xfb, 0xdc, 0xf5, 0x06, 0x07, 0xe0, 0xfe, 0xe6, 0x02, 0x0b,
  0x11, 0x0e, 0x31, 0xdb, 0x06, 0xf2, 0x07, 0x1f, 0x08, 0xf8, 0x06, 0xc7,
  0xf3, 0xe0, 0x1e, 0xfb, 0x16, 0x13, 0x11, 0xfb, 0xfe, 0xf8, 0x10, 0x17,
  0xff, 0xf7, 0x0f, 0xe8, 0xfc, 0xe6, 0xf0, 0x18, 0xfc, 0x1b, 0x31, 0xdb,
  0xfb, 0x12, 0x04, 0x1e, 0xf4, 0x12, 0xff, 0x02, 0xf8, 0xc4, 0xfb, 0xc3,
  0xee, 0xf5, 0x1e, 0xf5, 0x07, 0xbf, 0xf8, 0xe2, 0xf9, 0x16, 0xfc, 0xe1,
  0xfc, 0xd6, 0xf9, 0x17, 0xfc, 0x05, 0x1d, 0xe3, 0xf0, 0xdc, 0xfd, 0x0b,
  0xec, 0xee, 0x0f, 0xd2, 0xf3, 0xe1, 0x1b, 0x08, 0xf5, 0x11, 0xd7, 0xd9,
  0xf3, 0xe7, 0x35, 0x14, 0xf1, 0x10, 0x25, 0xee, 0x06, 0xf3, 0x05, 0x0d,
  0x15, 0x0a, 0x28, 0xdd, 0xfa, 0x30, 0x25, 0x1d, 0x08, 0x09, 0x1e, 0xf9,
  0xf8, 0xf1, 0x0e, 0xe0, 0x09, 0xf0, 0x0f, 0xfe, 0xfe, 0xd8, 0x11, 0xf4,
  0x08, 0x0c, 0xfe, 0x07, 0x09, 0xdd, 0xea, 0x0c, 0xf9, 0xf0, 0x08, 0xed,
  0x07, 0xf9, 0x0d, 0xf7, 0xfa, 0x10, 0x10, 0xef, 0x05, 0xeb, 0x34, 0x02,
  0xf5, 0x2c, 0xe3, 0xe6, 0x06, 0xe1, 0x45, 0x14, 0xf4, 0x06, 0x1d, 0xf0,
  0xf9, 0x02, 0x13, 0xfb, 0x1e, 0x0f, 0x10, 0xe1, 0xfa, 0x1a, 0x11, 0x16,
  0x09, 0x04, 0x0d, 0x02, 0x08, 0xea, 0x12, 0xf2, 0xf6, 0xf8, 0xf4, 0xe6,
  0x07, 0xeb, 0xfb, 0xef, 0xfc, 0x02, 0xf0, 0xf4, 0x10, 0x04, 0xef, 0x16,
  0x08, 0x16, 0xe3, 0xea, 0x00, 0xff, 0xfe, 0xdb, 0xfe, 0x05, 0x06, 0xc4,
  0xf5, 0x00, 0x2a, 0xef, 0x10, 0x25, 0xc6, 0xe0, 0x01, 0xeb, 0x3f, 0x05,
  0xfc, 0x29, 0x07, 0x0c, 0xf6, 0x08, 0x01, 0x19, 0x0c, 0x0e, 0xff, 0xe6,
  0x07, 0x04, 0x12, 0x16, 0x0b, 0x0d, 0xeb, 0xfa, 0x09, 0xe9, 0x15, 0xef,
  0xf7, 0xe6, 0xff, 0xe1, 0x00, 0xeb, 0xf0, 0xfe, 0xf7, 0x21, 0xee, 0xeb,
  0xf8, 0xfd, 0xef, 0x13, 0x13, 0x23, 0xda, 0xec, 0xf4, 0xf2, 0xea, 0x06,
  0xf6, 0xf4, 0x19, 0xc1, 0x01, 0xf4, 0xed, 0xf5, 0x0c, 0x42, 0xb7, 0xcd,
  0x00, 0xe1, 0x11, 0xf4, 0xfb, 0x41, 0x0a, 0x0e, 0xfd, 0xf3, 0xe9, 0x14,
  0xfb, 0x12, 0x33, 0xf6, 0x0a, 0x0b, 0xf9, 0x3d, 0x03, 0xfe, 0x0c, 0xe6,
  0x03, 0xf7, 0xf9, 0xe5, 0x0c, 0xed, 0xf8, 0xee, 0x04, 0xf6, 0xf9, 0xee,
  0x09, 0x07, 0xfe, 0xf5, 0x05, 0xfc, 0x09, 0x0e, 0x0a, 0x46, 0x02, 0x00,
  0x06, 0xf0, 0xe9, 0xda, 0xf0, 0xf4, 0x2d, 0xba, 0xee, 0xc7, 0xd9, 0xf0,
  0x06, 0x4b, 0xd2, 0xd9, 0xfe, 0xf6, 0xf4, 0xe3, 0x03, 0x53, 0x09, 0x00,
  0x00, 0x04, 0xce, 0x05, 0x15, 0x19, 0x1f, 0xe1, 0xfa, 0x16, 0xea, 0x14,
  0x02, 0xf3, 0x15, 0xd7, 0xfe, 0xfd, 0xe7, 0xee, 0xfe, 0x11, 0xee, 0xe9,
  0xff, 0xee, 0xda, 0x08, 0xfc, 0xf6, 0x0c, 0xda, 0xf7, 0xe6, 0x28, 0x04,
  0x08, 0x60, 0x29, 0x05, 0xfb, 0x00, 0x08, 0xf2, 0x02, 0xeb, 0x4c, 0xb1,
  0x04, 0xab, 0xff, 0xbf, 0x11, 0x3a, 0xd0, 0xba, 0xf8, 0x05, 0x00, 0xff,
  0x06, 0x7f, 0x0d, 0xf0, 0x04, 0x26, 0xc5, 0xf0, 0x02, 0x18, 0x16, 0xec,
  0x04, 0x20, 0xe7, 0x04, 0xfb, 0xe1, 0x19, 0xdf, 0x06, 0xed, 0xe9, 0xf7,
  0x03, 0x0d, 0x0a, 0x04, 0x04, 0xec, 0xe8, 0xf5, 0x0d, 0xc3, 0x07, 0xd6,
  0x14, 0xe6, 0x2c, 0xf7, 0x07, 0xc4, 0xcd, 0x0d, 0xfa, 0x09, 0x20, 0x2c,
  0xfd, 0x0b, 0x1b, 0x15, 0x05, 0x33, 0xd7, 0xf7, 0xed, 0xf1, 0xd7, 0xf1,
  0xfa, 0x34, 0x5c, 0xf9, 0x07, 0x1b, 0x03, 0x11, 0x1b, 0x5a, 0x0b, 0x5a,
  0x08, 0xf1, 0x1f, 0x27, 0x03, 0xdf, 0x12, 0xd8, 0x12, 0xd5, 0x0e, 0x03,
  0x06, 0xf4, 0xf4, 0x67, 0xfb, 0xcb, 0x0a, 0x1c, 0x0d, 0xfe, 0xad, 0x2f,
  0x01, 0xc7, 0xda, 0xe8, 0xfc, 0xd6, 0x22, 0xdb, 0x13, 0xb5, 0xd7, 0x32,
  0x09, 0xff, 0xfc, 0x1b, 0x07, 0x0e, 0x0d, 0x0f, 0x06, 0x02, 0xd2, 0xee,
  0xdf, 0xed, 0xec, 0x24, 0x05, 0x04, 0x39, 0x0d, 0xed, 0xf2, 0x1f, 0x0d,
  0x19, 0x45, 0xee, 0x4d, 0xfa, 0xb4, 0x1f, 0x13, 0xff, 0xfd, 0x0d, 0xf9,
  0xfa, 0xe0, 0xf5, 0xfb, 0xfa, 0x13, 0xfb, 0x3b, 0x04, 0xd9, 0xfe, 0x1c,
  0x04, 0xf2, 0xae, 0x33, 0x13, 0xce, 0x08, 0xef, 0xff, 0xfe, 0xff, 0xc2,
  0xfe, 0xf6, 0x12, 0x44, 0x04, 0x02, 0xf1, 0xf3, 0x19, 0x2f, 0x27, 0x26,
  0x06, 0x00, 0xb0, 0xc1, 0x00, 0xfb, 0x0f, 0x24, 0xff, 0x21, 0xec, 0x1f,
  0xf4, 0xd1, 0x47, 0x14, 0x07, 0x56, 0xd5, 0x0a, 0xf8, 0xb1, 0x35, 0x38,
  0xfa, 0x1a, 0xe5, 0xe9, 0xfd, 0xb1, 0x0b, 0x04, 0x0a, 0x1f, 0xf5, 0x35,
  0x04, 0xe3, 0x0c, 0x0c, 0x03, 0xf4, 0xab, 0x10, 0x08, 0xc6, 0x0c, 0xdf,
  0x03, 0x09, 0xee, 0xc7, 0xf4, 0xea, 0x01, 0x3b, 0xee, 0xe9, 0xf0, 0x03,
  0x05, 0x0d, 0x08, 0x2f, 0x17, 0xeb, 0xbe, 0xb5, 0xf6, 0x07, 0xf9, 0x1e,
  0x0a, 0x1d, 0xf2, 0x15, 0x0e, 0xeb, 0x33, 0x25, 0x04, 0x34, 0xf4, 0x16,
  0x01, 0xb2, 0x31, 0x48, 0x01, 0xfb, 0xdf, 0xf6, 0xfc, 0xc4, 0x1f, 0x20,
  0xfc, 0x13, 0x0e, 0x20, 0x02, 0xe1, 0x0e, 0x1d, 0x07, 0xf9, 0xc2, 0x04,
  0x03, 0xd9, 0xe9, 0xe4, 0x0f, 0x39, 0xea, 0xb9, 0x0c, 0xde, 0xd8, 0x15,
  0x01, 0x1b, 0xdd, 0xb6, 0x1b, 0x18, 0xde, 0x41, 0x0b, 0x38, 0xbd, 0xc9,
  0x14, 0x0f, 0xfa, 0x26, 0xfd, 0x3d, 0xd3, 0x00, 0x0b, 0xf4, 0x03, 0x1c,
  0x00, 0x50, 0xf6, 0x09, 0xfe, 0xc5, 0xfa, 0x67, 0x07, 0x28, 0xed, 0xda,
  0x01, 0x02, 0x0d, 0x2f, 0x01, 0x10, 0xee, 0x1b, 0x04, 0x06, 0x08, 0x07,
  0xfe, 0x25, 0xd2, 0xf5, 0x0d, 0xe0, 0xda, 0xf7, 0x07, 0x27, 0x00, 0xf2,
  0x09, 0xd8, 0xf6, 0x18, 0x01, 0x06, 0xce, 0xe2, 0x01, 0xfb, 0xed, 0x45,
  0x0b, 0x4c, 0xa6, 0xca, 0x14, 0xf0, 0x38, 0x19, 0x14, 0x50, 0xbd, 0x10,
  0x12, 0xcf, 0x06, 0x1a, 0x11, 0x4f, 0xf4, 0x02, 0xed, 0xdc, 0xe9, 0x6d,
  0xfb, 0x0b, 0x04, 0xe0, 0xf9, 0x15, 0xfa, 0x47, 0xfd, 0xfa, 0xef, 0x1b,
  0x00, 0xd3, 0xe4, 0xfb, 0x0b, 0xfb, 0xfe, 0xdb, 0x02, 0x04, 0xe6, 0xeb,
  0x0c, 0x20, 0xe7, 0xdf, 0x01, 0xda, 0xe6, 0x17, 0x09, 0x00, 0xd7, 0xcb,
  0xf7, 0xf9, 0xc1, 0x63, 0x0a, 0x47, 0x9d, 0xb3, 0x0c, 0xff, 0x5e, 0x1b,
  0xfd, 0x5d, 0x9a, 0x1b, 0x0a, 0xcf, 0x1d, 0x16, 0x02, 0x3f, 0xd5, 0xed,
  0xe8, 0xdf, 0xd9, 0x7f, 0x00, 0x1d, 0x07, 0x1e, 0xf1, 0x1e, 0x14, 0x20,
  0xfb, 0xf0, 0xd8, 0x1c, 0xec, 0xff, 0xdd, 0x12, 0xfa, 0xec, 0x04, 0xc1,
  0x01, 0x02, 0xe9, 0x04, 0xff, 0x02, 0x0d, 0xf5, 0xee, 0xce, 0xf7, 0xf9,
  0x0d, 0xe6, 0xe3, 0xda, 0x0c, 0x00, 0xc2, 0x49, 0x07, 0x3b, 0xad, 0xd3,
  0x00, 0xc0, 0x26, 0x15, 0x13, 0x41, 0xa5, 0x15, 0x16, 0xda, 0xeb, 0xfe,
  0xf4, 0x24, 0xdb, 0xea, 0x00, 0xdf, 0x03, 0x7d, 0xfd, 0x1f, 0x0a, 0x11,
  0xff, 0x00, 0x03, 0x32, 0xf8, 0x09, 0xf1, 0x36, 0xe6, 0x15, 0xff, 0x30,
  0xee, 0xff, 0xee, 0xd6, 0x17, 0x1a, 0x06, 0x07, 0x0c, 0xe3, 0x00, 0x01,
  0xea, 0xbc, 0xf8, 0xdb, 0xff, 0xcb, 0xfe, 0xde, 0x04, 0x0a, 0xc1, 0x2d,
  0x05, 0x3f, 0xc6, 0x12, 0xf8, 0xe4, 0x29, 0x53, 0xff, 0x3a, 0xbc, 0x2b,
  0x00, 0xd5, 0xfb, 0x19, 0xfe, 0x05, 0xc9, 0xe3, 0x0d, 0xf0, 0xf8, 0x4a,
  0xf5, 0x11, 0xff, 0x25, 0x0c, 0x28, 0xc3, 0x5e, 0xf7, 0x11, 0x03, 0x1c,
  0xfd, 0x0f, 0xea, 0x26, 0x0f, 0x2b, 0x09, 0xdd, 0x04, 0x18, 0xfd, 0x29,
  0xef, 0xe4, 0xe5, 0xf6, 0xee, 0x9d, 0x0a, 0xdb, 0x0d, 0xb5, 0xe3, 0xae,
  0xe4, 0x26, 0xd6, 0x2a, 0x01, 0x5b, 0xd5, 0x2b, 0xe6, 0x24, 0x20, 0x64,
  0x07, 0xf4, 0xde, 0xd9, 0xe5, 0xb5, 0x03, 0x35, 0x15, 0xdd, 0xba, 0xb8,
  0xf3, 0x02, 0x06, 0x47, 0x0a, 0xf2, 0x09, 0x20, 0x0a, 0x38, 0xe1, 0x53,
  0x09, 0x08, 0x34, 0x22, 0x03, 0xf9, 0xd9, 0x31, 0x08, 0x23, 0x1e, 0xd5,
  0x0c, 0x3c, 0xfd, 0x18, 0x01, 0x12, 0xe0, 0x24, 0xfd, 0x3c, 0x30, 0xec,
  0x0f, 0xe7, 0xca, 0x02, 0xf2, 0xdc, 0xec, 0xec, 0xf9, 0x23, 0xf9, 0xff,
  0xfb, 0xe9, 0x04, 0xe6, 0x05, 0x11, 0xcf, 0x18, 0xf9, 0x1c, 0x03, 0xfd,
  0x00, 0xe5, 0x89, 0x2f, 0xfd, 0x09, 0x2c, 0xff, 0x01, 0xd5, 0xbd, 0xd6,
  0xfb, 0x25, 0x11, 0x11, 0xf8, 0x21, 0xfa, 0x5e, 0xf0, 0xd6, 0x0e, 0x02,
  0xfb, 0xf6, 0xbd, 0x33, 0x08, 0x0d, 0xf7, 0x17, 0xfc, 0xf9, 0xff, 0x3f,
  0xf3, 0x0f, 0x1e, 0xe8, 0xfe, 0xba, 0xd6, 0x1d, 0x07, 0xcd, 0x06, 0xf0,
  0xf3, 0x1c, 0x17, 0x14, 0x01, 0x0c, 0xe4, 0xfb, 0xf4, 0x15, 0xfa, 0x38,
  0xfc, 0xf6, 0x17, 0xe7, 0xef, 0xf0, 0xaf, 0x29, 0x05, 0x0f, 0x3c, 0xf4,
  0xf3, 0xda, 0xe7, 0xf4, 0x0b, 0x3f, 0x02, 0x09, 0xff, 0x16, 0x02, 0x64,
  0xf1, 0xe6, 0x11, 0x0a, 0x05, 0xdd, 0xa8, 0x26, 0xfb, 0xf8, 0x03, 0x12,
  0x08, 0xd1, 0xf3, 0x2f, 0xf3, 0xfe, 0x14, 0xe6, 0xfb, 0xb5, 0xd6, 0x07,
  0x05, 0xc8, 0xfe, 0xe9, 0xf3, 0xfa, 0x05, 0x04, 0xf3, 0x2c, 0x17, 0xfe,
  0x0b, 0x1c, 0x03, 0x51, 0xf9, 0xe9, 0x0c, 0x10, 0xf6, 0xf1, 0xd2, 0x54,
  0x07, 0xfb, 0x0e, 0x0d, 0x01, 0xd8, 0xe5, 0x2c, 0x05, 0x29, 0xf0, 0x04,
  0x04, 0xfd, 0xe9, 0x6e, 0xfc, 0xe3, 0x0d, 0x15, 0x04, 0xe1, 0x95, 0x21,
  0xf9, 0xf4, 0x16, 0x1a, 0xfe, 0xd8, 0x04, 0x2a, 0x0d, 0xe7, 0x13, 0xd3,
  0x07, 0xce, 0xe1, 0x05, 0xff, 0xca, 0xf6, 0xf4, 0xff, 0xe4, 0xf3, 0x20,
  0xf3, 0x1d, 0x16, 0x03, 0xfe, 0x27, 0x14, 0x3d, 0xf2, 0xf5, 0x1d, 0x20,
  0xff, 0xf3, 0xb4, 0x3b, 0x0a, 0x1c, 0x4b, 0x27, 0xf3, 0xd6, 0xae, 0x22,
  0x01, 0xfa, 0x32, 0x08, 0x13, 0x00, 0xe2, 0x45, 0xfc, 0x18, 0xfd, 0x1a,
  0xf6, 0xce, 0xba, 0x17, 0x0f, 0xfb, 0x08, 0x0c, 0xf9, 0x03, 0x22, 0x2b,
  0xf3, 0xfb, 0x0b, 0xf1, 0xfe, 0xf9, 0x12, 0x0e, 0xf7, 0xfb, 0xed, 0xf7,
  0xf5, 0x29, 0x0b, 0x57, 0xfa, 0x24, 0x15, 0xf3, 0xf7, 0x3b, 0x1d, 0x41,
  0xff, 0xfa, 0x49, 0x26, 0xf6, 0x08, 0xea, 0x3c, 0x16, 0x03, 0x32, 0x2c,
  0xfc, 0xea, 0xc0, 0x48, 0xfb, 0xe8, 0x28, 0x04, 0xfe, 0xf2, 0xe3, 0x1a,
  0xfb, 0x22, 0xfb, 0x13, 0xf2, 0xe8, 0xb8, 0xf1, 0xff, 0xe6, 0xe9, 0x06,
  0xfa, 0x17, 0x17, 0x33, 0x01, 0xf2, 0xe5, 0xf0, 0xf2, 0x13, 0x0a, 0xf3,
  0xf6, 0x07, 0xee, 0xfd, 0x01, 0x40, 0xf1, 0x25, 0xff, 0x35, 0x2f, 0x11,
  0x13, 0x44, 0x13, 0x60, 0xf5, 0xf0, 0x6e, 0x2f, 0xf2, 0x31, 0xf5, 0x3d,
  0x0a, 0xe4, 0x4a, 0x34, 0x09, 0x10, 0xd0, 0x2b, 0xf3, 0xe3, 0x18, 0x11,
  0xfd, 0x0d, 0xbb, 0x16, 0xed, 0x09, 0x15, 0x0a, 0x10, 0xff, 0xcc, 0x09,
  0x06, 0xf2, 0xf1, 0x0c, 0x09, 0x06, 0xe7, 0x24, 0x04, 0x25, 0xed, 0xd1,
  0xf1, 0x0a, 0xe4, 0xf5, 0xf7, 0xe1, 0x1c, 0x06, 0x04, 0x37, 0xf9, 0x04,
  0x01, 0x1a, 0x47, 0x03, 0xfa, 0x2d, 0x1f, 0x30, 0x02, 0xfe, 0x59, 0x01,
  0x00, 0x2b, 0x04, 0x3c, 0x05, 0xda, 0x27, 0x54, 0xfb, 0x2b, 0xeb, 0x32,
  0xf3, 0xf3, 0xfc, 0x0f, 0x0a, 0x02, 0xbe, 0x24, 0xf3, 0x1e, 0x08, 0x17,
  0xef, 0xf1, 0xd5, 0x04, 0xfc, 0x04, 0xf6, 0xf1, 0xf2, 0x08, 0xf5, 0x1b,
  0x01, 0x16, 0xe0, 0xd0, 0xf3, 0xe4, 0xf1, 0xe9, 0xf7, 0xfa, 0x08, 0xf9,
  0xf3, 0x38, 0xfa, 0x32, 0x01, 0xed, 0x0f, 0xf6, 0x04, 0x51, 0x38, 0x3c,
  0x1f, 0xfa, 0x34, 0x18, 0xf8, 0x57, 0x0c, 0x4b, 0x15, 0xe6, 0x29, 0x5e,
  0xfe, 0x41, 0x07, 0x5d, 0xf6, 0xdc, 0xf5, 0x05, 0x06, 0x04, 0xd7, 0x3b,
  0xf6, 0x3d, 0xf9, 0x05, 0x00, 0xf8, 0xf6, 0xf9, 0x01, 0xee, 0x26, 0xf7,
  0x00, 0xe6, 0xd3, 0x12, 0xff, 0x25, 0x0e, 0xe1, 0x03, 0xcc, 0xe6, 0xe3,
  0xfb, 0xeb, 0x13, 0x05, 0x06, 0x4e, 0xcc, 0x2e, 0x0c, 0x1c, 0x18, 0xec,
  0x0c, 0x7f, 0xff, 0x3a, 0x00, 0x07, 0x19, 0x1e, 0x0b, 0x57, 0xfd, 0x26,
  0x0a, 0x01, 0x22, 0x56, 0x0e, 0x4e, 0xe3, 0x27, 0xfc, 0x02, 0x11, 0x03,
  0x05, 0xe6, 0xd9, 0x21, 0x03, 0x32, 0x0f, 0x02, 0x0c, 0x17, 0xe1, 0xf1,
  0x0e, 0xde, 0x13, 0xf5, 0xf7, 0xc4, 0xdd, 0xd9, 0x16, 0x29, 0x1a, 0xec,
  0x02, 0xbb, 0xd6, 0xe7, 0xff, 0xed, 0x09, 0xeb, 0xec, 0x3c, 0xb7, 0x1c,
  0x06, 0x40, 0xde, 0xf2, 0xf1, 0x67, 0xf6, 0x32, 0x1b, 0x08, 0x15, 0x13,
  0x05, 0x4a, 0xd3, 0x19, 0x15, 0xe7, 0xfe, 0x46, 0x0c, 0x3d, 0xc0, 0xf8,
  0xf5, 0x1d, 0xf0, 0x08, 0x00, 0xed, 0xe2, 0x05, 0x09, 0x1d, 0xdf, 0xfc,
  0x01, 0x1c, 0xf9, 0xea, 0xf9, 0xe9, 0x11, 0x09, 0xfb, 0xfe, 0xf5, 0x15,
  0x07, 0xdd, 0x0e, 0x06, 0xf6, 0xf2, 0xec, 0x07, 0x0e, 0xf9, 0x08, 0x06,
  0xf5, 0xdd, 0xed, 0x13, 0x15, 0x0f, 0x15, 0x13, 0xf8, 0x01, 0x00, 0x28,
  0x0a, 0x11, 0x1a, 0x02, 0xfa, 0x09, 0xe2, 0xf5, 0x0c, 0xf8, 0x03, 0xf2,
  0x09, 0xf4, 0xe0, 0xdb, 0x00, 0x29, 0xff, 0x0a, 0x07, 0x0b, 0xe0, 0xf5,
  0x0a, 0x12, 0x1a, 0xec, 0x04, 0xf0, 0xdc, 0xf8, 0x09, 0xda, 0x12, 0x03,
  0xf4, 0x08, 0x10, 0x05, 0x06, 0xdc, 0x0c, 0xf4, 0x05, 0x06, 0x10, 0x0d,
  0x07, 0xd2, 0xfc, 0xfe, 0x05, 0xe6, 0x16, 0x08, 0x12, 0xf2, 0x06, 0x00,
  0x0c, 0xf9, 0x14, 0x1a, 0x11, 0x0f, 0x16, 0x0f, 0x02, 0x07, 0xf6, 0x02,
  0x14, 0xee, 0x0d, 0xcf, 0x01, 0xee, 0xe6, 0xe2, 0x13, 0x05, 0x05, 0x07,
  0x02, 0xfc, 0xfa, 0xf2, 0x07, 0x05, 0x03, 0x05, 0x00, 0x12, 0x04, 0x0e,
  0xf9, 0xf6, 0xfc, 0x01, 0xfe, 0xfe, 0x0b, 0x0c, 0x14, 0xee, 0x04, 0x0d,
  0x03, 0x0d, 0x10, 0x0d, 0x11, 0xdf, 0xff, 0xf9, 0xfa, 0xf3, 0x0a, 0x12,
  0x10, 0xe6, 0x03, 0x14, 0x0c, 0xf2, 0x29, 0x11, 0x04, 0xff, 0x14, 0x0f,
  0x01, 0xf1, 0x0d, 0x0a, 0x00, 0xe9, 0x13, 0xd9, 0x04, 0xf5, 0xea, 0xe3,
  0x03, 0xf6, 0x0a, 0x0d, 0x00, 0x0a, 0x0f, 0x08, 0x09, 0x02, 0xf8, 0x1d,
  0x07, 0x21, 0x30, 0x16, 0xfc, 0xf5, 0x18, 0xf9, 0x04, 0xed, 0x1c, 0x01,
  0x06, 0xfd, 0x02, 0x0a, 0x01, 0xff, 0x1c, 0x14, 0xfd, 0xda, 0xff, 0xfe,
  0xfc, 0xfe, 0x35, 0x18, 0x12, 0xe8, 0x15, 0x13, 0xfa, 0x08, 0x48, 0xf9,
  0x0e, 0x0b, 0x10, 0x12, 0x01, 0xfe, 0x2a, 0x0b, 0xfe, 0xcc, 0x09, 0xe2,
  0x03, 0xff, 0x14, 0xe6, 0x16, 0x04, 0x0d, 0x0e, 0xfe, 0x08, 0x01, 0x0d,
  0x0e, 0x02, 0x00, 0x09, 0xfe, 0x12, 0x1b, 0x0c, 0xf2, 0xf7, 0x00, 0xea,
  0xf5, 0xce, 0x12, 0xff, 0x02, 0xe3, 0xfa, 0xfc, 0xf2, 0xed, 0x1f, 0x0b,
  0x06, 0xcf, 0x0c, 0xf0, 0xf4, 0xdd, 0x22, 0x11, 0xfe, 0xd0, 0x16, 0x15,
  0x02, 0xf6, 0x1b, 0xfb, 0xfd, 0xf4, 0x02, 0xfb, 0xf3, 0xf5, 0x2a, 0x04,
  0x04, 0xc6, 0x1d, 0xd8, 0xfd, 0x07, 0x02, 0xe3, 0x08, 0xdd, 0x0c, 0xfc,
  0xfe, 0xf6, 0xde, 0x13, 0xf6, 0xf5, 0x20, 0x05, 0x09, 0xfe, 0x11, 0x0f,
  0xfb, 0xef, 0x0f, 0xfc, 0xf9, 0xd2, 0xf4, 0xfa, 0xfa, 0xe6, 0x06, 0x04,
  0x03, 0xe4, 0x13, 0x05, 0x03, 0xde, 0x10, 0xf7, 0xfc, 0xf4, 0x2d, 0x1c,
  0x07, 0xc8, 0xf8, 0xf3, 0x02, 0x09, 0x19, 0x07, 0x0d, 0xdc, 0x0b, 0xf8,
  0x03, 0x1c, 0x28, 0x09, 0x10, 0xb8, 0x0e, 0xe5, 0xfc, 0x11, 0xf1, 0x0d,
  0x04, 0xdf, 0x08, 0xfc, 0xfa, 0x06, 0xe8, 0x18, 0x15, 0x02, 0x15, 0x11,
  0xf4, 0x00, 0x05, 0x07, 0xfd, 0xf5, 0x0b, 0xfd, 0xfd, 0xd9, 0xf3, 0xfd,
  0x0a, 0xe1, 0x0f, 0x0d, 0x04, 0xe1, 0x04, 0x12, 0x14, 0xf8, 0x0d, 0xeb,
  0x03, 0x06, 0x12, 0x24, 0x0d, 0xd6, 0xf8, 0xe0, 0xfc, 0x1b, 0x1e, 0xfe,
  0x05, 0xee, 0xfa, 0xfb, 0xf8, 0x29, 0x0a, 0xf8, 0x00, 0xd1, 0x1a, 0xe7,
  0x03, 0x0f, 0xf1, 0x09, 0x05, 0xdd, 0x16, 0xff, 0xf7, 0x19, 0xd2, 0xee,
  0x07, 0x04, 0x14, 0x09, 0x0d, 0x15, 0x12, 0xf4, 0x05, 0xf0, 0x00, 0xf4,
  0x06, 0xe0, 0xe2, 0xf7, 0x02, 0xd4, 0xff, 0xf7, 0xf7, 0xde, 0xfd, 0x09,
  0x02, 0xfc, 0x03, 0xf8, 0x00, 0x10, 0x13, 0x28, 0x0c, 0xee, 0xff, 0xd8,
  0xf8, 0x2b, 0x04, 0x07, 0x06, 0xf9, 0xe4, 0xf0, 0xfe, 0x38, 0x13, 0xf3,
  0x09, 0xd1, 0xf3, 0xf0, 0x05, 0x1a, 0xf6, 0x03, 0x07, 0xdc, 0x01, 0xfb,
  0x01, 0x08, 0xea, 0xef, 0x0c, 0xfb, 0xff, 0xff, 0x01, 0x07, 0x1f, 0xec,
  0x06, 0xf7, 0xf7, 0xe8, 0x00, 0xe2, 0xe9, 0xf1, 0xf8, 0xe7, 0x00, 0x15,
  0x07, 0xe7, 0xeb, 0x01, 0xfd, 0x12, 0x0a, 0xe3, 0xf5, 0x27, 0x03, 0x27,
  0xf8, 0x26, 0xee, 0xc5, 0xfd, 0x46, 0xfc, 0xe7, 0x00, 0xf8, 0xec, 0xe8,
  0x03, 0x3e, 0x06, 0xed, 0x03, 0xf1, 0xeb, 0xf0, 0x03, 0x03, 0xdf, 0xf9,
  0x01, 0xe7, 0x09, 0x0f, 0xf8, 0xfd, 0xeb, 0xf4, 0xfc, 0x19, 0xf3, 0x02,
  0x06, 0x0b, 0x13, 0xe2, 0x05, 0x07, 0xf8, 0xf3, 0x04, 0xd9, 0xe3, 0xfa,
  0xfe, 0xf1, 0xfe, 0x16, 0x03, 0xcf, 0xe7, 0x05, 0xfc, 0x28, 0xfe, 0xe2,
  0x06, 0x58, 0x1d, 0x3a, 0x0a, 0x51, 0xeb, 0xdd, 0xfc, 0x7f, 0x18, 0x01,
  0xff, 0xf9, 0xeb, 0xf0, 0x09, 0x65, 0x2f, 0xdc, 0xf5, 0x17, 0xf7, 0xe7,
  0xfa, 0x2d, 0xed, 0xef, 0xf7, 0xe9, 0xf0, 0x12, 0xfd, 0xfb, 0xf4, 0xff,
  0xf7, 0xfe, 0xfb, 0x04, 0x06, 0x0c, 0x08, 0x04, 0xfb, 0xce, 0x08, 0xf4,
  0x0c, 0xfa, 0x27, 0xee, 0xe0, 0xf3, 0xf5, 0x31, 0x0a, 0x15, 0x08, 0x15,
  0x07, 0x2c, 0x34, 0x49, 0x01, 0x13, 0xce, 0x42, 0x1a, 0x49, 0x23, 0xfa,
  0x05, 0x2b, 0x1b, 0x4b, 0xf4, 0xcf, 0x3b, 0x1e, 0xef, 0x33, 0xd4, 0x4d,
  0x06, 0x6a, 0xeb, 0x21, 0x08, 0x16, 0x91, 0x41, 0xd2, 0x60, 0x3c, 0xff,
  0x07, 0xfe, 0xf1, 0x11, 0xdc, 0x7f, 0xec, 0xf3, 0xff, 0x1a, 0x11, 0xf5,
  0xef, 0xed, 0x03, 0xf9, 0xdf, 0x05, 0x21, 0xcc, 0xec, 0x00, 0x2c, 0x26,
  0xf8, 0x31, 0x0c, 0x33, 0xf3, 0xe1, 0x4f, 0x69, 0x13, 0x2c, 0xeb, 0x27,
  0xdd, 0x1a, 0x3e, 0xfb, 0x0e, 0x34, 0x02, 0x2f, 0xff, 0xd3, 0x47, 0x30,
  0x1d, 0x4d, 0x11, 0x20, 0xf9, 0x0c, 0x01, 0x3d, 0xf8, 0x12, 0xaf, 0x08,
  0xf3, 0x4d, 0x3c, 0xf8, 0xfa, 0xec, 0x0a, 0xf3, 0x0d, 0x6b, 0x0e, 0x07,
  0xf4, 0x15, 0x1d, 0x0b, 0xf0, 0xd6, 0x01, 0xf6, 0x00, 0x3d, 0x2c, 0xd8,
  0xef, 0x06, 0x20, 0xf8, 0x01, 0x40, 0x27, 0x36, 0xf1, 0xe7, 0x31, 0x5b,
  0x0d, 0x57, 0xea, 0x47, 0xed, 0xec, 0xfb, 0x02, 0xed, 0x2e, 0x27, 0x3c,
  0xf5, 0xc7, 0x66, 0x3b, 0xf0, 0x46, 0x14, 0x49, 0xfe, 0xe9, 0x1a, 0x3b,
  0x11, 0x21, 0xc7, 0xff, 0xdd, 0x27, 0x55, 0x06, 0xfd, 0xd3, 0x03, 0x22,
  0x0c, 0x5f, 0x17, 0xdc, 0x01, 0x30, 0x07, 0x3c, 0x13, 0xfa, 0xea, 0xee,
  0x13, 0x11, 0xea, 0xae, 0xe2, 0x40, 0x0a, 0x10, 0x08, 0x52, 0xe0, 0x50,
  0xf6, 0x04, 0x19, 0x42, 0xfc, 0x36, 0xff, 0xfb, 0xee, 0xcb, 0x0f, 0xfe,
  0x02, 0x24, 0x12, 0x20, 0xe5, 0xca, 0x6e, 0x1e, 0x04, 0x23, 0x35, 0x24,
  0xfd, 0xb5, 0xee, 0x06, 0xfb, 0xf2, 0xf1, 0x0b, 0x04, 0x33, 0x26, 0x1f,
  0x00, 0xaf, 0xd4, 0xd4, 0xf0, 0x65, 0x10, 0xfd, 0xf8, 0xf9, 0xee, 0x31,
  0x1a, 0x37, 0xf2, 0xcd, 0x04, 0x23, 0xff, 0xee, 0x07, 0x2b, 0xf7, 0x05,
  0x19, 0x32, 0x10, 0x4f, 0xf4, 0x30, 0x29, 0x40, 0xf3, 0x6d, 0x17, 0x42,
  0xf8, 0xe5, 0x05, 0x09, 0xfa, 0x10, 0x1d, 0x0b, 0x0b, 0xd1, 0x29, 0x13,
  0x0a, 0xf5, 0x32, 0x2b, 0xfc, 0xa4, 0x00, 0x2a, 0x18, 0xc9, 0x34, 0xcb,
  0xf5, 0xf2, 0xf6, 0x11, 0xed, 0xc4, 0x17, 0xdb, 0xfc, 0x27, 0xee, 0xdf,
  0x14, 0x06, 0xef, 0xfc, 0x03, 0x33, 0xfd, 0xed, 0xe5, 0x06, 0x1e, 0xff,
  0xf8, 0x25, 0xfd, 0xe7, 0xfd, 0x1b, 0xe7, 0x05, 0x08, 0x3f, 0x1f, 0x4f,
  0x07, 0x1f, 0xd1, 0x47, 0x12, 0xc0, 0xdf, 0x04, 0x13, 0xf8, 0xfc, 0x16,
  0x0f, 0xd6, 0xf1, 0xf7, 0x1d, 0xcb, 0x37, 0xff, 0xf2, 0xa6, 0x08, 0x15,
  0x0f, 0xa8, 0x31, 0xe3, 0xf1, 0xca, 0x06, 0xf4, 0x0a, 0xfb, 0x0e, 0xe1,
  0x07, 0x44, 0x23, 0xf7, 0xfd, 0x3c, 0xdb, 0x16, 0x0a, 0x48, 0xe6, 0xfb,
  0xf6, 0xff, 0xe6, 0xf6, 0x0a, 0x21, 0x03, 0xf2, 0x03, 0x2d, 0xd4, 0x40,
  0x1a, 0x1e, 0x0d, 0x3a, 0xf9, 0xf7, 0xfc, 0x50, 0xe2, 0xbe, 0x27, 0x4b,
  0x20, 0xa5, 0x09, 0x14, 0xfb, 0xe6, 0xf4, 0xf5, 0x02, 0xbe, 0x22, 0x02,
  0x08, 0xe0, 0x35, 0x15, 0x06, 0xd1, 0x23, 0xfc, 0xf9, 0xe0, 0x0e, 0x16,
  0xf5, 0xfe, 0x0f, 0xfa, 0xfd, 0x0d, 0x05, 0xf6, 0x12, 0x47, 0x01, 0x0b,
  0x02, 0x26, 0xee, 0x11, 0x02, 0xdf, 0xd3, 0xf8, 0x18, 0x05, 0x02, 0xfe,
  0x1f, 0x02, 0xe8, 0x01, 0xfd, 0x20, 0x19, 0x0f, 0x0d, 0xed, 0xdd, 0x28,
  0x13, 0xc7, 0x31, 0x4a, 0xe9, 0x88, 0xf4, 0xe8, 0xf1, 0xba, 0x0e, 0xe8,
  0x1b, 0x9a, 0x18, 0x33, 0xf0, 0xc9, 0x1b, 0xe0, 0xf9, 0xa6, 0x1e, 0xf5,
  0xf5, 0xdd, 0xfc, 0x32, 0x00, 0xcb, 0x30, 0xf8, 0x0c, 0xfb, 0xf2, 0xe5,
  0xee, 0x4f, 0x04, 0x23, 0xf6, 0x04, 0x03, 0x1a, 0xfe, 0xd9, 0xac, 0xd2,
  0x02, 0x08, 0xdd, 0xf7, 0xe6, 0x11, 0xd5, 0x13, 0x1b, 0xf0, 0x05, 0x00,
  0x18, 0x1e, 0x1e, 0x28, 0x1c, 0x9c, 0x15, 0x23, 0xed, 0x92, 0x08, 0x09,
  0x00, 0x9c, 0xfa, 0xf1, 0x02, 0xa9, 0x44, 0x0b, 0xfa, 0xaa, 0x48, 0xf6,
  0xff, 0xc6, 0x57, 0xef, 0xfd, 0xbc, 0xfe, 0x08, 0x09, 0xe7, 0x3b, 0xfe,
  0xf4, 0xbf, 0xf4, 0x00, 0xfc, 0x48, 0x2f, 0x23, 0x03, 0x04, 0x11, 0x0a,
  0xff, 0xb5, 0xab, 0xe5, 0xfc, 0xf0, 0xdf, 0x05, 0xfc, 0xf0, 0xc6, 0xfe,
  0x0a, 0xee, 0x10, 0x0e, 0x03, 0xfe, 0x24, 0x3c, 0x12, 0x92, 0x41, 0x46,
  0xf8, 0xb1, 0x13, 0xfd, 0xe2, 0x96, 0x05, 0xe5, 0x0b, 0x99, 0x2b, 0x21,
  0xe2, 0xdc, 0x33, 0xcd, 0xf4, 0xe1, 0x44, 0x13, 0x05, 0x8c, 0x05, 0x0b,
  0xe5, 0xee, 0x0b, 0x01, 0xee, 0xc3, 0x13, 0xae, 0xfe, 0x31, 0x36, 0x1b,
  0xfe, 0xc6, 0x10, 0x06, 0xf3, 0x0f, 0x54, 0x16, 0x09, 0xb2, 0x27, 0xe2,
  0x0e, 0xff, 0x3f, 0x1c, 0x14, 0xb5, 0x0f, 0x0d, 0x07, 0xd2, 0x39, 0x0f,
  0x19, 0xb6, 0x1b, 0x1d, 0x09, 0xe7, 0x25, 0x2c, 0x19, 0x0c, 0x26, 0x1e,
  0xf5, 0x07, 0xfe, 0x19, 0x07, 0xae, 0xfc, 0xef, 0x04, 0xc0, 0xdf, 0xff,
  0x0d, 0xec, 0xe5, 0x09, 0x10, 0xdc, 0xd3, 0xf5, 0x0e, 0x0a, 0x0e, 0x17,
  0x04, 0xa7, 0xd5, 0x08, 0xf0, 0xb2, 0x09, 0xfc, 0x0b, 0xea, 0x2c, 0x0d,
  0x0f, 0x9d, 0x0e, 0xe3, 0xf6, 0xea, 0x29, 0x08, 0x15, 0xcc, 0x0b, 0x00,
  0xfe, 0xf3, 0x32, 0x49, 0x13, 0xc7, 0xf7, 0x09, 0x07, 0xdc, 0x11, 0x27,
  0x1c, 0x2f, 0xf7, 0x2a, 0x03, 0xf7, 0xe8, 0x1f, 0x1a, 0xd8, 0x0a, 0xcb,
  0xf1, 0xc5, 0xe0, 0x10, 0x04, 0xda, 0xf9, 0x00, 0x0c, 0xe7, 0xe8, 0x0d,
  0x1e, 0x0b, 0xfb, 0x34, 0x08, 0xba, 0x0a, 0x33, 0x06, 0xc1, 0x27, 0x00,
  0x01, 0x06, 0x37, 0x02, 0x10, 0xb6, 0x16, 0xf3, 0x00, 0x13, 0x2a, 0x17,
  0xfb, 0xfd, 0x08, 0x00, 0x04, 0x1d, 0x3c, 0x3e, 0x18, 0xeb, 0xf5, 0x17,
  0xff, 0xef, 0x32, 0x0f, 0x10, 0x13, 0x1e, 0x12, 0x0b, 0xf1, 0xef, 0x0d,
  0x03, 0xd6, 0x06, 0xbf, 0x00, 0xda, 0xde, 0x06, 0x17, 0xda, 0x04, 0xe9,
  0x09, 0xe7, 0x0c, 0x1e, 0x08, 0xf0, 0x0c, 0x40, 0x02, 0xcf, 0x2a, 0x2d,
  0x10, 0xd7, 0x28, 0xe8, 0x0a, 0xf2, 0x27, 0xf2, 0x17, 0xe7, 0x0e, 0x04,
  0xff, 0x0e, 0x2d, 0x0b, 0x14, 0xfd, 0x00, 0x07, 0xf3, 0x2f, 0x45, 0x2b,
  0x19, 0x13, 0x1d, 0x1a, 0x01, 0x01, 0x36, 0x02, 0x0c, 0x31, 0x29, 0x10,
  0x04, 0xf7, 0x0d, 0xf7, 0x02, 0xf7, 0x03, 0xcf, 0x0a, 0xe6, 0xee, 0xef,
  0x14, 0x00, 0x10, 0xe6, 0xf5, 0xf0, 0x01, 0x05, 0x12, 0x06, 0x2c, 0x37,
  0x0c, 0xe5, 0x1d, 0x1e, 0x09, 0xe5, 0x17, 0xd6, 0x02, 0xdf, 0xf5, 0x07,
  0xf1, 0xd8, 0x0e, 0x01, 0x10, 0x08, 0xed, 0x27, 0x09, 0xe5, 0x07, 0x21,
  0x04, 0x1b, 0x20, 0x4f, 0xf4, 0x0f, 0x16, 0x2b, 0xff, 0x01, 0x05, 0xdd,
  0x09, 0x10, 0x04, 0x03, 0xfd, 0xf1, 0xf7, 0xe3, 0x0d, 0xe9, 0x07, 0xcd,
  0x01, 0xdf, 0xd1, 0xe8, 0x12, 0xe7, 0x00, 0xd9, 0x05, 0xce, 0xd7, 0x1f,
  0x15, 0xef, 0x54, 0x2d, 0x14, 0xaf, 0xf2, 0x2e, 0xf0, 0xdc, 0x20, 0xe9,
  0x08, 0xd8, 0xf2, 0xe2, 0x0c, 0xd1, 0x15, 0x01, 0xfc, 0x1e, 0x08, 0x06,
  0x19, 0xf0, 0x14, 0x0f, 0x05, 0x3a, 0x21, 0x52, 0x0f, 0xef, 0xf7, 0x1b,
  0xf5, 0x0f, 0x09, 0xd4, 0xfd, 0x15, 0xeb, 0xf1, 0xf7, 0x03, 0x1f, 0xdb,
  0x1b, 0xea, 0x0a, 0xc9, 0x0f, 0x0b, 0xe5, 0xe5, 0x0f, 0xda, 0x0f, 0xd6,
  0xf4, 0xf9, 0xdf, 0xfa, 0x0a, 0x09, 0x44, 0x15, 0x0d, 0xd1, 0x00, 0x13,
  0x07, 0xc7, 0x18, 0xd4, 0x02, 0xd8, 0x04, 0xc1, 0xf6, 0xed, 0x1e, 0x0e,
  0xf3, 0x11, 0x14, 0x0a, 0x0e, 0x23, 0x08, 0x06, 0xfa, 0x42, 0x29, 0x52,
  0x0c, 0x29, 0xf5, 0x07, 0x0c, 0x36, 0x03, 0xed, 0x05, 0x16, 0xf1, 0xf9,
  0x0c, 0x3c, 0x1e, 0xf3, 0x0a, 0xf3, 0x00, 0xc2, 0xf5, 0x18, 0xe0, 0x0e,
  0x09, 0xf8, 0x04, 0xe8, 0xfc, 0xfe, 0xef, 0xe3, 0x0d, 0xfc, 0x35, 0x00,
  0xfc, 0xf8, 0x08, 0xed, 0xf9, 0xcc, 0xe1, 0xc9, 0x00, 0xf8, 0xed, 0xb9,
  0xf7, 0xe2, 0xfa, 0x00, 0xfe, 0x19, 0xf3, 0x02, 0xfe, 0x34, 0xe8, 0xe1,
  0xf5, 0x61, 0x20, 0x3a, 0x0d, 0x51, 0xd9, 0x03, 0xf5, 0x4b, 0xe5, 0xe8,
  0xfd, 0x38, 0xd3, 0xe9, 0x06, 0x3c, 0x12, 0xe5, 0x11, 0xe0, 0xd9, 0xa6,
  0x0b, 0x0f, 0xc3, 0xe6, 0x0f, 0xf5, 0xe2, 0xc5, 0xfc, 0x03, 0xfa, 0xdf,
  0x18, 0xf5, 0x05, 0x0d, 0xee, 0xea, 0x00, 0xee, 0xf7, 0xe7, 0xec, 0xdf,
  0xfb, 0x05, 0xe5, 0xce, 0xf1, 0xe7, 0xe2, 0xfd, 0x00, 0x12, 0xee, 0x15,
  0xf0, 0x50, 0xfd, 0xe7, 0x09, 0x5b, 0x09, 0x37, 0x07, 0x78, 0xda, 0xf0,
  0xfd, 0x63, 0xfa, 0xd2, 0xf6, 0x5d, 0xec, 0xe6, 0x04, 0x47, 0x0d, 0xe2,
  0xec, 0x04, 0x04, 0xb5, 0x0b, 0x15, 0xcd, 0xd1, 0xf9, 0xe5, 0xef, 0xdb,
  0xf8, 0x02, 0x18, 0xc5, 0x01, 0x02, 0xf9, 0xfc, 0xf6, 0xf2, 0x19, 0xc9,
  0xfb, 0xe4, 0xea, 0xda, 0x09, 0xec, 0xe0, 0xf4, 0x00, 0xfd, 0xe5, 0x0d,
  0x02, 0x11, 0xeb, 0x0e, 0xfb, 0x7f, 0xe7, 0xe5, 0xfd, 0x64, 0x1d, 0x4e,
  0xf9, 0x79, 0xf5, 0xf1, 0xfc, 0x5c, 0x0e, 0xf4, 0xfe, 0x67, 0xd3, 0xda,
  0xff, 0x4c, 0x3e, 0x0b, 0x02, 0x35, 0xfd, 0xbb, 0xfa, 0x29, 0xe4, 0xf4,
  0x0e, 0xd6, 0xf3, 0xe6, 0xf6, 0x0e, 0x03, 0xf8, 0xf8, 0xf4, 0xfc, 0xf2,
  0x0c, 0xcb, 0x0f, 0x12, 0xf0, 0xe0, 0x28, 0xf7, 0xfb, 0x30, 0x29, 0x1f,
  0xe8, 0x39, 0x06, 0xf4, 0x02, 0x1c, 0x1a, 0x16, 0xec, 0x1f, 0x21, 0x19,
  0xfe, 0x12, 0xeb, 0xeb, 0xeb, 0xd5, 0x2f, 0x02, 0x11, 0x1c, 0x16, 0x4d,
  0x01, 0x0c, 0x20, 0x30, 0xf4, 0x08, 0x1b, 0x30, 0xf2, 0xd9, 0x34, 0x0c,
  0x0a, 0x15, 0x15, 0x34, 0xe4, 0xdd, 0x13, 0x05, 0x07, 0x34, 0x33, 0x04,
  0xeb, 0xf4, 0x01, 0xf9, 0xf7, 0x47, 0x32, 0x28, 0x00, 0xd9, 0x2c, 0xf6,
  0x03, 0x4a, 0x03, 0xed, 0x00, 0x21, 0x03, 0xfd, 0xfa, 0x3b, 0xe6, 0x19,
  0xeb, 0x15, 0x4f, 0x2b, 0xef, 0x27, 0xdb, 0x0c, 0xf9, 0xfb, 0x20, 0x15,
  0xec, 0x02, 0xd6, 0x2e, 0xdd, 0xf9, 0x2a, 0x20, 0xf3, 0x03, 0xfa, 0x2e,
  0xe8, 0xd7, 0x4e, 0x09, 0x07, 0x23, 0xfc, 0x16, 0x06, 0xe1, 0x0c, 0x07,
  0x08, 0x49, 0x06, 0x2e, 0xfb, 0xda, 0xe7, 0xfa, 0x05, 0x58, 0x43, 0x2c,
  0xe4, 0xce, 0x34, 0xfc, 0x0a, 0x19, 0x39, 0xfd, 0xf6, 0x0a, 0x1c, 0x05,
  0x04, 0x2f, 0x08, 0x1f, 0xfd, 0x10, 0x47, 0x1f, 0x00, 0x0f, 0xd0, 0xfe,
  0x08, 0xe4, 0x37, 0x2b, 0xf3, 0xf8, 0xeb, 0x2b, 0xe8, 0x0a, 0x44, 0x3a,
  0xf6, 0x07, 0xea, 0x51, 0xf1, 0xdc, 0x5e, 0x07, 0x11, 0xfc, 0xf5, 0x29,
  0xed, 0xbf, 0x18, 0xf8, 0xf9, 0x26, 0x01, 0x56, 0xfb, 0xe0, 0xfa, 0xe0,
  0x13, 0x30, 0x13, 0x2b, 0x01, 0xe9, 0x12, 0x12, 0xfa, 0xe5, 0x0a, 0x06,
  0x03, 0x0b, 0x01, 0x0f, 0xef, 0x09, 0x02, 0x26, 0x05, 0x11, 0x47, 0x26,
  0x08, 0xfe, 0x00, 0x08, 0xfb, 0xb2, 0x5c, 0x14, 0xfc, 0xdf, 0x0b, 0x3c,
  0x0b, 0xea, 0x4c, 0x22, 0x06, 0x15, 0x02, 0x54, 0xf4, 0xd9, 0x43, 0x17,
  0xed, 0xff, 0xfc, 0x3e, 0x04, 0xdb, 0x0d, 0x07, 0x01, 0x0c, 0xf1, 0x28,
  0x09, 0x0e, 0xdd, 0x07, 0xf4, 0xfa, 0xfd, 0x26, 0x08, 0x01, 0x0e, 0x05,
  0xf6, 0x04, 0x0d, 0x21, 0x05, 0x1d, 0xf5, 0x1c, 0xfc, 0xf6, 0xe7, 0x24,
  0xfa, 0x35, 0x1a, 0x31, 0x04, 0x24, 0xf3, 0x7f, 0x03, 0xc3, 0x45, 0xff,
  0xf7, 0x05, 0x13, 0x4c, 0x0a, 0xf7, 0x58, 0x12, 0xf7, 0x08, 0x1e, 0x58,
  0xf8, 0xe2, 0x53, 0x08, 0x0d, 0x0d, 0x0a, 0x3f, 0x04, 0xf3, 0xf5, 0xf5,
  0x00, 0x06, 0xec, 0x23, 0xef, 0x22, 0x12, 0x12, 0xf8, 0xfc, 0xe8, 0xfc,
  0xf9, 0x1c, 0x0a, 0x0e, 0xf1, 0xdf, 0xf8, 0xff, 0xf7, 0x12, 0x10, 0x42,
  0x02, 0xeb, 0xdb, 0x2f, 0xf1, 0x27, 0x26, 0x2b, 0xf8, 0x13, 0xf7, 0x72,
  0xf4, 0xbd, 0x50, 0x08, 0xfd, 0x02, 0x0a, 0x4d, 0xe9, 0x01, 0x28, 0x15,
  0x0a, 0x0b, 0x1c, 0x57, 0xf7, 0xfb, 0x60, 0xf5, 0x14, 0xe5, 0x23, 0x31,
  0xf2, 0xde, 0x18, 0x03, 0x0d, 0x07, 0x06, 0x2c, 0xf1, 0x05, 0x27, 0x0a,
  0x0d, 0x05, 0xe9, 0x0b, 0xf8, 0xd2, 0x09, 0xe1, 0x00, 0xe8, 0xed, 0x13,
  0xf8, 0xf4, 0x02, 0x2e, 0xfb, 0xf1, 0xe8, 0x22, 0xfd, 0xfe, 0x1e, 0x1d,
  0x13, 0xe6, 0xe7, 0x62, 0xeb, 0xb1, 0x5d, 0x02, 0xf9, 0xeb, 0x23, 0x2f,
  0xeb, 0xe4, 0x25, 0x10, 0xf7, 0xe4, 0x3a, 0x55, 0xec, 0xea, 0x6d, 0xfb,
  0xfd, 0xe4, 0x0a, 0x16, 0xf8, 0xeb, 0x1c, 0xee, 0xf7, 0x03, 0xec, 0x35,
  0xfc, 0x19, 0x2c, 0xf6, 0x0f, 0xe6, 0xea, 0xfa, 0x07, 0xe2, 0x2c, 0xe1,
  0xf0, 0xeb, 0x05, 0x04, 0x0b, 0xeb, 0x19, 0x21, 0x06, 0xdc, 0xf6, 0xdc,
  0xfc, 0x03, 0x20, 0x0e, 0x06, 0xde, 0x04, 0x40, 0xfc, 0xdc, 0x3e, 0x07,
  0x12, 0xdf, 0x1d, 0x24, 0xe8, 0xeb, 0x22, 0x17, 0x01, 0xe3, 0x27, 0x3b,
  0xf8, 0xfa, 0x4b, 0xf0, 0x04, 0xbc, 0x0e, 0x11, 0x09, 0xfe, 0x22, 0xfd,
  0x0a, 0xf5, 0x0f, 0x27, 0xf5, 0xf6, 0x28, 0xe1, 0xfc, 0xef, 0xf6, 0xe9,
  0x1d, 0xd6, 0x35, 0xf4, 0xf0, 0xf7, 0x1f, 0x11, 0x20, 0xe3, 0xf7, 0x04,
  0xeb, 0xf1, 0x13, 0x01, 0xfc, 0xdb, 0x07, 0x0c, 0xfa, 0xea, 0x2e, 0x3d,
  0xf6, 0xe4, 0x1e, 0xf0, 0xfb, 0xbf, 0x0c, 0x17, 0x05, 0x0a, 0x07, 0x09,
  0x18, 0xd6, 0x25, 0x30, 0xea, 0xed, 0x1c, 0xf3, 0x00, 0xc9, 0x0c, 0xf4,
  0x09, 0xdf, 0xfe, 0xe6, 0x02, 0xf4, 0x25, 0x1a, 0xf9, 0xf1, 0x09, 0xc9,
  0xfd, 0xdd, 0x1e, 0x13, 0x17, 0xc2, 0x2e, 0xe3, 0xf1, 0xde, 0x33, 0xfa,
  0xfe, 0xcf, 0x18, 0x0c, 0xfe, 0xe2, 0x14, 0x15, 0x13, 0xae, 0x09, 0x30,
  0xfd, 0xcb, 0x1e, 0x32, 0xf6, 0xca, 0x3a, 0x14, 0x07, 0x90, 0x3a, 0xf6,
  0xee, 0xf2, 0x20, 0xfa, 0xfc, 0xc4, 0x1f, 0x25, 0xf6, 0x05, 0x3c, 0xd4,
  0x16, 0xac, 0x1a, 0xd8, 0x05, 0xd9, 0x10, 0xe1, 0x01, 0xd4, 0x35, 0x13,
  0x09, 0xcc, 0x05, 0xd8, 0x02, 0xed, 0x38, 0x09, 0x05, 0x29, 0x21, 0xef,
  0x0d, 0xf2, 0x17, 0xfb, 0x0a, 0x3c, 0xe4, 0xb5, 0xf8, 0x0e, 0x2c, 0xd5,
  0x10, 0x3e, 0xfa, 0xae, 0x06, 0x32, 0x31, 0x29, 0x0d, 0x12, 0xcf, 0xf8,
  0xf1, 0x34, 0x36, 0xf4, 0x0e, 0x1e, 0x00, 0x16, 0xed, 0x14, 0x2d, 0xdd,
  0x12, 0xff, 0x01, 0xee, 0x00, 0x2d, 0x1f, 0xc9, 0x25, 0xf2, 0x11, 0xee,
  0x0c, 0x4e, 0x10, 0x20, 0x22, 0x07, 0x1f, 0x02, 0x15, 0x3d, 0x1e, 0x0b,
  0x00, 0x0b, 0x15, 0xef, 0x0f, 0xe2, 0x3e, 0xab, 0x12, 0x23, 0xd2, 0x99,
  0x09, 0x0e, 0x3f, 0xfc, 0xf6, 0x13, 0x13, 0xc0, 0x00, 0x18, 0x31, 0xff,
  0x19, 0x0e, 0xd5, 0x01, 0xff, 0x29, 0x57, 0xec, 0xff, 0x0d, 0x24, 0xff,
  0xf7, 0x0e, 0x3b, 0xd8, 0x10, 0x0f, 0xfd, 0xed, 0x07, 0x36, 0x14, 0xca,
  0x07, 0x03, 0x0c, 0xf0, 0xfe, 0x3d, 0xfd, 0xfc, 0x07, 0x1c, 0x30, 0x1c,
  0x05, 0x3f, 0x13, 0xe7, 0x0f, 0xf8, 0x29, 0xd4, 0x12, 0x0a, 0x21, 0x97,
  0x08, 0x2b, 0xe9, 0xc4, 0x06, 0x1a, 0x45, 0x03, 0x08, 0x12, 0x24, 0x9b,
  0xf7, 0xf0, 0x23, 0xce, 0x10, 0x1e, 0xeb, 0xea, 0x09, 0x0c, 0x16, 0xda,
  0x11, 0x48, 0x15, 0xd5, 0xed, 0xfa, 0xd3, 0x01, 0x22, 0x31, 0x18, 0x00,
  0x06, 0x43, 0xbf, 0xdc, 0xf5, 0x3c, 0x27, 0xe6, 0xfb, 0x0f, 0xde, 0xc0,
  0x11, 0x23, 0x4b, 0x02, 0xf9, 0x28, 0xe3, 0xf7, 0xf8, 0x02, 0xf0, 0xe6,
  0xea, 0x1a, 0xe5, 0xa3, 0x12, 0x3d, 0xe9, 0xce, 0xe9, 0x0e, 0x02, 0x0d,
  0x16, 0x0a, 0xf9, 0x81, 0xf4, 0x04, 0x0d, 0xbb, 0x15, 0x30, 0x05, 0xf6,
  0xfc, 0x39, 0x00, 0xe9, 0x0c, 0x34, 0x13, 0xcc, 0x15, 0xe1, 0xef, 0xce,
  0x0b, 0x1d, 0x0e, 0x18, 0x09, 0x41, 0xd8, 0xd4, 0xfc, 0x45, 0x25, 0xe2,
  0xf6, 0x17, 0xc5, 0x97, 0x00, 0xf9, 0x36, 0xf9, 0xf5, 0x2e, 0xef, 0xe5,
  0x08, 0xf7, 0xee, 0xec, 0xfe, 0x10, 0xf9, 0x17, 0x11, 0x32, 0xd5, 0xd2,
  0xf8, 0x0b, 0x02, 0x18, 0x15, 0xee, 0xfd, 0xad, 0xfa, 0x05, 0x28, 0xee,
  0x0d, 0x0e, 0x9e, 0x03, 0xf5, 0x24, 0x25, 0x0d, 0x0f, 0x06, 0xec, 0xdf,
  0x09, 0xde, 0x01, 0xf3, 0x0e, 0x0a, 0x2a, 0x0e, 0xfb, 0x1c, 0xfd, 0xd0,
  0x0e, 0x2a, 0x13, 0xf9, 0xe7, 0x26, 0xd6, 0xcd, 0xfc, 0xea, 0x00, 0xec,
  0x14, 0x42, 0xe0, 0xdf, 0x08, 0xfb, 0x26, 0xf9, 0x07, 0xe7, 0xec, 0xea,
  0x0b, 0xf6, 0xf2, 0xc9, 0x12, 0xea, 0x0f, 0xd9, 0x0a, 0x02, 0xfa, 0xbc,
  0x05, 0x0b, 0x24, 0xe8, 0x05, 0xe2, 0xe1, 0x14, 0xfc, 0x05, 0x30, 0x03,
  0x0d, 0xd3, 0x04, 0xe3, 0xfb, 0xcd, 0xf7, 0xd4, 0xf3, 0xe5, 0xe5, 0x00,
  0x04, 0xea, 0x1c, 0xfa, 0xfe, 0x40, 0x06, 0x22, 0x02, 0xea, 0xf9, 0xde,
  0xf8, 0x02, 0xe1, 0x01, 0xf9, 0x09, 0xf1, 0xdc, 0x03, 0x13, 0xfc, 0xeb,
  0xf0, 0xed, 0x03, 0xf0, 0xfd, 0x0c, 0xdf, 0xf2, 0xfe, 0xdd, 0xfa, 0xdc,
  0xf4, 0xfb, 0xfe, 0xae, 0x01, 0x08, 0x0a, 0xef, 0x05, 0xd4, 0xe7, 0x11,
  0x04, 0x01, 0x36, 0x00, 0x0b, 0xd6, 0x22, 0xf9, 0xfe, 0xe1, 0x10, 0xcf,
  0x1a, 0xf0, 0x02, 0xde, 0x03, 0xc3, 0xfd, 0xf6, 0x0a, 0xf6, 0x17, 0x16,
  0xf9, 0xce, 0x06, 0xe0, 0xf8, 0xfb, 0xe5, 0x25, 0x08, 0xf9, 0x1b, 0xd0,
  0xf7, 0x11, 0x1a, 0xe5, 0x08, 0xe6, 0x12, 0xfe, 0x0a, 0x26, 0xd4, 0xf8,
  0x13, 0xd6, 0xfc, 0xf5, 0x03, 0xfc, 0x0e, 0xc4, 0xe9, 0x08, 0x04, 0xf0,
  0x13, 0xf0, 0xef, 0x1c, 0xf4, 0x0d, 0x2d, 0xed, 0x01, 0xd8, 0x18, 0x00,
  0xf6, 0xde, 0x14, 0xd4, 0x02, 0xca, 0xfc, 0xc1, 0x0c, 0xc6, 0x35, 0xee,
  0x0c, 0xe4, 0x12, 0x2e, 0xf2, 0xcf, 0xf9, 0xce, 0xfa, 0xf5, 0x14, 0x30,
  0x00, 0xe5, 0x11, 0xda, 0x0a, 0x1d, 0x11, 0xe6, 0x0a, 0xed, 0x01, 0x0a,
  0x1f, 0x20, 0xf3, 0x07, 0x07, 0xff, 0xf3, 0xea, 0x10, 0x0d, 0x30, 0xab,
  0xf6, 0xf5, 0xb9, 0x09, 0x13, 0x00, 0xdd, 0xfb, 0xfc, 0xfa, 0xf0, 0x10,
  0x17, 0xe5, 0x32, 0x03, 0xf9, 0xc3, 0xe8, 0xea, 0x14, 0xe5, 0xfa, 0xd8,
  0x0b, 0xd2, 0xf2, 0x03, 0x12, 0xd8, 0x08, 0x24, 0x05, 0xe1, 0xe0, 0xd5,
  0x0c, 0xdf, 0xf4, 0x33, 0x04, 0xee, 0xde, 0xd0, 0x00, 0x06, 0xf3, 0xcb,
  0x0a, 0xd1, 0x03, 0x16, 0x0e, 0x31, 0x19, 0xfc, 0x14, 0x05, 0xcf, 0xe6,
  0x07, 0x1d, 0x1c, 0x8f, 0x09, 0xd3, 0x90, 0xff, 0x13, 0x29, 0xfd, 0x00,
  0xef, 0xd0, 0xc0, 0x01, 0x19, 0xed, 0x10, 0x07, 0xfa, 0xaf, 0xb1, 0xb9,
  0x10, 0xef, 0xc4, 0xeb, 0xf9, 0xb9, 0xc7, 0xfa, 0x22, 0xf0, 0xf8, 0x3f,
  0xff, 0xf4, 0xca, 0xdc, 0x0f, 0xf1, 0xfb, 0x2e, 0xf5, 0xd5, 0xce, 0xcb,
  0x4c, 0xf7, 0xff, 0xff, 0xaa, 0xfa, 0xff, 0xff, 0x04, 0x00, 0x00, 0x00,
  0x80, 0x02, 0x00, 0x00, 0xde, 0xb5, 0x09, 0x13, 0x8c, 0xe6, 0x4d, 0x0b,
  0xee, 0x15, 0xfe, 0x16, 0x8a, 0xf2, 0xf1, 0x2c, 0xeb, 0xf8, 0x49, 0xf3,
  0x88, 0x03, 0x62, 0x3d, 0xfc, 0x36, 0x07, 0xfc, 0x1e, 0x06, 0xde, 0x1b,
  0xc7, 0xf2, 0xef, 0x20, 0x15, 0xd6, 0x4f, 0xc2, 0xd9, 0x0a, 0xea, 0xea,
  0xea, 0x0d, 0xc3, 0xc7, 0xad, 0xe5, 0x33, 0xdc, 0xc8, 0xda, 0x28, 0x1f,
  0xd4, 0xf8, 0xfd, 0x0a, 0xf1, 0xe8, 0xd7, 0xf3, 0xba, 0xad, 0x33, 0xf3,
  0x73, 0xdf, 0x3d, 0xf4, 0xe2, 0x37, 0x4a, 0xf2, 0x28, 0xfc, 0xc1, 0xdb,
  0xdf, 0x0f, 0x64, 0x00, 0x7f, 0xed, 0x6e, 0x10, 0x0c, 0x34, 0x0a, 0x29,
  0x0d, 0x09, 0xb6, 0x1c, 0xb9, 0xe1, 0xf2, 0x20, 0x00, 0xd0, 0x45, 0xe3,
  0xc4, 0x0f, 0xf6, 0xe2, 0x2c, 0xed, 0xb1, 0xd3, 0xb4, 0xd9, 0x30, 0xd7,
  0x26, 0xcb, 0x2c, 0x11, 0xc1, 0x07, 0x0a, 0x15, 0xe5, 0xf8, 0xc5, 0xe6,
  0xca, 0xb7, 0x42, 0x05, 0xdc, 0xe8, 0x48, 0xdf, 0xcf, 0x2a, 0x69, 0xf5,
  0x41, 0xfb, 0xcf, 0xcd, 0xc1, 0x10, 0x61, 0x10, 0x13, 0x17, 0x63, 0xf3,
  0xd3, 0x4f, 0x09, 0x27, 0x7e, 0x1c, 0xda, 0xfc, 0xc3, 0xf1, 0xcc, 0x09,
  0x33, 0xf0, 0x54, 0xf8, 0xe4, 0x24, 0xe9, 0xf6, 0xd5, 0xf8, 0xdb, 0xb0,
  0xaa, 0xcc, 0x2c, 0xd0, 0x05, 0xf0, 0x33, 0x13, 0xb0, 0x01, 0x23, 0x0a,
  0x16, 0x07, 0xd7, 0xeb, 0x03, 0x9d, 0x15, 0x0a, 0x30, 0xe5, 0x32, 0xde,
  0xe8, 0x23, 0x42, 0xfc, 0xec, 0xf4, 0xab, 0xbc, 0xdc, 0xed, 0x2b, 0x0f,
  0x24, 0xfe, 0x5d, 0x2b, 0xf5, 0x44, 0xed, 0x2d, 0x0a, 0x2e, 0xb6, 0x19,
  0x01, 0xe8, 0xa2, 0xf3, 0x06, 0x0f, 0x42, 0x20, 0xec, 0x1e, 0xcd, 0xe0,
  0xdb, 0xed, 0xb4, 0xaf, 0xd7, 0xb6, 0x0f, 0xee, 0xd7, 0xe9, 0x23, 0x27,
  0xcd, 0x07, 0x16, 0x03, 0x2f, 0x0d, 0xa6, 0xef, 0x08, 0x81, 0xd8, 0xee,
  0xc8, 0xef, 0x3b, 0x06, 0xfe, 0x17, 0xfa, 0xf3, 0x03, 0x05, 0xc7, 0xc6,
  0xfd, 0xcc, 0xeb, 0x2c, 0x69, 0x0c, 0x6f, 0x2e, 0x0f, 0x34, 0xc7, 0x27,
  0x40, 0x48, 0xd2, 0x62, 0xeb, 0xe1, 0x81, 0xdc, 0xbd, 0x01, 0x54, 0x6c,
  0xd9, 0x21, 0xc2, 0xbd, 0xb6, 0xed, 0xde, 0xdd, 0xf0, 0xb8, 0xf6, 0xf5,
  0xed, 0xe6, 0x1b, 0x35, 0xc9, 0x06, 0xef, 0x19, 0x23, 0xff, 0xb2, 0x13,
  0x01, 0xb0, 0xe1, 0xdf, 0x0f, 0xfe, 0x31, 0x0f, 0x22, 0x30, 0xc7, 0xfa,
  0x00, 0xe9, 0xe0, 0xfe, 0xfd, 0xd1, 0xe6, 0x20, 0x74, 0x10, 0x59, 0x4c,
  0x3b, 0x49, 0xca, 0x3b, 0xe7, 0x5d, 0xe1, 0x7f, 0xe6, 0xd4, 0xaf, 0xf2,
  0x21, 0x0d, 0x57, 0x74, 0xfd, 0x15, 0xcd, 0xae, 0x59, 0xfd, 0xd7, 0xed,
  0xd9, 0xc0, 0xf5, 0x02, 0xea, 0xf0, 0x28, 0x35, 0xe1, 0x2a, 0xde, 0x08,
  0xf3, 0x00, 0xbb, 0x0f, 0x12, 0xd0, 0x19, 0xd5, 0xfe, 0x00, 0x2d, 0x00,
  0x28, 0x51, 0xd9, 0xd0, 0xf1, 0x02, 0xe3, 0xe2, 0x22, 0xd8, 0xed, 0x21,
  0xe2, 0x0f, 0x41, 0x06, 0x45, 0x49, 0xc8, 0x68, 0x29, 0x6c, 0xdd, 0x73,
  0x1c, 0xe1, 0xd0, 0xfb, 0x1f, 0x0d, 0x3e, 0x52, 0xf6, 0x27, 0xe6, 0xa2,
  0xda, 0x0a, 0xe4, 0xd0, 0xf7, 0xd1, 0x21, 0xf8, 0xcd, 0xeb, 0x1c, 0x1a,
  0x28, 0x3d, 0xf3, 0x1f, 0xa7, 0xf7, 0xc1, 0x0d, 0x3e, 0xbc, 0x20, 0xef,
  0x47, 0xf6, 0x21, 0xf4, 0x4d, 0x2f, 0xfb, 0xd6, 0x04, 0x0f, 0xeb, 0xda,
  0x23, 0xe2, 0x13, 0x11, 0xd3, 0x12, 0x52, 0xd9, 0x63, 0x4c, 0xd8, 0x45,
  0xfb, 0x5f, 0xf3, 0x36, 0x21, 0xde, 0xea, 0xe6, 0xb9, 0x16, 0x54, 0x0c,
  0x2c, 0x27, 0x0d, 0x81, 0xac, 0x1e, 0x04, 0xc4, 0xf3, 0xe2, 0x3c, 0x22,
  0xa8, 0xed, 0x0f, 0xeb, 0x44, 0x48, 0x0a, 0x40, 0xce, 0xf1, 0xe6, 0xee,
  0x09, 0x92, 0x03, 0xf7, 0xdf, 0xf4, 0x36, 0xf0, 0x3d, 0x19, 0xef, 0x24,
  0x21, 0x22, 0xfb, 0xc5, 0x07, 0x9d, 0x30, 0x2c, 0x3b, 0x1c, 0x5f, 0xcb,
  0x65, 0x2c, 0xf5, 0xd7, 0x28, 0x7f, 0x01, 0x0d, 0x08, 0xca, 0x08, 0xa0,
  0x19, 0x30, 0x7f, 0x07, 0x00, 0x01, 0x12, 0x9b, 0x03, 0x37, 0x1c, 0xb0,
  0xfa, 0xa9, 0x3f, 0x39, 0x24, 0xfe, 0x2a, 0xf0, 0x3b, 0x2e, 0xef, 0x7d,
  0x24, 0xfb, 0xf4, 0xe8, 0x1a, 0xa6, 0xf9, 0xf6, 0xe9, 0x03, 0x14, 0x1d,
  0x43, 0xfc, 0xe2, 0x20, 0x1d, 0x12, 0xf7, 0xd3, 0x11, 0xae, 0x3e, 0x13,
  0xab, 0x23, 0x37, 0xec, 0x7f, 0x1c, 0xf7, 0xc1, 0x8a, 0x64, 0x1a, 0x06,
  0xff, 0xc4, 0x0b, 0xb1, 0xaa, 0x3d, 0x70, 0x08, 0x04, 0xe7, 0xfa, 0xe9,
  0x43, 0x31, 0x58, 0xc1, 0x03, 0xa2, 0x26, 0x32, 0xed, 0x0c, 0x3f, 0xef,
  0x46, 0x07, 0xe3, 0x61, 0xf2, 0xfe, 0x34, 0xf7, 0x36, 0xfd, 0xff, 0xff,
  0x04, 0x00, 0x00, 0x00, 0x10, 0x00, 0x00, 0x00, 0xff, 0xff, 0xff, 0xff,
  0x31, 0x00, 0x00, 0x00, 0x28, 0x00, 0x00, 0x00, 0x01, 0x00, 0x00, 0x00,
  0xf8, 0xf9, 0xff, 0xff, 0xfc, 0xf9, 0xff, 0xff, 0x00, 0xfa, 0xff, 0xff,
  0x5e, 0xfd, 0xff, 0xff, 0x04, 0x00, 0x00, 0x00, 0x20, 0x00, 0x00, 0x00,
  0xff, 0xff, 0xff, 0xff, 0x95, 0x00, 0x00, 0x00, 0xc5, 0x03, 0x00, 0x00,
  0xb8, 0x01, 0x00, 0x00, 0x00, 0x00, 0x00, 0x00, 0x55, 0x00, 0x00, 0x00,
  0x8b, 0xff, 0xff, 0xff, 0x8e, 0x04, 0x00, 0x00, 0x8a, 0xfd, 0xff, 0xff,
  0x04, 0x00, 0x00, 0x00, 0xc0, 0x00, 0x00, 0x00, 0x2c, 0x08, 0x20, 0xf7,
  0x18, 0x15, 0x11, 0x05, 0x0e, 0xfa, 0xf4, 0xfa, 0xe9, 0xf8, 0xeb, 0x02,
  0xfa, 0xe3, 0x3b, 0x00, 0x01, 0xf6, 0x23, 0xfc, 0xed, 0xcc, 0xed, 0x4d,
  0xe8, 0x30, 0xf1, 0x0e, 0x14, 0x04, 0x1c, 0xf4, 0xa8, 0xe9, 0xc9, 0x41,
  0x0d, 0x0b, 0x00, 0x45, 0xf7, 0x23, 0xf5, 0x0e, 0x58, 0x8c, 0xa6, 0x4c,
  0x3e, 0x74, 0xf4, 0x04, 0x09, 0x3f, 0xd2, 0x19, 0x19, 0x68, 0xab, 0x33,
  0x9f, 0x79, 0x9e, 0x0b, 0x20, 0x1b, 0xb2, 0xd4, 0x10, 0xfd, 0xde, 0xf9,
  0xe2, 0x10, 0xee, 0x13, 0xec, 0x0a, 0x16, 0x03, 0xdf, 0x07, 0xf8, 0xd5,
  0xdd, 0xff, 0x06, 0x0d, 0xeb, 0x17, 0xf9, 0xc5, 0xda, 0xf3, 0xe2, 0x0a,
  0xe5, 0xe9, 0xf1, 0x00, 0xf4, 0x00, 0x0d, 0x01, 0x18, 0x14, 0x11, 0xf3,
  0x05, 0x1a, 0xc0, 0xff, 0xfb, 0x0a, 0xd8, 0x05, 0x18, 0x38, 0x1e, 0xae,
  0x16, 0xc9, 0x0d, 0xf1, 0xec, 0x01, 0xe4, 0x06, 0x52, 0x10, 0x33, 0xbe,
  0xf8, 0xf3, 0x06, 0xb7, 0x11, 0xdf, 0x0d, 0xf4, 0xa7, 0x72, 0x58, 0xb4,
  0xc1, 0x8e, 0x0c, 0x05, 0xf7, 0xc1, 0x32, 0xe3, 0xe7, 0x9b, 0x55, 0xc7,
  0x65, 0x81, 0x5d, 0xf4, 0xde, 0xe5, 0x4c, 0x2b, 0xf3, 0x02, 0x19, 0xfd,
  0x1a, 0xeb, 0x18, 0xea, 0x1e, 0xf8, 0xee, 0x06, 0x1b, 0xf5, 0xff, 0x2d,
  0x22, 0x06, 0xf4, 0xf3, 0x16, 0xef, 0xff, 0x40, 0x56, 0xfe, 0xff, 0xff,
  0x04, 0x00, 0x00, 0x00, 0x08, 0x00, 0x00, 0x00, 0x84, 0xfe, 0xff, 0xff,
  0x7c, 0x01, 0x00, 0x00, 0x10, 0xfb, 0xff, 0xff, 0x0f, 0x00, 0x00, 0x00,
  0x54, 0x4f, 0x43, 0x4f, 0x20, 0x43, 0x6f, 0x6e, 0x76, 0x65, 0x72, 0x74,
  0x65, 0x64, 0x2e, 0x00, 0x01, 0x00, 0x00, 0x00, 0x04, 0x00, 0x00, 0x00,
  0x98, 0xf9, 0xff, 0xff, 0xb8, 0x01, 0x00, 0x00, 0xac, 0x01, 0x00, 0x00,
  0xa0, 0x01, 0x00, 0x00, 0x04, 0x00, 0x00, 0x00, 0x05, 0x00, 0x00, 0x00,
  0x44, 0x01, 0x00, 0x00, 0xdc, 0x00, 0x00, 0x00, 0x90, 0x00, 0x00, 0x00,
  0x48, 0x00, 0x00, 0x00, 0x04, 0x00, 0x00, 0x00, 0xce, 0xff, 0xff, 0xff,
  0x00, 0x00, 0x00, 0x09, 0x04, 0x00, 0x00, 0x00, 0x1c, 0x00, 0x00, 0x00,
  0x10, 0x00, 0x00, 0x00, 0x04, 0x00, 0x00, 0x00, 0xce, 0xfe, 0xff, 0xff,
  0x00, 0x00, 0x80, 0x3f, 0x01, 0x00, 0x00, 0x00, 0x0b, 0x00, 0x00, 0x00,
  0x01, 0x00, 0x00, 0x00, 0x08, 0x00, 0x00, 0x00, 0x00, 0x00, 0x0e, 0x00,
  0x18, 0x00, 0x08, 0x00, 0x0c, 0x00, 0x10, 0x00, 0x07, 0x00, 0x14, 0x00,
  0x0e, 0x00, 0x00, 0x00, 0x00, 0x00, 0x00, 0x08, 0x02, 0x00, 0x00, 0x00,
  0x18, 0x00, 0x00, 0x00, 0x0c, 0x00, 0x00, 0x00, 0x04, 0x00, 0x00, 0x00,
  0xb4, 0xfb, 0xff, 0xff, 0x01, 0x00, 0x00, 0x00, 0x08, 0x00, 0x00, 0x00,
  0x03, 0x00, 0x00, 0x00, 0x04, 0x00, 0x00, 0x00, 0x09, 0x00, 0x00, 0x00,
  0x02, 0x00, 0x00, 0x00, 0x00, 0x00, 0x0e, 0x00, 0x14, 0x00, 0x00, 0x00,
  0x08, 0x00, 0x0c, 0x00, 0x07, 0x00, 0x10, 0x00, 0x0e, 0x00, 0x00, 0x00,
  0x00, 0x00, 0x00, 0x01, 0x30, 0x00, 0x00, 0x00, 0x24, 0x00, 0x00, 0x00,
  0x10, 0x00, 0x00, 0x00, 0x0c, 0x00, 0x10, 0x00, 0x00, 0x00, 0x08, 0x00,
  0x0c, 0x00, 0x07, 0x00, 0x0c, 0x00, 0x00, 0x00, 0x00, 0x00, 0x00, 0x01,
  0x08, 0x00, 0x00, 0x00, 0x08, 0x00, 0x00, 0x00, 0x01, 0x00, 0x00, 0x00,
  0x04, 0x00, 0x00, 0x00, 0x03, 0x00, 0x00, 0x00, 0x03, 0x00, 0x00, 0x00,
  0x0c, 0x00, 0x00, 0x00, 0x00, 0x00, 0x00, 0x00, 0xaa, 0xff, 0xff, 0xff,
  0x00, 0x00, 0x00, 0x02, 0x01, 0x00, 0x00, 0x00, 0x38, 0x00, 0x00, 0x00,
  0x2c, 0x00, 0x00, 0x00, 0x14, 0x00, 0x00, 0x00, 0x00, 0x00, 0x0e, 0x00,
  0x14, 0x00, 0x00, 0x00, 0x08, 0x00, 0x0c, 0x00, 0x10, 0x00, 0x07, 0x00,
  0x0e, 0x00, 0x00, 0x00, 0x00, 0x00, 0x00, 0x01, 0x02, 0x00, 0x00, 0x00,
  0x02, 0x00, 0x00, 0x00, 0x08, 0x00, 0x00, 0x00, 0x01, 0x00, 0x00, 0x00,
  0x03, 0x00, 0x00, 0x00, 0x03, 0x00, 0x00, 0x00, 0x06, 0x00, 0x00, 0x00,
  0x0a, 0x00, 0x00, 0x00, 0x01, 0x00, 0x00, 0x00, 0x00, 0x00, 0x0e, 0x00,
  0x1a, 0x00, 0x08, 0x00, 0x0c, 0x00, 0x10, 0x00, 0x07, 0x00, 0x14, 0x00,
  0x0e, 0x00, 0x00, 0x00, 0x00, 0x00, 0x00, 0x11, 0x03, 0x00, 0x00, 0x00,
  0x38, 0x00, 0x00, 0x00, 0x2c, 0x00, 0x00, 0x00, 0x0c, 0x00, 0x00, 0x00,
  0x00, 0x00, 0x06, 0x00, 0x08, 0x00, 0x04, 0x00, 0x06, 0x00, 0x00, 0x00,
  0x04, 0x00, 0x00, 0x00, 0x04, 0x00, 0x00, 0x00, 0xff, 0xff, 0xff, 0xff,
  0x31, 0x00, 0x00, 0x00, 0x28, 0x00, 0x00, 0x00, 0x01, 0x00, 0x00, 0x00,
  0x01, 0x00, 0x00, 0x00, 0x06, 0x00, 0x00, 0x00, 0x02, 0x00, 0x00, 0x00,
  0x05, 0x00, 0x00, 0x00, 0x07, 0x00, 0x00, 0x00, 0x01, 0x00, 0x00, 0x00,
  0x0b, 0x00, 0x00, 0x00, 0x01, 0x00, 0x00, 0x00, 0x05, 0x00, 0x00, 0x00,
  0x0d, 0x00, 0x00, 0x00, 0x10, 0x06, 0x00, 0x00, 0x58, 0x05, 0x00, 0x00,
  0x04, 0x05, 0x00, 0x00, 0x84, 0x04, 0x00, 0x00, 0x0c, 0x04, 0x00, 0x00,
  0x98, 0x03, 0x00, 0x00, 0x1c, 0x03, 0x00, 0x00, 0xdc, 0x02, 0x00, 0x00,
  0x6c, 0x02, 0x00, 0x00, 0x00, 0x02, 0x00, 0x00, 0x2c, 0x01, 0x00, 0x00,
  0xc0, 0x00, 0x00, 0x00, 0x04, 0x00, 0x00, 0x00, 0x32, 0xfa, 0xff, 0xff,
  0x00, 0x00, 0x00, 0x09, 0x9c, 0x00, 0x00, 0x00, 0x0a, 0x00, 0x00, 0x00,
  0x7c, 0x00, 0x00, 0x00, 0x04, 0x00, 0x00, 0x00, 0x24, 0xfa, 0xff, 0xff,
  0x4c, 0x00, 0x00, 0x00, 0x04, 0x00, 0x00, 0x00, 0x08, 0x00, 0x00, 0x00,
  0x00, 0x00, 0x00, 0x00, 0x00, 0x00, 0x00, 0x00, 0x00, 0x00, 0x00, 0x00,
  0x00, 0x00, 0x00, 0x00, 0x00, 0x00, 0x00, 0x00, 0x00, 0x00, 0x00, 0x00,
  0x00, 0x00, 0x00, 0x00, 0x00, 0x00, 0x00, 0x00, 0x00, 0x00, 0x00, 0x00,
  0x00, 0x00, 0x00, 0x00, 0x00, 0x00, 0x00, 0x00, 0x00, 0x00, 0x00, 0x00,
  0x00, 0x00, 0x00, 0x00, 0x00, 0x00, 0x00, 0x00, 0x00, 0x00, 0x00, 0x00,
  0x00, 0x00, 0x00, 0x00, 0x08, 0x00, 0x00, 0x00, 0x1c, 0xce, 0x87, 0x3a,
  0xf7, 0x4d, 0x6f, 0x3a, 0xa7, 0xc1, 0x86, 0x3a, 0xcf, 0x71, 0xa0, 0x3a,
  0xaa, 0xf1, 0x20, 0x3a, 0xfb, 0xd4, 0x8d, 0x3a, 0x34, 0xf0, 0x55, 0x3a,
  0xe0, 0xd9, 0x47, 0x3a, 0x13, 0x00, 0x00, 0x00, 0x73, 0x65, 0x63, 0x6f,
  0x6e, 0x64, 0x5f, 0x77, 0x65, 0x69, 0x67, 0x68, 0x74, 0x73, 0x2f, 0x72,
  0x65, 0x61, 0x64, 0x00, 0x04, 0x00, 0x00, 0x00, 0x08, 0x00, 0x00, 0x00,
  0x0a, 0x00, 0x00, 0x00, 0x08, 0x00, 0x00, 0x00, 0x08, 0x00, 0x00, 0x00,
  0xea, 0xfa, 0xff, 0xff, 0x00, 0x00, 0x00, 0x09, 0x44, 0x00, 0x00, 0x00,
  0x0b, 0x00, 0x00, 0x00, 0x28, 0x00, 0x00, 0x00, 0x04, 0x00, 0x00, 0x00,
  0xdc, 0xfa, 0xff, 0xff, 0x14, 0x00, 0x00, 0x00, 0x04, 0x00, 0x00, 0x00,
  0x01, 0x00, 0x00, 0x00, 0x80, 0xff, 0xff, 0xff, 0xff, 0xff, 0xff, 0xff,
  0x01, 0x00, 0x00, 0x00, 0x00, 0x00, 0x80, 0x3b, 0x0e, 0x00, 0x00, 0x00,
  0x6c, 0x61, 0x62, 0x65, 0x6c, 0x73, 0x5f, 0x73, 0x6f, 0x66, 0x74, 0x6d,
  0x61, 0x78, 0x00, 0x00, 0x02, 0x00, 0x00, 0x00, 0x01, 0x00, 0x00, 0x00,
  0x02, 0x00, 0x00, 0x00, 0x00, 0x00, 0x0e, 0x00, 0x1a, 0x00, 0x08, 0x00,
  0x07, 0x00, 0x0c, 0x00, 0x10, 0x00, 0x14, 0x00, 0x0e, 0x00, 0x00, 0x00,
  0x00, 0x00, 0x00, 0x09, 0xb4, 0x00, 0x00, 0x00, 0x08, 0x00, 0x00, 0x00,
  0x94, 0x00, 0x00, 0x00, 0x18, 0x00, 0x00, 0x00, 0x00, 0x00, 0x12, 0x00,
  0x10, 0x00, 0x00, 0x00, 0x00, 0x00, 0x04, 0x00, 0x08, 0x00, 0x00, 0x00,
  0x00, 0x00, 0x0c, 0x00, 0x12, 0x00, 0x00, 0x00, 0x50, 0x00, 0x00, 0x00,
  0x08, 0x00, 0x00, 0x00, 0x03, 0x00, 0x00, 0x00, 0x08, 0x00, 0x00, 0x00,
  0x00, 0x00, 0x00, 0x00, 0x00, 0x00, 0x00, 0x00, 0x00, 0x00, 0x00, 0x00,
  0x00, 0x00, 0x00, 0x00, 0x00, 0x00, 0x00, 0x00, 0x00, 0x00, 0x00, 0x00,
  0x00, 0x00, 0x00, 0x00, 0x00, 0x00, 0x00, 0x00, 0x00, 0x00, 0x00, 0x00,
  0x00, 0x00, 0x00, 0x00, 0x00, 0x00, 0x00, 0x00, 0x00, 0x00, 0x00, 0x00,
  0x00, 0x00, 0x00, 0x00, 0x00, 0x00, 0x00, 0x00, 0x00, 0x00, 0x00, 0x00,
  0x00, 0x00, 0x00, 0x00, 0x08, 0x00, 0x00, 0x00, 0x4b, 0x8a, 0x15, 0x3a,
  0xb2, 0x52, 0xc4, 0x3a, 0xc4, 0x4c, 0xfb, 0x3a, 0xe8, 0xe3, 0x0a, 0x3b,
  0x88, 0xbe, 0x63, 0x39, 0xf2, 0xc2, 0xb2, 0x3a, 0xf6, 0x1a, 0xb2, 0x3a,
  0x2f, 0x94, 0x0a, 0x3b, 0x12, 0x00, 0x00, 0x00, 0x66, 0x69, 0x72, 0x73,
  0x74, 0x5f, 0x77, 0x65, 0x69, 0x67, 0x68, 0x74, 0x73, 0x2f, 0x72, 0x65,
  0x61, 0x64, 0x00, 0x00, 0x04, 0x00, 0x00, 0x00, 0x01, 0x00, 0x00, 0x00,
  0x0a, 0x00, 0x00, 0x00, 0x08, 0x00, 0x00, 0x00, 0x08, 0x00, 0x00, 0x00,
  0x22, 0xfc, 0xff, 0xff, 0x00, 0x00, 0x00, 0x09, 0x54, 0x00, 0x00, 0x00,
  0x02, 0x00, 0x00, 0x00, 0x28, 0x00, 0x00, 0x00, 0x04, 0x00, 0x00, 0x00,
  0x14, 0xfc, 0xff, 0xff, 0x14, 0x00, 0x00, 0x00, 0x04, 0x00, 0x00, 0x00,
  0x01, 0x00, 0x00, 0x00, 0x00, 0x00, 0x00, 0x00, 0x00, 0x00, 0x00, 0x00,
  0x01, 0x00, 0x00, 0x00, 0x3a, 0xad, 0x2d, 0x3b, 0x1f, 0x00, 0x00, 0x00,
  0x66, 0x69, 0x6e, 0x61, 0x6c, 0x5f, 0x66, 0x63, 0x5f, 0x77, 0x65, 0x69,
  0x67, 0x68, 0x74, 0x73, 0x2f, 0x72, 0x65, 0x61, 0x64, 0x2f, 0x74, 0x72,
  0x61, 0x6e, 0x73, 0x70, 0x6f, 0x73, 0x65, 0x00, 0x02, 0x00, 0x00, 0x00,
  0x02, 0x00, 0x00, 0x00, 0x60, 0x00, 0x00, 0x00, 0x8a, 0xfc, 0xff, 0xff,
  0x00, 0x00, 0x00, 0x09, 0x58, 0x00, 0x00, 0x00, 0x04, 0x00, 0x00, 0x00,
  0x44, 0x00, 0x00, 0x00, 0x04, 0x00, 0x00, 0x00, 0xfc, 0xfd, 0xff, 0xff,
  0x30, 0x00, 0x00, 0x00, 0x24, 0x00, 0x00, 0x00, 0x18, 0x00, 0x00, 0x00,
  0x04, 0x00, 0x00, 0x00, 0x01, 0x00, 0x00, 0x00, 0x04, 0x00, 0x00, 0x00,
  0x00, 0x00, 0x00, 0x00, 0x00, 0x00, 0x00, 0x00, 0x01, 0x00, 0x00, 0x00,
  0x81, 0x5c, 0x50, 0x3e, 0x01, 0x00, 0x00, 0x00, 0xa9, 0xe2, 0xc8, 0x41,
  0x01, 0x00, 0x00, 0x00, 0xa0, 0x35, 0xd6, 0xc1, 0x05, 0x00, 0x00, 0x00,
  0x61, 0x64, 0x64, 0x5f, 0x32, 0x00, 0x00, 0x00, 0x02, 0x00, 0x00, 0x00,
  0x01, 0x00, 0x00, 0x00, 0x02, 0x00, 0x00, 0x00, 0xf6, 0xfc, 0xff, 0xff,
  0x00, 0x00, 0x00, 0x02, 0x2c, 0x00, 0x00, 0x00, 0x07, 0x00, 0x00, 0x00,
  0x10, 0x00, 0x00, 0x00, 0x08, 0x00, 0x00, 0x00, 0x04, 0x00, 0x04, 0x00,
  0x04, 0x00, 0x00, 0x00, 0x0f, 0x00, 0x00, 0x00, 0x52, 0x65, 0x73, 0x68,
  0x61, 0x70, 0x65, 0x5f, 0x32, 0x2f, 0x73, 0x68, 0x61, 0x70, 0x65, 0x00,
  0x01, 0x00, 0x00, 0x00, 0x04, 0x00, 0x00, 0x00, 0x32, 0xfd, 0xff, 0xff,
  0x00, 0x00, 0x00, 0x09, 0x5c, 0x00, 0x00, 0x00, 0x06, 0x00, 0x00, 0x00,
  0x44, 0x00, 0x00, 0x00, 0x04, 0x00, 0x00, 0x00, 0xa4, 0xfe, 0xff, 0xff,
  0x30, 0x00, 0x00, 0x00, 0x24, 0x00, 0x00, 0x00, 0x18, 0x00, 0x00, 0x00,
  0x04, 0x00, 0x00, 0x00, 0x01, 0x00, 0x00, 0x00, 0x80, 0xff, 0xff, 0xff,
  0xff, 0xff, 0xff, 0xff, 0x00, 0x00, 0x00, 0x00, 0x01, 0x00, 0x00, 0x00,
  0xf1, 0xf0, 0xd0, 0x3d, 0x01, 0x00, 0x00, 0x00, 0x00, 0x20, 0xd0, 0x41,
  0x01, 0x00, 0x00, 0x00, 0x00, 0x00, 0x00, 0x00, 0x09, 0x00, 0x00, 0x00,
  0x52, 0x65, 0x73, 0x68, 0x61, 0x70, 0x65, 0x5f, 0x32, 0x00, 0x00, 0x00,
  0x04, 0x00, 0x00, 0x00, 0x01, 0x00, 0x00, 0x00, 0x31, 0x00, 0x00, 0x00,
  0x28, 0x00, 0x00, 0x00, 0x01, 0x00, 0x00, 0x00, 0xaa, 0xfd, 0xff, 0xff,
  0x00, 0x00, 0x00, 0x09, 0x5c, 0x00, 0x00, 0x00, 0x0d, 0x00, 0x00, 0x00,
  0x44, 0x00, 0x00, 0x00, 0x04, 0x00, 0x00, 0x00, 0x1c, 0xff, 0xff, 0xff,
  0x30, 0x00, 0x00, 0x00, 0x24, 0x00, 0x00, 0x00, 0x18, 0x00, 0x00, 0x00,
  0x04, 0x00, 0x00, 0x00, 0x01, 0x00, 0x00, 0x00, 0x80, 0xff, 0xff, 0xff,
  0xff, 0xff, 0xff, 0xff, 0x00, 0x00, 0x00, 0x00, 0x01, 0x00, 0x00, 0x00,
  0xf1, 0xf0, 0xd0, 0x3d, 0x01, 0x00, 0x00, 0x00, 0x00, 0x20, 0xd0, 0x41,
  0x01, 0x00, 0x00, 0x00, 0x00, 0x00, 0x00, 0x00, 0x09, 0x00, 0x00, 0x00,
  0x52, 0x65, 0x73, 0x68, 0x61, 0x70, 0x65, 0x5f, 0x31, 0x00, 0x00, 0x00,
  0x02, 0x00, 0x00, 0x00, 0x01, 0x00, 0x00, 0x00, 0xa8, 0x07, 0x00, 0x00,
  0x1a, 0xfe, 0xff, 0xff, 0x00, 0x00, 0x00, 0x09, 0x58, 0x00, 0x00, 0x00,
  0x05, 0x00, 0x00, 0x00, 0x44, 0x00, 0x00, 0x00, 0x04, 0x00, 0x00, 0x00,
  0x8c, 0xff, 0xff, 0xff, 0x30, 0x00, 0x00, 0x00, 0x24, 0x00, 0x00, 0x00,
  0x18, 0x00, 0x00, 0x00, 0x04, 0x00, 0x00, 0x00, 0x01, 0x00, 0x00, 0x00,
  0x80, 0xff, 0xff, 0xff, 0xff, 0xff, 0xff, 0xff, 0x00, 0x00, 0x00, 0x00,
  0x01, 0x00, 0x00, 0x00, 0xeb, 0x8d, 0x0f, 0x3e, 0x01, 0x00, 0x00, 0x00,
  0x5d, 0xfe, 0x0e, 0x42, 0x01, 0x00, 0x00, 0x00, 0x00, 0x00, 0x00, 0x00,
  0x06, 0x00, 0x00, 0x00, 0x52, 0x65, 0x6c, 0x75, 0x5f, 0x31, 0x00, 0x00,
  0x04, 0x00, 0x00, 0x00, 0x01, 0x00, 0x00, 0x00, 0x04, 0x00, 0x00, 0x00,
  0x03, 0x00, 0x00, 0x00, 0x08, 0x00, 0x00, 0x00, 0x8e, 0xfe, 0xff, 0xff,
  0x00, 0x00, 0x00, 0x09, 0x60, 0x00, 0x00, 0x00, 0x09, 0x00, 0x00, 0x00,
  0x4c, 0x00, 0x00, 0x00, 0x10, 0x00, 0x00, 0x00, 0x0c, 0x00, 0x14, 0x00,
  0x04, 0x00, 0x08, 0x00, 0x0c, 0x00, 0x10, 0x00, 0x0c, 0x00, 0x00, 0x00,
  0x2c, 0x00, 0x00, 0x00, 0x20, 0x00, 0x00, 0x00, 0x14, 0x00, 0x00, 0x00,
  0x04, 0x00, 0x00, 0x00, 0x01, 0x00, 0x00, 0x00, 0x80, 0xff, 0xff, 0xff,
  0xff, 0xff, 0xff, 0xff, 0x01, 0x00, 0x00, 0x00, 0xc8, 0xa0, 0x30, 0x3e,
  0x01, 0x00, 0x00, 0x00, 0x27, 0xf0, 0x2f, 0x42, 0x01, 0x00, 0x00, 0x00,
  0x00, 0x00, 0x00, 0x00, 0x04, 0x00, 0x00, 0x00, 0x52, 0x65, 0x6c, 0x75,
  0x00, 0x00, 0x00, 0x00, 0x04, 0x00, 0x00, 0x00, 0x01, 0x00, 0x00, 0x00,
  0x19, 0x00, 0x00, 0x00, 0x14, 0x00, 0x00, 0x00, 0x08, 0x00, 0x00, 0x00,
  0x0a, 0xff, 0xff, 0xff, 0x00, 0x00, 0x00, 0x02, 0x40, 0x00, 0x00, 0x00,
  0x01, 0x00, 0x00, 0x00, 0x28, 0x00, 0x00, 0x00, 0x04, 0x00, 0x00, 0x00,
  0xfc, 0xfe, 0xff, 0xff, 0x14, 0x00, 0x00, 0x00, 0x04, 0x00, 0x00, 0x00,
  0x01, 0x00, 0x00, 0x00, 0x00, 0x00, 0x00, 0x00, 0x00, 0x00, 0x00, 0x00,
  0x01, 0x00, 0x00, 0x00, 0x16, 0xc8, 0xc2, 0x39, 0x0b, 0x00, 0x00, 0x00,
  0x4d, 0x61, 0x74, 0x4d, 0x75, 0x6c, 0x5f, 0x62, 0x69, 0x61, 0x73, 0x00,
  0x01, 0x00, 0x00, 0x00, 0x02, 0x00, 0x00, 0x00, 0x5a, 0xff, 0xff, 0xff,
  0x00, 0x00, 0x00, 0x02, 0x94, 0x00, 0x00, 0x00, 0x03, 0x00, 0x00, 0x00,
  0x7c, 0x00, 0x00, 0x00, 0x04, 0x00, 0x00, 0x00, 0x4c, 0xff, 0xff, 0xff,
  0x4c, 0x00, 0x00, 0x00, 0x04, 0x00, 0x00, 0x00, 0x08, 0x00, 0x00, 0x00,
  0x00, 0x00, 0x00, 0x00, 0x00, 0x00, 0x00, 0x00, 0x00, 0x00, 0x00, 0x00,
  0x00, 0x00, 0x00, 0x00, 0x00, 0x00, 0x00, 0x00, 0x00, 0x00, 0x00, 0x00,
  0x00, 0x00, 0x00, 0x00, 0x00, 0x00, 0x00, 0x00, 0x00, 0x00, 0x00, 0x00,
  0x00, 0x00, 0x00, 0x00, 0x00, 0x00, 0x00, 0x00, 0x00, 0x00, 0x00, 0x00,
  0x00, 0x00, 0x00, 0x00, 0x00, 0x00, 0x00, 0x00, 0x00, 0x00, 0x00, 0x00,
  0x00, 0x00, 0x00, 0x00, 0x08, 0x00, 0x00, 0x00, 0x37, 0x1a, 0x74, 0x38,
  0xf7, 0x3b, 0x20, 0x39, 0xe4, 0x1a, 0x4d, 0x39, 0xca, 0xb7, 0x62, 0x39,
  0x28, 0xe1, 0xb9, 0x37, 0xa4, 0xe6, 0x11, 0x39, 0x89, 0x5d, 0x11, 0x39,
  0xa7, 0x35, 0x62, 0x39, 0x0b, 0x00, 0x00, 0x00, 0x43, 0x6f, 0x6e, 0x76,
  0x32, 0x44, 0x5f, 0x62, 0x69, 0x61, 0x73, 0x00, 0x01, 0x00, 0x00, 0x00,
  0x08, 0x00, 0x00, 0x00, 0x00, 0x00, 0x0e, 0x00, 0x18, 0x00, 0x08, 0x00,
  0x07, 0x00, 0x0c, 0x00, 0x10, 0x00, 0x14, 0x00, 0x0e, 0x00, 0x00, 0x00,
  0x00, 0x00, 0x00, 0x02, 0xa4, 0x00, 0x00, 0x00, 0x0c, 0x00, 0x00, 0x00,
  0x88, 0x00, 0x00, 0x00, 0x10, 0x00, 0x00, 0x00, 0x0c, 0x00, 0x0c, 0x00,
  0x00, 0x00, 0x00, 0x00, 0x04, 0x00, 0x08, 0x00, 0x0c, 0x00, 0x00, 0x00,
  0x4c, 0x00, 0x00, 0x00, 0x04, 0x00, 0x00, 0x00, 0x08, 0x00, 0x00, 0x00,
  0x00, 0x00, 0x00, 0x00, 0x00, 0x00, 0x00, 0x00, 0x00, 0x00, 0x00, 0x00,
  0x00, 0x00, 0x00, 0x00, 0x00, 0x00, 0x00, 0x00, 0x00, 0x00, 0x00, 0x00,
  0x00, 0x00, 0x00, 0x00, 0x00, 0x00, 0x00, 0x00, 0x00, 0x00, 0x00, 0x00,
  0x00, 0x00, 0x00, 0x00, 0x00, 0x00, 0x00, 0x00, 0x00, 0x00, 0x00, 0x00,
  0x00, 0x00, 0x00, 0x00, 0x00, 0x00, 0x00, 0x00, 0x00, 0x00, 0x00, 0x00,
  0x00, 0x00, 0x00, 0x00, 0x08, 0x00, 0x00, 0x00, 0xfc, 0x65, 0x3b, 0x39,
  0xe5, 0x1b, 0x25, 0x39, 0x8a, 0xf3, 0x39, 0x39, 0x06, 0x66, 0x5d, 0x39,
  0x73, 0x16, 0xde, 0x38, 0x01, 0xb7, 0x43, 0x39, 0x81, 0x9b, 0x13, 0x39,
  0x4e, 0xe3, 0x09, 0x39, 0x0d, 0x00, 0x00, 0x00, 0x43, 0x6f, 0x6e, 0x76,
  0x32, 0x44, 0x5f, 0x31, 0x5f, 0x62, 0x69, 0x61, 0x73, 0x00, 0x00, 0x00,
  0x01, 0x00, 0x00, 0x00, 0x08, 0x00, 0x00, 0x00, 0x05, 0x00, 0x00, 0x00,
  0x60, 0x00, 0x00, 0x00, 0x44, 0x00, 0x00, 0x00, 0x28, 0x00, 0x00, 0x00,
  0x1c, 0x00, 0x00, 0x00, 0x04, 0x00, 0x00, 0x00, 0xd6, 0xff, 0xff, 0xff,
  0x00, 0x00, 0x00, 0x19, 0x02, 0x00, 0x00, 0x00, 0x00, 0x00, 0x06, 0x00,
  0x08, 0x00, 0x07, 0x00, 0x06, 0x00, 0x00, 0x00, 0x00, 0x00, 0x00, 0x16,
  0xf2, 0xff, 0xff, 0xff, 0x00, 0x00, 0x00, 0x09, 0x04, 0x00, 0x00, 0x00,
  0x00, 0x00, 0x0a, 0x00, 0x0e, 0x00, 0x07, 0x00, 0x00, 0x00, 0x08, 0x00,
  0x0a, 0x00, 0x00, 0x00, 0x00, 0x00, 0x00, 0x04, 0x03, 0x00, 0x00, 0x00,
  0x00, 0x00, 0x0a, 0x00, 0x0c, 0x00, 0x07, 0x00, 0x00, 0x00, 0x08, 0x00,
  0x0a, 0x00, 0x00, 0x00, 0x00, 0x00, 0x00, 0x03, 0x03, 0x00, 0x00, 0x00
};
unsigned int models_tiny_embedding_conv_model_tflite_len = 8664;
