unsigned char models_tiny_conv_model_tflite[] = {
  0x20, 0x00, 0x00, 0x00, 0x54, 0x46, 0x4c, 0x33, 0x00, 0x00, 0x00, 0x00,
  0x00, 0x00, 0x12, 0x00, 0x1c, 0x00, 0x04, 0x00, 0x08, 0x00, 0x0c, 0x00,
  0x10, 0x00, 0x14, 0x00, 0x00, 0x00, 0x18, 0x00, 0x12, 0x00, 0x00, 0x00,
  0x03, 0x00, 0x00, 0x00, 0x4c, 0x29, 0x00, 0x00, 0xec, 0x22, 0x00, 0x00,
  0xd4, 0x22, 0x00, 0x00, 0x3c, 0x00, 0x00, 0x00, 0x04, 0x00, 0x00, 0x00,
  0x01, 0x00, 0x00, 0x00, 0x0c, 0x00, 0x00, 0x00, 0x08, 0x00, 0x0c, 0x00,
  0x04, 0x00, 0x08, 0x00, 0x08, 0x00, 0x00, 0x00, 0x08, 0x00, 0x00, 0x00,
  0x0b, 0x00, 0x00, 0x00, 0x13, 0x00, 0x00, 0x00, 0x6d, 0x69, 0x6e, 0x5f,
  0x72, 0x75, 0x6e, 0x74, 0x69, 0x6d, 0x65, 0x5f, 0x76, 0x65, 0x72, 0x73,
  0x69, 0x6f, 0x6e, 0x00, 0x0c, 0x00, 0x00, 0x00, 0x8c, 0x22, 0x00, 0x00,
  0x74, 0x22, 0x00, 0x00, 0x24, 0x03, 0x00, 0x00, 0xf4, 0x02, 0x00, 0x00,
  0xec, 0x02, 0x00, 0x00, 0xe4, 0x02, 0x00, 0x00, 0xc4, 0x02, 0x00, 0x00,
  0xbc, 0x02, 0x00, 0x00, 0x2c, 0x00, 0x00, 0x00, 0x24, 0x00, 0x00, 0x00,
  0x1c, 0x00, 0x00, 0x00, 0x04, 0x00, 0x00, 0x00, 0x5e, 0xdc, 0xff, 0xff,
  0x04, 0x00, 0x00, 0x00, 0x05, 0x00, 0x00, 0x00, 0x31, 0x2e, 0x35, 0x2e,
  0x30, 0x00, 0x00, 0x00, 0xdc, 0xd9, 0xff, 0xff, 0xe0, 0xd9, 0xff, 0xff,
  0x7a, 0xdc, 0xff, 0xff, 0x04, 0x00, 0x00, 0x00, 0x80, 0x02, 0x00, 0x00,
  0xd1, 0xf6, 0xe5, 0x56, 0x09, 0xca, 0x1a, 0xbf, 0x85, 0xd9, 0xd6, 0xf5,
  0xfb, 0xc2, 0x3e, 0x86, 0xbc, 0x01, 0x1a, 0xb3, 0xfb, 0xd5, 0xf6, 0xa0,
  0xd0, 0xb3, 0x0f, 0xf3, 0xe9, 0xd1, 0x2b, 0xa8, 0x8f, 0xf9, 0xeb, 0xf6,
  0x2d, 0xac, 0xcf, 0xa2, 0xac, 0xb4, 0x04, 0xcd, 0x10, 0xf6, 0x2f, 0xb2,
  0xc9, 0x35, 0x16, 0xeb, 0xc8, 0xfe, 0xbb, 0xa3, 0x81, 0xb4, 0x13, 0x1b,
  0xd5, 0xae, 0xd8, 0x84, 0xe1, 0x17, 0xd9, 0xce, 0xeb, 0xdb, 0x1b, 0xae,
  0xaa, 0xdb, 0x51, 0x5f, 0xbb, 0xd6, 0x63, 0x92, 0xa2, 0xe3, 0x7f, 0xf7,
  0xe9, 0xd3, 0xf8, 0x97, 0xa0, 0xd6, 0xb9, 0xcc, 0xae, 0xb5, 0x36, 0xae,
  0x9e, 0x48, 0xb9, 0xa0, 0x2d, 0x01, 0xc5, 0xca, 0x9b, 0xc8, 0xfa, 0xdc,
  0xee, 0x12, 0x22, 0x8e, 0xe8, 0x2d, 0xf3, 0xc1, 0xd3, 0xde, 0xa4, 0xba,
  0xbc, 0xc0, 0x06, 0x0c, 0xcb, 0x81, 0xc8, 0xa6, 0xec, 0xed, 0x1a, 0xd4,
  0x07, 0x9b, 0x07, 0x9e, 0xe3, 0xac, 0x0a, 0x7f, 0xc6, 0xf5, 0x45, 0x99,
  0xdf, 0x10, 0xda, 0xfc, 0x09, 0xf2, 0xec, 0xaf, 0xae, 0xda, 0x07, 0x91,
  0xc7, 0xa7, 0x12, 0xa9, 0xee, 0x0a, 0x02, 0xb4, 0x6e, 0xe3, 0xd7, 0xc9,
  0xe2, 0xc4, 0xfd, 0xae, 0x0a, 0x0b, 0x1f, 0xb4, 0xff, 0x02, 0xec, 0xf4,
  0xe6, 0xfd, 0xb7, 0xbb, 0xca, 0xc5, 0xfa, 0x09, 0xb7, 0x8a, 0xda, 0x8f,
  0xed, 0x1c, 0xda, 0xe9, 0x3b, 0xc8, 0x03, 0x99, 0xfb, 0xa9, 0xfb, 0x67,
  0xf5, 0xc8, 0x78, 0xa1, 0xf8, 0x07, 0x19, 0xdd, 0x3b, 0x05, 0xff, 0xa6,
  0x9f, 0xd4, 0xfb, 0xd1, 0xf0, 0xe1, 0xea, 0xb7, 0xbe, 0x17, 0xf4, 0xe1,
  0x79, 0xa7, 0xc5, 0xce, 0xdd, 0xbe, 0x02, 0xed, 0x44, 0xb3, 0x25, 0xa0,
  0xdc, 0x32, 0xd3, 0xe8, 0x32, 0x14, 0xb2, 0xa9, 0xd1, 0xd4, 0x1a, 0xf5,
  0xda, 0xdc, 0xbe, 0xb7, 0xeb, 0xf7, 0xdf, 0xc9, 0x54, 0xca, 0x0e, 0x9a,
  0xf1, 0xb8, 0x48, 0x3f, 0x2b, 0xdf, 0x7f, 0x81, 0xee, 0xfe, 0x64, 0xff,
  0x32, 0xba, 0xed, 0xad, 0x04, 0x96, 0xcb, 0xc2, 0x16, 0xd1, 0x00, 0x8d,
  0xd9, 0x0c, 0xe4, 0xe0, 0x76, 0xd7, 0xc2, 0xc5, 0xdc, 0xb2, 0xed, 0x14,
  0x7f, 0xc9, 0x1b, 0xb4, 0xed, 0x28, 0xbd, 0xf3, 0x1e, 0x11, 0xc6, 0xae,
  0xad, 0xc2, 0x15, 0xce, 0xe8, 0xb0, 0xc8, 0xb4, 0xd6, 0xfe, 0x52, 0xcf,
  0x2d, 0xd7, 0x0b, 0xc1, 0x03, 0xbb, 0xfe, 0xf9, 0x35, 0xa9, 0x40, 0x9b,
  0xc9, 0x0a, 0xcb, 0xf9, 0x0f, 0xc1, 0xbb, 0xa9, 0xcd, 0xbc, 0xe0, 0xf5,
  0x0e, 0xa8, 0xec, 0xb3, 0xb4, 0xf9, 0x24, 0x2a, 0x35, 0x94, 0xc7, 0xba,
  0xe5, 0x81, 0xf8, 0x0f, 0x4b, 0xa4, 0x20, 0x9d, 0xc3, 0x1c, 0xe5, 0x17,
  0xd8, 0xe2, 0xe3, 0xc8, 0xd8, 0x9d, 0xf5, 0xc3, 0xc3, 0xca, 0xd8, 0xa8,
  0x14, 0x0d, 0x26, 0xcf, 0xda, 0xfe, 0xf5, 0xbc, 0xe4, 0xb1, 0xfc, 0xcf,
  0x07, 0xdf, 0x36, 0x93, 0xbd, 0x08, 0xfc, 0xd7, 0xc3, 0xde, 0xef, 0xb1,
  0xc1, 0xdc, 0xe4, 0x18, 0xdb, 0xb8, 0xef, 0xa1, 0xfc, 0x1f, 0x06, 0xf4,
  0xdf, 0xde, 0xe2, 0xef, 0x2f, 0xd2, 0xfa, 0x19, 0xea, 0xc4, 0x05, 0xab,
  0xe2, 0x24, 0xec, 0x07, 0x91, 0xc6, 0xdf, 0xd7, 0xfd, 0xd8, 0xf9, 0xf3,
  0xa9, 0x98, 0xeb, 0xb3, 0xd0, 0xda, 0xf5, 0xbf, 0xd2, 0xe8, 0xef, 0xce,
  0xbf, 0xc7, 0xef, 0xb5, 0xc8, 0xda, 0xfc, 0xa7, 0xc0, 0xef, 0x1f, 0x25,
  0xd1, 0xec, 0xe3, 0xce, 0xd2, 0xb9, 0x05, 0x14, 0xca, 0xbf, 0xbf, 0xaa,
  0xdb, 0xeb, 0x06, 0x0a, 0xd3, 0x9c, 0xdc, 0xd6, 0x07, 0xcf, 0xf6, 0x12,
  0xc7, 0xc6, 0xf0, 0x96, 0xb9, 0x1e, 0xf6, 0x05, 0xb1, 0x08, 0xe1, 0xdb,
  0xd6, 0xc6, 0x04, 0xdf, 0xbe, 0xe2, 0xe3, 0xc8, 0x1c, 0x04, 0xef, 0xd8,
  0xea, 0xbb, 0xcb, 0xa1, 0xa2, 0xd1, 0xe6, 0xc9, 0xc3, 0xce, 0xf7, 0xbd,
  0xf0, 0x15, 0xfc, 0x30, 0xff, 0xf5, 0xbf, 0xde, 0xac, 0xbc, 0x25, 0x07,
  0xd5, 0x9b, 0xbf, 0xa9, 0xbf, 0x3d, 0x31, 0xfe, 0xe4, 0xb7, 0xc7, 0xb2,
  0xc9, 0xb9, 0xea, 0x23, 0xf8, 0xaa, 0xe9, 0xb5, 0xb5, 0x42, 0xfe, 0xdd,
  0xf0, 0xde, 0xb8, 0xac, 0xc6, 0xb6, 0x04, 0xc4, 0xe0, 0xf7, 0x9c, 0xbc,
  0x28, 0xf2, 0xfa, 0xd8, 0x04, 0xce, 0xf8, 0xb8, 0xc6, 0xab, 0xd7, 0x02,
  0xcd, 0xc3, 0xee, 0xc4, 0xf1, 0x1f, 0xda, 0x2b, 0x12, 0xda, 0xf7, 0xc5,
  0xf2, 0xcd, 0x48, 0xee, 0xe8, 0xe2, 0xf4, 0xb9, 0x0a, 0x2f, 0x27, 0xe8,
  0xfe, 0xc3, 0xe9, 0xce, 0x30, 0xd7, 0xe4, 0xd5, 0x02, 0xc6, 0x08, 0xb7,
  0xb8, 0x20, 0x02, 0xc9, 0x01, 0xfc, 0xd1, 0xc8, 0xbe, 0xed, 0x10, 0xf3,
  0xcd, 0xbf, 0x87, 0xb0, 0x70, 0xdc, 0xff, 0xff, 0x0a, 0xdf, 0xff, 0xff,
  0x04, 0x00, 0x00, 0x00, 0x10, 0x00, 0x00, 0x00, 0xff, 0xff, 0xff, 0xff,
  0x31, 0x00, 0x00, 0x00, 0x28, 0x00, 0x00, 0x00, 0x01, 0x00, 0x00, 0x00,
  0x90, 0xdc, 0xff, 0xff, 0x94, 0xdc, 0xff, 0xff, 0x2e, 0xdf, 0xff, 0xff,
  0x04, 0x00, 0x00, 0x00, 0x20, 0x00, 0x00, 0x00, 0x00, 0x00, 0x00, 0x00,
  0x9a, 0xff, 0xff, 0xff, 0x3d, 0xff, 0xff, 0xff, 0xc4, 0xff, 0xff, 0xff,
  0x98, 0x05, 0x00, 0x00, 0xc5, 0xff, 0xff, 0xff, 0xcb, 0xff, 0xff, 0xff,
  0xa7, 0xff, 0xff, 0xff, 0x5a, 0xdf, 0xff, 0xff, 0x04, 0x00, 0x00, 0x00,
  0x40, 0x1f, 0x00, 0x00, 0xff, 0x05, 0x1a, 0x04, 0x05, 0xf7, 0x05, 0x07,
  0xfb, 0x03, 0x0e, 0x00, 0x12, 0xff, 0x13, 0x0d, 0xfe, 0xf4, 0xeb, 0x01,
  0x0c, 0xf8, 0x13, 0x0d, 0xf7, 0x02, 0x04, 0xff, 0x03, 0x07, 0x01, 0x07,
  0x01, 0xff, 0xe8, 0xfe, 0x11, 0x0a, 0x07, 0xff, 0xfa, 0xf4, 0x18, 0xfb,
  0x15, 0xff, 0x05, 0x05, 0x0e, 0xf6, 0x01, 0xfd, 0x0e, 0xff, 0xfe, 0x01,
  0x0e, 0x00, 0xeb, 0x01, 0x03, 0xf4, 0xf3, 0x0b, 0xf5, 0xfd, 0xf7, 0xf9,
  0x0f, 0x05, 0x03, 0xfc, 0x06, 0xf8, 0xfd, 0x0a, 0x0d, 0x03, 0x0c, 0xfc,
  0x08, 0x0e, 0xfe, 0x06, 0x06, 0xf6, 0x04, 0x02, 0x04, 0xff, 0xf3, 0x03,
  0x05, 0x01, 0x05, 0xff, 0x07, 0x00, 0xf6, 0xfe, 0x06, 0x02, 0xff, 0xff,
  0xfc, 0x0d, 0xe2, 0xfc, 0x12, 0x0a, 0x02, 0x0b, 0x07, 0xf6, 0x26, 0xf9,
  0x16, 0xfe, 0x04, 0x00, 0x0b, 0x01, 0xf9, 0x04, 0x18, 0xf6, 0x03, 0x08,
  0x0f, 0x01, 0x1c, 0xfe, 0x06, 0xf9, 0xfa, 0x06, 0xfd, 0x02, 0xfb, 0xf5,
  0x12, 0xf9, 0xff, 0x06, 0x0a, 0xff, 0x01, 0xfb, 0x1d, 0xfe, 0xfe, 0xf7,
  0xf7, 0xfb, 0x5b, 0xf8, 0x18, 0x08, 0xf8, 0x0a, 0x07, 0xfa, 0x02, 0x04,
  0x00, 0x0d, 0xf5, 0x0d, 0x02, 0x06, 0x14, 0x03, 0x0a, 0x03, 0x39, 0x0a,
  0xfc, 0xf4, 0x1f, 0xf9, 0xfc, 0xfb, 0x17, 0x12, 0x08, 0xf9, 0x10, 0x00,
  0x04, 0x02, 0x06, 0x07, 0x0a, 0xfa, 0x00, 0xf9, 0x27, 0x00, 0x00, 0x09,
  0x0f, 0x01, 0x16, 0xfa, 0x12, 0xfc, 0x00, 0x09, 0x03, 0xfe, 0x16, 0xfa,
  0x19, 0xf6, 0x06, 0xfe, 0x05, 0x01, 0x02, 0x01, 0x0d, 0x04, 0xfa, 0xfe,
  0x05, 0x06, 0xf1, 0xff, 0xfa, 0x03, 0xfe, 0x0e, 0x06, 0xfb, 0xff, 0x02,
  0xee, 0x07, 0xfe, 0x06, 0x09, 0xf9, 0xf0, 0x07, 0x08, 0x04, 0xfb, 0xfd,
  0x0d, 0xf7, 0xfb, 0x07, 0xeb, 0xfe, 0xfd, 0x03, 0x06, 0xfa, 0xf0, 0x09,
  0xea, 0x08, 0xfb, 0x0c, 0xfb, 0x02, 0xe3, 0x07, 0x07, 0x05, 0x09, 0x05,
  0x07, 0x00, 0xff, 0xfe, 0xfe, 0xf5, 0x06, 0xfc, 0x0e, 0x03, 0xf0, 0x04,
  0x03, 0xff, 0x03, 0x0d, 0x04, 0xfe, 0xf9, 0xfe, 0xfe, 0xf8, 0xfe, 0x10,
  0xfd, 0xfc, 0xf5, 0x02, 0x1c, 0xfb, 0xf6, 0xfc, 0xfe, 0x01, 0xf4, 0x07,
  0x09, 0xfe, 0x15, 0xff, 0x05, 0x05, 0x45, 0x04, 0x28, 0xfc, 0x1d, 0xfa,
  0x01, 0xfa, 0xeb, 0xf9, 0x06, 0x03, 0x08, 0x0c, 0xff, 0xf9, 0x3b, 0x05,
  0x0a, 0x04, 0x4b, 0x06, 0x04, 0x05, 0x31, 0x07, 0x19, 0xf7, 0x2a, 0x04,
  0x01, 0x08, 0x03, 0xf3, 0x21, 0xfc, 0x06, 0x0a, 0x13, 0xfc, 0x0e, 0xff,
  0x23, 0x03, 0x02, 0xfe, 0x08, 0xff, 0x01, 0xf3, 0x1d, 0x08, 0x04, 0x12,
  0x13, 0xfa, 0x1c, 0x08, 0x17, 0xf4, 0x0d, 0x09, 0x10, 0xfb, 0x05, 0x07,
  0x13, 0xfe, 0x09, 0x0a, 0x11, 0x03, 0xf4, 0x00, 0x11, 0xfa, 0x00, 0x14,
  0x03, 0xf6, 0xfb, 0x05, 0xfb, 0x0c, 0x00, 0x01, 0x03, 0x0a, 0xf8, 0x02,
  0x06, 0xff, 0x03, 0x02, 0x0c, 0xfd, 0xf0, 0x00, 0xfd, 0xfc, 0x11, 0x0c,
  0x0a, 0xfe, 0x1a, 0x01, 0xfb, 0x08, 0x0b, 0x0c, 0xff, 0xff, 0xfc, 0x00,
  0xf7, 0xfc, 0xf9, 0x01, 0x04, 0x06, 0xfa, 0xfa, 0x03, 0x07, 0x08, 0x04,
  0x08, 0xf7, 0xf9, 0x03, 0x00, 0x0a, 0x01, 0x09, 0x02, 0xf5, 0x17, 0x02,
  0xfd, 0x05, 0x04, 0x0e, 0x01, 0xf5, 0x17, 0x00, 0x15, 0xf7, 0x08, 0xfd,
  0x07, 0x02, 0xfc, 0xfe, 0xf5, 0x07, 0x3e, 0xfd, 0x07, 0x01, 0x3b, 0xfe,
  0x18, 0xfc, 0x15, 0x07, 0x0b, 0xfc, 0x0a, 0xfb, 0x01, 0xfb, 0xff, 0x07,
  0x07, 0x09, 0xfa, 0x04, 0x08, 0x07, 0x3e, 0x06, 0x0d, 0xf5, 0x2c, 0x01,
  0x0b, 0x05, 0x1a, 0xfe, 0x02, 0x08, 0x13, 0x04, 0x15, 0x05, 0x07, 0x08,
  0xfa, 0xfe, 0x16, 0x01, 0x1c, 0x03, 0x03, 0xfb, 0xfc, 0xf9, 0xe9, 0xfd,
  0x0c, 0x08, 0x02, 0xf8, 0x0b, 0xf6, 0x2e, 0x02, 0x0c, 0xf4, 0x02, 0xfe,
  0x0b, 0xfb, 0xec, 0x04, 0x0d, 0x03, 0x09, 0x09, 0x08, 0xff, 0xdf, 0x01,
  0xff, 0x0c, 0x09, 0xfe, 0x00, 0x07, 0xd6, 0xf9, 0x05, 0x09, 0xf4, 0x00,
  0x07, 0xf9, 0xfd, 0x03, 0x0d, 0x0d, 0xf2, 0x0b, 0x0c, 0xfa, 0xfc, 0x09,
  0x0e, 0x0a, 0x0b, 0x0f, 0xfe, 0x08, 0x15, 0xf9, 0xfe, 0x07, 0x14, 0x09,
  0xfd, 0xf9, 0x0c, 0x05, 0x03, 0x00, 0xfa, 0xfd, 0xff, 0xf9, 0xe2, 0x05,
  0x10, 0x01, 0xf4, 0x00, 0x03, 0x0a, 0x05, 0x00, 0x0e, 0x05, 0xe2, 0xff,
  0x03, 0xf0, 0x07, 0xf6, 0xfc, 0xff, 0x0a, 0x06, 0x08, 0x05, 0x1a, 0x00,
  0x19, 0x03, 0x14, 0x07, 0x0e, 0x03, 0x24, 0xff, 0xfa, 0x06, 0x28, 0x0c,
  0x0c, 0x01, 0x2a, 0x07, 0x12, 0x01, 0x12, 0x01, 0x10, 0xfe, 0xf7, 0x03,
  0x03, 0xfa, 0x09, 0x0a, 0xfb, 0xf9, 0xea, 0x0a, 0x10, 0xfc, 0x37, 0x10,
  0x00, 0xfd, 0x0c, 0xff, 0xfa, 0xf6, 0x20, 0x02, 0x05, 0xf6, 0xfb, 0xff,
  0xff, 0xf9, 0xf4, 0x09, 0xf9, 0xfa, 0x09, 0xff, 0x0d, 0x01, 0xf1, 0x0b,
  0x01, 0x00, 0xed, 0x03, 0xf6, 0x08, 0xf8, 0xff, 0x01, 0xf5, 0x15, 0xfa,
  0x13, 0x09, 0xf7, 0x09, 0x01, 0xfc, 0xe4, 0xfb, 0x0e, 0x09, 0xfa, 0x03,
  0x06, 0x03, 0xe2, 0xfd, 0x15, 0xfd, 0x04, 0x0d, 0xff, 0x02, 0xce, 0xfa,
  0x06, 0x00, 0xed, 0xfe, 0x02, 0x06, 0xf7, 0x07, 0x05, 0x01, 0xf8, 0x12,
  0x04, 0xf5, 0xe6, 0xf6, 0x07, 0x01, 0x19, 0xf9, 0x00, 0x03, 0xea, 0xfe,
  0x14, 0x05, 0x1b, 0x0c, 0x09, 0xf8, 0x18, 0xfe, 0x12, 0x08, 0x03, 0x10,
  0xf6, 0xfc, 0xc6, 0x0c, 0x11, 0x0d, 0xe7, 0x06, 0x04, 0xfc, 0xdf, 0xfe,
  0x1a, 0xf9, 0xde, 0x13, 0x03, 0x01, 0x07, 0xfc, 0x01, 0x01, 0x01, 0xfc,
  0x08, 0x08, 0x0f, 0xfb, 0x15, 0x0f, 0x0c, 0x0b, 0x0d, 0xf8, 0x22, 0xfc,
  0xeb, 0x04, 0x0b, 0x01, 0xfd, 0x03, 0x21, 0x00, 0x02, 0x0a, 0x26, 0x05,
  0xfc, 0x04, 0x02, 0xfe, 0x0d, 0xfa, 0x08, 0x11, 0xfc, 0x0c, 0xe1, 0xf7,
  0xf6, 0xf8, 0x1c, 0xfc, 0xfb, 0xfd, 0x0f, 0xfd, 0xf7, 0x04, 0x1d, 0x08,
  0x02, 0xfa, 0xfc, 0xfb, 0xfb, 0xf9, 0x03, 0x0f, 0x0b, 0xfb, 0x06, 0xfa,
  0xfa, 0x0f, 0xeb, 0x04, 0x06, 0x00, 0xe5, 0xfc, 0xfb, 0xfe, 0xe9, 0x0f,
  0x02, 0x09, 0xf9, 0xf9, 0x00, 0x04, 0xe7, 0xfd, 0x0a, 0x01, 0xf5, 0xf9,
  0x06, 0x07, 0xfb, 0x04, 0x0c, 0xf7, 0xde, 0x00, 0x19, 0xfe, 0x01, 0x06,
  0xfb, 0xfd, 0xe2, 0xfd, 0x05, 0xfb, 0xdd, 0x02, 0x07, 0xfe, 0xf5, 0x02,
  0x0b, 0x02, 0xee, 0x0f, 0x00, 0xfe, 0xe6, 0x09, 0x0a, 0x0e, 0x21, 0x01,
  0x0c, 0x00, 0xf7, 0xfa, 0x0e, 0xfe, 0x28, 0x02, 0xfe, 0xfe, 0x23, 0x0c,
  0x0d, 0x04, 0xfc, 0x02, 0x02, 0xfa, 0xc7, 0xfb, 0x15, 0xff, 0xe5, 0x0b,
  0x0f, 0xfa, 0xec, 0xfa, 0x04, 0x08, 0xcf, 0xff, 0x03, 0x00, 0xf4, 0x0b,
  0x00, 0xfb, 0xf8, 0x0a, 0x11, 0x01, 0x11, 0xf5, 0x1a, 0x04, 0x01, 0x0b,
  0x07, 0xf6, 0x37, 0x00, 0xf1, 0x0b, 0xf4, 0x0a, 0xf7, 0xf6, 0x36, 0x08,
  0x12, 0x03, 0x29, 0xfc, 0x0b, 0xfa, 0x2b, 0x04, 0xee, 0x03, 0x05, 0x07,
  0xfa, 0xfe, 0xf8, 0x04, 0xfa, 0x06, 0x19, 0x0c, 0x09, 0x0c, 0x04, 0x08,
  0xef, 0x09, 0x0d, 0xff, 0xfe, 0x08, 0xf3, 0x03, 0xed, 0xfb, 0x12, 0xff,
  0x01, 0x09, 0x05, 0x05, 0x01, 0x01, 0xdf, 0x03, 0x07, 0x01, 0xe7, 0x02,
  0xfe, 0xfb, 0xe2, 0x04, 0x01, 0xf4, 0xf1, 0x03, 0x06, 0x02, 0x04, 0xfb,
  0x00, 0x06, 0xe9, 0x00, 0x0b, 0xff, 0x03, 0x0c, 0x02, 0x09, 0xf0, 0x09,
  0x1b, 0x08, 0x07, 0x03, 0x02, 0xff, 0xf8, 0x02, 0x03, 0xfe, 0xe4, 0x0c,
  0x03, 0x06, 0x00, 0xf6, 0x04, 0x01, 0x0d, 0x12, 0x0f, 0xfc, 0xeb, 0xfe,
  0xfb, 0x04, 0x33, 0x09, 0x07, 0xf9, 0x08, 0x00, 0x06, 0x09, 0x20, 0xfa,
  0xff, 0xf3, 0x22, 0x01, 0x08, 0x01, 0xf9, 0xfc, 0x06, 0xf6, 0xe3, 0x09,
  0x07, 0x01, 0x01, 0x03, 0xfa, 0x04, 0xfa, 0x01, 0xfa, 0xfd, 0xe6, 0x01,
  0xfe, 0xf2, 0xda, 0xf9, 0xfb, 0xfd, 0xf1, 0x09, 0x08, 0xf0, 0xfa, 0xfd,
  0x04, 0x06, 0x09, 0x06, 0x07, 0xf8, 0x26, 0x07, 0xe1, 0x01, 0xf6, 0x07,
  0xfb, 0xf8, 0x2c, 0xf7, 0x02, 0x02, 0x22, 0x06, 0xfe, 0xff, 0x44, 0xf5,
  0xfc, 0x03, 0x02, 0xff, 0x09, 0x0a, 0xfc, 0xfd, 0xfe, 0xf7, 0x11, 0x0c,
  0xf6, 0x06, 0xf2, 0xfe, 0xf7, 0x09, 0x07, 0xff, 0xfd, 0x06, 0xec, 0xfe,
  0x03, 0x04, 0x24, 0xfb, 0x10, 0x01, 0xfc, 0x02, 0xfd, 0xfa, 0xe2, 0x0a,
  0x06, 0xfd, 0xf4, 0xfe, 0x05, 0xf3, 0xed, 0xfc, 0x0b, 0x08, 0xf8, 0xfe,
  0xfe, 0x09, 0xfe, 0x04, 0x0d, 0x00, 0xe9, 0xfb, 0x06, 0xf7, 0x11, 0x0c,
  0x08, 0xf9, 0xef, 0x04, 0x17, 0x00, 0x02, 0x06, 0x06, 0x08, 0xfe, 0x06,
  0x01, 0x0c, 0xed, 0x0a, 0x0c, 0x04, 0xed, 0xf8, 0x05, 0xff, 0x1e, 0x13,
  0x0e, 0xff, 0xf1, 0x03, 0x04, 0xfc, 0x46, 0xf7, 0xf7, 0xfb, 0xfb, 0xff,
  0xf0, 0xff, 0x0e, 0x02, 0xf7, 0x05, 0x16, 0x0f, 0xf8, 0x03, 0xf5, 0x09,
  0x05, 0xff, 0xd9, 0x04, 0x04, 0x07, 0x1b, 0x0a, 0xfe, 0xf7, 0x05, 0x00,
  0xf1, 0xfe, 0x19, 0x13, 0x06, 0x03, 0xe1, 0x05, 0xee, 0x02, 0x01, 0x09,
  0x08, 0x01, 0x20, 0xfe, 0xf4, 0xfe, 0xfa, 0x0c, 0xfe, 0x09, 0x1c, 0xff,
  0xeb, 0xf5, 0xfd, 0x05, 0xf3, 0x04, 0x29, 0xfb, 0xfb, 0xf3, 0x00, 0xf7,
  0xf6, 0xfd, 0x6d, 0xfb, 0xf3, 0xf5, 0xf4, 0x12, 0x06, 0x0a, 0xfe, 0xfc,
  0xff, 0x04, 0x25, 0x0e, 0x02, 0xf6, 0x00, 0x06, 0xf9, 0xfd, 0xf2, 0x11,
  0x0c, 0xff, 0xec, 0x0a, 0x13, 0xf6, 0x22, 0x06, 0x01, 0x09, 0xf4, 0xfb,
  0x06, 0xf6, 0xf1, 0x01, 0x03, 0xfd, 0xf3, 0xfc, 0x0d, 0x08, 0xec, 0x09,
  0xfb, 0x02, 0xf3, 0x06, 0x09, 0xf7, 0xe7, 0x0c, 0xfc, 0x01, 0xea, 0x08,
  0xfb, 0x0a, 0x04, 0x11, 0x05, 0xf8, 0xf0, 0xff, 0x18, 0x07, 0xfb, 0x01,
  0x06, 0x0e, 0xfb, 0x06, 0x02, 0x00, 0xef, 0xff, 0x02, 0x03, 0xf5, 0x04,
  0x11, 0x01, 0xfc, 0x09, 0x11, 0x03, 0xec, 0xfe, 0x09, 0x09, 0x40, 0x05,
  0xf7, 0xfa, 0xf6, 0x04, 0xf6, 0xfd, 0x12, 0x04, 0x03, 0x05, 0x0e, 0xff,
  0xfd, 0xff, 0xfe, 0x04, 0xff, 0xf7, 0xd9, 0x02, 0xf5, 0x03, 0x21, 0x00,
  0xfd, 0x0d, 0x0e, 0x02, 0xef, 0xfe, 0x13, 0xfd, 0xff, 0x09, 0xed, 0xfd,
  0xf0, 0x04, 0xf9, 0x09, 0x02, 0x00, 0x1b, 0xfa, 0xeb, 0xf4, 0xe6, 0xfe,
  0xfa, 0x09, 0x19, 0x01, 0xf7, 0x02, 0x0d, 0x0b, 0x0a, 0x07, 0x3b, 0xf4,
  0xe6, 0xfe, 0xeb, 0xf5, 0xfc, 0xfd, 0x75, 0x02, 0xff, 0x0c, 0xf7, 0xf9,
  0x08, 0x05, 0xfd, 0x09, 0xed, 0x00, 0x25, 0x11, 0x01, 0x06, 0xf7, 0x01,
  0xf9, 0xf5, 0x09, 0x11, 0x0c, 0x0a, 0xed, 0x09, 0x16, 0x0f, 0x17, 0x06,
  0x06, 0x0a, 0xf1, 0xf4, 0x0a, 0x00, 0x12, 0x05, 0x04, 0xf9, 0xe8, 0x08,
  0xf9, 0xfb, 0xe0, 0x07, 0x04, 0x09, 0xe5, 0xf8, 0xf5, 0xf9, 0xe6, 0xfe,
  0xfa, 0xfc, 0xf7, 0x04, 0x05, 0x08, 0xf3, 0x04, 0xf9, 0x01, 0xf4, 0x04,
  0x0a, 0xf7, 0xe9, 0xff, 0xf9, 0x03, 0xfb, 0xff, 0x0b, 0x07, 0xfc, 0x08,
  0x03, 0xfa, 0xeb, 0x01, 0x01, 0xf6, 0x07, 0x08, 0xfa, 0x00, 0xf6, 0xf5,
  0x06, 0x04, 0x32, 0x00, 0xfd, 0x09, 0xf1, 0xff, 0xf9, 0x0e, 0x1c, 0x0b,
  0xfa, 0x06, 0x16, 0x03, 0xef, 0x01, 0x13, 0x07, 0x09, 0x0a, 0xe1, 0xfb,
  0xf9, 0x01, 0x1b, 0xfb, 0x08, 0x03, 0x19, 0x04, 0xe9, 0x0d, 0x12, 0xfd,
  0x08, 0x02, 0xfb, 0xf9, 0xe1, 0xf9, 0xfb, 0xf9, 0xfc, 0xf8, 0x31, 0x01,
  0xdf, 0xfa, 0xdb, 0x08, 0xf9, 0xf6, 0x0e, 0x01, 0xf1, 0x09, 0x04, 0xfe,
  0x07, 0xf7, 0x35, 0x03, 0xf0, 0xf9, 0xe6, 0x04, 0x04, 0xfa, 0x48, 0xfc,
  0xf2, 0x05, 0xfb, 0xfb, 0x0c, 0xfd, 0xfd, 0x08, 0xe7, 0x0a, 0x21, 0x0c,
  0xf9, 0x0a, 0xe8, 0xfc, 0xe8, 0xfd, 0x14, 0x04, 0x03, 0x0c, 0xe5, 0xfb,
  0xfd, 0x0a, 0x0d, 0x05, 0xfa, 0xff, 0xec, 0x03, 0x00, 0x02, 0x1f, 0xfd,
  0xfd, 0xff, 0xef, 0xf6, 0x03, 0xf6, 0xda, 0x05, 0x02, 0x03, 0xf9, 0xf4,
  0xf6, 0xfa, 0xe5, 0xfe, 0x07, 0x01, 0xea, 0x06, 0x0b, 0xf2, 0xfa, 0xfb,
  0x00, 0x0d, 0xeb, 0x06, 0x02, 0xff, 0xec, 0x05, 0x09, 0xff, 0x00, 0xf3,
  0x00, 0x00, 0xf6, 0x10, 0x05, 0xf8, 0xdc, 0x03, 0xf7, 0x01, 0x16, 0x06,
  0xfe, 0xf6, 0xef, 0x09, 0xfd, 0x01, 0x0e, 0x0b, 0x03, 0x0a, 0xf4, 0xfc,
  0xec, 0xfd, 0x10, 0x02, 0x00, 0xfc, 0x11, 0x05, 0xfa, 0x04, 0xf7, 0xf6,
  0xff, 0xf8, 0xe5, 0x0a, 0xff, 0x02, 0x2b, 0xfe, 0x08, 0xff, 0x1b, 0x0c,
  0xf1, 0x03, 0x1c, 0x0a, 0x0b, 0x03, 0x0e, 0x08, 0xee, 0xf4, 0xde, 0x0a,
  0x00, 0x02, 0x33, 0x04, 0xea, 0x0a, 0xdd, 0x0b, 0xff, 0xfd, 0x01, 0x0d,
  0xf1, 0x06, 0x13, 0x02, 0x05, 0x03, 0x39, 0x00, 0xe1, 0x0c, 0x06, 0x08,
  0x0b, 0xfb, 0x33, 0x01, 0xfa, 0xf4, 0x05, 0x13, 0x03, 0x08, 0xf8, 0x04,
  0xdf, 0x05, 0x1b, 0x0f, 0x02, 0xfd, 0xe7, 0xfb, 0xf2, 0xfd, 0x07, 0x0f,
  0x08, 0xfc, 0xe3, 0xf6, 0xee, 0xfd, 0x0c, 0xfb, 0xfc, 0x04, 0xe2, 0xf7,
  0xf5, 0x02, 0x1b, 0x10, 0x05, 0xfb, 0xe9, 0xff, 0xf2, 0x01, 0xe9, 0x08,
  0x0d, 0x04, 0x03, 0x09, 0x05, 0xfd, 0xf5, 0xf8, 0x07, 0x00, 0xe2, 0x00,
  0xfa, 0x06, 0xf7, 0x0e, 0xff, 0xf9, 0xed, 0x06, 0xff, 0x08, 0x07, 0x0e,
  0x05, 0xff, 0x04, 0xfb, 0x07, 0x0a, 0xf2, 0x04, 0x03, 0xfd, 0xd8, 0xf5,
  0xfc, 0x05, 0x26, 0xf7, 0xfb, 0x01, 0xfe, 0x09, 0x0f, 0xfd, 0xff, 0xfd,
  0x0f, 0x09, 0xfc, 0x06, 0xff, 0x08, 0x0e, 0x0a, 0x05, 0xf9, 0x0a, 0x09,
  0xe6, 0x00, 0x0b, 0x01, 0x07, 0xf7, 0xf3, 0xfc, 0xed, 0x03, 0x21, 0xfd,
  0xfa, 0xfe, 0x22, 0x05, 0xe7, 0xf6, 0x10, 0x09, 0x02, 0x07, 0x13, 0x03,
  0xee, 0x0b, 0xf0, 0xfe, 0xf8, 0x08, 0x2e, 0x07, 0xef, 0x09, 0xf0, 0x05,
  0xff, 0x09, 0xed, 0x05, 0xe4, 0x09, 0xfc, 0x06, 0x02, 0x04, 0x3b, 0xf5,
  0xdd, 0x06, 0xf0, 0x06, 0x05, 0x00, 0x2d, 0xfc, 0xef, 0xfe, 0x00, 0x0c,
  0x0e, 0xfd, 0xf1, 0x09, 0xde, 0xff, 0x0f, 0x12, 0x06, 0xf7, 0xe2, 0xf2,
  0xeb, 0x02, 0x0e, 0x01, 0x03, 0x05, 0xdf, 0x05, 0xf4, 0x0c, 0x15, 0x02,
  0xfe, 0x03, 0xd8, 0xfb, 0xea, 0x06, 0x1d, 0x05, 0x0b, 0x09, 0xf2, 0xf6,
  0xef, 0x00, 0x04, 0x08, 0x09, 0xfe, 0x05, 0xf7, 0xea, 0xfc, 0xfd, 0xfd,
  0x0b, 0xf8, 0xea, 0x07, 0x11, 0x07, 0x06, 0xfd, 0x0b, 0x02, 0xf2, 0xf2,
  0xfd, 0x07, 0xfa, 0x02, 0x07, 0x06, 0x05, 0xf8, 0x0c, 0xfd, 0xf8, 0x02,
  0x0c, 0x04, 0xe7, 0xfc, 0xff, 0xf7, 0x17, 0x01, 0xf6, 0xf6, 0x0c, 0x04,
  0x10, 0xf7, 0x04, 0x06, 0x07, 0x0c, 0x01, 0xfe, 0xf6, 0xfe, 0x1d, 0x03,
  0xfc, 0xf9, 0x07, 0xf2, 0xe2, 0xf4, 0x03, 0xfb, 0xfe, 0x08, 0xe9, 0x03,
  0xef, 0x09, 0x24, 0x09, 0x05, 0xfd, 0x1f, 0x04, 0xe6, 0x01, 0x04, 0x00,
  0xff, 0x03, 0x15, 0xfa, 0xf0, 0x01, 0xeb, 0xff, 0xfa, 0x06, 0x1b, 0x08,
  0xeb, 0x02, 0xe1, 0x10, 0x0b, 0x06, 0x09, 0xf9, 0xd6, 0x04, 0x02, 0x0d,
  0x0a, 0x05, 0x2f, 0xf4, 0xdc, 0xf4, 0x10, 0x0a, 0x04, 0x08, 0x1a, 0x03,
  0xec, 0x0e, 0x04, 0x01, 0x04, 0xff, 0xeb, 0xfb, 0xe7, 0x04, 0x01, 0x08,
  0xf8, 0x0b, 0xdb, 0xf6, 0xf7, 0x0b, 0x0e, 0xfe, 0x02, 0x0b, 0xe0, 0x00,
  0xf6, 0x03, 0x27, 0xf8, 0x0b, 0xff, 0xf0, 0xf8, 0xe2, 0x09, 0x07, 0x0a,
  0xfe, 0xff, 0xec, 0xf9, 0xe4, 0xf8, 0xfc, 0xfb, 0xfe, 0x01, 0xf7, 0x01,
  0xf3, 0x03, 0xfb, 0x04, 0x08, 0x02, 0xee, 0x04, 0x00, 0x0e, 0xe0, 0x00,
  0x00, 0xff, 0xfb, 0x09, 0xf8, 0x02, 0x02, 0x01, 0xf5, 0x09, 0x03, 0xf7,
  0x09, 0x02, 0xf8, 0x08, 0xf6, 0x02, 0xf0, 0xf9, 0xf3, 0xfa, 0x0d, 0x03,
  0xfe, 0xfa, 0xee, 0xfd, 0xed, 0x08, 0xf8, 0x02, 0x0b, 0xfb, 0xf7, 0x0b,
  0xf7, 0x0b, 0x19, 0x07, 0x03, 0x04, 0x0d, 0x00, 0xe7, 0x01, 0xfa, 0x07,
  0xf6, 0xf9, 0xfe, 0xf9, 0xf3, 0xf8, 0x1c, 0x0f, 0x0d, 0xff, 0x22, 0x0b,
  0xda, 0x04, 0xed, 0x00, 0x04, 0x03, 0x1c, 0x06, 0xe9, 0x00, 0xf1, 0x0e,
  0x0a, 0xf8, 0x28, 0xfe, 0xf4, 0x0a, 0xe9, 0x0c, 0x0f, 0x05, 0x0a, 0xfc,
  0xd6, 0xfd, 0xfb, 0x03, 0xfd, 0x09, 0x2d, 0xf4, 0xe0, 0xfd, 0x19, 0x01,
  0x01, 0x09, 0x23, 0x02, 0xee, 0xfd, 0x0b, 0x07, 0x08, 0x05, 0xe9, 0xfd,
  0xef, 0x02, 0x18, 0x03, 0x0c, 0x03, 0xdd, 0xf8, 0xea, 0x0a, 0xf6, 0x01,
  0x02, 0x01, 0xcf, 0xf0, 0xf0, 0x00, 0x37, 0xfc, 0xf9, 0x0a, 0xf1, 0xfb,
  0xe2, 0x01, 0x00, 0xf8, 0xfa, 0xf3, 0xf6, 0xf5, 0xf3, 0x03, 0xfa, 0x00,
  0x05, 0x09, 0xf8, 0xfc, 0x06, 0xfd, 0xf7, 0xfe, 0x00, 0x03, 0xe8, 0x07,
  0xee, 0x0a, 0xe4, 0xfb, 0x00, 0xfa, 0xed, 0x05, 0x06, 0xf8, 0xf2, 0x08,
  0xfd, 0x04, 0xf9, 0x04, 0x0f, 0x02, 0x0b, 0x00, 0x0c, 0x03, 0xeb, 0x04,
  0xf3, 0x01, 0x05, 0x02, 0x07, 0x05, 0xf6, 0x03, 0xed, 0xff, 0xfb, 0xf8,
  0x08, 0xfe, 0xf1, 0xfa, 0xf6, 0xfa, 0x0e, 0x03, 0xf6, 0x00, 0x0e, 0x06,
  0xeb, 0xfc, 0x0c, 0x08, 0x02, 0xfd, 0xfa, 0xff, 0xe7, 0xf3, 0x21, 0x00,
  0x02, 0x06, 0x11, 0x03, 0xdb, 0x07, 0xfb, 0x02, 0x07, 0x06, 0x13, 0xfe,
  0xe6, 0x01, 0xf6, 0x0b, 0x05, 0xfa, 0x19, 0x08, 0xda, 0x0b, 0xfd, 0x07,
  0x02, 0x01, 0x16, 0x00, 0xe4, 0x07, 0xd7, 0x04, 0xfd, 0x03, 0x33, 0x02,
  0xe3, 0xf8, 0x0b, 0x05, 0xfb, 0xfe, 0x27, 0x00, 0xe6, 0x0c, 0x07, 0xf8,
  0x02, 0x10, 0xe6, 0x09, 0xf6, 0x02, 0x0e, 0x0d, 0xf5, 0x00, 0xe9, 0x0a,
  0xe5, 0xf9, 0xed, 0xff, 0x0c, 0xfb, 0xe6, 0x04, 0xe8, 0x01, 0x42, 0xf8,
  0x05, 0x06, 0xf5, 0xfa, 0xe3, 0x0b, 0x1d, 0x09, 0x00, 0xfd, 0xf2, 0xfc,
  0xf3, 0xff, 0xe0, 0x0b, 0x06, 0xff, 0xfe, 0x05, 0x05, 0x02, 0x0d, 0x10,
  0x04, 0x05, 0xec, 0x02, 0xf4, 0x05, 0xe4, 0xfd, 0x0a, 0x03, 0xed, 0xfb,
  0x11, 0x07, 0x08, 0x0b, 0xf9, 0x0c, 0xf9, 0xf7, 0x0a, 0x06, 0x0b, 0x09,
  0xfa, 0xfd, 0xe5, 0xfd, 0xe0, 0xf9, 0x05, 0xfe, 0xfb, 0xfb, 0x01, 0xfa,
  0xe7, 0x03, 0x25, 0xfe, 0x03, 0x04, 0xf6, 0xf2, 0xf8, 0x00, 0x0c, 0x00,
  0xfc, 0xfe, 0x0f, 0x00, 0xea, 0xf6, 0xfe, 0xf9, 0xfc, 0xff, 0x02, 0x02,
  0xdc, 0xfc, 0xf4, 0x09, 0x02, 0x03, 0x02, 0x00, 0xd3, 0x03, 0xec, 0x05,
  0x08, 0x04, 0x0e, 0xfe, 0xdf, 0xf6, 0x0a, 0xf8, 0x0e, 0x06, 0x21, 0x0c,
  0xde, 0x0c, 0x0f, 0x0f, 0xfe, 0x07, 0x2e, 0x01, 0xd9, 0xfd, 0xd1, 0x05,
  0xfb, 0xf5, 0x24, 0xff, 0xe6, 0x06, 0x1a, 0x06, 0xfc, 0x0b, 0x31, 0x05,
  0xcb, 0xf9, 0x08, 0xfe, 0x01, 0x07, 0xef, 0xfc, 0xe1, 0xff, 0x1a, 0xf8,
  0xfb, 0xfd, 0xf0, 0x09, 0xde, 0xfa, 0xdb, 0x04, 0x09, 0x02, 0xdb, 0x04,
  0xf3, 0x01, 0x3f, 0x00, 0xfe, 0x0c, 0xea, 0x06, 0xf1, 0x09, 0x1c, 0x06,
  0x08, 0xfd, 0xea, 0x06, 0x07, 0xfd, 0xd5, 0x00, 0xfe, 0x02, 0x07, 0x05,
  0x02, 0x07, 0x11, 0x0a, 0xfc, 0x10, 0xe8, 0xf9, 0xfb, 0x01, 0xfe, 0x02,
  0x05, 0x00, 0xed, 0x01, 0x23, 0x08, 0x09, 0x0b, 0xff, 0x02, 0xfb, 0xfc,
  0x22, 0x03, 0x11, 0x06, 0x02, 0xf8, 0xec, 0xfe, 0xe4, 0xff, 0xfd, 0x03,
  0x08, 0xf5, 0x01, 0x02, 0xe4, 0x04, 0x21, 0x0a, 0xf5, 0x0a, 0x00, 0x01,
  0xf6, 0x02, 0x18, 0xf7, 0x03, 0x07, 0x0d, 0x01, 0xf1, 0x06, 0xf3, 0x00,
  0x05, 0x01, 0xf4, 0xfc, 0xe3, 0x07, 0xfe, 0x0c, 0x01, 0x07, 0x10, 0xfb,
  0xdb, 0x02, 0xe4, 0xfc, 0xff, 0x07, 0x22, 0x07, 0xe7, 0x00, 0x1d, 0x03,
  0x00, 0x00, 0x1c, 0xfc, 0xd3, 0x02, 0x1b, 0x02, 0x04, 0xf9, 0x39, 0x00,
  0xc7, 0xf9, 0xe3, 0x01, 0x03, 0x00, 0x21, 0xfc, 0xef, 0x05, 0x04, 0xff,
  0xff, 0x02, 0x2b, 0xfd, 0xd4, 0xf9, 0x00, 0x09, 0xff, 0x00, 0xf4, 0x08,
  0xed, 0xfa, 0x07, 0x07, 0x00, 0xf5, 0xf4, 0x00, 0xe7, 0xff, 0xf7, 0xfb,
  0x04, 0xfa, 0xd7, 0xff, 0xe5, 0x0d, 0x1c, 0xfe, 0x0c, 0xfa, 0xf5, 0xf1,
  0xf0, 0x00, 0x15, 0xfb, 0x0a, 0x0d, 0xf3, 0xfb, 0xf5, 0x09, 0xd4, 0x04,
  0x03, 0x0b, 0xf7, 0xfd, 0x0a, 0xf2, 0x18, 0x00, 0xfc, 0xfc, 0xe9, 0x02,
  0xff, 0x01, 0x17, 0xff, 0x05, 0x04, 0x01, 0xf4, 0x04, 0x01, 0x0e, 0xfb,
  0x03, 0x08, 0xfe, 0xf7, 0x10, 0x07, 0x01, 0xf7, 0x06, 0x0b, 0xf7, 0xfe,
  0xd9, 0xff, 0x00, 0x03, 0xfe, 0xfe, 0xf0, 0x07, 0xeb, 0x0b, 0x19, 0x00,
  0x03, 0x00, 0xf1, 0xf6, 0xdb, 0xfa, 0x04, 0xf7, 0x09, 0x06, 0x07, 0x03,
  0xee, 0x00, 0xfd, 0xfb, 0xf7, 0xfc, 0x0d, 0xfd, 0xfb, 0xf7, 0xf9, 0x0f,
  0xfe, 0x05, 0x09, 0xf9, 0xe7, 0xff, 0xf9, 0xf9, 0xfd, 0xfe, 0x0b, 0x08,
  0xf8, 0x02, 0x2d, 0x02, 0x08, 0x04, 0x26, 0xfb, 0xdd, 0x04, 0x18, 0x06,
  0xfa, 0xff, 0x20, 0xfd, 0xda, 0x02, 0xe7, 0x05, 0xff, 0x0c, 0x23, 0x03,
  0xdc, 0x09, 0x02, 0xfd, 0x01, 0x04, 0x1a, 0xfc, 0xf5, 0xf6, 0xfa, 0x0b,
  0xfa, 0x01, 0xef, 0xf4, 0xf9, 0xfc, 0xfb, 0xfd, 0xfd, 0x01, 0xe6, 0x00,
  0xec, 0x03, 0xfe, 0x04, 0x0a, 0x0a, 0xd4, 0xff, 0xfb, 0xfd, 0x1a, 0xff,
  0x02, 0xff, 0xf7, 0x03, 0xed, 0xff, 0x11, 0x06, 0x01, 0x05, 0xf5, 0xfe,
  0x04, 0xfa, 0xd8, 0x0c, 0xfa, 0xff, 0xf8, 0xf7, 0x15, 0xfd, 0x04, 0x04,
  0xf9, 0xf8, 0xe8, 0x06, 0xf0, 0xfe, 0x1e, 0x00, 0xf5, 0xfc, 0xfa, 0x03,
  0x04, 0xf6, 0x02, 0x07, 0xfa, 0xf5, 0xf4, 0xfa, 0x02, 0x02, 0xe8, 0x06,
  0xfc, 0x02, 0xfd, 0x01, 0xde, 0x02, 0x05, 0xfc, 0xf5, 0xfa, 0xf1, 0xff,
  0xf4, 0xfd, 0x0d, 0x0a, 0x0b, 0x03, 0x05, 0x0a, 0xd5, 0x03, 0x15, 0x05,
  0xfc, 0xfe, 0x07, 0xfb, 0xe2, 0x0a, 0x22, 0x01, 0x00, 0x00, 0xfc, 0x04,
  0xd7, 0xfc, 0xf5, 0xff, 0x01, 0x04, 0x06, 0x07, 0xd9, 0x0d, 0x0f, 0xfb,
  0x0d, 0x04, 0x0e, 0xf3, 0xe9, 0x01, 0x3e, 0xfe, 0x00, 0x03, 0x25, 0xf8,
  0xd8, 0xfb, 0x12, 0xff, 0x04, 0xf7, 0x1e, 0x08, 0xec, 0xfd, 0xeb, 0xfd,
  0x0a, 0x03, 0x2b, 0xfa, 0xdd, 0xfd, 0xf2, 0x06, 0xfb, 0x0a, 0x1a, 0x00,
  0xee, 0xf8, 0x0b, 0x06, 0xf9, 0x01, 0xe2, 0x09, 0xe1, 0x00, 0xf0, 0x0a,
  0x06, 0xf5, 0xdf, 0xfb, 0xe4, 0x0a, 0x0d, 0xfe, 0x00, 0x07, 0xc9, 0x04,
  0x00, 0x0c, 0x2b, 0xfa, 0x04, 0x04, 0x07, 0xfe, 0xf1, 0x04, 0xd6, 0x02,
  0x05, 0xfe, 0xf2, 0xfb, 0x03, 0xfb, 0xe6, 0xf8, 0xfd, 0x03, 0xf7, 0x00,
  0x00, 0x05, 0xfd, 0x0e, 0xfd, 0xf8, 0xe9, 0xfe, 0xec, 0xfc, 0x1c, 0xfe,
  0x01, 0x05, 0xf4, 0x06, 0x0c, 0xf9, 0x1d, 0x0a, 0x05, 0x0f, 0xf8, 0xfe,
  0xf9, 0x08, 0xeb, 0x0f, 0xf8, 0x00, 0xfd, 0x0b, 0xe7, 0xfc, 0x10, 0xff,
  0xfa, 0x04, 0xfe, 0xf3, 0xf2, 0xfa, 0x07, 0x02, 0xf7, 0x0b, 0x04, 0x06,
  0xc7, 0x0b, 0xff, 0x05, 0x01, 0x01, 0x08, 0x02, 0xe5, 0x04, 0x17, 0xfc,
  0xf4, 0x0f, 0x03, 0x07, 0xd6, 0x01, 0xea, 0xfe, 0xf7, 0x07, 0x19, 0x02,
  0xe7, 0xfe, 0xfc, 0x07, 0x0e, 0x03, 0xfe, 0xfe, 0xf7, 0xfe, 0x13, 0x0d,
  0xfb, 0xf7, 0x29, 0x0e, 0xe1, 0x0a, 0x25, 0x06, 0xfb, 0x01, 0x30, 0xf9,
  0x01, 0xff, 0xd9, 0x02, 0xfd, 0xf5, 0x26, 0xf7, 0xe2, 0xff, 0xf6, 0x0a,
  0x00, 0x06, 0x23, 0xfb, 0xd6, 0x05, 0x00, 0x0e, 0x05, 0x04, 0xe5, 0xf7,
  0xf3, 0xfc, 0x03, 0xf9, 0xfe, 0x0a, 0xe7, 0x07, 0xe4, 0xfe, 0x16, 0xfa,
  0x05, 0x0d, 0xcf, 0x01, 0xfe, 0xf1, 0x1c, 0x05, 0x08, 0xfa, 0x01, 0xfc,
  0xf9, 0x08, 0xe8, 0xfd, 0x01, 0xfe, 0xee, 0xfb, 0xf9, 0x03, 0xfd, 0x05,
  0xfc, 0xff, 0xf0, 0xfe, 0xf9, 0xfb, 0xf2, 0x0c, 0x02, 0x0e, 0xe7, 0x07,
  0xe6, 0x05, 0x09, 0x04, 0x00, 0x07, 0xeb, 0xf6, 0x22, 0x05, 0x1d, 0x02,
  0x0f, 0xf9, 0xf5, 0xf2, 0xfa, 0xfa, 0xeb, 0xfa, 0x05, 0xf9, 0xf6, 0xfd,
  0xe2, 0x04, 0x0e, 0x09, 0x09, 0xfb, 0xf5, 0xfe, 0xf9, 0x0d, 0xfc, 0x06,
  0x00, 0x03, 0x00, 0x06, 0xcb, 0xf9, 0x06, 0x06, 0xfa, 0x05, 0x10, 0xf9,
  0xf4, 0x09, 0x0b, 0xfe, 0x06, 0x07, 0x02, 0x0a, 0xea, 0xfa, 0xfd, 0x06,
  0xf8, 0x0a, 0x14, 0x0b, 0xd4, 0xfa, 0xf7, 0x05, 0xfe, 0xfd, 0x13, 0xff,
  0xf9, 0xf6, 0x14, 0x01, 0x01, 0xfe, 0x2c, 0x07, 0xe2, 0x0b, 0x2f, 0x06,
  0x08, 0xf7, 0x25, 0xfb, 0x01, 0xf8, 0xee, 0x00, 0xfa, 0xfc, 0x14, 0x05,
  0xe5, 0xf5, 0xe9, 0xfc, 0xfb, 0xfe, 0x04, 0x01, 0xd3, 0xf9, 0x0c, 0x06,
  0xfe, 0xff, 0xdf, 0x04, 0xee, 0xfd, 0xed, 0x02, 0xfd, 0x04, 0xe0, 0xfe,
  0xf2, 0xfd, 0x0b, 0x04, 0x08, 0xf8, 0xc3, 0xfe, 0xfc, 0xf6, 0x0c, 0x07,
  0xf8, 0x03, 0xf6, 0xfd, 0x01, 0xf5, 0xf7, 0x03, 0x03, 0xfd, 0xfe, 0x00,
  0xfe, 0xf7, 0xee, 0x0c, 0x09, 0xfb, 0xf3, 0xff, 0xfb, 0x09, 0xec, 0x08,
  0xfc, 0x02, 0xef, 0xfd, 0xeb, 0xfa, 0x00, 0xfd, 0x03, 0xfd, 0xef, 0x01,
  0x0f, 0x00, 0xf0, 0x00, 0xf5, 0x05, 0xf6, 0x01, 0xe0, 0xfc, 0xfc, 0x02,
  0xf8, 0x09, 0xe2, 0xfa, 0xe4, 0xfe, 0x0b, 0xfa, 0x08, 0x07, 0xed, 0xfc,
  0xfe, 0xf5, 0xf4, 0x03, 0xfb, 0x01, 0xff, 0xfd, 0xe0, 0x01, 0xf4, 0xfb,
  0x01, 0x04, 0x15, 0xff, 0xff, 0xfe, 0xfa, 0xf9, 0xf5, 0xfd, 0x00, 0xf9,
  0xf0, 0xf6, 0x08, 0x04, 0x05, 0x01, 0x05, 0x0e, 0xe9, 0x02, 0xf5, 0xfd,
  0xfc, 0x04, 0x1f, 0x05, 0xfa, 0x06, 0xf9, 0x07, 0x08, 0xfe, 0x31, 0x04,
  0xf0, 0x09, 0x14, 0xfd, 0x0f, 0x02, 0x1c, 0x0e, 0x01, 0x04, 0xe7, 0x02,
  0x07, 0x03, 0x25, 0x02, 0xf0, 0x02, 0xf2, 0x0a, 0x06, 0x01, 0x33, 0x05,
  0xfd, 0x09, 0x09, 0x04, 0xfa, 0x06, 0xc8, 0x03, 0xf9, 0x04, 0xfa, 0xfa,
  0xf4, 0xfb, 0xce, 0xfd, 0xfc, 0xf6, 0x17, 0x07, 0xfd, 0x08, 0xc1, 0xf2,
  0x08, 0x04, 0xfd, 0xfc, 0xfe, 0x07, 0xe6, 0xf7, 0x01, 0xf5, 0x00, 0xf8,
  0x02, 0x00, 0xeb, 0xf2, 0x0f, 0x04, 0xe3, 0xf7, 0xfd, 0x09, 0xe6, 0x02,
  0xfd, 0x00, 0xf5, 0x02, 0xff, 0x0d, 0xf3, 0xf4, 0xe1, 0xf4, 0x14, 0x00,
  0xfd, 0xf7, 0xef, 0xf7, 0x1d, 0x07, 0xf9, 0xf6, 0x06, 0xf4, 0xf5, 0xef,
  0xeb, 0x04, 0x11, 0x09, 0xfa, 0xfd, 0xed, 0xfd, 0xe6, 0xf3, 0x11, 0x0d,
  0x02, 0x04, 0xe7, 0xfe, 0x05, 0xfc, 0xe9, 0xfd, 0x0a, 0x02, 0xff, 0xfe,
  0xf7, 0x04, 0xf6, 0xfc, 0xf4, 0x05, 0x00, 0x00, 0xfe, 0x0a, 0xf8, 0x02,
  0xfd, 0x06, 0x0e, 0xfa, 0xea, 0x04, 0x1a, 0x00, 0xfd, 0xf4, 0x1a, 0x07,
  0xeb, 0xfa, 0xf8, 0xfc, 0x0c, 0xf8, 0x20, 0xf8, 0x08, 0xfe, 0x04, 0x03,
  0x00, 0xf5, 0x40, 0x09, 0x0e, 0xfb, 0x2d, 0xf6, 0x02, 0x05, 0x23, 0x07,
  0x01, 0xfe, 0xed, 0x01, 0x07, 0x03, 0x2f, 0x12, 0xf0, 0xfd, 0x01, 0x06,
  0x05, 0x00, 0x18, 0xf3, 0x11, 0xfe, 0x0d, 0xf7, 0xfe, 0xfc, 0xd0, 0x03,
  0xfa, 0x0b, 0x04, 0x0b, 0x04, 0xf8, 0xe2, 0xff, 0xec, 0x00, 0x07, 0x06,
  0xff, 0x02, 0xbd, 0xf9, 0x0d, 0xf8, 0x03, 0xf3, 0xff, 0xf8, 0xdf, 0x01,
  0xf7, 0x04, 0x1c, 0xf9, 0x09, 0x07, 0xdd, 0xf5, 0x08, 0xfe, 0xf9, 0xfa,
  0xfc, 0x05, 0xea, 0xf9, 0x0a, 0xfe, 0xec, 0xf5, 0xf4, 0x04, 0xf6, 0x04,
  0xee, 0x00, 0xf9, 0x0a, 0xfe, 0x03, 0xfc, 0x00, 0x11, 0xfd, 0xf7, 0x06,
  0xfd, 0x01, 0xfc, 0xf9, 0xf0, 0xfe, 0xfd, 0xff, 0x0c, 0xf6, 0xf6, 0xfc,
  0xf6, 0xfb, 0xf2, 0x04, 0x04, 0xfe, 0xea, 0x0a, 0x20, 0x0b, 0x0c, 0xfc,
  0xfe, 0x02, 0xfc, 0xf9, 0xe1, 0x01, 0xda, 0xf5, 0x07, 0x00, 0x06, 0x05,
  0x00, 0xf9, 0xe1, 0x04, 0x03, 0xff, 0x00, 0xf5, 0xe4, 0xf8, 0xfe, 0x01,
  0xf4, 0x03, 0x1b, 0x02, 0x14, 0x0b, 0xf9, 0x03, 0xfb, 0xf9, 0x1f, 0xfa,
  0xf2, 0x01, 0xdc, 0xfb, 0xfa, 0xfd, 0x3e, 0x01, 0xed, 0x02, 0xff, 0x01,
  0xfd, 0xf9, 0x1d, 0x0c, 0x00, 0xf4, 0xf5, 0x08, 0xf8, 0xfd, 0x2d, 0x08,
  0xf1, 0xf8, 0xe2, 0xfe, 0xf7, 0xff, 0xda, 0x06, 0xfe, 0xf6, 0x03, 0x05,
  0xf6, 0x05, 0xc7, 0xf9, 0xe3, 0x00, 0xf8, 0xfa, 0xf5, 0xfe, 0xd8, 0xfa,
  0x06, 0xff, 0x0c, 0x03, 0xf2, 0x01, 0xcc, 0xfb, 0x0d, 0x03, 0xf0, 0x0a,
  0x02, 0x00, 0xe1, 0xf7, 0xff, 0x0b, 0x13, 0xfb, 0x04, 0xff, 0xe0, 0xff,
  0x05, 0xfc, 0xf6, 0x09, 0x04, 0xf8, 0xe9, 0xf7, 0xfc, 0xf7, 0xf4, 0x00,
  0x09, 0x0a, 0xef, 0xfd, 0x03, 0xff, 0xff, 0x0d, 0x08, 0x00, 0xf1, 0xf8,
  0x20, 0xf8, 0xf8, 0x05, 0x00, 0x07, 0xea, 0xfb, 0xe9, 0x04, 0x08, 0xf9,
  0xff, 0xfc, 0xe7, 0xfc, 0xed, 0x01, 0x08, 0xf7, 0x0a, 0x04, 0xec, 0xfd,
  0x11, 0x05, 0x0e, 0xfe, 0xf7, 0xf8, 0x02, 0x02, 0xdd, 0x0d, 0xe7, 0xfd,
  0xfa, 0xfe, 0xf6, 0xfb, 0xff, 0xf9, 0xe0, 0x0b, 0xff, 0xf8, 0x04, 0xfe,
  0xfe, 0x00, 0x0a, 0x09, 0x02, 0xff, 0x13, 0x02, 0x08, 0x08, 0x00, 0xf3,
  0x01, 0x07, 0x1e, 0x06, 0xf4, 0xf6, 0xf5, 0xfc, 0x01, 0xfe, 0x34, 0x04,
  0xf9, 0x06, 0x10, 0x0a, 0x00, 0xf9, 0x09, 0xf9, 0xff, 0xfe, 0xdc, 0xf9,
  0x02, 0xfb, 0x32, 0x12, 0x00, 0x06, 0xdf, 0xfe, 0xf7, 0xfe, 0xed, 0xf7,
  0xea, 0xfc, 0xfe, 0xfb, 0x02, 0xf4, 0xf1, 0xf6, 0xf6, 0xfb, 0xe7, 0xff,
  0xfd, 0x01, 0x1b, 0xf3, 0xed, 0x00, 0xf3, 0x00, 0x02, 0xfe, 0xf8, 0xff,
  0xed, 0xfa, 0x04, 0x03, 0xfd, 0x07, 0x1c, 0x06, 0xf4, 0xfe, 0xf5, 0x08,
  0xff, 0x03, 0xe5, 0x01, 0xe7, 0x02, 0xfc, 0xf6, 0xfc, 0xff, 0xfc, 0xf7,
  0xe9, 0xfa, 0x08, 0xfd, 0x05, 0xff, 0x1c, 0x03, 0xf7, 0x00, 0xff, 0xf0,
  0x01, 0xfc, 0x05, 0xf7, 0xf3, 0xfc, 0xf8, 0xf3, 0xff, 0xf8, 0x03, 0x09,
  0xef, 0x0a, 0xf5, 0xfe, 0x02, 0x0c, 0x0a, 0xf8, 0xf5, 0xff, 0x04, 0xf6,
  0x01, 0xf7, 0x15, 0xf9, 0xf6, 0xfc, 0xfe, 0xef, 0xf5, 0x03, 0x09, 0xf9,
  0xfc, 0xfc, 0x00, 0xf7, 0x07, 0xfe, 0x2e, 0xff, 0xe7, 0xff, 0x02, 0x07,
  0xf8, 0x0c, 0xd9, 0x00, 0xf2, 0xfe, 0xf8, 0xfa, 0x00, 0x0c, 0x04, 0x00,
  0xef, 0x03, 0x00, 0xfd, 0xfd, 0x03, 0xe4, 0xfc, 0xf1, 0x00, 0xf6, 0xfa,
  0xfd, 0xf9, 0xfd, 0xf9, 0xee, 0xf7, 0xf6, 0x01, 0xfd, 0xf9, 0xfd, 0x04,
  0xea, 0xf9, 0xf6, 0x04, 0xf9, 0x01, 0xa8, 0x03, 0xee, 0xfe, 0xf5, 0xf8,
  0xf1, 0x00, 0xfe, 0xf7, 0xfb, 0xff, 0x0b, 0xf4, 0xf3, 0xfd, 0xe2, 0xfe,
  0xf6, 0xfa, 0xc2, 0xf5, 0xf5, 0x00, 0xe6, 0x04, 0xfe, 0xff, 0xeb, 0xf7,
  0x00, 0x06, 0xee, 0x09, 0xfc, 0x06, 0xf9, 0xfe, 0xfd, 0xfb, 0xfb, 0x0c,
  0xe2, 0xf7, 0x07, 0xf4, 0xfc, 0x0c, 0xf9, 0xf9, 0xee, 0x00, 0xfa, 0xf7,
  0xfe, 0x0b, 0xee, 0x07, 0xe4, 0xff, 0xfb, 0xfb, 0xfc, 0xf9, 0x07, 0xfe,
  0xf6, 0xf9, 0x00, 0xf2, 0x05, 0x05, 0x13, 0x04, 0x0d, 0x02, 0x04, 0xfb,
  0xfe, 0xf5, 0xf9, 0x0b, 0x06, 0x06, 0x08, 0xf5, 0xf9, 0x06, 0x02, 0xf9,
  0xf9, 0xf8, 0xff, 0xf0, 0xf5, 0x01, 0x0e, 0x0c, 0x0c, 0xf5, 0x05, 0xf3,
  0xf3, 0x05, 0x06, 0xf3, 0x01, 0x02, 0xfa, 0xf6, 0xf8, 0x06, 0x16, 0xfa,
  0xfd, 0xff, 0x04, 0xf6, 0xf3, 0x08, 0x10, 0xfe, 0xf6, 0xf8, 0x09, 0x00,
  0xf3, 0x05, 0x06, 0x08, 0x06, 0x03, 0xf6, 0xf4, 0xff, 0x00, 0xfd, 0xf4,
  0x0f, 0xf9, 0xfc, 0x02, 0xfd, 0xfc, 0x0a, 0xf6, 0xe9, 0xf7, 0x03, 0xfd,
  0xf1, 0x00, 0xff, 0xf6, 0xf3, 0x06, 0xf2, 0xfe, 0xfe, 0xf6, 0xb6, 0x00,
  0xdb, 0x0b, 0xe7, 0xfe, 0xf9, 0xff, 0x18, 0x0d, 0xfd, 0xf8, 0xff, 0xf6,
  0xfe, 0x07, 0xd2, 0xf7, 0xf5, 0xf9, 0xa9, 0xfa, 0xf5, 0x03, 0xd3, 0xfa,
  0xed, 0xfc, 0xde, 0xfe, 0xfb, 0xfb, 0xfb, 0x08, 0xe5, 0x01, 0x03, 0x05,
  0xfa, 0x05, 0xea, 0x0b, 0xde, 0xfe, 0x01, 0xf4, 0xf4, 0x10, 0xff, 0x01,
  0xdc, 0xf9, 0xfb, 0xfa, 0xfc, 0x00, 0xe6, 0xfc, 0xe3, 0xf2, 0xfc, 0xf6,
  0xf7, 0x04, 0x04, 0x03, 0xee, 0x09, 0x00, 0xfe, 0x01, 0x0c, 0x1b, 0xfe,
  0x00, 0xfa, 0xf0, 0xfa, 0xfb, 0x08, 0x08, 0xf9, 0x0e, 0xf4, 0x01, 0xf7,
  0xf4, 0xfc, 0x09, 0x0e, 0x06, 0x01, 0xfb, 0xef, 0xf4, 0x05, 0x0a, 0x02,
  0xf3, 0x0a, 0xfb, 0xf9, 0x00, 0x02, 0xf3, 0x01, 0x09, 0xfc, 0x01, 0xf9,
  0xf8, 0x0a, 0x04, 0x03, 0xfa, 0x08, 0xf3, 0xf5, 0xfe, 0x02, 0x13, 0x01,
  0x03, 0x06, 0xf7, 0x07, 0xf7, 0x08, 0x04, 0xf9, 0x01, 0xfa, 0xfe, 0x05,
  0x04, 0x0b, 0xe6, 0x00, 0x0e, 0x06, 0x00, 0x01, 0xf8, 0xf9, 0xf2, 0xfe,
  0xf6, 0xff, 0x05, 0xfa, 0xfb, 0xfa, 0xf7, 0x09, 0x12, 0xfc, 0xbf, 0xf7,
  0xfa, 0x00, 0xc5, 0xfe, 0xf1, 0xff, 0xd8, 0x05, 0x00, 0xf6, 0xfe, 0xff,
  0xff, 0xf9, 0x08, 0xf0, 0xfd, 0x06, 0x05, 0x03, 0xfe, 0x06, 0xc8, 0xf5,
  0xf7, 0xfe, 0xd3, 0xf5, 0xf6, 0xfe, 0xd7, 0xf0, 0x06, 0x03, 0xf6, 0xff,
  0xeb, 0x08, 0xf6, 0xfa, 0x01, 0x07, 0xff, 0xfc, 0xeb, 0x02, 0x03, 0xf8,
  0xf7, 0x09, 0x05, 0x01, 0xf5, 0x05, 0x05, 0xfe, 0x01, 0xfc, 0xd9, 0xf8,
  0xf8, 0xf4, 0xff, 0xf4, 0xf8, 0x02, 0x16, 0x0a, 0xe6, 0xf8, 0x00, 0xf7,
  0x01, 0xfe, 0x20, 0x04, 0xf5, 0x09, 0x06, 0xf7, 0xf5, 0xf6, 0x23, 0x05,
  0xf4, 0xfb, 0x0d, 0xf2, 0x04, 0x0d, 0x0c, 0xfe, 0xf5, 0xfd, 0x02, 0xfe,
  0xfe, 0x0e, 0x07, 0x0a, 0xec, 0xf8, 0xf3, 0xf7, 0xfc, 0x0c, 0xe9, 0x03,
  0xfa, 0xfd, 0xf1, 0xfb, 0xf7, 0x05, 0xf2, 0x03, 0xfc, 0xfa, 0xf6, 0xfb,
  0xf3, 0xf8, 0x26, 0xfc, 0xf1, 0x04, 0x0c, 0x01, 0xfc, 0x05, 0x07, 0x05,
  0xf7, 0x02, 0x0d, 0xf8, 0xfc, 0xfd, 0x00, 0x07, 0xfa, 0xfd, 0x03, 0xf9,
  0xfb, 0xff, 0xeb, 0x01, 0xee, 0x04, 0xea, 0xfd, 0x01, 0x05, 0xde, 0x03,
  0x0a, 0x01, 0xd4, 0xfd, 0xf8, 0x0c, 0xd2, 0x04, 0xe3, 0x01, 0xde, 0xf4,
  0xf0, 0x08, 0x13, 0xf7, 0xf2, 0xfc, 0xfe, 0x05, 0xfa, 0x0c, 0x17, 0xf0,
  0xf7, 0x08, 0xd7, 0xf5, 0xf9, 0x05, 0xee, 0x06, 0xf8, 0xfc, 0xe4, 0xff,
  0x01, 0x05, 0x0b, 0x04, 0xfa, 0xfe, 0xfc, 0xf0, 0xfb, 0xfa, 0xfa, 0x02,
  0xff, 0xfb, 0x18, 0xfa, 0x05, 0x01, 0x12, 0x02, 0x02, 0x00, 0x08, 0x02,
  0xfa, 0x00, 0xef, 0x05, 0x04, 0xf5, 0x0f, 0xee, 0xfa, 0xfc, 0x21, 0x00,
  0xfc, 0x04, 0x00, 0xfc, 0xf6, 0xfd, 0x28, 0x01, 0xf9, 0x05, 0xf9, 0xf4,
  0xfa, 0x01, 0x24, 0xfb, 0x05, 0xfa, 0x05, 0xfd, 0xff, 0xf9, 0x00, 0xf8,
  0xf5, 0xff, 0x08, 0xf9, 0xf4, 0xfb, 0x25, 0xfc, 0xf5, 0xfe, 0xe5, 0xfe,
  0xf2, 0x06, 0x0e, 0x07, 0xea, 0xfe, 0xe1, 0xfb, 0xf5, 0xfc, 0xe3, 0xfc,
  0xe9, 0xfc, 0xfb, 0xf7, 0x02, 0xff, 0x40, 0xfc, 0xeb, 0x00, 0x14, 0xf8,
  0xf5, 0x04, 0x18, 0x04, 0xf8, 0x07, 0x16, 0xfb, 0x08, 0x04, 0xf1, 0x07,
  0xf2, 0xf7, 0x03, 0x08, 0x07, 0xfe, 0xdc, 0xff, 0xed, 0xff, 0xf2, 0x05,
  0x03, 0xf7, 0xdd, 0x01, 0x21, 0xf0, 0xf5, 0xfc, 0xfb, 0xf7, 0xd8, 0x05,
  0xf6, 0xf2, 0xe2, 0xff, 0xf9, 0xfd, 0xfe, 0xf9, 0x00, 0x03, 0x0c, 0xf5,
  0x04, 0x0d, 0x1d, 0xfb, 0xff, 0xff, 0xe2, 0xf3, 0x05, 0xff, 0xed, 0x06,
  0x0b, 0xff, 0xea, 0x09, 0x06, 0xfe, 0x08, 0x02, 0xff, 0x03, 0xfe, 0x05,
  0x04, 0x00, 0x05, 0xfa, 0xfc, 0x00, 0x14, 0xf4, 0xf9, 0x02, 0x14, 0x02,
  0x08, 0x01, 0x19, 0x00, 0x05, 0x03, 0x04, 0x05, 0xff, 0xfa, 0xff, 0xfb,
  0xff, 0xf6, 0x17, 0x08, 0xeb, 0xfe, 0xf5, 0xf5, 0x00, 0x04, 0x2b, 0xfb,
  0xe9, 0x08, 0xf0, 0x02, 0xff, 0xfd, 0x16, 0xfe, 0xfd, 0xf8, 0x27, 0xff,
  0x00, 0x00, 0x13, 0x01, 0xfd, 0xf7, 0x13, 0xfa, 0xf8, 0x08, 0x1a, 0x05,
  0xf5, 0xf6, 0xe1, 0x00, 0x06, 0xfd, 0x0b, 0xf6, 0xef, 0xf2, 0xd6, 0x02,
  0x03, 0xfa, 0xd4, 0x00, 0xf9, 0xff, 0x0a, 0xfa, 0xfa, 0xfa, 0x39, 0xff,
  0xf2, 0x04, 0x15, 0xfc, 0xfe, 0x08, 0x0d, 0x0d, 0xfc, 0xf5, 0x30, 0xfd,
  0x02, 0x04, 0x0a, 0x0c, 0x01, 0xfc, 0x11, 0xfa, 0x00, 0xfd, 0xf7, 0x00,
  0xf5, 0xf6, 0xfb, 0xff, 0xff, 0xfe, 0xc5, 0x09, 0x09, 0xfa, 0x1a, 0xfd,
  0x00, 0x01, 0xd5, 0x05, 0xfe, 0xfe, 0xd2, 0x02, 0xfa, 0xf9, 0xcf, 0x0a,
  0x0d, 0x06, 0xfe, 0xf0, 0x01, 0xfe, 0x09, 0x03, 0x06, 0xfc, 0xe8, 0xfe,
  0x06, 0xfb, 0x09, 0x07, 0x12, 0xfa, 0xff, 0xfa, 0xfd, 0x09, 0x16, 0x08,
  0x16, 0xff, 0xe3, 0xf4, 0xfa, 0x0b, 0xfc, 0x0b, 0x04, 0x03, 0x1e, 0x02,
  0x00, 0x0c, 0x14, 0x04, 0x05, 0xff, 0x14, 0x00, 0xfe, 0xf5, 0x02, 0x02,
  0xf9, 0xfc, 0x0b, 0xf9, 0xff, 0x06, 0x11, 0xfc, 0xf9, 0x01, 0xef, 0x00,
  0x00, 0xff, 0x21, 0x01, 0xf7, 0xfb, 0xf0, 0xf8, 0xfe, 0xf8, 0x06, 0x06,
  0xfc, 0xfb, 0x1f, 0x04, 0xfe, 0x06, 0x13, 0xf3, 0x02, 0xf2, 0xf9, 0xf9,
  0xfc, 0xff, 0x0c, 0x01, 0xf9, 0xfb, 0xc7, 0x03, 0xfe, 0xfa, 0x06, 0x00,
  0xfa, 0xf7, 0xe3, 0xfa, 0xf2, 0x0c, 0xd4, 0x00, 0xf1, 0x09, 0x11, 0xfa,
  0xf6, 0xf9, 0x2e, 0x0d, 0xf9, 0xfb, 0x07, 0x00, 0xf3, 0xf8, 0x07, 0xfe,
  0xff, 0x05, 0x10, 0xfd, 0xf2, 0x03, 0x25, 0x06, 0xf9, 0x03, 0x07, 0xf1,
  0xfb, 0xff, 0xff, 0x03, 0x0a, 0x01, 0x0c, 0x06, 0x0a, 0x06, 0xc3, 0x04,
  0x1b, 0xfc, 0x13, 0x03, 0x04, 0x08, 0xd0, 0x04, 0x04, 0x08, 0xd2, 0xfa,
  0x05, 0xfb, 0xb0, 0x01, 0x0d, 0x02, 0xfd, 0xf2, 0xf6, 0x01, 0x03, 0x0a,
  0x07, 0xf6, 0xe8, 0xf9, 0xf1, 0xfd, 0x08, 0x03, 0x07, 0x00, 0xf0, 0x08,
  0xfa, 0x01, 0x15, 0x06, 0x09, 0xf4, 0xd1, 0x07, 0xf7, 0x08, 0x08, 0x00,
  0xfd, 0x03, 0x2d, 0x06, 0xfd, 0x04, 0x06, 0xfc, 0x03, 0x01, 0x03, 0x09,
  0xf2, 0xf7, 0x14, 0xfa, 0xf9, 0x04, 0x09, 0xf4, 0xf5, 0xf9, 0x07, 0xf6,
  0xfa, 0x02, 0xf0, 0x07, 0x04, 0xfc, 0x1a, 0x04, 0xf0, 0x09, 0x02, 0xfc,
  0xf2, 0xfd, 0x03, 0x06, 0xfe, 0xfb, 0x13, 0xfc, 0x09, 0x0c, 0x15, 0xfd,
  0x09, 0xf4, 0xe5, 0x02, 0xfc, 0xf7, 0x1f, 0xfe, 0xfd, 0xff, 0xc3, 0xf5,
  0x01, 0x02, 0xf8, 0x00, 0xfc, 0x00, 0xe3, 0xfd, 0x04, 0x03, 0xd6, 0x01,
  0x05, 0xfb, 0x0b, 0xfc, 0x07, 0x02, 0x2a, 0xf8, 0x01, 0xf1, 0xde, 0x04,
  0xfb, 0x06, 0xf3, 0x00, 0x13, 0xfd, 0xfb, 0xf9, 0x00, 0x03, 0x22, 0x07,
  0x0b, 0xfc, 0x01, 0x04, 0xfc, 0x04, 0xe0, 0x03, 0x0a, 0xfb, 0x0d, 0x01,
  0x05, 0xfd, 0xe8, 0xf6, 0x1a, 0x01, 0x03, 0x04, 0x00, 0x05, 0xce, 0x02,
  0xff, 0x0c, 0xf8, 0xf5, 0xf9, 0xf6, 0x9a, 0xfb, 0x08, 0xfe, 0x06, 0xf5,
  0x01, 0x03, 0xfa, 0xfd, 0xfd, 0xf6, 0xdf, 0x00, 0xfc, 0x01, 0x05, 0xf5,
  0x01, 0xf9, 0xfd, 0xf7, 0xfb, 0xf8, 0x0b, 0x06, 0xf9, 0x04, 0xe4, 0xf3,
  0x06, 0xfb, 0x06, 0x07, 0xfa, 0xfe, 0x14, 0xfb, 0xfa, 0xf3, 0x08, 0xf9,
  0x03, 0xfb, 0x10, 0xfa, 0xfe, 0xf5, 0x0a, 0xf8, 0xf8, 0x01, 0x0f, 0xf7,
  0x04, 0x02, 0x17, 0xf5, 0x04, 0x0b, 0x02, 0xf5, 0xf6, 0xfe, 0x0b, 0x06,
  0xec, 0x05, 0x05, 0x00, 0xfe, 0xfa, 0x03, 0x04, 0xf7, 0x01, 0x13, 0xf2,
  0xf6, 0x08, 0x11, 0x05, 0xfb, 0xf9, 0x04, 0xf8, 0xf7, 0xf7, 0x10, 0xfa,
  0xfa, 0xfc, 0xbf, 0xfe, 0xff, 0x08, 0x04, 0xff, 0x00, 0x0a, 0xea, 0xf8,
  0xfd, 0x08, 0xed, 0xff, 0x15, 0x01, 0xf8, 0xfc, 0xff, 0xfe, 0x27, 0xff,
  0xff, 0x03, 0xec, 0xf0, 0x08, 0x0b, 0xf9, 0xff, 0x15, 0xfb, 0xf6, 0xff,
  0x00, 0x00, 0x20, 0xf6, 0x10, 0xff, 0x0f, 0x02, 0xf9, 0x04, 0xdd, 0x00,
  0x11, 0xf6, 0x29, 0x06, 0x00, 0x02, 0xe2, 0xff, 0x17, 0xfd, 0xef, 0x09,
  0xf6, 0x04, 0xd4, 0x01, 0x10, 0x02, 0x15, 0x04, 0x02, 0xfc, 0x81, 0xff,
  0x05, 0x0a, 0xf4, 0x01, 0x08, 0xfd, 0x00, 0xfd, 0x0c, 0xf5, 0xd6, 0xf7,
  0x00, 0xfb, 0x0f, 0xfb, 0x0f, 0x06, 0xfd, 0xfc, 0xf7, 0xfd, 0x13, 0x02,
  0xf0, 0xf3, 0xe4, 0xf8, 0xff, 0xfb, 0x17, 0xfc, 0xf8, 0x0a, 0x05, 0xf7,
  0xf4, 0xff, 0x0b, 0xff, 0xfe, 0xfd, 0x23, 0x02, 0xf5, 0x05, 0x0c, 0x0b,
  0x05, 0x00, 0x13, 0xf7, 0xf4, 0x05, 0x16, 0x00, 0xfd, 0xf8, 0xfd, 0xfc,
  0xf9, 0x07, 0x11, 0xf7, 0xfe, 0xfc, 0x1c, 0x09, 0x05, 0x01, 0x06, 0x08,
  0xf1, 0x09, 0x09, 0x02, 0xf9, 0x0c, 0x18, 0x01, 0x0c, 0xf8, 0xfc, 0x01,
  0xf3, 0x04, 0x0b, 0xfe, 0xf8, 0x00, 0xce, 0xf6, 0xfe, 0x06, 0x01, 0x0e,
  0x00, 0x05, 0xda, 0x01, 0xfa, 0x01, 0xf2, 0xff, 0x08, 0xf5, 0xef, 0xf2,
  0xf5, 0x03, 0x20, 0xf2, 0x12, 0x09, 0xcf, 0xfb, 0xf1, 0x02, 0xde, 0x09,
  0x14, 0x04, 0xee, 0xfd, 0x01, 0x03, 0x04, 0x07, 0x17, 0x09, 0x08, 0xee,
  0xfc, 0xf9, 0xc7, 0x00, 0x21, 0xfb, 0x38, 0x06, 0xf8, 0xfe, 0xe7, 0xff,
  0x0a, 0xf6, 0xf7, 0xf5, 0x06, 0xf9, 0xc9, 0x07, 0x1e, 0x07, 0x0f, 0xfd,
  0x04, 0xf1, 0xbf, 0x08, 0x0f, 0xff, 0x07, 0x06, 0xff, 0xff, 0x0b, 0x04,
  0x0d, 0x00, 0xdd, 0x01, 0xfe, 0x07, 0x14, 0xfd, 0x0f, 0x0a, 0x00, 0xfd,
  0xf2, 0xf9, 0x1f, 0x06, 0x02, 0xff, 0xee, 0xf3, 0xf8, 0xf8, 0x19, 0x04,
  0x04, 0x06, 0xe0, 0x03, 0xf8, 0xff, 0x14, 0x08, 0xfd, 0x01, 0x26, 0xfa,
  0x01, 0xfe, 0x01, 0xf9, 0x01, 0xfa, 0x15, 0x08, 0x01, 0x03, 0x19, 0x00,
  0xfa, 0xfa, 0x15, 0xf7, 0x00, 0xff, 0x1c, 0x06, 0xfa, 0x07, 0x0f, 0xef,
  0xff, 0xfe, 0x08, 0xf5, 0xf7, 0x0a, 0x0c, 0x02, 0xf5, 0xf4, 0x25, 0xfc,
  0x10, 0x00, 0xd5, 0x02, 0xfa, 0xfc, 0xff, 0x01, 0x0b, 0x07, 0xe6, 0xf9,
  0xfc, 0x00, 0x02, 0x04, 0x01, 0x09, 0xf6, 0xf0, 0xfd, 0xf5, 0xee, 0x01,
  0x15, 0x01, 0xfc, 0x02, 0xf8, 0x01, 0x19, 0x04, 0x09, 0x0d, 0xd7, 0xfb,
  0xf8, 0x01, 0xe6, 0xf3, 0x0d, 0xf9, 0xe8, 0xf7, 0x02, 0xf3, 0xf7, 0x05,
  0x0e, 0x0d, 0x16, 0xf1, 0x05, 0xfc, 0xd1, 0xff, 0x15, 0xf3, 0x2b, 0xfc,
  0x06, 0xfc, 0x02, 0xfd, 0x13, 0xfa, 0x00, 0xf1, 0xfe, 0x08, 0xd5, 0x02,
  0x1a, 0xfb, 0x05, 0xfb, 0xfc, 0xfb, 0xc8, 0x03, 0x05, 0xfe, 0xf6, 0xf4,
  0xf6, 0x03, 0x07, 0xfb, 0x1a, 0x0a, 0xe4, 0xf0, 0x04, 0x01, 0x18, 0x02,
  0x07, 0x00, 0xf5, 0x01, 0xfd, 0xfc, 0x1f, 0xfb, 0x0c, 0x03, 0xf7, 0xf7,
  0xf2, 0xfe, 0x1d, 0x01, 0x0d, 0x01, 0xed, 0xfe, 0x01, 0x0c, 0x16, 0x03,
  0x11, 0xf7, 0x17, 0x03, 0xfa, 0x00, 0xfc, 0x03, 0x09, 0xfd, 0xff, 0x05,
  0xfb, 0xf4, 0x13, 0x00, 0x05, 0x0d, 0x10, 0xf0, 0x01, 0xf4, 0x10, 0x08,
  0x07, 0xfe, 0xf9, 0xf1, 0xf4, 0x01, 0xf8, 0x00, 0x01, 0xf7, 0x0a, 0x03,
  0xfa, 0x01, 0x22, 0xff, 0x06, 0x04, 0xda, 0xfa, 0xff, 0x09, 0xf9, 0xf8,
  0xf3, 0x0b, 0xfd, 0xf4, 0xf9, 0x05, 0x0e, 0x00, 0x04, 0xff, 0xef, 0xf4,
  0x01, 0x06, 0x00, 0x02, 0x0f, 0x01, 0x02, 0xf9, 0x01, 0xff, 0x1b, 0xfa,
  0x0c, 0x09, 0xe1, 0xf9, 0xf9, 0xf6, 0xde, 0x05, 0x0c, 0x02, 0xe3, 0x02,
  0x09, 0xf6, 0xf7, 0x05, 0x11, 0xfa, 0x04, 0xf5, 0xf1, 0x01, 0xd3, 0xfb,
  0x15, 0xf9, 0x1d, 0xf8, 0x01, 0xf1, 0x09, 0xfa, 0x20, 0x05, 0x03, 0xfc,
  0xf6, 0xf8, 0xcc, 0xff, 0x19, 0x0d, 0xfc, 0xf9, 0xfd, 0xfc, 0xdb, 0xfa,
  0x15, 0xfe, 0x03, 0xed, 0x08, 0x04, 0x13, 0xfe, 0x1e, 0x06, 0xe0, 0x00,
  0x01, 0x06, 0x1e, 0x04, 0x14, 0x06, 0xef, 0xff, 0x03, 0xff, 0x20, 0xfb,
  0x0f, 0xf4, 0xf4, 0xf8, 0xfb, 0xfb, 0x21, 0x03, 0x0f, 0xfd, 0xf0, 0xfd,
  0xfb, 0x07, 0x14, 0xf7, 0x19, 0xfb, 0x06, 0x04, 0xf8, 0xff, 0x06, 0x0d,
  0x0b, 0xfb, 0x13, 0x02, 0xfe, 0xfb, 0x0e, 0xfe, 0xf3, 0x07, 0x0b, 0x01,
  0x00, 0x00, 0x1a, 0x09, 0x0f, 0x01, 0xef, 0xfe, 0xfe, 0x03, 0xfa, 0x05,
  0xee, 0x02, 0x05, 0x05, 0xf9, 0xfb, 0x1d, 0x00, 0xfc, 0x00, 0xec, 0xf8,
  0x09, 0xf9, 0x08, 0x03, 0xf7, 0x01, 0x03, 0xf7, 0xf2, 0xf9, 0xfd, 0x07,
  0x00, 0x02, 0xdc, 0xfa, 0x04, 0xf9, 0xf7, 0x01, 0x13, 0x08, 0x11, 0x05,
  0xfd, 0x0c, 0x0e, 0xff, 0x05, 0x04, 0xde, 0xfa, 0x04, 0x00, 0xda, 0x09,
  0x22, 0xfa, 0x08, 0xff, 0xfd, 0x0c, 0xe9, 0xfc, 0x20, 0x09, 0x0b, 0xf1,
  0xfd, 0xf4, 0xd2, 0xff, 0x10, 0xfe, 0x24, 0xf4, 0x02, 0x09, 0xeb, 0xf7,
  0x28, 0xf2, 0x03, 0x02, 0xf4, 0x00, 0xce, 0xfc, 0x1c, 0xf5, 0xef, 0x00,
  0x08, 0x01, 0xf2, 0x06, 0x11, 0x02, 0xfc, 0xfd, 0xfd, 0x04, 0x16, 0x02,
  0x10, 0x07, 0xf1, 0x09, 0xfc, 0xfe, 0x28, 0x07, 0x0e, 0xfa, 0xef, 0xfd,
  0xf8, 0x02, 0x28, 0xfe, 0x1e, 0x09, 0xe3, 0xff, 0xfc, 0x06, 0x1f, 0x09,
  0x1c, 0x01, 0x01, 0xf3, 0xf8, 0xfc, 0x17, 0x07, 0x11, 0x02, 0x03, 0xfb,
  0xf5, 0xfb, 0x08, 0x07, 0x13, 0x03, 0x0d, 0xf9, 0x01, 0xfc, 0x10, 0x00,
  0xff, 0x08, 0x1e, 0xfd, 0x04, 0xf6, 0x0f, 0xfd, 0xfe, 0x00, 0x02, 0x01,
  0x00, 0xfd, 0xfd, 0xfd, 0xf5, 0x04, 0xf3, 0xfd, 0x00, 0xfd, 0x15, 0x06,
  0x15, 0xf8, 0xf9, 0xfe, 0xfb, 0x01, 0x06, 0xfe, 0x08, 0x00, 0x0c, 0xfb,
  0xf3, 0x02, 0x09, 0x05, 0x0a, 0x04, 0xe6, 0xf0, 0x08, 0x0b, 0xf1, 0xfd,
  0x14, 0xfc, 0x0d, 0xf0, 0x0b, 0xff, 0xfa, 0xfc, 0x18, 0x01, 0xe3, 0x03,
  0xfe, 0x0a, 0xdb, 0x06, 0x1c, 0x02, 0x09, 0xff, 0xfa, 0xfe, 0xea, 0x07,
  0x15, 0x02, 0x13, 0x0a, 0xfb, 0xfd, 0xd3, 0xfa, 0x14, 0x02, 0x18, 0x04,
  0xfc, 0x0a, 0xfc, 0x0b, 0x2a, 0xfe, 0x0f, 0xff, 0x04, 0x07, 0xd6, 0xff,
  0x1a, 0x05, 0xf7, 0x03, 0x03, 0xf6, 0xdd, 0x04, 0x0e, 0xfb, 0xfe, 0xfc,
  0x00, 0x05, 0x1b, 0x02, 0x0b, 0xfb, 0xe7, 0xfc, 0xfd, 0xf6, 0x23, 0xff,
  0x1c, 0xf8, 0x0a, 0x00, 0xfa, 0x06, 0x31, 0x04, 0x15, 0x00, 0xda, 0x04,
  0x00, 0x05, 0x0b, 0x0c, 0x18, 0x0a, 0xeb, 0x02, 0x03, 0xfa, 0x10, 0xf9,
  0x18, 0x0a, 0x10, 0x0a, 0xfc, 0x04, 0x0e, 0xfd, 0x04, 0x01, 0x02, 0xf8,
  0xfe, 0xfb, 0x17, 0x01, 0x02, 0xfe, 0x20, 0x01, 0x07, 0xff, 0x04, 0xf8,
  0x04, 0x01, 0x0e, 0x07, 0xff, 0xfd, 0xfb, 0xfc, 0xeb, 0x04, 0xf3, 0xf8,
  0xfd, 0x00, 0x13, 0x03, 0x10, 0x09, 0xfd, 0xf5, 0x04, 0x0f, 0xfd, 0xfd,
  0x16, 0x09, 0xfb, 0xfb, 0xfb, 0xfc, 0x09, 0x01, 0x09, 0xf6, 0x00, 0xff,
  0xf6, 0xf4, 0xef, 0x03, 0x1e, 0xfd, 0xf7, 0xf4, 0xff, 0x05, 0x0d, 0x04,
  0x26, 0xfe, 0xdc, 0x01, 0xfe, 0xfc, 0xf3, 0xf4, 0x24, 0x00, 0x0c, 0xf7,
  0xfa, 0xfe, 0xed, 0x03, 0x0c, 0xfe, 0x09, 0xff, 0xff, 0xf7, 0xdc, 0xfe,
  0x26, 0xff, 0x04, 0xf9, 0x01, 0xff, 0xdd, 0x02, 0x25, 0x07, 0x23, 0xfe,
  0xfe, 0x05, 0xd8, 0x08, 0x0f, 0xf7, 0xf7, 0xff, 0x0a, 0xfa, 0xdf, 0x04,
  0x08, 0x05, 0x04, 0xf9, 0x05, 0x05, 0x1d, 0x01, 0x0a, 0xf7, 0xef, 0xfa,
  0x04, 0x01, 0x19, 0x03, 0x23, 0x03, 0x1b, 0xfd, 0x05, 0xfe, 0x27, 0x04,
  0x17, 0xfe, 0xd2, 0x04, 0xfb, 0xfc, 0x10, 0x02, 0x27, 0xfb, 0xf4, 0xf9,
  0x04, 0x04, 0x0b, 0xfb, 0x11, 0x0c, 0x0d, 0xf9, 0xf8, 0xff, 0x00, 0x02,
  0x01, 0xfd, 0x00, 0xf3, 0xfc, 0x04, 0x1b, 0xfd, 0x08, 0x07, 0x1d, 0xfb,
  0x09, 0xf8, 0x0c, 0x0a, 0xf5, 0xf7, 0xf9, 0x09, 0x0d, 0xfa, 0x11, 0x02,
  0xee, 0x06, 0xfa, 0xff, 0xfc, 0xf0, 0x10, 0x08, 0x14, 0x06, 0xff, 0xfa,
  0xfd, 0x05, 0xf8, 0xfe, 0x23, 0xff, 0xdc, 0xfc, 0xfd, 0x00, 0xfd, 0x02,
  0x0a, 0xfd, 0xf1, 0xf8, 0xff, 0x0a, 0xf6, 0xf8, 0x19, 0xf7, 0xf7, 0xfb,
  0xfb, 0xfe, 0x0a, 0x01, 0x1c, 0x06, 0x01, 0xf7, 0xf8, 0xfc, 0xe9, 0xf9,
  0x24, 0x0c, 0x19, 0xf9, 0xfe, 0x00, 0xe5, 0x01, 0x19, 0x00, 0xfc, 0x04,
  0xf8, 0x02, 0xd0, 0xf9, 0x23, 0xfc, 0xeb, 0x02, 0xff, 0xf5, 0xcb, 0xfd,
  0x26, 0x02, 0x25, 0x08, 0x07, 0x01, 0xe1, 0x02, 0x19, 0xf9, 0xec, 0x08,
  0xf5, 0xfb, 0xda, 0xf6, 0x28, 0xf7, 0xf1, 0xfc, 0x03, 0x03, 0x16, 0xff,
  0x11, 0x0a, 0xeb, 0xf7, 0xf8, 0xfe, 0x26, 0xf8, 0x2c, 0x03, 0x25, 0xf6,
  0xf5, 0x0b, 0x28, 0x00, 0x09, 0x0d, 0xc8, 0x00, 0xfa, 0x05, 0x06, 0x06,
  0x1b, 0x08, 0xec, 0x08, 0x00, 0x0c, 0x06, 0x0b, 0x12, 0xf9, 0x1d, 0xfe,
  0xff, 0xfc, 0x01, 0x06, 0xf0, 0xfc, 0xf9, 0x00, 0x00, 0xfa, 0x14, 0x06,
  0x06, 0x06, 0xfc, 0x02, 0xff, 0x08, 0x09, 0xf7, 0xde, 0xf6, 0xfb, 0xf8,
  0x0b, 0xfa, 0x04, 0x03, 0xee, 0x02, 0xf2, 0x02, 0x07, 0x02, 0x0f, 0x04,
  0x1b, 0xff, 0xff, 0x00, 0x08, 0x08, 0x07, 0x07, 0x12, 0xf4, 0xd3, 0x04,
  0x02, 0x04, 0x06, 0xf9, 0x15, 0xf4, 0xf4, 0x0c, 0xf8, 0xff, 0xfa, 0x06,
  0x1e, 0xfd, 0x07, 0xf8, 0x0c, 0xfd, 0x10, 0xf6, 0x2d, 0x0c, 0xfe, 0xf7,
  0xf3, 0x00, 0xf1, 0xf7, 0x23, 0x04, 0x14, 0xff, 0xf9, 0xf9, 0xe6, 0xfe,
  0x1f, 0xfa, 0xe5, 0xfd, 0xf7, 0xf3, 0xe7, 0xfc, 0x35, 0x04, 0xe5, 0xfb,
  0x06, 0xf4, 0xcd, 0xfa, 0x3d, 0xfa, 0x31, 0x0b, 0x00, 0xfd, 0xe2, 0xff,
  0x12, 0x08, 0xf8, 0xfe, 0x0a, 0xf3, 0xcc, 0xfb, 0x2d, 0x00, 0xf5, 0xf4,
  0x06, 0xff, 0x0d, 0x0c, 0x15, 0x03, 0xfe, 0x00, 0xfc, 0xfc, 0x15, 0x04,
  0x26, 0xfe, 0x09, 0xf8, 0x02, 0x09, 0x21, 0x04, 0x1d, 0x03, 0xe0, 0x04,
  0x06, 0xfa, 0x05, 0x09, 0x1f, 0xf6, 0xf5, 0xf2, 0xf7, 0xf6, 0x12, 0x07,
  0x06, 0xf4, 0x34, 0xfa, 0x08, 0xfa, 0x08, 0x00, 0xf8, 0xff, 0xeb, 0xf1,
  0x00, 0xfb, 0x0f, 0x01, 0x01, 0x02, 0xf9, 0xfa, 0xfc, 0x01, 0x0d, 0xfd,
  0xf4, 0xfe, 0xf2, 0xf6, 0xf7, 0xf7, 0x03, 0x09, 0xef, 0x00, 0xfb, 0xf9,
  0x01, 0x05, 0x10, 0x02, 0x24, 0x00, 0x07, 0xfd, 0xfb, 0xfd, 0x09, 0x06,
  0x0c, 0x08, 0xf2, 0xfe, 0xfc, 0x08, 0x01, 0xfd, 0x22, 0x00, 0xfb, 0x00,
  0xfa, 0x04, 0xfd, 0x09, 0x1b, 0xf3, 0xf1, 0xf0, 0x02, 0xff, 0x06, 0x09,
  0x09, 0xfa, 0x08, 0xfb, 0x0c, 0x00, 0xf9, 0x02, 0x26, 0xf4, 0x1a, 0xff,
  0xfb, 0xff, 0xeb, 0x08, 0x05, 0x03, 0xd4, 0xf8, 0x06, 0xfd, 0xf0, 0x02,
  0x1c, 0x04, 0xe7, 0x08, 0xfb, 0xfa, 0xdf, 0xf7, 0x2a, 0x06, 0x26, 0xf6,
  0xf6, 0x00, 0xea, 0x04, 0x1d, 0x02, 0xfa, 0x08, 0x02, 0xfc, 0xe2, 0x02,
  0x1f, 0xfa, 0x00, 0xfd, 0x07, 0x04, 0x0d, 0xfe, 0x13, 0x06, 0x09, 0x01,
  0x01, 0xf3, 0x1a, 0x0b, 0x05, 0xfb, 0x0f, 0xfd, 0xfc, 0x0a, 0x2a, 0x05,
  0x0a, 0x03, 0xec, 0xfb, 0xff, 0xf8, 0x07, 0x00, 0x1c, 0xf4, 0xf6, 0x00,
  0x00, 0xf5, 0x11, 0xfe, 0xfe, 0x03, 0x2a, 0x01, 0xfd, 0xf8, 0x0e, 0x08,
  0xe7, 0xfc, 0xf4, 0xf5, 0x00, 0x03, 0x12, 0x09, 0x14, 0x00, 0xea, 0xfa,
  0xff, 0xf1, 0x0e, 0x08, 0xf0, 0x0e, 0xfe, 0xf8, 0xfd, 0xfa, 0x11, 0x07,
  0x01, 0xfb, 0x29, 0x06, 0xf4, 0x02, 0x12, 0x09, 0x11, 0x07, 0xf1, 0xfc,
  0x06, 0x04, 0x0d, 0xfb, 0x11, 0x07, 0x00, 0x06, 0xff, 0x00, 0x03, 0xfa,
  0x32, 0xfe, 0xf1, 0xfe, 0xff, 0x00, 0xf3, 0x10, 0x1d, 0xf3, 0xec, 0x0a,
  0xfb, 0x07, 0x01, 0x01, 0x1b, 0x00, 0x12, 0xfb, 0xff, 0xfe, 0xfb, 0x06,
  0x21, 0x0b, 0xeb, 0xfe, 0x04, 0xf9, 0xf7, 0xfd, 0x14, 0xf3, 0xda, 0xf7,
  0xfc, 0xf9, 0xd9, 0x07, 0x22, 0xfc, 0xec, 0xff, 0x00, 0xfc, 0xda, 0xff,
  0x12, 0xfa, 0x1d, 0x0a, 0xf4, 0x08, 0xd8, 0x0d, 0x29, 0xfb, 0x11, 0x08,
  0x0a, 0xfc, 0xdd, 0x01, 0x19, 0xfd, 0xf4, 0xf4, 0x01, 0xf8, 0x29, 0x0b,
  0x19, 0xfe, 0x13, 0xfc, 0xf8, 0x06, 0x19, 0x0e, 0x11, 0xfa, 0xe2, 0x00,
  0xff, 0xf7, 0x2a, 0x00, 0x02, 0x0c, 0xe2, 0xfd, 0xf7, 0x01, 0x04, 0xfc,
  0x12, 0x07, 0x20, 0xfe, 0xfb, 0xfe, 0x11, 0xfb, 0x07, 0x06, 0x1b, 0xf5,
  0x05, 0xff, 0x0f, 0xfe, 0xf3, 0x06, 0x01, 0xf6, 0xfa, 0xfd, 0x18, 0xfb,
  0x0e, 0xff, 0xe9, 0xfa, 0x08, 0xf4, 0x07, 0x05, 0xf3, 0xf7, 0xec, 0xf5,
  0xfe, 0x08, 0x04, 0x0c, 0x0c, 0x06, 0x2c, 0xff, 0xf8, 0xfb, 0x10, 0x02,
  0x29, 0xfe, 0xfe, 0xff, 0x02, 0x0d, 0x16, 0x04, 0x03, 0x0b, 0xf1, 0xfd,
  0xf8, 0xff, 0x01, 0x00, 0x38, 0x06, 0x02, 0x05, 0x01, 0x0b, 0xf9, 0x0d,
  0x12, 0xf5, 0xe2, 0x05, 0xfa, 0xf2, 0x01, 0x02, 0x25, 0x06, 0x17, 0x00,
  0xfd, 0xfd, 0xf1, 0x0d, 0x23, 0x06, 0xf4, 0xfd, 0x07, 0xfe, 0xf9, 0xfc,
  0x06, 0xfa, 0xea, 0xfd, 0x01, 0xf7, 0xd3, 0xff, 0x26, 0x06, 0xec, 0xff,
  0x0a, 0xff, 0xcf, 0x08, 0x06, 0x00, 0x1d, 0xf9, 0xf5, 0x02, 0xd9, 0x00,
  0x1f, 0xfc, 0x06, 0x08, 0xfb, 0x05, 0xd3, 0x03, 0x30, 0x00, 0xea, 0xfc,
  0xfb, 0x02, 0x17, 0x00, 0x17, 0xfc, 0x04, 0x00, 0xfe, 0x03, 0x28, 0x07,
  0x12, 0x04, 0xe0, 0xf7, 0xfe, 0x04, 0x2d, 0x07, 0x03, 0xfc, 0xd2, 0x06,
  0x03, 0x03, 0xfe, 0x05, 0x09, 0x02, 0x1a, 0x06, 0xf7, 0x08, 0xfc, 0x04,
  0x0f, 0x03, 0x0b, 0xfa, 0x0b, 0xf9, 0x0c, 0xf7, 0x19, 0xfc, 0x09, 0xfa,
  0xf6, 0xf1, 0x11, 0x01, 0x26, 0xfd, 0xdd, 0x05, 0xfb, 0xfb, 0x17, 0x0c,
  0xe7, 0xfc, 0xe5, 0x02, 0xfe, 0x04, 0x09, 0xff, 0x19, 0xf4, 0x11, 0x05,
  0xfa, 0xff, 0x11, 0x01, 0x1f, 0xfd, 0xeb, 0xf6, 0x06, 0xfe, 0x12, 0x00,
  0x0d, 0xfe, 0xfb, 0xfa, 0x05, 0x03, 0xf7, 0x06, 0x25, 0xff, 0x0d, 0x02,
  0xfc, 0xf9, 0xfd, 0xfb, 0x03, 0xf4, 0xee, 0xfe, 0x05, 0x07, 0xf5, 0xfa,
  0x18, 0xfd, 0xf2, 0xfb, 0x05, 0x03, 0xea, 0x00, 0x1b, 0x02, 0x06, 0x04,
  0xfa, 0xfe, 0xf5, 0xf8, 0x04, 0x05, 0xe5, 0x02, 0xfb, 0x00, 0xcf, 0xf4,
  0x16, 0xfc, 0xd5, 0xfa, 0x01, 0x08, 0xd1, 0xfd, 0x07, 0xfb, 0x0e, 0x02,
  0x05, 0x02, 0xe8, 0xfc, 0x2d, 0xf7, 0x0f, 0xfb, 0xfd, 0x09, 0xfa, 0x05,
  0x29, 0xf9, 0x00, 0x01, 0x09, 0x07, 0x29, 0xf3, 0x12, 0x03, 0x0f, 0xff,
  0xfd, 0x06, 0x30, 0x03, 0x0d, 0x06, 0xf5, 0xf4, 0x05, 0x00, 0x32, 0x0a,
  0xf8, 0x0b, 0xfa, 0xfe, 0xf8, 0xf8, 0x12, 0x0e, 0x04, 0x08, 0x09, 0xfe,
  0xf9, 0xfb, 0x10, 0xf9, 0x08, 0xff, 0x1c, 0xfc, 0xff, 0xfe, 0x11, 0xfe,
  0x05, 0xfd, 0x04, 0x08, 0x01, 0xf8, 0x13, 0x09, 0x15, 0x0d, 0xfe, 0xf5,
  0x07, 0xfd, 0x1b, 0x08, 0xee, 0xff, 0x00, 0xfe, 0xf8, 0x03, 0x12, 0x0e,
  0x1e, 0xf8, 0x08, 0xf6, 0x04, 0xf8, 0x24, 0x01, 0x17, 0xf6, 0xf2, 0x05,
  0x0b, 0xfd, 0x07, 0xf7, 0x15, 0xfb, 0x0e, 0x00, 0x04, 0xf5, 0x01, 0x0a,
  0x24, 0xff, 0x0d, 0x00, 0xfe, 0xf7, 0x03, 0xfc, 0x07, 0xf6, 0x12, 0xfa,
  0xfb, 0xf8, 0xf1, 0xf7, 0x0a, 0xfc, 0x00, 0x09, 0x04, 0xf7, 0xef, 0xf9,
  0x07, 0xf6, 0x06, 0x04, 0x05, 0x06, 0xe6, 0x04, 0x02, 0x03, 0x09, 0x01,
  0x03, 0xfa, 0xd0, 0xfa, 0x0e, 0x00, 0xdf, 0x03, 0x02, 0xf9, 0xd9, 0xf5,
  0x03, 0x0c, 0x0f, 0x02, 0x00, 0x01, 0xe4, 0xff, 0x12, 0x09, 0x12, 0x06,
  0x03, 0x00, 0xd2, 0xff, 0x02, 0x0b, 0xf6, 0xf2, 0x07, 0xfb, 0x2d, 0x05,
  0x03, 0xf9, 0xfb, 0xf7, 0x07, 0x05, 0x2d, 0x03, 0x06, 0x03, 0xea, 0xf8,
  0x08, 0xfd, 0x3f, 0x07, 0xf6, 0x01, 0x06, 0xf5, 0x02, 0x06, 0x1d, 0x00,
  0xfe, 0x09, 0x09, 0xf8, 0xf8, 0xf4, 0x0d, 0xf9, 0xf5, 0x02, 0x14, 0x03,
  0x03, 0x00, 0x0f, 0x0d, 0xf4, 0x05, 0x05, 0x05, 0x09, 0xfe, 0x12, 0x06,
  0x1d, 0xf8, 0xf4, 0xfb, 0xfc, 0x00, 0x09, 0xfb, 0xea, 0xff, 0x15, 0xf3,
  0x06, 0x04, 0x0c, 0x03, 0x1a, 0xfd, 0xf9, 0x04, 0xfb, 0x06, 0x14, 0xf9,
  0x20, 0x07, 0xf5, 0xff, 0x02, 0x03, 0x0b, 0x04, 0xff, 0xfd, 0x12, 0xfc,
  0xfb, 0xfc, 0xfa, 0xf9, 0xfa, 0xf3, 0xfb, 0x02, 0xf8, 0xf8, 0x01, 0x08,
  0xf9, 0xf9, 0x0e, 0xf7, 0xfd, 0x03, 0x06, 0x02, 0x1a, 0x02, 0xf4, 0x00,
  0xfb, 0xff, 0xf1, 0xfb, 0x13, 0x0d, 0xfd, 0xfb, 0x04, 0x07, 0xea, 0xfe,
  0x07, 0x04, 0xfb, 0xfb, 0x06, 0x00, 0xbf, 0x07, 0xf3, 0x00, 0xd6, 0xfa,
  0xfa, 0x07, 0xdb, 0xfc, 0x0a, 0xfc, 0x17, 0xf6, 0xfc, 0x0e, 0xc7, 0xf2,
  0x11, 0x07, 0x07, 0x03, 0x02, 0x0e, 0xea, 0x06, 0xef, 0x07, 0xed, 0x02,
  0xfc, 0x03, 0x2b, 0x09, 0x0c, 0x0c, 0x00, 0xf6, 0xf7, 0x01, 0x25, 0xff,
  0x10, 0x04, 0xf8, 0xf7, 0xfe, 0x05, 0x40, 0x01, 0xdf, 0x04, 0xf9, 0x06,
  0x0d, 0x0e, 0x2b, 0x0c, 0x0b, 0x0a, 0xe8, 0xf7, 0x01, 0xfe, 0x1b, 0xff,
  0xe8, 0xfa, 0x02, 0xf9, 0xfd, 0x08, 0x13, 0x03, 0xfd, 0x07, 0x0e, 0xf7,
  0xfe, 0xf5, 0x12, 0x04, 0x11, 0xfb, 0x0c, 0x03, 0x03, 0xfd, 0x06, 0xfd,
  0xea, 0x03, 0x06, 0x0c, 0x05, 0xff, 0x05, 0x00, 0x10, 0xfe, 0x07, 0x02,
  0x02, 0xfd, 0x1a, 0x01, 0x07, 0xf5, 0x10, 0xfa, 0x00, 0x05, 0x10, 0x00,
  0xe2, 0x01, 0xf2, 0xfa, 0x00, 0xf9, 0xf8, 0xfa, 0x10, 0xfd, 0x31, 0x08,
  0xf8, 0xfb, 0x00, 0xfd, 0x0f, 0xfc, 0x29, 0x07, 0x03, 0xfe, 0xfd, 0x04,
  0x28, 0xf9, 0xf6, 0x05, 0xfb, 0xfe, 0xee, 0x01, 0xef, 0x05, 0x10, 0x04,
  0x01, 0xf4, 0xd5, 0x00, 0x07, 0xff, 0x19, 0xfa, 0x00, 0x05, 0xc9, 0xf9,
  0x0b, 0x09, 0xfe, 0x00, 0xf5, 0xf5, 0xe5, 0x03, 0x06, 0x08, 0xff, 0x0d,
  0x03, 0xfd, 0xcb, 0xf6, 0x0f, 0x02, 0x21, 0xfa, 0x02, 0xfe, 0x1f, 0xfd,
  0x0c, 0xff, 0xfe, 0xff, 0xfe, 0x03, 0x2d, 0xf8, 0x1d, 0xfe, 0xfe, 0x04,
  0xf6, 0x02, 0x1a, 0x0c, 0x02, 0x01, 0xf7, 0x03, 0xfd, 0x09, 0x34, 0xfb,
  0xe8, 0x04, 0x06, 0xfa, 0xfa, 0x01, 0x16, 0x05, 0xf2, 0xfe, 0xe6, 0xfb,
  0xfe, 0x0c, 0x19, 0x05, 0xf6, 0x01, 0xfd, 0x07, 0x01, 0x08, 0x18, 0x08,
  0x0b, 0x02, 0x1d, 0x0b, 0x03, 0xf7, 0x08, 0x07, 0xf8, 0xf8, 0x00, 0xfb,
  0xf8, 0x01, 0x04, 0x0d, 0xdb, 0xff, 0x0b, 0x00, 0xfe, 0x0b, 0x05, 0xf7,
  0x23, 0xfe, 0xfb, 0x08, 0x07, 0xfe, 0x1f, 0x06, 0x11, 0x0c, 0xf9, 0xf6,
  0x0c, 0x09, 0x1d, 0xfd, 0xf2, 0x00, 0x00, 0xfa, 0xfd, 0xfc, 0x05, 0xf3,
  0x25, 0xf4, 0x04, 0x01, 0xfd, 0x09, 0x01, 0x00, 0xf6, 0xfb, 0x23, 0xfd,
  0xf4, 0xfc, 0xfb, 0x00, 0x01, 0xf7, 0xf4, 0x0e, 0xfc, 0xfa, 0xeb, 0xf6,
  0xfa, 0xf3, 0xfe, 0x0a, 0x0d, 0xf8, 0xd6, 0xfa, 0x01, 0x0a, 0x01, 0xfa,
  0x05, 0xfb, 0xc7, 0xf4, 0xfe, 0xfd, 0xf1, 0x03, 0xff, 0xff, 0xff, 0xf8,
  0x08, 0xf9, 0x31, 0xf9, 0x03, 0x02, 0xd0, 0xfa, 0xfe, 0x03, 0x1d, 0x08,
  0xa6, 0xfe, 0xff, 0xff, 0x04, 0x00, 0x00, 0x00, 0x08, 0x00, 0x00, 0x00,
  0x93, 0xfd, 0xff, 0xff, 0x6d, 0x02, 0x00, 0x00, 0x24, 0xfc, 0xff, 0xff,
  0x0f, 0x00, 0x00, 0x00, 0x54, 0x4f, 0x43, 0x4f, 0x20, 0x43, 0x6f, 0x6e,
  0x76, 0x65, 0x72, 0x74, 0x65, 0x64, 0x2e, 0x00, 0x01, 0x00, 0x00, 0x00,
  0x04, 0x00, 0x00, 0x00, 0x24, 0xfb, 0xff, 0xff, 0x68, 0x01, 0x00, 0x00,
  0x5c, 0x01, 0x00, 0x00, 0x50, 0x01, 0x00, 0x00, 0x04, 0x00, 0x00, 0x00,
  0x04, 0x00, 0x00, 0x00, 0xf4, 0x00, 0x00, 0x00, 0x90, 0x00, 0x00, 0x00,
  0x48, 0x00, 0x00, 0x00, 0x04, 0x00, 0x00, 0x00, 0xce, 0xff, 0xff, 0xff,
  0x00, 0x00, 0x00, 0x09, 0x03, 0x00, 0x00, 0x00, 0x1c, 0x00, 0x00, 0x00,
  0x10, 0x00, 0x00, 0x00, 0x04, 0x00, 0x00, 0x00, 0x1a, 0xff, 0xff, 0xff,
  0x00, 0x00, 0x80, 0x3f, 0x01, 0x00, 0x00, 0x00, 0x09, 0x00, 0x00, 0x00,
  0x01, 0x00, 0x00, 0x00, 0x06, 0x00, 0x00, 0x00, 0x00, 0x00, 0x0e, 0x00,
  0x18, 0x00, 0x08, 0x00, 0x0c, 0x00, 0x10, 0x00, 0x07, 0x00, 0x14, 0x00,
  0x0e, 0x00, 0x00, 0x00, 0x00, 0x00, 0x00, 0x08, 0x01, 0x00, 0x00, 0x00,
  0x18, 0x00, 0x00, 0x00, 0x0c, 0x00, 0x00, 0x00, 0x04, 0x00, 0x00, 0x00,
  0xc4, 0xfc, 0xff, 0xff, 0x01, 0x00, 0x00, 0x00, 0x06, 0x00, 0x00, 0x00,
  0x03, 0x00, 0x00, 0x00, 0x02, 0x00, 0x00, 0x00, 0x07, 0x00, 0x00, 0x00,
  0x01, 0x00, 0x00, 0x00, 0x00, 0x00, 0x0e, 0x00, 0x16, 0x00, 0x00, 0x00,
  0x08, 0x00, 0x0c, 0x00, 0x07, 0x00, 0x10, 0x00, 0x0e, 0x00, 0x00, 0x00,
  0x00, 0x00, 0x00, 0x02, 0x38, 0x00, 0x00, 0x00, 0x2c, 0x00, 0x00, 0x00,
  0x14, 0x00, 0x00, 0x00, 0x00, 0x00, 0x0e, 0x00, 0x14, 0x00, 0x00, 0x00,
  0x08, 0x00, 0x0c, 0x00, 0x10, 0x00, 0x07, 0x00, 0x0e, 0x00, 0x00, 0x00,
  0x00, 0x00, 0x00, 0x01, 0x02, 0x00, 0x00, 0x00, 0x02, 0x00, 0x00, 0x00,
  0x08, 0x00, 0x00, 0x00, 0x01, 0x00, 0x00, 0x00, 0x02, 0x00, 0x00, 0x00,
  0x03, 0x00, 0x00, 0x00, 0x04, 0x00, 0x00, 0x00, 0x08, 0x00, 0x00, 0x00,
  0x00, 0x00, 0x00, 0x00, 0x00, 0x00, 0x0e, 0x00, 0x1a, 0x00, 0x08, 0x00,
  0x0c, 0x00, 0x10, 0x00, 0x07, 0x00, 0x14, 0x00, 0x0e, 0x00, 0x00, 0x00,
  0x00, 0x00, 0x00, 0x11, 0x02, 0x00, 0x00, 0x00, 0x38, 0x00, 0x00, 0x00,
  0x2c, 0x00, 0x00, 0x00, 0x0c, 0x00, 0x00, 0x00, 0x00, 0x00, 0x06, 0x00,
  0x08, 0x00, 0x04, 0x00, 0x06, 0x00, 0x00, 0x00, 0x04, 0x00, 0x00, 0x00,
  0x04, 0x00, 0x00, 0x00, 0xff, 0xff, 0xff, 0xff, 0x31, 0x00, 0x00, 0x00,
  0x28, 0x00, 0x00, 0x00, 0x01, 0x00, 0x00, 0x00, 0x01, 0x00, 0x00, 0x00,
  0x04, 0x00, 0x00, 0x00, 0x02, 0x00, 0x00, 0x00, 0x03, 0x00, 0x00, 0x00,
  0x05, 0x00, 0x00, 0x00, 0x01, 0x00, 0x00, 0x00, 0x09, 0x00, 0x00, 0x00,
  0x01, 0x00, 0x00, 0x00, 0x03, 0x00, 0x00, 0x00, 0x0a, 0x00, 0x00, 0x00,
  0x34, 0x04, 0x00, 0x00, 0xcc, 0x03, 0x00, 0x00, 0x4c, 0x03, 0x00, 0x00,
  0xdc, 0x02, 0x00, 0x00, 0x60, 0x02, 0x00, 0x00, 0x20, 0x02, 0x00, 0x00,
  0xb0, 0x01, 0x00, 0x00, 0x44, 0x01, 0x00, 0x00, 0x70, 0x00, 0x00, 0x00,
  0x04, 0x00, 0x00, 0x00, 0x02, 0xfc, 0xff, 0xff, 0x00, 0x00, 0x00, 0x09,
  0x44, 0x00, 0x00, 0x00, 0x07, 0x00, 0x00, 0x00, 0x28, 0x00, 0x00, 0x00,
  0x04, 0x00, 0x00, 0x00, 0xf4, 0xfb, 0xff, 0xff, 0x14, 0x00, 0x00, 0x00,
  0x04, 0x00, 0x00, 0x00, 0x01, 0x00, 0x00, 0x00, 0x80, 0xff, 0xff, 0xff,
  0xff, 0xff, 0xff, 0xff, 0x01, 0x00, 0x00, 0x00, 0x00, 0x00, 0x80, 0x3b,
  0x0e, 0x00, 0x00, 0x00, 0x6c, 0x61, 0x62, 0x65, 0x6c, 0x73, 0x5f, 0x73,
  0x6f, 0x66, 0x74, 0x6d, 0x61, 0x78, 0x00, 0x00, 0x02, 0x00, 0x00, 0x00,
  0x01, 0x00, 0x00, 0x00, 0x02, 0x00, 0x00, 0x00, 0x00, 0x00, 0x0e, 0x00,
  0x1a, 0x00, 0x08, 0x00, 0x07, 0x00, 0x0c, 0x00, 0x10, 0x00, 0x14, 0x00,
  0x0e, 0x00, 0x00, 0x00, 0x00, 0x00, 0x00, 0x09, 0xb4, 0x00, 0x00, 0x00,
  0x08, 0x00, 0x00, 0x00, 0x94, 0x00, 0x00, 0x00, 0x18, 0x00, 0x00, 0x00,
  0x00, 0x00, 0x12, 0x00, 0x10, 0x00, 0x00, 0x00, 0x00, 0x00, 0x04, 0x00,
  0x08, 0x00, 0x00, 0x00, 0x00, 0x00, 0x0c, 0x00, 0x12, 0x00, 0x00, 0x00,
  0x50, 0x00, 0x00, 0x00, 0x08, 0x00, 0x00, 0x00, 0x03, 0x00, 0x00, 0x00,
  0x08, 0x00, 0x00, 0x00, 0x00, 0x00, 0x00, 0x00, 0x00, 0x00, 0x00, 0x00,
  0x00, 0x00, 0x00, 0x00, 0x00, 0x00, 0x00, 0x00, 0x00, 0x00, 0x00, 0x00,
  0x00, 0x00, 0x00, 0x00, 0x00, 0x00, 0x00, 0x00, 0x00, 0x00, 0x00, 0x00,
  0x00, 0x00, 0x00, 0x00, 0x00, 0x00, 0x00, 0x00, 0x00, 0x00, 0x00, 0x00,
  0x00, 0x00, 0x00, 0x00, 0x00, 0x00, 0x00, 0x00, 0x00, 0x00, 0x00, 0x00,
  0x00, 0x00, 0x00, 0x00, 0x00, 0x00, 0x00, 0x00, 0x08, 0x00, 0x00, 0x00,
  0xe5, 0x3a, 0xb3, 0x39, 0x76, 0xc3, 0xb3, 0x39, 0x23, 0xba, 0x99, 0x3b,
  0x85, 0xbc, 0xb4, 0x39, 0x9a, 0x11, 0xe0, 0x3a, 0xb5, 0x0a, 0xa0, 0x39,
  0x46, 0x5e, 0xed, 0x3a, 0x80, 0xbe, 0x20, 0x3a, 0x12, 0x00, 0x00, 0x00,
  0x66, 0x69, 0x72, 0x73, 0x74, 0x5f, 0x77, 0x65, 0x69, 0x67, 0x68, 0x74,
  0x73, 0x2f, 0x72, 0x65, 0x61, 0x64, 0x00, 0x00, 0x04, 0x00, 0x00, 0x00,
  0x01, 0x00, 0x00, 0x00, 0x0a, 0x00, 0x00, 0x00, 0x08, 0x00, 0x00, 0x00,
  0x08, 0x00, 0x00, 0x00, 0x3a, 0xfd, 0xff, 0xff, 0x00, 0x00, 0x00, 0x09,
  0x54, 0x00, 0x00, 0x00, 0x02, 0x00, 0x00, 0x00, 0x28, 0x00, 0x00, 0x00,
  0x04, 0x00, 0x00, 0x00, 0x2c, 0xfd, 0xff, 0xff, 0x14, 0x00, 0x00, 0x00,
  0x04, 0x00, 0x00, 0x00, 0x01, 0x00, 0x00, 0x00, 0x00, 0x00, 0x00, 0x00,
  0x00, 0x00, 0x00, 0x00, 0x01, 0x00, 0x00, 0x00, 0x8f, 0xf0, 0xb7, 0x3a,
  0x1f, 0x00, 0x00, 0x00, 0x66, 0x69, 0x6e, 0x61, 0x6c, 0x5f, 0x66, 0x63,
  0x5f, 0x77, 0x65, 0x69, 0x67, 0x68, 0x74, 0x73, 0x2f, 0x72, 0x65, 0x61,
  0x64, 0x2f, 0x74, 0x72, 0x61, 0x6e, 0x73, 0x70, 0x6f, 0x73, 0x65, 0x00,
  0x02, 0x00, 0x00, 0x00, 0x02, 0x00, 0x00, 0x00, 0xa0, 0x0f, 0x00, 0x00,
  0xa2, 0xfd, 0xff, 0xff, 0x00, 0x00, 0x00, 0x09, 0x58, 0x00, 0x00, 0x00,
  0x04, 0x00, 0x00, 0x00, 0x44, 0x00, 0x00, 0x00, 0x04, 0x00, 0x00, 0x00,
  0x74, 0xfe, 0xff, 0xff, 0x30, 0x00, 0x00, 0x00, 0x24, 0x00, 0x00, 0x00,
  0x18, 0x00, 0x00, 0x00, 0x04, 0x00, 0x00, 0x00, 0x01, 0x00, 0x00, 0x00,
  0xfb, 0xff, 0xff, 0xff, 0xff, 0xff, 0xff, 0xff, 0x00, 0x00, 0x00, 0x00,
  0x01, 0x00, 0x00, 0x00, 0xbb, 0xea, 0xb7, 0x3d, 0x01, 0x00, 0x00, 0x00,
  0x0a, 0x2d, 0x3e, 0x41, 0x01, 0x00, 0x00, 0x00, 0x97, 0x38, 0x30, 0xc1,
  0x05, 0x00, 0x00, 0x00, 0x61, 0x64, 0x64, 0x5f, 0x31, 0x00, 0x00, 0x00,
  0x02, 0x00, 0x00, 0x00, 0x01, 0x00, 0x00, 0x00, 0x02, 0x00, 0x00, 0x00,
  0x0e, 0xfe, 0xff, 0xff, 0x00, 0x00, 0x00, 0x02, 0x2c, 0x00, 0x00, 0x00,
  0x06, 0x00, 0x00, 0x00, 0x10, 0x00, 0x00, 0x00, 0x08, 0x00, 0x00, 0x00,
  0x04, 0x00, 0x04, 0x00, 0x04, 0x00, 0x00, 0x00, 0x0f, 0x00, 0x00, 0x00,
  0x52, 0x65, 0x73, 0x68, 0x61, 0x70, 0x65, 0x5f, 0x32, 0x2f, 0x73, 0x68,
  0x61, 0x70, 0x65, 0x00, 0x01, 0x00, 0x00, 0x00, 0x04, 0x00, 0x00, 0x00,
  0x4a, 0xfe, 0xff, 0xff, 0x00, 0x00, 0x00, 0x09, 0x5c, 0x00, 0x00, 0x00,
  0x05, 0x00, 0x00, 0x00, 0x44, 0x00, 0x00, 0x00, 0x04, 0x00, 0x00, 0x00,
  0x1c, 0xff, 0xff, 0xff, 0x30, 0x00, 0x00, 0x00, 0x24, 0x00, 0x00, 0x00,
  0x18, 0x00, 0x00, 0x00, 0x04, 0x00, 0x00, 0x00, 0x01, 0x00, 0x00, 0x00,
  0x80, 0xff, 0xff, 0xff, 0xff, 0xff, 0xff, 0xff, 0x00, 0x00, 0x00, 0x00,
  0x01, 0x00, 0x00, 0x00, 0x41, 0x41, 0xd1, 0x3d, 0x01, 0x00, 0x00, 0x00,
  0x00, 0x70, 0xd0, 0x41, 0x01, 0x00, 0x00, 0x00, 0x00, 0x00, 0x00, 0x00,
  0x09, 0x00, 0x00, 0x00, 0x52, 0x65, 0x73, 0x68, 0x61, 0x70, 0x65, 0x5f,
  0x32, 0x00, 0x00, 0x00, 0x04, 0x00, 0x00, 0x00, 0x01, 0x00, 0x00, 0x00,
  0x31, 0x00, 0x00, 0x00, 0x28, 0x00, 0x00, 0x00, 0x01, 0x00, 0x00, 0x00,
  0xc2, 0xfe, 0xff, 0xff, 0x00, 0x00, 0x00, 0x09, 0x58, 0x00, 0x00, 0x00,
  0x0a, 0x00, 0x00, 0x00, 0x40, 0x00, 0x00, 0x00, 0x04, 0x00, 0x00, 0x00,
  0x94, 0xff, 0xff, 0xff, 0x2c, 0x00, 0x00, 0x00, 0x20, 0x00, 0x00, 0x00,
  0x14, 0x00, 0x00, 0x00, 0x04, 0x00, 0x00, 0x00, 0x01, 0x00, 0x00, 0x00,
  0x80, 0xff, 0xff, 0xff, 0xff, 0xff, 0xff, 0xff, 0x01, 0x00, 0x00, 0x00,
  0x41, 0x41, 0xd1, 0x3d, 0x01, 0x00, 0x00, 0x00, 0x00, 0x70, 0xd0, 0x41,
  0x01, 0x00, 0x00, 0x00, 0x00, 0x00, 0x00, 0x00, 0x09, 0x00, 0x00, 0x00,
  0x52, 0x65, 0x73, 0x68, 0x61, 0x70, 0x65, 0x5f, 0x31, 0x00, 0x00, 0x00,
  0x02, 0x00, 0x00, 0x00, 0x01, 0x00, 0x00, 0x00, 0xa8, 0x07, 0x00, 0x00,
  0x2e, 0xff, 0xff, 0xff, 0x00, 0x00, 0x00, 0x09, 0x60, 0x00, 0x00, 0x00,
  0x09, 0x00, 0x00, 0x00, 0x4c, 0x00, 0x00, 0x00, 0x10, 0x00, 0x00, 0x00,
  0x0c, 0x00, 0x14, 0x00, 0x04, 0x00, 0x08, 0x00, 0x0c, 0x00, 0x10, 0x00,
  0x0c, 0x00, 0x00, 0x00, 0x2c, 0x00, 0x00, 0x00, 0x20, 0x00, 0x00, 0x00,
  0x14, 0x00, 0x00, 0x00, 0x04, 0x00, 0x00, 0x00, 0x01, 0x00, 0x00, 0x00,
  0x80, 0xff, 0xff, 0xff, 0xff, 0xff, 0xff, 0xff, 0x01, 0x00, 0x00, 0x00,
  0xea, 0x59, 0x0d, 0x3e, 0x01, 0x00, 0x00, 0x00, 0x90, 0xcc, 0x0c, 0x42,
  0x01, 0x00, 0x00, 0x00, 0x00, 0x00, 0x00, 0x00, 0x04, 0x00, 0x00, 0x00,
  0x52, 0x65, 0x6c, 0x75, 0x00, 0x00, 0x00, 0x00, 0x04, 0x00, 0x00, 0x00,
  0x01, 0x00, 0x00, 0x00, 0x19, 0x00, 0x00, 0x00, 0x14, 0x00, 0x00, 0x00,
  0x08, 0x00, 0x00, 0x00, 0xaa, 0xff, 0xff, 0xff, 0x00, 0x00, 0x00, 0x02,
  0x44, 0x00, 0x00, 0x00, 0x01, 0x00, 0x00, 0x00, 0x2c, 0x00, 0x00, 0x00,
  0x04, 0x00, 0x00, 0x00, 0x9c, 0xff, 0xff, 0xff, 0x18, 0x00, 0x00, 0x00,
  0x04, 0x00, 0x00, 0x00, 0x01, 0x00, 0x00, 0x00, 0x00, 0x00, 0x00, 0x00,
  0x00, 0x00, 0x00, 0x00, 0x00, 0x00, 0x00, 0x00, 0x01, 0x00, 0x00, 0x00,
  0x33, 0x20, 0x4b, 0x39, 0x0b, 0x00, 0x00, 0x00, 0x4d, 0x61, 0x74, 0x4d,
  0x75, 0x6c, 0x5f, 0x62, 0x69, 0x61, 0x73, 0x00, 0x01, 0x00, 0x00, 0x00,
  0x02, 0x00, 0x00, 0x00, 0x00, 0x00, 0x0e, 0x00, 0x18, 0x00, 0x08, 0x00,
  0x07, 0x00, 0x0c, 0x00, 0x10, 0x00, 0x14, 0x00, 0x0e, 0x00, 0x00, 0x00,
  0x00, 0x00, 0x00, 0x02, 0xa0, 0x00, 0x00, 0x00, 0x03, 0x00, 0x00, 0x00,
  0x88, 0x00, 0x00, 0x00, 0x10, 0x00, 0x00, 0x00, 0x0c, 0x00, 0x0c, 0x00,
  0x00, 0x00, 0x00, 0x00, 0x04, 0x00, 0x08, 0x00, 0x0c, 0x00, 0x00, 0x00,
  0x4c, 0x00, 0x00, 0x00, 0x04, 0x00, 0x00, 0x00, 0x08, 0x00, 0x00, 0x00,
  0x00, 0x00, 0x00, 0x00, 0x00, 0x00, 0x00, 0x00, 0x00, 0x00, 0x00, 0x00,
  0x00, 0x00, 0x00, 0x00, 0x00, 0x00, 0x00, 0x00, 0x00, 0x00, 0x00, 0x00,
  0x00, 0x00, 0x00, 0x00, 0x00, 0x00, 0x00, 0x00, 0x00, 0x00, 0x00, 0x00,
  0x00, 0x00, 0x00, 0x00, 0x00, 0x00, 0x00, 0x00, 0x00, 0x00, 0x00, 0x00,
  0x00, 0x00, 0x00, 0x00, 0x00, 0x00, 0x00, 0x00, 0x00, 0x00, 0x00, 0x00,
  0x00, 0x00, 0x00, 0x00, 0x08, 0x00, 0x00, 0x00, 0xc4, 0x80, 0x12, 0x38,
  0x66, 0xf0, 0x12, 0x38, 0x4c, 0x50, 0xfb, 0x39, 0xfa, 0xbb, 0x13, 0x38,
  0x7c, 0x27, 0x37, 0x39, 0x89, 0xd1, 0x02, 0x38, 0x78, 0x06, 0x42, 0x39,
  0x80, 0x64, 0x83, 0x38, 0x0b, 0x00, 0x00, 0x00, 0x43, 0x6f, 0x6e, 0x76,
  0x32, 0x44, 0x5f, 0x62, 0x69, 0x61, 0x73, 0x00, 0x01, 0x00, 0x00, 0x00,
  0x08, 0x00, 0x00, 0x00, 0x04, 0x00, 0x00, 0x00, 0x4c, 0x00, 0x00, 0x00,
  0x30, 0x00, 0x00, 0x00, 0x1c, 0x00, 0x00, 0x00, 0x04, 0x00, 0x00, 0x00,
  0xe6, 0xff, 0xff, 0xff, 0x00, 0x00, 0x00, 0x19, 0x02, 0x00, 0x00, 0x00,
  0x00, 0x00, 0x06, 0x00, 0x06, 0x00, 0x05, 0x00, 0x06, 0x00, 0x00, 0x00,
  0x00, 0x16, 0x0a, 0x00, 0x0e, 0x00, 0x07, 0x00, 0x00, 0x00, 0x08, 0x00,
  0x0a, 0x00, 0x00, 0x00, 0x00, 0x00, 0x00, 0x09, 0x04, 0x00, 0x00, 0x00,
  0x00, 0x00, 0x0a, 0x00, 0x0c, 0x00, 0x07, 0x00, 0x00, 0x00, 0x08, 0x00,
  0x0a, 0x00, 0x00, 0x00, 0x00, 0x00, 0x00, 0x04, 0x03, 0x00, 0x00, 0x00
};
unsigned int models_tiny_conv_model_tflite_len = 10704;
