unsigned char models_model_tflite[] = {
  0x1c, 0x00, 0x00, 0x00, 0x54, 0x46, 0x4c, 0x33, 0x00, 0x00, 0x12, 0x00,
  0x1c, 0x00, 0x04, 0x00, 0x08, 0x00, 0x0c, 0x00, 0x10, 0x00, 0x14, 0x00,
  0x00, 0x00, 0x18, 0x00, 0x12, 0x00, 0x00, 0x00, 0x03, 0x00, 0x00, 0x00,
  0x0c, 0x22, 0x00, 0x00, 0x7c, 0x19, 0x00, 0x00, 0x64, 0x19, 0x00, 0x00,
  0x3c, 0x00, 0x00, 0x00, 0x04, 0x00, 0x00, 0x00, 0x01, 0x00, 0x00, 0x00,
  0x0c, 0x00, 0x00, 0x00, 0x08, 0x00, 0x0c, 0x00, 0x04, 0x00, 0x08, 0x00,
  0x08, 0x00, 0x00, 0x00, 0x08, 0x00, 0x00, 0x00, 0x0e, 0x00, 0x00, 0x00,
  0x13, 0x00, 0x00, 0x00, 0x6d, 0x69, 0x6e, 0x5f, 0x72, 0x75, 0x6e, 0x74,
  0x69, 0x6d, 0x65, 0x5f, 0x76, 0x65, 0x72, 0x73, 0x69, 0x6f, 0x6e, 0x00,
  0x0f, 0x00, 0x00, 0x00, 0x1c, 0x19, 0x00, 0x00, 0x8c, 0x17, 0x00, 0x00,
  0x6c, 0x17, 0x00, 0x00, 0x3c, 0x17, 0x00, 0x00, 0x2c, 0x03, 0x00, 0x00,
  0x24, 0x03, 0x00, 0x00, 0xf4, 0x02, 0x00, 0x00, 0xec, 0x02, 0x00, 0x00,
  0xe4, 0x02, 0x00, 0x00, 0xdc, 0x02, 0x00, 0x00, 0xd4, 0x02, 0x00, 0x00,
  0xcc, 0x02, 0x00, 0x00, 0x3c, 0x00, 0x00, 0x00, 0x1c, 0x00, 0x00, 0x00,
  0x04, 0x00, 0x00, 0x00, 0x8a, 0xe5, 0xff, 0xff, 0x04, 0x00, 0x00, 0x00,
  0x05, 0x00, 0x00, 0x00, 0x31, 0x2e, 0x35, 0x2e, 0x30, 0x00, 0x00, 0x00,
  0x9e, 0xe5, 0xff, 0xff, 0x04, 0x00, 0x00, 0x00, 0x10, 0x00, 0x00, 0x00,
  0xff, 0xff, 0xff, 0xff, 0x31, 0x00, 0x00, 0x00, 0x28, 0x00, 0x00, 0x00,
  0x01, 0x00, 0x00, 0x00, 0xba, 0xe5, 0xff, 0xff, 0x04, 0x00, 0x00, 0x00,
  0x80, 0x02, 0x00, 0x00, 0x1f, 0xb1, 0xd5, 0x0f, 0x9b, 0xcf, 0x29, 0x46,
  0x10, 0x0c, 0xf4, 0xda, 0xee, 0x18, 0xde, 0x22, 0x07, 0xda, 0xb0, 0x27,
  0x20, 0xae, 0x2b, 0x2d, 0x0c, 0x1e, 0xec, 0xc5, 0xde, 0x20, 0x13, 0x1a,
  0x02, 0xea, 0xf4, 0x2b, 0xc5, 0xc5, 0x0b, 0x02, 0xfe, 0x11, 0xc2, 0xc6,
  0x19, 0xe5, 0x0b, 0xe9, 0x11, 0xe8, 0xdb, 0xf6, 0xfb, 0x88, 0x06, 0xd2,
  0xf6, 0x0b, 0xbc, 0xf5, 0x6b, 0xc8, 0x03, 0xb6, 0x03, 0xd1, 0xe4, 0x1b,
  0x8a, 0x07, 0x23, 0x7f, 0xfa, 0x15, 0xe0, 0xf0, 0xed, 0x55, 0xf0, 0x22,
  0xef, 0xe7, 0xb8, 0x21, 0x23, 0x11, 0x35, 0x5f, 0x03, 0x17, 0xdc, 0x0a,
  0xd3, 0x63, 0xff, 0x09, 0xe5, 0xfa, 0xdc, 0x0d, 0xd1, 0x23, 0x0b, 0x1a,
  0xf6, 0x0c, 0xe0, 0xb8, 0x0f, 0x31, 0x12, 0xdc, 0xfa, 0xf7, 0xf0, 0xd5,
  0xfd, 0x00, 0xf3, 0xe2, 0xeb, 0x13, 0xcf, 0xd8, 0x53, 0x07, 0x04, 0xa1,
  0x1c, 0xea, 0x1c, 0x0f, 0x81, 0xd1, 0x17, 0x7a, 0x05, 0x03, 0xe9, 0xe6,
  0xe4, 0xf2, 0xc7, 0x11, 0xee, 0xfd, 0xe1, 0x07, 0x02, 0xd1, 0x25, 0x62,
  0x18, 0xfb, 0x0d, 0x51, 0xd8, 0xf7, 0xe3, 0xff, 0x02, 0x09, 0xf2, 0x42,
  0xce, 0xe0, 0xf6, 0x25, 0xfb, 0xfd, 0xfb, 0x0c, 0x01, 0xdf, 0xd5, 0xcc,
  0x14, 0x01, 0x23, 0xfa, 0x17, 0xb5, 0xe5, 0xe8, 0xfa, 0x01, 0xf7, 0xe3,
  0x43, 0xd0, 0xeb, 0x98, 0xf4, 0x08, 0x3d, 0xe7, 0x90, 0xf2, 0x34, 0x67,
  0x1f, 0xf4, 0x41, 0xc9, 0xd5, 0x43, 0xe2, 0x02, 0xe0, 0x17, 0x07, 0xfd,
  0xf7, 0xee, 0x3b, 0x69, 0x27, 0xf3, 0x37, 0x57, 0xdf, 0x4e, 0xf6, 0xeb,
  0xe8, 0x23, 0x19, 0x27, 0xd9, 0xfc, 0x1c, 0x22, 0xfa, 0xee, 0x15, 0xe6,
  0x00, 0x1a, 0x24, 0xd4, 0xea, 0x15, 0x49, 0xd6, 0x28, 0xcf, 0xfe, 0xec,
  0xf3, 0xfd, 0x0b, 0xde, 0x4d, 0x02, 0x13, 0xa0, 0xe9, 0x1d, 0xf7, 0xed,
  0x92, 0xe6, 0x16, 0x44, 0x51, 0xd8, 0x20, 0xfa, 0xc6, 0x2c, 0xab, 0xec,
  0xde, 0x36, 0xff, 0x0b, 0xd3, 0xf5, 0xff, 0x5b, 0x51, 0xd3, 0x4d, 0x40,
  0xcb, 0x3a, 0xaa, 0xe8, 0xd9, 0x3c, 0x07, 0x0c, 0xd1, 0x10, 0xe8, 0x1c,
  0x1f, 0xd4, 0x0a, 0xf6, 0xf6, 0x2c, 0xc9, 0xd4, 0xe4, 0x2d, 0x00, 0xc5,
  0x21, 0xea, 0xca, 0xf5, 0x25, 0xe8, 0xfc, 0xf7, 0x3f, 0x0c, 0xc7, 0xaf,
  0x00, 0x28, 0xc0, 0xf8, 0xc6, 0xb0, 0x35, 0x1b, 0x24, 0xc9, 0xf0, 0xf3,
  0xe0, 0x0b, 0xe4, 0xe9, 0xcf, 0x4f, 0xbe, 0xfa, 0xc8, 0xc3, 0x26, 0x3f,
  0x26, 0xc9, 0xde, 0x05, 0xe2, 0xfc, 0xe9, 0xec, 0xf3, 0x5b, 0xb3, 0x14,
  0xcb, 0xcd, 0x0b, 0x09, 0x06, 0xc3, 0xd4, 0xfd, 0x09, 0xf8, 0xed, 0xf9,
  0x04, 0x3b, 0xb2, 0xc8, 0x16, 0xa1, 0xe8, 0xf9, 0xfb, 0xd9, 0xe3, 0xea,
  0x5c, 0xe4, 0xde, 0xd6, 0xff, 0x30, 0x8e, 0x1b, 0xbd, 0xeb, 0x5d, 0x03,
  0x49, 0xc5, 0x04, 0x2f, 0xc3, 0x26, 0xf6, 0xd0, 0xf2, 0x67, 0x9b, 0x10,
  0xb5, 0xff, 0x49, 0x1b, 0x3d, 0xcc, 0xb0, 0x2a, 0xc3, 0x2b, 0xfb, 0xe7,
  0x0f, 0x7f, 0x9b, 0x1e, 0xc9, 0x1d, 0x23, 0x04, 0x22, 0xc6, 0xc2, 0x12,
  0xfb, 0x25, 0xe8, 0xfa, 0xf9, 0x5b, 0x93, 0xc2, 0x14, 0xf2, 0xfd, 0x01,
  0x2f, 0xd5, 0xf1, 0xe9, 0x57, 0x0e, 0xd4, 0xec, 0xcb, 0x16, 0xae, 0xf4,
  0xde, 0xd9, 0x43, 0xea, 0x18, 0xbd, 0x07, 0x10, 0xe4, 0x19, 0xed, 0xe0,
  0xfc, 0x5c, 0xd2, 0xe5, 0xbf, 0x06, 0x1d, 0x02, 0x14, 0xd5, 0x1f, 0x01,
  0xe0, 0x0c, 0xe2, 0xfa, 0xe3, 0x7a, 0xe0, 0xf8, 0xd5, 0x1d, 0xef, 0xf0,
  0x11, 0xc9, 0xfb, 0xfa, 0x02, 0x1a, 0xe1, 0x19, 0x06, 0x4c, 0xf0, 0xa1,
  0x03, 0x00, 0xd3, 0x09, 0x0d, 0xdc, 0x0e, 0xbe, 0x53, 0x05, 0xc9, 0x12,
  0xa7, 0x03, 0xf1, 0x1b, 0xdb, 0xdb, 0x76, 0xb8, 0xd6, 0xba, 0x6e, 0x60,
  0xd0, 0xe2, 0x27, 0xc5, 0xbf, 0x3b, 0x07, 0x0c, 0xb8, 0xf6, 0x4d, 0xe3,
  0xc8, 0xd7, 0x7f, 0x4a, 0xd0, 0xe2, 0x34, 0xed, 0xc2, 0x60, 0x17, 0xfd,
  0xc5, 0x11, 0x14, 0xeb, 0xe9, 0xcd, 0x34, 0xf8, 0xf1, 0xf7, 0xf8, 0x20,
  0xd9, 0x44, 0x07, 0xa1, 0xf2, 0x10, 0xe7, 0x06, 0xd3, 0xe5, 0x49, 0xf7,
  0x26, 0x04, 0xd3, 0x28, 0x81, 0xee, 0x18, 0x16, 0xf0, 0xac, 0x7f, 0xa7,
  0xd2, 0xbc, 0x6d, 0x7f, 0xf9, 0x8d, 0x36, 0xb1, 0xdd, 0x1b, 0x1b, 0x2a,
  0xc9, 0xba, 0x69, 0xda, 0xce, 0xe5, 0x4b, 0x53, 0xe0, 0x81, 0x40, 0xe6,
  0xb2, 0x3f, 0x06, 0x0f, 0xc6, 0xce, 0x3d, 0xee, 0xe9, 0xdb, 0x3c, 0x1a,
  0xe2, 0x8e, 0xf3, 0x24, 0xea, 0x2a, 0x2e, 0xb6, 0xe3, 0xc8, 0xf4, 0x0e,
  0xd2, 0xf2, 0x41, 0x08, 0x00, 0xa9, 0xc6, 0x3e, 0xec, 0xe4, 0xff, 0xff,
  0xf0, 0xe4, 0xff, 0xff, 0xf4, 0xe4, 0xff, 0xff, 0xf8, 0xe4, 0xff, 0xff,
  0xfc, 0xe4, 0xff, 0xff, 0x5a, 0xe8, 0xff, 0xff, 0x04, 0x00, 0x00, 0x00,
  0x20, 0x00, 0x00, 0x00, 0xf7, 0x00, 0x00, 0x00, 0x63, 0xfb, 0xff, 0xff,
  0x33, 0x01, 0x00, 0x00, 0x00, 0x00, 0x00, 0x00, 0xe7, 0x03, 0x00, 0x00,
  0xd8, 0xff, 0xff, 0xff, 0xf4, 0xff, 0xff, 0xff, 0x19, 0xfd, 0xff, 0xff,
  0x2c, 0xe5, 0xff, 0xff, 0x8a, 0xe8, 0xff, 0xff, 0x04, 0x00, 0x00, 0x00,
  0x00, 0x14, 0x00, 0x00, 0x09, 0xb9, 0x1d, 0xef, 0xd0, 0xf7, 0xd2, 0x9f,
  0x0d, 0xb7, 0x22, 0xfc, 0xbe, 0x07, 0xe4, 0x9d, 0x11, 0x42, 0x1d, 0xf9,
  0xe5, 0x08, 0xfa, 0xb5, 0x0e, 0x13, 0x1f, 0xfa, 0x1e, 0x10, 0xfc, 0xb6,
  0x13, 0x0e, 0x25, 0xf8, 0x23, 0x0a, 0x19, 0xe2, 0x06, 0xf7, 0x17, 0xf3,
  0xcd, 0x04, 0x09, 0xdf, 0x11, 0xf2, 0x24, 0xf0, 0x88, 0x24, 0x0b, 0xa9,
  0x17, 0xf4, 0x34, 0x14, 0xa1, 0x29, 0x03, 0xae, 0xfc, 0xe5, 0x07, 0xf1,
  0xc0, 0xfb, 0xc4, 0xaa, 0xff, 0xd3, 0x31, 0xf1, 0xb2, 0xf2, 0xd3, 0xac,
  0xfc, 0x22, 0x28, 0xea, 0xfa, 0x01, 0xef, 0xaf, 0x0e, 0x06, 0x1c, 0x0b,
  0x0f, 0xf7, 0xf7, 0xa3, 0x11, 0xe2, 0x24, 0x05, 0x18, 0x06, 0x1c, 0xed,
  0x12, 0xe3, 0x1e, 0xfd, 0xda, 0x07, 0x07, 0xe2, 0x0a, 0xdd, 0x21, 0xee,
  0xa7, 0x1a, 0x07, 0xc4, 0x01, 0xc4, 0x1a, 0x0d, 0xca, 0x0e, 0x15, 0xd6,
  0xf6, 0xd4, 0x28, 0xf7, 0xae, 0x03, 0xc6, 0x9e, 0xf6, 0xd0, 0x44, 0x1f,
  0xac, 0x0c, 0xd9, 0xa3, 0xf2, 0x05, 0x1e, 0xe5, 0xf0, 0x01, 0x02, 0xbb,
  0x05, 0xe2, 0x25, 0xff, 0xff, 0x0d, 0xfb, 0xa1, 0x11, 0xb4, 0x35, 0xf6,
  0x20, 0x00, 0x1b, 0xe4, 0x05, 0xba, 0x1c, 0xf8, 0xe3, 0xff, 0x04, 0xe9,
  0x0c, 0xad, 0x0e, 0xd4, 0xa5, 0x1f, 0xfe, 0xd8, 0x15, 0xaa, 0x16, 0xfd,
  0xcc, 0x0f, 0x1d, 0xbe, 0xf8, 0xcb, 0x2e, 0x17, 0xb7, 0x01, 0xc7, 0x87,
  0x08, 0xde, 0x4b, 0x0f, 0xb6, 0x0f, 0xd6, 0x96, 0x01, 0x02, 0x28, 0xed,
  0xf1, 0xfe, 0x0c, 0xa1, 0x06, 0xd0, 0x04, 0xf2, 0xf9, 0x07, 0xfa, 0xb0,
  0x12, 0xac, 0x1c, 0xff, 0x11, 0x06, 0x1d, 0xe5, 0x04, 0x98, 0x0b, 0xf5,
  0xd3, 0xfc, 0x03, 0xf8, 0x16, 0xa4, 0x21, 0xee, 0xae, 0x21, 0x06, 0xec,
  0x13, 0x82, 0x2a, 0x02, 0xfe, 0x0e, 0x24, 0xdc, 0x0d, 0xd7, 0x2a, 0x19,
  0xc9, 0x0f, 0xcb, 0x97, 0x10, 0xe5, 0x40, 0x1a, 0xc1, 0x06, 0xe5, 0x88,
  0x04, 0x08, 0x2f, 0x10, 0x03, 0xf5, 0xff, 0xa1, 0x0a, 0xe4, 0x19, 0x02,
  0xf5, 0x0f, 0x05, 0xa8, 0x17, 0xc1, 0x27, 0x03, 0x11, 0x08, 0x1c, 0xe7,
  0x15, 0xb6, 0x21, 0x02, 0xdc, 0x0d, 0xf5, 0xf0, 0x13, 0xbb, 0xff, 0xee,
  0xbb, 0x31, 0x0b, 0xf3, 0x17, 0x99, 0x01, 0x0e, 0x26, 0x0d, 0x13, 0xea,
  0x0d, 0xf6, 0x2c, 0x0d, 0xb6, 0x02, 0xd3, 0xf2, 0x15, 0xf3, 0x4d, 0x00,
  0xba, 0xfb, 0xe9, 0xe8, 0x0e, 0xf6, 0x2a, 0xff, 0xe9, 0x0a, 0x0b, 0xff,
  0x03, 0xe7, 0x1a, 0xfd, 0xde, 0x0d, 0x11, 0xc4, 0x0f, 0xbb, 0x36, 0x09,
  0x10, 0xf3, 0x12, 0xe9, 0x08, 0xb8, 0x30, 0x01, 0xe0, 0x05, 0x10, 0xe1,
  0x12, 0xc6, 0x1a, 0xf6, 0xd3, 0x39, 0x00, 0xdc, 0x1b, 0xb5, 0x2d, 0x0e,
  0x3f, 0x14, 0x13, 0xe2, 0x13, 0xf1, 0x2a, 0x01, 0xb6, 0x09, 0xd7, 0xde,
  0x1b, 0xf9, 0x2f, 0xfd, 0xc0, 0x02, 0xe7, 0xce, 0x11, 0xea, 0x32, 0x0b,
  0xe1, 0xf2, 0x0e, 0xe0, 0x09, 0xe1, 0x19, 0xef, 0xf6, 0x05, 0x0f, 0xbc,
  0x0a, 0xcd, 0x30, 0x14, 0x1d, 0xf7, 0x01, 0xd4, 0x13, 0xc1, 0x31, 0xf4,
  0xc9, 0x21, 0x05, 0xd3, 0x16, 0xdb, 0x0f, 0xf6, 0xcf, 0x16, 0xf1, 0xdc,
  0x1a, 0xb0, 0x2e, 0x13, 0x26, 0x1c, 0x07, 0xeb, 0x1b, 0xe7, 0x1e, 0xfe,
  0xae, 0xf8, 0xc0, 0xd3, 0x1b, 0xf9, 0x28, 0xee, 0xc1, 0x08, 0xd8, 0xc8,
  0x09, 0xf3, 0x28, 0x0a, 0xf0, 0x02, 0xfa, 0xd3, 0x0b, 0xe7, 0x27, 0xf9,
  0xfc, 0xf5, 0x1c, 0xb7, 0x15, 0xb0, 0x0d, 0x0d, 0x11, 0xf8, 0x12, 0xd6,
  0x17, 0xae, 0x12, 0xee, 0xe3, 0x1c, 0xf6, 0xea, 0x10, 0xc5, 0x12, 0x0a,
  0xe1, 0x16, 0x01, 0xdf, 0x1d, 0xa0, 0x28, 0x1b, 0x4c, 0x07, 0x1d, 0xdf,
  0x13, 0xc5, 0x08, 0xee, 0xbc, 0xf7, 0xb5, 0xcf, 0x1c, 0xf7, 0x12, 0xf1,
  0xcf, 0xfd, 0xd8, 0xe8, 0x04, 0xd9, 0x03, 0xfb, 0xf2, 0xf6, 0xf2, 0xdf,
  0x0a, 0xdc, 0x10, 0xed, 0x0b, 0xf7, 0x0e, 0xd2, 0x15, 0xb4, 0x05, 0x0e,
  0x08, 0x00, 0x13, 0xf3, 0x02, 0xa9, 0x11, 0xf1, 0xed, 0x0e, 0xfc, 0xf4,
  0x0c, 0xca, 0x03, 0x05, 0xf2, 0xf8, 0xff, 0xda, 0x0c, 0xae, 0x10, 0x17,
  0x53, 0x03, 0x18, 0xdf, 0x06, 0xc9, 0x1a, 0xef, 0xa8, 0xe4, 0x9d, 0xc4,
  0x03, 0xdb, 0x07, 0xf1, 0xbb, 0xde, 0xbc, 0xb9, 0x0d, 0xb3, 0x03, 0xfd,
  0x05, 0xe6, 0xc8, 0xcf, 0x03, 0xc0, 0x05, 0x0a, 0xd9, 0xeb, 0xdd, 0xef,
  0x17, 0x8d, 0x00, 0x12, 0x17, 0xf5, 0xe2, 0xeb, 0x0d, 0x81, 0x0c, 0xfc,
  0xf3, 0x07, 0xd9, 0xf6, 0x0c, 0xa9, 0xf0, 0x18, 0x00, 0x10, 0xe2, 0xd1,
  0x23, 0x9d, 0xf2, 0x20, 0x4e, 0x01, 0xe1, 0xe5, 0xf4, 0x8b, 0xe4, 0x0f,
  0x2f, 0x1e, 0x14, 0x8a, 0xf3, 0x86, 0xe3, 0x14, 0x1d, 0x0a, 0x06, 0xa4,
  0xf5, 0xf9, 0xe4, 0x47, 0x12, 0x6c, 0xec, 0xa8, 0x06, 0xc4, 0xca, 0x1a,
  0xc0, 0x27, 0xdf, 0xe6, 0xf5, 0xc9, 0xc6, 0x04, 0xbf, 0x27, 0xfa, 0x06,
  0x00, 0xe4, 0xc6, 0x13, 0xd3, 0x29, 0x10, 0x03, 0xfb, 0x07, 0x0a, 0x1e,
  0x15, 0x12, 0xff, 0xfd, 0xf6, 0xfd, 0x15, 0x1a, 0xe9, 0x22, 0x0f, 0xf8,
  0x01, 0xa7, 0xe1, 0x1f, 0x20, 0x21, 0x00, 0x94, 0x01, 0xa1, 0xd3, 0x19,
  0x13, 0x05, 0xf0, 0xa0, 0xfa, 0x0c, 0xbc, 0x32, 0x0c, 0x34, 0xf0, 0xcc,
  0x03, 0xb9, 0xcd, 0x25, 0xdc, 0x1a, 0xd0, 0x0d, 0x06, 0x9f, 0xc2, 0xff,
  0xc3, 0x13, 0xf2, 0x01, 0xf3, 0xdf, 0xd6, 0x18, 0xcc, 0x1e, 0xfd, 0x08,
  0xf0, 0xed, 0x08, 0x2b, 0x04, 0x01, 0xfc, 0xf9, 0xef, 0xf2, 0x0e, 0x27,
  0xf5, 0x15, 0x1f, 0xf6, 0xf1, 0xb1, 0xd9, 0x01, 0x1b, 0x23, 0xf8, 0x9f,
  0xf7, 0xb9, 0xcf, 0x11, 0xfa, 0x1c, 0xed, 0xad, 0x0a, 0x0d, 0xbf, 0x33,
  0x0b, 0x35, 0xd0, 0xd4, 0x0a, 0xd7, 0xaf, 0x21, 0xe9, 0x21, 0xbb, 0x04,
  0x03, 0xb9, 0xb8, 0x01, 0xcd, 0x26, 0xf4, 0x08, 0xfe, 0xca, 0xdb, 0x1a,
  0xc4, 0x33, 0x0b, 0x10, 0xf7, 0xb9, 0xe7, 0x0b, 0x04, 0x11, 0x08, 0xf6,
  0xfa, 0xc0, 0xfb, 0x2a, 0xf3, 0x2d, 0x0c, 0xf3, 0x05, 0xb8, 0xc6, 0x05,
  0x16, 0x24, 0xd5, 0xb2, 0x0e, 0xc8, 0xd6, 0x0d, 0x09, 0x33, 0xe4, 0x9d,
  0x16, 0xf9, 0xab, 0x17, 0xfe, 0x40, 0xd3, 0xe2, 0x05, 0xd2, 0xa3, 0x14,
  0x04, 0x15, 0xba, 0x10, 0x08, 0xc7, 0xb1, 0xf7, 0xe5, 0x25, 0xf3, 0x06,
  0x0a, 0xbe, 0xcf, 0x0b, 0xca, 0x2b, 0xfc, 0x0b, 0x0b, 0x97, 0xd9, 0xfa,
  0xfa, 0x14, 0x08, 0xf7, 0x06, 0xaa, 0xeb, 0x25, 0xf5, 0x0e, 0x0f, 0xdb,
  0x03, 0xdc, 0xd8, 0xfd, 0x02, 0x21, 0xd1, 0xbd, 0x06, 0xdd, 0xe0, 0xfd,
  0xf4, 0x39, 0xe2, 0xb0, 0x12, 0xea, 0xa5, 0x1a, 0xf6, 0x40, 0xd8, 0xd3,
  0x13, 0xd5, 0xa5, 0x0e, 0x08, 0x1d, 0xc8, 0x0b, 0x07, 0xd7, 0xab, 0xe8,
  0x07, 0x2e, 0xf7, 0x0a, 0x00, 0xdd, 0xc8, 0x0a, 0x00, 0x23, 0xfa, 0x16,
  0x04, 0xbf, 0xee, 0x01, 0xed, 0x0e, 0xf9, 0xe0, 0x03, 0xab, 0xe6, 0x18,
  0xed, 0x35, 0x19, 0xe5, 0x0f, 0xe3, 0xdc, 0x08, 0x16, 0x33, 0xcf, 0xb3,
  0x07, 0xdc, 0xd5, 0xfa, 0xf9, 0x34, 0xdc, 0xb3, 0x0c, 0xda, 0xa4, 0x1c,
  0x02, 0x31, 0xc8, 0xc3, 0x15, 0xf4, 0xa1, 0x0b, 0x01, 0x1f, 0xb1, 0x07,
  0x17, 0xe0, 0xa6, 0xf7, 0x12, 0x17, 0xd1, 0x0e, 0x03, 0xe1, 0xec, 0xf6,
  0x08, 0x1c, 0xc8, 0x0b, 0x06, 0xcf, 0xd3, 0xff, 0x18, 0xee, 0xcd, 0x9f,
  0xff, 0xca, 0xde, 0x14, 0xfb, 0x30, 0xe8, 0xc1, 0x16, 0xfb, 0xdc, 0xef,
  0xfd, 0x1c, 0xea, 0xbf, 0x0d, 0x04, 0xd2, 0xff, 0x16, 0x20, 0xf7, 0xbe,
  0x0a, 0x06, 0xbd, 0x1c, 0x08, 0x2c, 0xd6, 0xd7, 0x05, 0x12, 0xa4, 0xfd,
  0xf9, 0x1f, 0xca, 0x14, 0x0a, 0xdc, 0xaf, 0xed, 0x22, 0x1d, 0xc8, 0x1a,
  0x01, 0xf4, 0xca, 0x07, 0xfb, 0x22, 0xb9, 0x19, 0xeb, 0xdd, 0xd8, 0xf8,
  0x1d, 0xfa, 0xd8, 0xaa, 0xfc, 0xe0, 0xce, 0x06, 0xeb, 0x3c, 0xf9, 0xec,
  0x32, 0x15, 0xdd, 0xe6, 0x14, 0x21, 0xf5, 0xcf, 0x27, 0x16, 0xca, 0xe4,
  0x0b, 0x23, 0xfb, 0xd3, 0x1f, 0x16, 0x9e, 0x06, 0x01, 0x1d, 0xd2, 0xf1,
  0x11, 0x10, 0x9f, 0xca, 0xe2, 0x28, 0xcd, 0x1e, 0x21, 0xe8, 0xaa, 0xe0,
  0x1d, 0x1d, 0xc2, 0x12, 0x13, 0xfb, 0xbf, 0xe1, 0x1f, 0x25, 0xc1, 0x25,
  0x0f, 0xee, 0xd1, 0xdb, 0x30, 0x08, 0xd0, 0xd8, 0x1d, 0xf2, 0xce, 0x00,
  0xec, 0x3c, 0xf0, 0x01, 0x1f, 0x1c, 0xe6, 0xf4, 0x0d, 0x23, 0x08, 0xd9,
  0x22, 0x0a, 0xd5, 0xd6, 0x1b, 0x16, 0x15, 0xeb, 0x30, 0x16, 0xaa, 0xe5,
  0x0a, 0x13, 0xe4, 0x0f, 0x14, 0x07, 0xb2, 0xbc, 0x06, 0x00, 0xc1, 0x19,
  0x1e, 0xf7, 0xc4, 0xce, 0x19, 0x0d, 0xb8, 0x12, 0x06, 0xf4, 0xd3, 0xca,
  0x0f, 0x0e, 0xb5, 0x25, 0x17, 0xfa, 0xe5, 0xd8, 0x36, 0x05, 0xd0, 0xe3,
  0x1e, 0x0a, 0xf2, 0xfd, 0x06, 0x34, 0x0d, 0x06, 0x4d, 0x2d, 0xc2, 0xd4,
  0x1d, 0x2e, 0x02, 0x0a, 0x30, 0x39, 0xbf, 0xc7, 0x47, 0x24, 0x10, 0x01,
  0x3a, 0x44, 0x8c, 0xc6, 0x12, 0x1b, 0xd1, 0x16, 0x15, 0x2e, 0x90, 0x81,
  0xfa, 0x1f, 0xca, 0x14, 0x31, 0x1a, 0xbb, 0xa8, 0x4b, 0x2e, 0xc3, 0x1c,
  0x31, 0x17, 0xba, 0xa2, 0x27, 0x23, 0xa7, 0x0d, 0x3f, 0x1a, 0xc7, 0xbc,
  0x42, 0x27, 0xce, 0x02, 0x30, 0x21, 0xe0, 0xd9, 0x17, 0x4e, 0xef, 0x06,
  0x11, 0xcd, 0x07, 0xf9, 0x91, 0x2f, 0xf2, 0xbf, 0x14, 0xcd, 0x0e, 0xf4,
  0x97, 0x0e, 0xe7, 0xba, 0x04, 0xbf, 0xf9, 0x10, 0x12, 0x18, 0xfc, 0xc1,
  0x16, 0x98, 0xe2, 0xf7, 0xde, 0x10, 0xe6, 0xb6, 0x00, 0x8d, 0xea, 0xff,
  0x45, 0xff, 0xc5, 0xb9, 0x12, 0x98, 0xf1, 0xfb, 0x36, 0xfe, 0xda, 0xfd,
  0x09, 0xc7, 0xe7, 0xfa, 0x40, 0x0c, 0xfa, 0xf4, 0x05, 0xdf, 0xfc, 0x24,
  0xe9, 0x44, 0x11, 0xf5, 0x31, 0xd7, 0xea, 0xf8, 0x99, 0x12, 0xdb, 0xba,
  0x16, 0xd7, 0x00, 0xef, 0x8f, 0x01, 0xd2, 0xa6, 0xfc, 0xdf, 0xe3, 0x05,
  0xf6, 0x04, 0xe2, 0xa4, 0x05, 0xc8, 0xe1, 0xed, 0xf1, 0xfb, 0xcc, 0xbd,
  0x00, 0xb3, 0xdc, 0xfc, 0x30, 0x19, 0xd5, 0xb8, 0x0d, 0xc2, 0xf2, 0x00,
  0x31, 0x0a, 0xd3, 0xdd, 0xf9, 0xf3, 0xd4, 0xef, 0x30, 0x16, 0xf8, 0x09,
  0x03, 0xf1, 0xee, 0x1c, 0xde, 0x22, 0x16, 0xf9, 0x28, 0xd1, 0xeb, 0xf5,
  0xa3, 0x37, 0xdc, 0xc9, 0x29, 0xe4, 0xf2, 0xf5, 0x81, 0x2b, 0xd8, 0xaa,
  0x18, 0xec, 0xd5, 0xf7, 0x01, 0x30, 0xe4, 0xbe, 0x15, 0xd7, 0xbe, 0xe2,
  0xeb, 0x0b, 0xc3, 0xc9, 0x17, 0xb8, 0xc0, 0xee, 0x24, 0x0f, 0xcd, 0x9f,
  0x11, 0xce, 0xea, 0xf4, 0x25, 0x03, 0xd0, 0xcc, 0x18, 0xd7, 0xc9, 0xd9,
  0x1b, 0x11, 0xe0, 0xda, 0x13, 0xe9, 0xc2, 0x12, 0xdd, 0x37, 0xff, 0xef,
  0x1e, 0xc8, 0xd1, 0xe9, 0xc6, 0x27, 0xd0, 0xda, 0x1f, 0xdd, 0xd4, 0xe3,
  0x8b, 0x21, 0xdc, 0xa7, 0x1a, 0xfc, 0xdb, 0xfd, 0xff, 0x12, 0xe5, 0xcf,
  0x0a, 0xf0, 0xc3, 0xda, 0x02, 0x16, 0xd1, 0xd2, 0x1f, 0xd3, 0xb1, 0xe8,
  0x28, 0x1e, 0xd6, 0xbc, 0x18, 0xce, 0xdc, 0xda, 0x3a, 0x1e, 0xbf, 0xd3,
  0x0b, 0xb0, 0xca, 0xcb, 0x1d, 0x16, 0xe4, 0xbd, 0x10, 0xb6, 0xda, 0xf8,
  0xca, 0x22, 0xf9, 0x14, 0x3d, 0xf9, 0xfa, 0x09, 0xec, 0x33, 0x24, 0xc9,
  0x39, 0xfc, 0xff, 0x01, 0xa3, 0x3a, 0x1e, 0xa6, 0x29, 0x00, 0xf5, 0x04,
  0x06, 0x33, 0x1d, 0xcc, 0x22, 0x08, 0xe6, 0xec, 0xf7, 0x1d, 0x23, 0xec,
  0x1d, 0x01, 0xce, 0x02, 0x38, 0x1c, 0x18, 0xd9, 0x15, 0xff, 0xe6, 0xfc,
  0x30, 0x27, 0x0e, 0xea, 0x18, 0xfc, 0xe3, 0xf1, 0x2c, 0x18, 0x1b, 0xd2,
  0x12, 0xfe, 0xd0, 0xf6, 0xdc, 0x3e, 0x1c, 0x2e, 0x29, 0x08, 0xe6, 0xee,
  0x1a, 0x32, 0x0b, 0xf9, 0x1e, 0x0a, 0xdf, 0xed, 0xcc, 0x4e, 0xfe, 0xe3,
  0x18, 0x16, 0xf1, 0xe9, 0x11, 0x44, 0x09, 0x03, 0x0f, 0x0f, 0xf3, 0xf0,
  0xf0, 0x21, 0x01, 0x17, 0x1c, 0x08, 0xe8, 0xf6, 0x45, 0x29, 0x06, 0xe6,
  0x29, 0xfc, 0xf0, 0xf4, 0x34, 0x31, 0x04, 0xda, 0x18, 0x06, 0xf0, 0xfa,
  0x31, 0x1e, 0xf7, 0xa9, 0x11, 0x04, 0xec, 0xf4, 0x02, 0x27, 0xfc, 0xda,
  0x26, 0x3b, 0xf1, 0x1f, 0x11, 0x4d, 0xee, 0xe9, 0x24, 0x49, 0xf6, 0x05,
  0xe5, 0x3a, 0xf2, 0xe3, 0x22, 0x23, 0xee, 0x08, 0x18, 0x3b, 0xf0, 0xe9,
  0x0f, 0x52, 0xe4, 0xee, 0xf0, 0x17, 0xeb, 0xf9, 0x21, 0x3c, 0xec, 0xf5,
  0x36, 0x13, 0x06, 0xea, 0x29, 0x2f, 0xfa, 0xfa, 0x2e, 0x26, 0xfa, 0xeb,
  0x21, 0x17, 0xec, 0x0e, 0x29, 0x1f, 0xf9, 0xcc, 0x12, 0x19, 0xe9, 0x17,
  0xf9, 0x31, 0x04, 0xe7, 0x1c, 0x12, 0xd0, 0xee, 0x2d, 0x3d, 0x08, 0xe0,
  0x09, 0x26, 0xd2, 0xe0, 0x02, 0x4a, 0xfe, 0xfc, 0x0d, 0x2e, 0xcc, 0xec,
  0x0a, 0x3f, 0xff, 0x09, 0xf6, 0x44, 0xd2, 0xdb, 0x01, 0x23, 0xfd, 0x25,
  0x09, 0x12, 0xde, 0xe5, 0x39, 0x1a, 0x0b, 0xe8, 0x0e, 0x01, 0xec, 0xf9,
  0x21, 0x2a, 0x0d, 0xf2, 0x14, 0xe9, 0xf1, 0x05, 0x2f, 0x24, 0x0b, 0xf0,
  0x19, 0xde, 0xe9, 0x0a, 0xfd, 0x3b, 0x0d, 0xfd, 0xf1, 0x12, 0xdc, 0xdb,
  0x34, 0x35, 0x06, 0xe0, 0x02, 0x16, 0xe9, 0xe1, 0x30, 0x2b, 0x09, 0xe4,
  0xeb, 0x3d, 0xe4, 0xd4, 0xf5, 0x2b, 0x09, 0xf5, 0xe2, 0x34, 0xdd, 0xd3,
  0x18, 0x15, 0x21, 0xf6, 0xfe, 0x09, 0xf7, 0xde, 0x37, 0x1b, 0x12, 0xf0,
  0x0e, 0x0f, 0x03, 0xfc, 0x25, 0x24, 0x12, 0xf5, 0x19, 0xe6, 0xf6, 0x01,
  0x23, 0x33, 0x14, 0xea, 0x19, 0xd5, 0xeb, 0xee, 0xf8, 0x3b, 0x06, 0xcc,
  0xd7, 0x13, 0xea, 0xe0, 0x50, 0x23, 0x16, 0xe4, 0xe6, 0x1c, 0xdd, 0xde,
  0x40, 0x1b, 0x13, 0xe3, 0xc3, 0x46, 0xeb, 0xf4, 0xfc, 0x28, 0x15, 0xfb,
  0xbb, 0x1a, 0xf7, 0xde, 0x21, 0x07, 0x26, 0x05, 0xeb, 0x12, 0x05, 0xee,
  0x2a, 0x31, 0x0d, 0xe7, 0xe3, 0x13, 0xfa, 0xfe, 0x27, 0x39, 0x0c, 0xff,
  0xf4, 0xe9, 0x00, 0x03, 0x16, 0x46, 0x22, 0xf6, 0xf4, 0xe4, 0xfc, 0xf2,
  0x1b, 0x4b, 0x19, 0xd3, 0xfc, 0xe2, 0xe9, 0x0b, 0x86, 0x60, 0x03, 0x0f,
  0xff, 0xef, 0xee, 0xd6, 0xa6, 0x4a, 0xeb, 0xed, 0xe1, 0x1f, 0xe2, 0xdd,
  0x05, 0xd5, 0x04, 0xfc, 0xec, 0x0d, 0xef, 0x0c, 0x08, 0xe2, 0xf9, 0x2f,
  0xe0, 0x06, 0xde, 0xff, 0x4e, 0xf8, 0x08, 0x26, 0xfd, 0xf2, 0xf6, 0x0b,
  0x62, 0xbd, 0x05, 0x22, 0xff, 0xfe, 0xfb, 0xff, 0x54, 0xe0, 0x02, 0x20,
  0xfc, 0x0a, 0xfe, 0x18, 0x38, 0x0a, 0x07, 0x1a, 0xfd, 0xe9, 0xe2, 0x09,
  0x81, 0x53, 0x05, 0x15, 0xf3, 0xeb, 0xd8, 0xe0, 0xa4, 0x48, 0xfc, 0xed,
  0x07, 0x29, 0xe1, 0xeb, 0x09, 0xe7, 0x01, 0x05, 0xfb, 0xfc, 0xef, 0x0c,
  0xf4, 0xfa, 0x03, 0x40, 0x05, 0xfc, 0xf4, 0x07, 0x41, 0x11, 0x03, 0x1f,
  0x05, 0xec, 0xf6, 0x0d, 0x46, 0xdb, 0x0b, 0x0c, 0x04, 0xfc, 0xfa, 0xff,
  0x3b, 0xea, 0xfb, 0x1e, 0x0a, 0xfc, 0x00, 0x12, 0x2e, 0x21, 0x05, 0x1f,
  0xfe, 0xe4, 0xe5, 0xea, 0x93, 0x50, 0x01, 0x00, 0xe9, 0xee, 0xdf, 0xdc,
  0xa4, 0x3e, 0xfb, 0xf8, 0xf7, 0x24, 0xd9, 0xce, 0x09, 0xd9, 0x00, 0x07,
  0xff, 0x0e, 0x00, 0xf6, 0x08, 0xe7, 0xfd, 0x3a, 0xe8, 0x13, 0xff, 0x05,
  0x48, 0xfa, 0x07, 0x29, 0x0c, 0x09, 0xff, 0x0d, 0x35, 0xea, 0xfc, 0x19,
  0x15, 0xfb, 0xfe, 0xdb, 0x3b, 0xed, 0xf9, 0x2d, 0x16, 0x01, 0x05, 0x04,
  0x09, 0xfd, 0x04, 0x2d, 0xf8, 0xe3, 0xf3, 0xfa, 0xa9, 0x35, 0x0f, 0x10,
  0xf9, 0xeb, 0xea, 0xe5, 0xbe, 0x24, 0xef, 0xfd, 0xf0, 0x2b, 0xd7, 0xb9,
  0x04, 0xd4, 0xfb, 0xf9, 0x03, 0x2c, 0xf4, 0xfe, 0x02, 0xe4, 0x09, 0x27,
  0x02, 0x16, 0xf3, 0xef, 0x32, 0xf1, 0xfb, 0x2c, 0x06, 0x0e, 0xf8, 0xeb,
  0x14, 0xef, 0xeb, 0x1d, 0x13, 0x1f, 0xf9, 0xe5, 0x32, 0xdd, 0xef, 0x25,
  0x1c, 0x18, 0x18, 0x0c, 0x05, 0xfa, 0x08, 0x2b, 0x03, 0xe4, 0xe1, 0xf2,
  0xaf, 0x4e, 0xf3, 0x15, 0x04, 0xf7, 0xda, 0xd8, 0xd0, 0x34, 0xd3, 0x05,
  0xf2, 0x36, 0xd9, 0xa2, 0x07, 0xdf, 0xee, 0xfb, 0xf1, 0x28, 0xe8, 0x06,
  0x08, 0xda, 0x35, 0x2b, 0x0d, 0xfd, 0xfd, 0xfe, 0x32, 0xe2, 0x0a, 0x21,
  0x09, 0x07, 0xfe, 0xeb, 0x0b, 0xeb, 0xfb, 0x24, 0x0d, 0x0d, 0x06, 0xe6,
  0x13, 0xf1, 0xf6, 0x26, 0x0e, 0x08, 0x11, 0x0c, 0x02, 0x00, 0x1c, 0x38,
  0x0b, 0xca, 0xfe, 0xf4, 0xc7, 0x2f, 0xda, 0x11, 0xf8, 0xdf, 0xea, 0xdd,
  0xf7, 0x2d, 0xc0, 0xf6, 0xdb, 0x3b, 0xe6, 0x9b, 0x03, 0xd6, 0xdb, 0xf7,
  0xeb, 0x2a, 0xfd, 0x02, 0xe6, 0xd5, 0x06, 0x39, 0x02, 0x13, 0xf5, 0xf4,
  0x2a, 0xdf, 0x18, 0x3f, 0xff, 0x13, 0xed, 0xde, 0x05, 0xb7, 0xef, 0x2b,
  0x17, 0x0e, 0xfd, 0xe4, 0x02, 0xeb, 0x00, 0x16, 0xff, 0x17, 0x02, 0xfa,
  0x0e, 0xfb, 0x14, 0x46, 0x0b, 0xd1, 0x01, 0xeb, 0xc8, 0x42, 0xec, 0x0b,
  0xfb, 0xc8, 0x00, 0xec, 0xf6, 0x39, 0xcd, 0x04, 0xee, 0x2a, 0xef, 0xb9,
  0x05, 0xd1, 0xc9, 0xfa, 0xe9, 0x21, 0x06, 0xf3, 0x00, 0xe2, 0xff, 0x36,
  0x00, 0x3a, 0x01, 0xef, 0x31, 0xf9, 0x02, 0x2e, 0x10, 0x29, 0x14, 0xc9,
  0x11, 0xcd, 0xf6, 0x2d, 0x03, 0x3d, 0x08, 0xcd, 0x1c, 0xe5, 0x01, 0x2e,
  0x06, 0x4c, 0x22, 0x07, 0x13, 0x04, 0x06, 0x39, 0x18, 0xe3, 0x22, 0xf0,
  0xca, 0x56, 0xeb, 0x0f, 0xf7, 0xcb, 0x18, 0xfa, 0xe3, 0x3b, 0xc4, 0xf7,
  0xfc, 0x3f, 0xd7, 0xd7, 0x04, 0xe2, 0xd9, 0xd8, 0xfb, 0x2b, 0xf6, 0xe7,
  0xef, 0xe0, 0xd5, 0x5d, 0xf8, 0x41, 0x1b, 0xdf, 0x2d, 0xe5, 0xf7, 0x3c,
  0xfa, 0x28, 0x0a, 0xc2, 0x13, 0xc4, 0xe3, 0x16, 0x02, 0x40, 0x06, 0xbd,
  0x28, 0xe7, 0x01, 0x1a, 0x05, 0x55, 0x27, 0xe9, 0x0c, 0xf7, 0x0e, 0x57,
  0x06, 0xf0, 0x0c, 0xfc, 0xf0, 0x36, 0xe7, 0x2b, 0x06, 0xea, 0x15, 0x16,
  0x12, 0x43, 0xd9, 0x07, 0xf7, 0x23, 0xf4, 0xd3, 0x01, 0xf4, 0xd9, 0xc3,
  0x11, 0x0c, 0xf4, 0xc1, 0x01, 0xe3, 0xcf, 0x3a, 0x0e, 0xee, 0x01, 0xe3,
  0x1a, 0xe9, 0xf1, 0x33, 0x03, 0x03, 0x18, 0xc7, 0x0d, 0xd6, 0xe3, 0x03,
  0x0b, 0x29, 0x16, 0xcf, 0x2d, 0xed, 0xfb, 0x16, 0x0b, 0x3f, 0x31, 0xdd,
  0xfe, 0xf2, 0xf9, 0x3e, 0xf9, 0x02, 0xff, 0x00, 0xea, 0x56, 0xe1, 0x15,
  0xe9, 0xf4, 0x10, 0x07, 0x03, 0x3f, 0xdd, 0xf4, 0xe9, 0x1a, 0xcd, 0xd5,
  0xfa, 0xfd, 0xe1, 0xb2, 0xf2, 0xf0, 0xc2, 0xbb, 0x0d, 0xec, 0xb7, 0x15,
  0xeb, 0xd8, 0xfc, 0xdb, 0x1b, 0xda, 0xdb, 0x03, 0xfa, 0xe1, 0x03, 0xb9,
  0x1d, 0xd3, 0xd0, 0xe0, 0x0c, 0x02, 0x08, 0xbd, 0x3e, 0xfb, 0xd0, 0x20,
  0x0e, 0x2e, 0x26, 0xcf, 0x0a, 0xfa, 0xda, 0x42, 0x0d, 0x4a, 0xc0, 0xe6,
  0x47, 0xaa, 0x06, 0x19, 0x03, 0x1e, 0xdf, 0xfb, 0x5f, 0xc2, 0x0c, 0x37,
  0xfa, 0x05, 0xe7, 0x1c, 0x10, 0x1a, 0xf0, 0x2f, 0xfc, 0xfa, 0xed, 0x06,
  0x16, 0x13, 0xf5, 0x20, 0xf8, 0xfd, 0xe5, 0xf8, 0x1f, 0x13, 0x01, 0xf9,
  0xff, 0xfd, 0xf5, 0x12, 0x14, 0x1a, 0xfc, 0x07, 0xf7, 0xf9, 0xf3, 0x1c,
  0x0c, 0x00, 0x0c, 0x0a, 0xfa, 0xf8, 0x03, 0x10, 0xf0, 0x15, 0x05, 0x08,
  0xfd, 0x27, 0xb3, 0xd1, 0x3a, 0xb4, 0xf0, 0x07, 0xf9, 0x14, 0xd9, 0xf2,
  0x4c, 0xd1, 0xe6, 0x20, 0xfb, 0xff, 0xde, 0x1c, 0x17, 0x0e, 0xde, 0x1f,
  0xfb, 0xf5, 0xe2, 0x0f, 0x11, 0x1c, 0xe5, 0x20, 0xf7, 0xfd, 0xe2, 0x09,
  0x0c, 0x11, 0xf8, 0x02, 0xf1, 0xfe, 0xfc, 0x07, 0x03, 0x0d, 0x07, 0x05,
  0xf2, 0xfa, 0xf7, 0x26, 0x0f, 0xf6, 0x08, 0x04, 0xf4, 0xf8, 0xf9, 0x12,
  0xe9, 0xfe, 0x08, 0xf9, 0xf5, 0xe4, 0xa2, 0xae, 0x38, 0xc7, 0xa6, 0x19,
  0xef, 0xe2, 0xcf, 0xc8, 0x31, 0xdf, 0xbf, 0x38, 0xf8, 0xf5, 0xc4, 0x20,
  0x17, 0x0e, 0xc8, 0x0c, 0xfc, 0xec, 0xc6, 0x07, 0x0e, 0x16, 0xcd, 0x25,
  0xf7, 0xfd, 0xd8, 0xe9, 0x0a, 0x10, 0xf2, 0x09, 0xfe, 0x06, 0xe8, 0x02,
  0x09, 0x10, 0xfb, 0x06, 0xfc, 0xf9, 0xdb, 0x12, 0x08, 0x07, 0x09, 0x0a,
  0xf7, 0xf3, 0xe6, 0x09, 0xea, 0x0f, 0x01, 0xf4, 0xe3, 0xd8, 0x8e, 0x81,
  0x36, 0xbb, 0x99, 0x1e, 0xea, 0xed, 0xbd, 0xbf, 0x28, 0xd9, 0xcc, 0x1f,
  0xff, 0xe8, 0xd1, 0x18, 0x19, 0x04, 0xdc, 0x08, 0x03, 0xe8, 0xd2, 0x15,
  0x0f, 0x13, 0xe8, 0x20, 0xfe, 0xe8, 0xd0, 0xf3, 0x1e, 0x0f, 0xf6, 0x04,
  0x06, 0xff, 0xe6, 0x01, 0x10, 0x12, 0xf8, 0x07, 0xfa, 0xdb, 0xfb, 0x29,
  0xef, 0xff, 0x0b, 0x06, 0xfe, 0xd9, 0xfa, 0xfe, 0xea, 0x13, 0xfa, 0xfb,
  0xca, 0x13, 0x9c, 0x98, 0x2f, 0x9d, 0xa3, 0xfe, 0xe5, 0x1c, 0xc5, 0xb2,
  0x24, 0xce, 0xd0, 0xe0, 0xf6, 0x01, 0xce, 0x21, 0x18, 0x08, 0xe3, 0xed,
  0xfb, 0x01, 0xd7, 0x0e, 0x0e, 0x1a, 0xec, 0x23, 0xfb, 0x02, 0xc8, 0xfb,
  0x20, 0x14, 0x07, 0x03, 0xff, 0x07, 0xe5, 0x1a, 0x1e, 0x12, 0x08, 0x09,
  0xfa, 0xed, 0x01, 0x18, 0x05, 0x06, 0xfe, 0x0d, 0x00, 0xf7, 0x03, 0x07,
  0xec, 0x15, 0xfd, 0xf5, 0xc2, 0x09, 0xc7, 0xce, 0x28, 0xb6, 0xc2, 0x1f,
  0xe9, 0x0b, 0xd8, 0xd6, 0x2b, 0xbe, 0xd1, 0x00, 0x0b, 0xe5, 0xec, 0x1e,
  0xfd, 0x1f, 0xd7, 0x11, 0xfe, 0xfd, 0xf0, 0x16, 0x05, 0x18, 0xdf, 0x3e,
  0x01, 0x08, 0xe7, 0x03, 0x1f, 0x17, 0x06, 0x0b, 0x04, 0x0c, 0xf5, 0x12,
  0x13, 0x18, 0xfd, 0x0c, 0xfd, 0xe5, 0x0e, 0x13, 0x23, 0xe2, 0xdb, 0xfe,
  0xfc, 0xf1, 0x11, 0x00, 0xe1, 0x18, 0xcd, 0xf2, 0xbb, 0xda, 0xae, 0xaf,
  0x34, 0xbb, 0xd1, 0xe9, 0xdb, 0xe5, 0xcd, 0xb6, 0x47, 0xd8, 0xef, 0xe0,
  0x06, 0xeb, 0xd4, 0x17, 0x15, 0x1e, 0xe3, 0x01, 0x02, 0xe9, 0xd4, 0xf8,
  0x1c, 0x18, 0xed, 0x39, 0xf6, 0xdc, 0xbb, 0x02, 0x1e, 0x0b, 0xfe, 0x09,
  0xfb, 0xfc, 0xe8, 0x06, 0x11, 0x09, 0x0f, 0x14, 0xfe, 0xa9, 0xfb, 0xfb,
  0x25, 0x00, 0xf9, 0x09, 0x01, 0xa1, 0xfb, 0x03, 0xf4, 0x21, 0xf5, 0xeb,
  0xc8, 0xe2, 0xab, 0xb0, 0x43, 0xcb, 0xb4, 0xc4, 0xdf, 0xe6, 0xb6, 0xbd,
  0x3c, 0xdc, 0xd0, 0xec, 0x0e, 0xe0, 0xd1, 0x00, 0x15, 0x20, 0xd2, 0x08,
  0x0e, 0xe1, 0xd7, 0xf5, 0x20, 0x28, 0xda, 0x3a, 0x00, 0xe7, 0xbe, 0x0e,
  0x13, 0x03, 0x0e, 0x0f, 0x01, 0xdc, 0xe3, 0x01, 0x04, 0x11, 0x07, 0x18,
  0xef, 0xbe, 0xeb, 0xde, 0x32, 0xee, 0xe3, 0x05, 0xfb, 0xbe, 0xf7, 0xfc,
  0xf0, 0x2d, 0xe9, 0xe4, 0xdf, 0xeb, 0xae, 0xaa, 0xff, 0xc7, 0xa8, 0xc9,
  0xf3, 0xdf, 0xbb, 0xbf, 0xf2, 0xe2, 0xab, 0xe4, 0x19, 0xf0, 0xe1, 0xe4,
  0x1f, 0x06, 0xa5, 0x0b, 0x08, 0x06, 0xe4, 0xdc, 0x2a, 0x19, 0xd0, 0x2f,
  0x17, 0xf8, 0xc6, 0xf3, 0x14, 0xfe, 0xfe, 0x16, 0x0f, 0xfe, 0xf0, 0xfc,
  0x00, 0x12, 0xec, 0x1e, 0xfe, 0xe2, 0xf3, 0xc4, 0x2d, 0xf6, 0xda, 0x05,
  0x01, 0xd8, 0x06, 0xfa, 0xf4, 0x16, 0xe7, 0xdf, 0xd0, 0xe3, 0xa2, 0xb6,
  0xef, 0xbb, 0xb1, 0xd5, 0xeb, 0xec, 0xc6, 0xb7, 0xf8, 0xda, 0xc8, 0xdb,
  0x3f, 0xf8, 0xd0, 0xd8, 0x14, 0x10, 0xbb, 0x14, 0x13, 0x0a, 0xc1, 0xc8,
  0x1b, 0x2f, 0xca, 0x32, 0x18, 0xee, 0xcc, 0xe9, 0x1b, 0xfd, 0xd6, 0x19,
  0x2e, 0xe6, 0xf0, 0xd9, 0x04, 0x18, 0xc5, 0x18, 0x20, 0xf4, 0xf6, 0xb7,
  0x25, 0x09, 0xce, 0x00, 0x23, 0xe9, 0x04, 0xe6, 0xe8, 0x2d, 0xeb, 0xe4,
  0xfb, 0xf0, 0x04, 0x0c, 0x45, 0x92, 0x0c, 0x4d, 0xdb, 0xf5, 0xf4, 0x10,
  0x50, 0xa5, 0x05, 0x49, 0xfd, 0x2c, 0xef, 0xf5, 0xfd, 0xcf, 0x06, 0x1c,
  0x09, 0x0f, 0x01, 0x14, 0x1b, 0x0d, 0x0c, 0xd5, 0x1b, 0xff, 0x0d, 0xfe,
  0x06, 0x05, 0x03, 0xf4, 0x10, 0x1b, 0x0a, 0xfb, 0xfb, 0x0c, 0x0c, 0xfe,
  0x05, 0x06, 0x0a, 0xf4, 0xcf, 0x0d, 0x09, 0xeb, 0xfc, 0x0b, 0xfa, 0xf9,
  0x38, 0xfc, 0xff, 0xf4, 0xf2, 0x01, 0xd5, 0xf6, 0x4a, 0xa1, 0x03, 0x2a,
  0xe6, 0xf7, 0xe5, 0x0f, 0x43, 0xb0, 0x12, 0x38, 0x05, 0x1a, 0xf6, 0xf8,
  0x0d, 0xec, 0x11, 0x1d, 0x07, 0x02, 0x06, 0x0b, 0x0a, 0x0a, 0x13, 0xdb,
  0x1a, 0xf2, 0x10, 0x05, 0x17, 0x0c, 0x0a, 0xe7, 0x1a, 0x02, 0x05, 0xfd,
  0x0a, 0x0e, 0x08, 0xf5, 0x06, 0xf8, 0x0d, 0xfe, 0xd3, 0x0f, 0x07, 0xe0,
  0x0c, 0x0c, 0x02, 0x07, 0x24, 0xfb, 0x08, 0xee, 0xf8, 0x13, 0xb8, 0xec,
  0x51, 0xb6, 0xeb, 0x15, 0xfc, 0xfd, 0xd6, 0x00, 0x48, 0xc8, 0x21, 0x3d,
  0x00, 0x1d, 0xed, 0xf4, 0xfd, 0xea, 0x15, 0x29, 0x03, 0xfc, 0x04, 0xfd,
  0xfe, 0x03, 0x00, 0xe4, 0x18, 0x03, 0x0c, 0xff, 0x05, 0x19, 0x1b, 0xef,
  0x10, 0x17, 0x14, 0x05, 0x10, 0xfe, 0x0a, 0xfb, 0x09, 0x0c, 0xfe, 0x00,
  0xea, 0x0f, 0x17, 0xec, 0x00, 0x0c, 0xfe, 0xfc, 0x35, 0xf3, 0x0d, 0xd8,
  0xec, 0x11, 0xbd, 0xd0, 0x52, 0xaf, 0xad, 0x18, 0xf9, 0xfc, 0xde, 0xf4,
  0x46, 0xc8, 0xd7, 0x34, 0xf2, 0x2b, 0xe5, 0xd8, 0x00, 0xea, 0xe7, 0x30,
  0xf3, 0x16, 0xfd, 0xff, 0xf0, 0x02, 0xd5, 0xf2, 0xfc, 0x1c, 0x05, 0x0c,
  0xf4, 0x0c, 0x17, 0xf4, 0xf7, 0x2f, 0xf8, 0x04, 0xf9, 0x0a, 0x0f, 0xfc,
  0xf1, 0x1e, 0x0b, 0x04, 0xe5, 0x03, 0x18, 0xf1, 0xf2, 0x1f, 0xe7, 0x0b,
  0x28, 0x00, 0x00, 0xee, 0xe8, 0xe4, 0xb9, 0xc3, 0x3c, 0x9d, 0x92, 0x1d,
  0x0d, 0xe6, 0xd0, 0xef, 0x4a, 0xc4, 0xba, 0x34, 0xf4, 0x07, 0xf3, 0xe0,
  0x01, 0xdb, 0xf5, 0x1e, 0xf7, 0x01, 0xff, 0x00, 0xf7, 0xfa, 0xfe, 0xee,
  0x03, 0xf7, 0x02, 0xf9, 0xfd, 0x14, 0x16, 0xf4, 0xfd, 0xfd, 0x02, 0xf8,
  0x0f, 0x0b, 0x15, 0x07, 0xfc, 0xfd, 0xf6, 0x04, 0xe8, 0xfe, 0x21, 0x05,
  0xee, 0xf6, 0xf8, 0x03, 0x1d, 0xfd, 0x12, 0xfd, 0x08, 0xc3, 0xb6, 0xa8,
  0x18, 0xc3, 0xa4, 0x5e, 0x14, 0xbb, 0xc3, 0xc4, 0x30, 0xc3, 0xae, 0x42,
  0xf8, 0x12, 0xea, 0xa2, 0xf2, 0xdf, 0xe2, 0x44, 0xf5, 0x0c, 0xf2, 0xfc,
  0x01, 0xf1, 0xde, 0x04, 0x15, 0xfd, 0xf5, 0xff, 0xf3, 0x12, 0x0f, 0xfe,
  0xfd, 0xfe, 0xef, 0xfc, 0x19, 0x24, 0x01, 0x02, 0x02, 0xf8, 0xe9, 0xfb,
  0x15, 0x01, 0x1b, 0x05, 0xf7, 0xf6, 0xe6, 0xfc, 0x3c, 0x0c, 0x07, 0x0b,
  0xfe, 0xd4, 0xcd, 0xa7, 0x19, 0xd8, 0xad, 0x24, 0x0f, 0xbf, 0xd2, 0xb4,
  0x3e, 0xf2, 0xb3, 0x1b, 0xf3, 0x0a, 0xca, 0xb7, 0xf2, 0xdf, 0xd1, 0x2c,
  0xee, 0x1c, 0xfc, 0x08, 0x0e, 0xee, 0xc1, 0xf6, 0xfd, 0x4a, 0x06, 0x12,
  0xfd, 0x07, 0x01, 0xf1, 0xfe, 0x42, 0xf0, 0x00, 0x1a, 0x2e, 0x03, 0xef,
  0xfa, 0x1a, 0xf2, 0x09, 0x09, 0x05, 0x01, 0x05, 0xf5, 0x32, 0xe4, 0x0b,
  0x40, 0xfb, 0xf4, 0xf5, 0xe8, 0xd3, 0xc9, 0xba, 0x19, 0xe4, 0xa7, 0xea,
  0x17, 0xc2, 0xb9, 0xa9, 0x3a, 0xfb, 0xab, 0xd4, 0xf6, 0x1f, 0xc4, 0x90,
  0xf5, 0xe1, 0xc7, 0xff, 0xfd, 0x34, 0xf6, 0x00, 0x12, 0xf1, 0xce, 0xf2,
  0x07, 0x2d, 0xf7, 0x09, 0xf9, 0x05, 0x04, 0xfc, 0x04, 0x32, 0x07, 0x01,
  0x09, 0x23, 0x08, 0x04, 0x09, 0x10, 0xf8, 0xfb, 0x0c, 0x06, 0x0a, 0x05,
  0xfd, 0x1d, 0xe1, 0x04, 0x29, 0x06, 0x07, 0xf2, 0x00, 0xca, 0xc9, 0xb2,
  0xef, 0xf6, 0x96, 0xce, 0x0c, 0xc4, 0xa1, 0xa0, 0x0b, 0x0f, 0x8d, 0xd1,
  0x04, 0x25, 0xd6, 0x81, 0x00, 0xf1, 0xab, 0xf6, 0xff, 0x19, 0xfb, 0xf4,
  0x09, 0xf1, 0xe3, 0xf5, 0x01, 0x22, 0xfb, 0x0a, 0xeb, 0x03, 0x08, 0xe6,
  0x04, 0x28, 0xfa, 0xfb, 0x1c, 0x1d, 0x08, 0xf7, 0x0f, 0xfe, 0xf6, 0x08,
  0x0e, 0x0b, 0x13, 0xf8, 0x01, 0x00, 0xf3, 0xfd, 0x14, 0x0b, 0x10, 0xe2,
  0xd6, 0xc9, 0xa7, 0xa4, 0x00, 0xf6, 0x89, 0xca, 0xda, 0xb4, 0x98, 0x92,
  0x19, 0xfe, 0x89, 0xd1, 0xf4, 0x3f, 0xab, 0x81, 0xfb, 0xdf, 0xa4, 0xe2,
  0x04, 0x2f, 0xfc, 0xf9, 0x0e, 0xf2, 0xce, 0xf2, 0x0d, 0x38, 0xf5, 0x0e,
  0xf5, 0x0c, 0x1d, 0xef, 0x0d, 0x44, 0xf9, 0x02, 0x08, 0x14, 0x17, 0xfc,
  0x08, 0x24, 0x01, 0x07, 0x1c, 0x04, 0x28, 0x0a, 0x16, 0x2c, 0xf3, 0x05,
  0x16, 0x13, 0x1d, 0xe1, 0xe8, 0x02, 0xf1, 0x18, 0x2d, 0xb7, 0xf9, 0x49,
  0xef, 0xee, 0xf3, 0x11, 0x3a, 0xc6, 0xf9, 0x37, 0x06, 0x11, 0xfa, 0x16,
  0x07, 0xee, 0xfc, 0x32, 0x0c, 0x13, 0xf9, 0xfd, 0xf3, 0x03, 0xe5, 0x7f,
  0x0e, 0x03, 0xf3, 0xf2, 0xe8, 0x1b, 0xff, 0x18, 0x08, 0x19, 0x04, 0xfa,
  0x0e, 0xe9, 0xfd, 0x04, 0x0e, 0x06, 0x00, 0xf4, 0x34, 0xdf, 0xf4, 0x44,
  0x03, 0x0c, 0xfe, 0x04, 0x24, 0xd9, 0xfd, 0x46, 0xf5, 0x01, 0xf5, 0x0c,
  0x34, 0xbd, 0xfc, 0x38, 0xfe, 0xe2, 0xf8, 0x0b, 0x37, 0xd2, 0xfd, 0x36,
  0xfd, 0x15, 0xfa, 0x06, 0x01, 0xeb, 0x0a, 0x2e, 0x00, 0xfc, 0xfd, 0xfa,
  0xf7, 0x07, 0xec, 0x54, 0xff, 0xff, 0x02, 0xfa, 0xea, 0x1d, 0xfd, 0x13,
  0xf9, 0x11, 0x0d, 0xfa, 0x07, 0xfd, 0xf8, 0x02, 0xff, 0x08, 0xf7, 0xed,
  0x13, 0xcc, 0xf9, 0x25, 0xfd, 0xff, 0xf5, 0xfa, 0x0d, 0xe2, 0x0b, 0x2e,
  0x07, 0xf6, 0xea, 0x01, 0x2c, 0xd5, 0xf1, 0x54, 0xfd, 0xed, 0xe3, 0xff,
  0x55, 0xd7, 0x00, 0x44, 0x04, 0x04, 0xfd, 0x03, 0xfb, 0xe8, 0x00, 0x40,
  0x02, 0x08, 0x00, 0xf8, 0xfa, 0xfe, 0xe8, 0x4a, 0xff, 0xf7, 0x0f, 0xf6,
  0xdd, 0x10, 0xf9, 0x14, 0xfd, 0x0c, 0x13, 0xf5, 0x00, 0xef, 0xf6, 0x0b,
  0x07, 0x14, 0xfb, 0xfb, 0x1b, 0xc8, 0x00, 0x24, 0xfe, 0x10, 0xf2, 0xf8,
  0x07, 0xdd, 0xf9, 0x32, 0x09, 0x09, 0x0b, 0x0c, 0x22, 0xd5, 0x05, 0x61,
  0x06, 0xfe, 0xf2, 0xff, 0x60, 0xce, 0x0a, 0x77, 0x00, 0x11, 0xf7, 0xfd,
  0x06, 0xca, 0xf8, 0x59, 0x04, 0xfd, 0x05, 0xf4, 0xe9, 0xfa, 0xe9, 0x50,
  0x03, 0x05, 0x0e, 0x07, 0xdc, 0x03, 0xf6, 0x13, 0xfd, 0x0e, 0x06, 0xf8,
  0xf0, 0xf2, 0xed, 0x09, 0x04, 0x1a, 0xfb, 0xf0, 0xf8, 0xcd, 0xfc, 0x19,
  0x01, 0x1c, 0xfd, 0xfa, 0x02, 0xe4, 0xfd, 0x2a, 0x03, 0x14, 0xf1, 0xea,
  0x03, 0xd7, 0x24, 0x59, 0x02, 0x1a, 0xfa, 0x02, 0x3e, 0xcb, 0x15, 0x58,
  0x04, 0x15, 0x07, 0x01, 0x00, 0xdf, 0xfa, 0x68, 0xf9, 0x04, 0xf9, 0xfe,
  0xf8, 0xf8, 0xef, 0x36, 0x09, 0x0d, 0x05, 0x0b, 0xe5, 0x03, 0xf4, 0x15,
  0xff, 0x0e, 0x00, 0xfb, 0xeb, 0xe1, 0xf2, 0xff, 0xf5, 0x1f, 0xf5, 0xe1,
  0x02, 0xd0, 0x05, 0x1f, 0x06, 0x26, 0x03, 0xe9, 0x03, 0xe2, 0xf9, 0x27,
  0xf3, 0x1f, 0xe9, 0xf2, 0x05, 0xd2, 0x01, 0x3a, 0xfd, 0x17, 0xfd, 0x0b,
  0x2a, 0xcc, 0x19, 0x22, 0x15, 0x16, 0x0c, 0x14, 0xfe, 0xeb, 0xff, 0x48,
  0x04, 0x14, 0x04, 0xf0, 0xf9, 0x13, 0xf4, 0x58, 0x0a, 0x07, 0x11, 0x07,
  0xe6, 0xfa, 0xf6, 0x10, 0x08, 0x0d, 0x03, 0xfd, 0xef, 0xe7, 0xf9, 0x02,
  0xfd, 0x14, 0xe6, 0xf0, 0x03, 0xdc, 0xd5, 0x28, 0x00, 0x19, 0xec, 0xee,
  0x18, 0xe5, 0xee, 0x30, 0xe8, 0x06, 0xd9, 0xb5, 0xf9, 0xd2, 0xf1, 0x55,
  0xe7, 0x22, 0xdd, 0xe6, 0x2a, 0xe2, 0x0d, 0x32, 0xfb, 0x1f, 0xec, 0xf5,
  0xfd, 0xf6, 0x1a, 0x5c, 0xff, 0x1c, 0x09, 0xec, 0xf5, 0x10, 0x13, 0x5b,
  0x08, 0x14, 0x08, 0x13, 0xf9, 0xfb, 0x00, 0x18, 0x06, 0x05, 0xff, 0xfa,
  0x06, 0xea, 0xf0, 0x0c, 0x01, 0x0c, 0xdb, 0xe6, 0x01, 0xe6, 0xc7, 0x18,
  0x00, 0x1f, 0xf5, 0xf5, 0xf8, 0xe8, 0xb5, 0x35, 0xee, 0x10, 0xd2, 0xc4,
  0x01, 0xd4, 0xc8, 0x4c, 0xfb, 0x1e, 0xd8, 0xbe, 0x30, 0xed, 0xcb, 0x3b,
  0x09, 0x22, 0x01, 0xda, 0xf6, 0x03, 0xe3, 0x3c, 0x01, 0x34, 0xfc, 0xd8,
  0xf9, 0x0f, 0xf2, 0x5c, 0x03, 0x1a, 0x03, 0x0a, 0xf3, 0x03, 0x0c, 0x0d,
  0xfa, 0xeb, 0xf8, 0xf9, 0x0c, 0xf2, 0xf9, 0xfd, 0x10, 0xeb, 0xfd, 0xf0,
  0xf9, 0xf8, 0xc4, 0x28, 0xff, 0x1b, 0x0e, 0xe3, 0x13, 0xed, 0x9f, 0x32,
  0x0b, 0xee, 0xcd, 0xac, 0xfd, 0xed, 0xa9, 0x22, 0x10, 0xf4, 0xd6, 0xad,
  0x13, 0xf0, 0xa4, 0xfb, 0x0b, 0xfc, 0xfb, 0xd1, 0xf5, 0x05, 0xa8, 0x34,
  0x02, 0x13, 0xf8, 0xe9, 0xec, 0x0f, 0xd5, 0x52, 0x06, 0xdc, 0x17, 0x15,
  0xf6, 0x0e, 0xf5, 0x13, 0x05, 0xc1, 0x01, 0xed, 0x0a, 0xfd, 0xea, 0x05,
  0x11, 0xd2, 0xe4, 0xf4, 0xf9, 0xf2, 0xc4, 0x0e, 0x09, 0xe0, 0x0d, 0xcd,
  0x02, 0xef, 0xa8, 0x11, 0x06, 0xed, 0xcc, 0xaf, 0x07, 0xe1, 0xa3, 0x0a,
  0x14, 0xe7, 0xd2, 0xb6, 0x1d, 0xe9, 0xa9, 0xfe, 0x03, 0xdf, 0xd9, 0xc9,
  0xfd, 0xf2, 0x90, 0x22, 0x03, 0x01, 0xfc, 0xeb, 0xf6, 0x09, 0xbe, 0x47,
  0x07, 0xce, 0x00, 0x0d, 0xfb, 0xfe, 0xe3, 0x1f, 0xed, 0xbb, 0x02, 0xf0,
  0xfa, 0xf3, 0xc8, 0x0e, 0x00, 0xe4, 0xd7, 0xe8, 0xf7, 0xf1, 0xab, 0x29,
  0xfa, 0xdb, 0xf5, 0xd6, 0x00, 0x03, 0x91, 0xf7, 0x1a, 0x2c, 0x12, 0x15,
  0xf0, 0x2a, 0x04, 0xf0, 0x0f, 0x18, 0xfc, 0x04, 0xdd, 0x10, 0xf9, 0xf4,
  0x0c, 0x46, 0xff, 0x0d, 0xfc, 0x1c, 0xed, 0xf6, 0x08, 0x37, 0x02, 0x0c,
  0x03, 0x16, 0xf0, 0x34, 0x06, 0x19, 0x05, 0xf7, 0x15, 0x02, 0x04, 0xe5,
  0x01, 0x05, 0xfe, 0x05, 0x48, 0x15, 0x04, 0xf2, 0xf7, 0xf8, 0xff, 0xf5,
  0x18, 0xfa, 0xfe, 0xf0, 0xfd, 0x12, 0xf6, 0x05, 0xe5, 0x21, 0xfd, 0xf6,
  0x22, 0x0b, 0x0b, 0x14, 0xfc, 0x2f, 0x0a, 0xed, 0x21, 0x01, 0xfe, 0xef,
  0xe7, 0x21, 0x0c, 0xf1, 0x15, 0x3d, 0x03, 0xf0, 0xf7, 0x21, 0x03, 0xe2,
  0x0c, 0x11, 0x05, 0x10, 0x0d, 0x0d, 0x0a, 0xf7, 0x0d, 0x11, 0xf8, 0x01,
  0x06, 0x08, 0x0d, 0xdf, 0x0e, 0x00, 0x0b, 0x02, 0x2d, 0x1b, 0x13, 0xf9,
  0x01, 0xe2, 0xfe, 0xf0, 0x15, 0xff, 0x11, 0xde, 0x0a, 0xf0, 0xf7, 0x0c,
  0xd8, 0x19, 0x06, 0x06, 0x24, 0x00, 0xf9, 0x00, 0x13, 0x22, 0x04, 0x03,
  0x11, 0x01, 0xfe, 0xe8, 0xf7, 0x18, 0x19, 0xee, 0x0d, 0x40, 0x05, 0xdb,
  0xf7, 0x0c, 0x04, 0xdd, 0x0f, 0x15, 0x02, 0x05, 0x1f, 0x08, 0x14, 0xd6,
  0x13, 0x1b, 0xfa, 0xff, 0x11, 0x0f, 0x10, 0xcc, 0x15, 0x16, 0xeb, 0x09,
  0x25, 0x1d, 0x16, 0xf0, 0x07, 0xe9, 0xf1, 0xfc, 0x1d, 0x02, 0x1b, 0xbc,
  0x1a, 0xe0, 0xe8, 0xf6, 0xca, 0x1c, 0x08, 0xf6, 0xdf, 0xee, 0x07, 0x07,
  0x18, 0x1d, 0x18, 0xfd, 0xcf, 0xe9, 0x04, 0x00, 0x08, 0x0d, 0x1d, 0xf2,
  0xc3, 0x24, 0x14, 0xde, 0xef, 0x05, 0x11, 0xeb, 0xd2, 0x14, 0x0a, 0x08,
  0x21, 0x08, 0x22, 0xd4, 0xdb, 0x12, 0xf9, 0x02, 0x14, 0x0b, 0x1d, 0xdb,
  0xd5, 0x09, 0xf2, 0x07, 0x2a, 0x17, 0x1d, 0xf3, 0xe4, 0xe1, 0xed, 0xff,
  0x24, 0x08, 0x1a, 0xca, 0xe4, 0xe5, 0xf9, 0x00, 0xdc, 0x1c, 0x0f, 0xe9,
  0xa7, 0xee, 0xf5, 0xf9, 0x1a, 0x02, 0x12, 0x0e, 0xa1, 0xec, 0xff, 0x00,
  0x0e, 0xfd, 0x10, 0x02, 0x81, 0x12, 0x00, 0xcf, 0xf1, 0xea, 0x07, 0x02,
  0x91, 0x01, 0xfd, 0x18, 0x14, 0xf9, 0x14, 0xdb, 0x83, 0xfe, 0xfc, 0x15,
  0x1a, 0xfa, 0x12, 0xda, 0x96, 0x01, 0xf9, 0x0d, 0x33, 0xfe, 0x0f, 0xfd,
  0xc1, 0xfe, 0xf4, 0xfa, 0x33, 0x08, 0x1b, 0xea, 0xd5, 0xf6, 0xf7, 0xfe,
  0xe7, 0x13, 0x09, 0xfd, 0xa9, 0xd0, 0x00, 0x0c, 0x1a, 0xca, 0x0e, 0xd9,
  0xa2, 0xd7, 0xf9, 0xfb, 0x0a, 0xcb, 0x17, 0xd4, 0x97, 0xfe, 0xfe, 0xeb,
  0xe6, 0xb3, 0x05, 0xe1, 0xab, 0xe6, 0x09, 0x10, 0xec, 0xc2, 0x03, 0xe2,
  0x8d, 0xef, 0xf7, 0x0b, 0x0d, 0xb4, 0x1e, 0x0a, 0x9e, 0xf3, 0xf9, 0x0a,
  0x20, 0xbf, 0x10, 0x07, 0xd0, 0xec, 0xff, 0x04, 0x00, 0xf8, 0x19, 0x0c,
  0xe9, 0xea, 0xff, 0x10, 0xe0, 0x02, 0x0f, 0xe3, 0xaf, 0xb7, 0x01, 0x19,
  0x0f, 0xd5, 0x0e, 0xdc, 0xa9, 0xb5, 0xf2, 0x13, 0xff, 0xc7, 0x11, 0xd0,
  0xa3, 0xfd, 0xe8, 0xe2, 0xdf, 0xb1, 0x0a, 0xc8, 0xbb, 0xd8, 0xf1, 0x13,
  0xfa, 0xc3, 0x0c, 0xd4, 0x8b, 0xf6, 0xea, 0x13, 0x0f, 0xb6, 0x16, 0xfd,
  0xb4, 0xf1, 0xf6, 0x0d, 0x15, 0xb8, 0x13, 0x09, 0xda, 0xdf, 0xfa, 0x11,
  0xef, 0xea, 0x26, 0x08, 0xdd, 0xd2, 0xfa, 0x0a, 0xdd, 0xf7, 0x16, 0xd5,
  0xb4, 0xba, 0x0b, 0x1f, 0xed, 0xd1, 0x10, 0xdc, 0xaf, 0xbd, 0xf6, 0x16,
  0xf0, 0xd0, 0x14, 0xd1, 0xae, 0xed, 0xf0, 0xf2, 0xf9, 0xb6, 0xf9, 0xca,
  0xda, 0xe5, 0xf3, 0x21, 0xf1, 0xc0, 0x00, 0xe2, 0xb4, 0xf1, 0xf2, 0x18,
  0x02, 0xc8, 0x11, 0x00, 0xca, 0xf4, 0xef, 0x0b, 0x12, 0xb9, 0x0d, 0xfd,
  0xe3, 0xed, 0x05, 0x0f, 0xe7, 0xf6, 0x23, 0x15, 0xd2, 0xe3, 0x01, 0x13,
  0xeb, 0xe8, 0x1a, 0xdd, 0xb4, 0xcd, 0xf2, 0x23, 0xe8, 0xeb, 0x0b, 0xfb,
  0xc4, 0xcf, 0xf0, 0x16, 0xe1, 0xe7, 0x08, 0xf2, 0xd1, 0xeb, 0xed, 0xf8,
  0xff, 0xd9, 0xe9, 0xde, 0xe9, 0xed, 0xf7, 0x24, 0xef, 0xd3, 0xec, 0xe3,
  0xd5, 0xf4, 0xeb, 0x1f, 0xfe, 0xd2, 0x0a, 0xf4, 0xea, 0xfa, 0xf8, 0x09,
  0x08, 0xd4, 0x0d, 0xfa, 0xf2, 0xf9, 0xf9, 0x19, 0xdf, 0xfe, 0x1a, 0x13,
  0xdb, 0xe9, 0x01, 0x06, 0xfd, 0x02, 0x07, 0xe4, 0xd1, 0xbf, 0xfb, 0x1d,
  0xed, 0x07, 0x13, 0xfe, 0xe4, 0xc4, 0xeb, 0x28, 0xd8, 0x05, 0x0e, 0xec,
  0xed, 0xf1, 0xfb, 0x11, 0xfa, 0x1e, 0xf8, 0xd3, 0xfe, 0xe7, 0xf9, 0x23,
  0xfe, 0x13, 0xec, 0xdc, 0xf9, 0x00, 0xf2, 0x15, 0x02, 0x12, 0x0e, 0xf5,
  0xf4, 0xf7, 0xee, 0x0c, 0x18, 0x05, 0x13, 0xff, 0xff, 0xf5, 0xfb, 0x1c,
  0xee, 0x23, 0x1b, 0x01, 0xf9, 0xe5, 0x02, 0x18, 0x03, 0x11, 0x04, 0xe3,
  0x96, 0xfc, 0xff, 0xff, 0x04, 0x00, 0x00, 0x00, 0x20, 0x00, 0x00, 0x00,
  0xf6, 0x03, 0x00, 0x00, 0xd2, 0xff, 0xff, 0xff, 0xc5, 0xfd, 0xff, 0xff,
  0x8a, 0xff, 0xff, 0xff, 0x73, 0xff, 0xff, 0xff, 0x66, 0xfd, 0xff, 0xff,
  0xf0, 0x01, 0x00, 0x00, 0x25, 0xff, 0xff, 0xff, 0xc2, 0xfc, 0xff, 0xff,
  0x04, 0x00, 0x00, 0x00, 0x10, 0x00, 0x00, 0x00, 0xce, 0x0a, 0x00, 0x00,
  0x69, 0xf6, 0xff, 0xff, 0x2b, 0xfa, 0xff, 0xff, 0x9d, 0x04, 0x00, 0x00,
  0xde, 0xfc, 0xff, 0xff, 0x04, 0x00, 0x00, 0x00, 0x80, 0x01, 0x00, 0x00,
  0xfd, 0x00, 0xa8, 0xd2, 0xfb, 0x9f, 0xff, 0x0a, 0x05, 0x04, 0xbb, 0x06,
  0xfc, 0xfe, 0xfa, 0x07, 0xf5, 0x01, 0xe3, 0x05, 0x10, 0x01, 0x0c, 0x03,
  0x27, 0xf6, 0xe8, 0xbb, 0x16, 0x81, 0xbc, 0xad, 0x2e, 0x15, 0x14, 0x1b,
  0xc9, 0xca, 0xf0, 0xe6, 0x12, 0x0f, 0x06, 0x02, 0xef, 0xeb, 0xf9, 0x00,
  0x28, 0xe1, 0xe4, 0xb0, 0xf8, 0x97, 0xb9, 0xb9, 0x1f, 0xea, 0xfe, 0x0a,
  0xac, 0xbb, 0xf0, 0xf3, 0x10, 0xf1, 0xfa, 0xf8, 0xd3, 0xe0, 0xf9, 0xdb,
  0x34, 0x22, 0x1e, 0xc9, 0x23, 0xc4, 0xb4, 0xc0, 0x2a, 0x10, 0x13, 0x06,
  0xab, 0xc7, 0xf1, 0xd8, 0x1d, 0x03, 0x06, 0xf6, 0xd6, 0xee, 0xf6, 0xf4,
  0xfc, 0xf4, 0x16, 0x10, 0xc6, 0x1f, 0xf5, 0x07, 0xfe, 0xf7, 0x17, 0x0b,
  0xf5, 0x01, 0x05, 0x07, 0x04, 0xf8, 0x06, 0xf7, 0xeb, 0xfe, 0xfa, 0xff,
  0xc8, 0x04, 0xfe, 0x28, 0x0d, 0x2e, 0x40, 0x2b, 0xe1, 0xcc, 0xe5, 0x1f,
  0x23, 0x1e, 0x1e, 0xeb, 0x10, 0xdc, 0xeb, 0xf9, 0x0f, 0x10, 0x0c, 0xf5,
  0xc3, 0x3d, 0x12, 0x26, 0x32, 0x1a, 0x5a, 0x15, 0xfd, 0xd3, 0x01, 0x2b,
  0x37, 0x2a, 0x25, 0xef, 0x04, 0xdd, 0xd9, 0x07, 0x15, 0x16, 0x1a, 0xf9,
  0xbe, 0xf8, 0x00, 0x1a, 0xf8, 0xda, 0x2b, 0x27, 0x04, 0xe5, 0x05, 0x12,
  0x20, 0x12, 0x05, 0x12, 0x12, 0xfa, 0x08, 0xff, 0x16, 0x0e, 0x07, 0xf2,
  0xfd, 0x0e, 0x37, 0x10, 0x39, 0x22, 0x06, 0xf7, 0xee, 0x06, 0x21, 0xf5,
  0xfa, 0xf1, 0x04, 0xf2, 0xee, 0xff, 0x19, 0x03, 0x18, 0xfd, 0x05, 0xfd,
  0x21, 0x42, 0x34, 0xfd, 0x1b, 0x2b, 0xc5, 0x47, 0xff, 0x3b, 0x2b, 0xd6,
  0xee, 0xf5, 0xd2, 0x38, 0xd0, 0x26, 0x05, 0x01, 0xf3, 0xfa, 0xe7, 0x14,
  0x1b, 0x54, 0x33, 0xf5, 0x35, 0x24, 0x94, 0x55, 0x06, 0x36, 0x22, 0xd4,
  0xdf, 0xe2, 0xc2, 0x3f, 0xed, 0x2a, 0x37, 0xef, 0xfa, 0xe9, 0xcf, 0x2c,
  0x20, 0x1a, 0x21, 0x1c, 0x31, 0x29, 0xfd, 0x39, 0xf5, 0x06, 0x0c, 0x0e,
  0x03, 0xf9, 0xfb, 0x24, 0xc9, 0x04, 0xee, 0x0e, 0xf3, 0xf6, 0x04, 0x0f,
  0x0b, 0x04, 0x0b, 0x0f, 0x07, 0x1a, 0x11, 0x04, 0x12, 0x07, 0x11, 0xfc,
  0x14, 0x0d, 0x01, 0x07, 0x18, 0xfa, 0x06, 0x01, 0xf8, 0xfd, 0xf7, 0x00,
  0xf5, 0xcc, 0xe7, 0x27, 0xc1, 0x2f, 0x41, 0xe9, 0xf0, 0xe7, 0xd5, 0xea,
  0x30, 0x26, 0x1d, 0xf2, 0x11, 0xeb, 0x03, 0xf9, 0x17, 0x14, 0x05, 0xfc,
  0xf9, 0x90, 0xd4, 0x25, 0x9e, 0x28, 0x54, 0xd4, 0xd8, 0x0c, 0xd7, 0xf1,
  0x47, 0x38, 0x29, 0xe2, 0x01, 0x05, 0xf3, 0x09, 0x24, 0x22, 0x1b, 0xfb,
  0xe4, 0xc8, 0xb8, 0x08, 0xb8, 0x34, 0x16, 0xe8, 0xe2, 0xfb, 0xd9, 0xdd,
  0x31, 0x24, 0x0e, 0xf1, 0x0f, 0xff, 0xfc, 0xfe, 0x1e, 0x10, 0x01, 0xfc,
  0x10, 0xfb, 0xff, 0xff, 0x0f, 0x00, 0x00, 0x00, 0x54, 0x4f, 0x43, 0x4f,
  0x20, 0x43, 0x6f, 0x6e, 0x76, 0x65, 0x72, 0x74, 0x65, 0x64, 0x2e, 0x00,
  0x01, 0x00, 0x00, 0x00, 0x04, 0x00, 0x00, 0x00, 0x98, 0xf9, 0xff, 0xff,
  0xb8, 0x01, 0x00, 0x00, 0xac, 0x01, 0x00, 0x00, 0xa0, 0x01, 0x00, 0x00,
  0x04, 0x00, 0x00, 0x00, 0x05, 0x00, 0x00, 0x00, 0x44, 0x01, 0x00, 0x00,
  0xdc, 0x00, 0x00, 0x00, 0x90, 0x00, 0x00, 0x00, 0x48, 0x00, 0x00, 0x00,
  0x04, 0x00, 0x00, 0x00, 0xce, 0xff, 0xff, 0xff, 0x00, 0x00, 0x00, 0x09,
  0x04, 0x00, 0x00, 0x00, 0x1c, 0x00, 0x00, 0x00, 0x10, 0x00, 0x00, 0x00,
  0x04, 0x00, 0x00, 0x00, 0xce, 0xfe, 0xff, 0xff, 0x00, 0x00, 0x80, 0x3f,
  0x01, 0x00, 0x00, 0x00, 0x0b, 0x00, 0x00, 0x00, 0x01, 0x00, 0x00, 0x00,
  0x08, 0x00, 0x00, 0x00, 0x00, 0x00, 0x0e, 0x00, 0x18, 0x00, 0x08, 0x00,
  0x0c, 0x00, 0x10, 0x00, 0x07, 0x00, 0x14, 0x00, 0x0e, 0x00, 0x00, 0x00,
  0x00, 0x00, 0x00, 0x08, 0x02, 0x00, 0x00, 0x00, 0x18, 0x00, 0x00, 0x00,
  0x0c, 0x00, 0x00, 0x00, 0x04, 0x00, 0x00, 0x00, 0xb4, 0xfb, 0xff, 0xff,
  0x01, 0x00, 0x00, 0x00, 0x08, 0x00, 0x00, 0x00, 0x03, 0x00, 0x00, 0x00,
  0x04, 0x00, 0x00, 0x00, 0x09, 0x00, 0x00, 0x00, 0x02, 0x00, 0x00, 0x00,
  0x00, 0x00, 0x0e, 0x00, 0x14, 0x00, 0x00, 0x00, 0x08, 0x00, 0x0c, 0x00,
  0x07, 0x00, 0x10, 0x00, 0x0e, 0x00, 0x00, 0x00, 0x00, 0x00, 0x00, 0x01,
  0x30, 0x00, 0x00, 0x00, 0x24, 0x00, 0x00, 0x00, 0x10, 0x00, 0x00, 0x00,
  0x0c, 0x00, 0x10, 0x00, 0x00, 0x00, 0x08, 0x00, 0x0c, 0x00, 0x07, 0x00,
  0x0c, 0x00, 0x00, 0x00, 0x00, 0x00, 0x00, 0x01, 0x08, 0x00, 0x00, 0x00,
  0x08, 0x00, 0x00, 0x00, 0x01, 0x00, 0x00, 0x00, 0x04, 0x00, 0x00, 0x00,
  0x03, 0x00, 0x00, 0x00, 0x03, 0x00, 0x00, 0x00, 0x0c, 0x00, 0x00, 0x00,
  0x00, 0x00, 0x00, 0x00, 0xaa, 0xff, 0xff, 0xff, 0x00, 0x00, 0x00, 0x02,
  0x01, 0x00, 0x00, 0x00, 0x38, 0x00, 0x00, 0x00, 0x2c, 0x00, 0x00, 0x00,
  0x14, 0x00, 0x00, 0x00, 0x00, 0x00, 0x0e, 0x00, 0x14, 0x00, 0x00, 0x00,
  0x08, 0x00, 0x0c, 0x00, 0x10, 0x00, 0x07, 0x00, 0x0e, 0x00, 0x00, 0x00,
  0x00, 0x00, 0x00, 0x01, 0x02, 0x00, 0x00, 0x00, 0x02, 0x00, 0x00, 0x00,
  0x08, 0x00, 0x00, 0x00, 0x01, 0x00, 0x00, 0x00, 0x03, 0x00, 0x00, 0x00,
  0x03, 0x00, 0x00, 0x00, 0x06, 0x00, 0x00, 0x00, 0x0a, 0x00, 0x00, 0x00,
  0x01, 0x00, 0x00, 0x00, 0x00, 0x00, 0x0e, 0x00, 0x1a, 0x00, 0x08, 0x00,
  0x0c, 0x00, 0x10, 0x00, 0x07, 0x00, 0x14, 0x00, 0x0e, 0x00, 0x00, 0x00,
  0x00, 0x00, 0x00, 0x11, 0x03, 0x00, 0x00, 0x00, 0x38, 0x00, 0x00, 0x00,
  0x2c, 0x00, 0x00, 0x00, 0x0c, 0x00, 0x00, 0x00, 0x00, 0x00, 0x06, 0x00,
  0x08, 0x00, 0x04, 0x00, 0x06, 0x00, 0x00, 0x00, 0x04, 0x00, 0x00, 0x00,
  0x04, 0x00, 0x00, 0x00, 0xff, 0xff, 0xff, 0xff, 0x31, 0x00, 0x00, 0x00,
  0x28, 0x00, 0x00, 0x00, 0x01, 0x00, 0x00, 0x00, 0x01, 0x00, 0x00, 0x00,
  0x06, 0x00, 0x00, 0x00, 0x02, 0x00, 0x00, 0x00, 0x05, 0x00, 0x00, 0x00,
  0x07, 0x00, 0x00, 0x00, 0x01, 0x00, 0x00, 0x00, 0x0b, 0x00, 0x00, 0x00,
  0x01, 0x00, 0x00, 0x00, 0x05, 0x00, 0x00, 0x00, 0x0d, 0x00, 0x00, 0x00,
  0x10, 0x06, 0x00, 0x00, 0x58, 0x05, 0x00, 0x00, 0x04, 0x05, 0x00, 0x00,
  0x84, 0x04, 0x00, 0x00, 0x0c, 0x04, 0x00, 0x00, 0x98, 0x03, 0x00, 0x00,
  0x1c, 0x03, 0x00, 0x00, 0xdc, 0x02, 0x00, 0x00, 0x6c, 0x02, 0x00, 0x00,
  0x00, 0x02, 0x00, 0x00, 0x2c, 0x01, 0x00, 0x00, 0xc0, 0x00, 0x00, 0x00,
  0x04, 0x00, 0x00, 0x00, 0x32, 0xfa, 0xff, 0xff, 0x00, 0x00, 0x00, 0x09,
  0x9c, 0x00, 0x00, 0x00, 0x04, 0x00, 0x00, 0x00, 0x7c, 0x00, 0x00, 0x00,
  0x04, 0x00, 0x00, 0x00, 0x24, 0xfa, 0xff, 0xff, 0x4c, 0x00, 0x00, 0x00,
  0x04, 0x00, 0x00, 0x00, 0x08, 0x00, 0x00, 0x00, 0x00, 0x00, 0x00, 0x00,
  0x00, 0x00, 0x00, 0x00, 0x00, 0x00, 0x00, 0x00, 0x00, 0x00, 0x00, 0x00,
  0x00, 0x00, 0x00, 0x00, 0x00, 0x00, 0x00, 0x00, 0x00, 0x00, 0x00, 0x00,
  0x00, 0x00, 0x00, 0x00, 0x00, 0x00, 0x00, 0x00, 0x00, 0x00, 0x00, 0x00,
  0x00, 0x00, 0x00, 0x00, 0x00, 0x00, 0x00, 0x00, 0x00, 0x00, 0x00, 0x00,
  0x00, 0x00, 0x00, 0x00, 0x00, 0x00, 0x00, 0x00, 0x00, 0x00, 0x00, 0x00,
  0x08, 0x00, 0x00, 0x00, 0x4a, 0xb9, 0x66, 0x3a, 0xf2, 0xc1, 0x72, 0x3a,
  0x72, 0x98, 0x80, 0x3a, 0xcc, 0xa9, 0x78, 0x3a, 0x73, 0x70, 0x9c, 0x3a,
  0xd1, 0x92, 0x95, 0x3a, 0x31, 0x85, 0x86, 0x3a, 0xba, 0x4c, 0xac, 0x3a,
  0x13, 0x00, 0x00, 0x00, 0x73, 0x65, 0x63, 0x6f, 0x6e, 0x64, 0x5f, 0x77,
  0x65, 0x69, 0x67, 0x68, 0x74, 0x73, 0x2f, 0x72, 0x65, 0x61, 0x64, 0x00,
  0x04, 0x00, 0x00, 0x00, 0x08, 0x00, 0x00, 0x00, 0x0a, 0x00, 0x00, 0x00,
  0x08, 0x00, 0x00, 0x00, 0x08, 0x00, 0x00, 0x00, 0xea, 0xfa, 0xff, 0xff,
  0x00, 0x00, 0x00, 0x09, 0x44, 0x00, 0x00, 0x00, 0x08, 0x00, 0x00, 0x00,
  0x28, 0x00, 0x00, 0x00, 0x04, 0x00, 0x00, 0x00, 0xdc, 0xfa, 0xff, 0xff,
  0x14, 0x00, 0x00, 0x00, 0x04, 0x00, 0x00, 0x00, 0x01, 0x00, 0x00, 0x00,
  0x80, 0xff, 0xff, 0xff, 0xff, 0xff, 0xff, 0xff, 0x01, 0x00, 0x00, 0x00,
  0x00, 0x00, 0x80, 0x3b, 0x0e, 0x00, 0x00, 0x00, 0x6c, 0x61, 0x62, 0x65,
  0x6c, 0x73, 0x5f, 0x73, 0x6f, 0x66, 0x74, 0x6d, 0x61, 0x78, 0x00, 0x00,
  0x02, 0x00, 0x00, 0x00, 0x01, 0x00, 0x00, 0x00, 0x04, 0x00, 0x00, 0x00,
  0x00, 0x00, 0x0e, 0x00, 0x1a, 0x00, 0x08, 0x00, 0x07, 0x00, 0x0c, 0x00,
  0x10, 0x00, 0x14, 0x00, 0x0e, 0x00, 0x00, 0x00, 0x00, 0x00, 0x00, 0x09,
  0xb4, 0x00, 0x00, 0x00, 0x0c, 0x00, 0x00, 0x00, 0x94, 0x00, 0x00, 0x00,
  0x18, 0x00, 0x00, 0x00, 0x00, 0x00, 0x12, 0x00, 0x10, 0x00, 0x00, 0x00,
  0x00, 0x00, 0x04, 0x00, 0x08, 0x00, 0x00, 0x00, 0x00, 0x00, 0x0c, 0x00,
  0x12, 0x00, 0x00, 0x00, 0x50, 0x00, 0x00, 0x00, 0x08, 0x00, 0x00, 0x00,
  0x03, 0x00, 0x00, 0x00, 0x08, 0x00, 0x00, 0x00, 0x00, 0x00, 0x00, 0x00,
  0x00, 0x00, 0x00, 0x00, 0x00, 0x00, 0x00, 0x00, 0x00, 0x00, 0x00, 0x00,
  0x00, 0x00, 0x00, 0x00, 0x00, 0x00, 0x00, 0x00, 0x00, 0x00, 0x00, 0x00,
  0x00, 0x00, 0x00, 0x00, 0x00, 0x00, 0x00, 0x00, 0x00, 0x00, 0x00, 0x00,
  0x00, 0x00, 0x00, 0x00, 0x00, 0x00, 0x00, 0x00, 0x00, 0x00, 0x00, 0x00,
  0x00, 0x00, 0x00, 0x00, 0x00, 0x00, 0x00, 0x00, 0x00, 0x00, 0x00, 0x00,
  0x08, 0x00, 0x00, 0x00, 0x25, 0x09, 0xd1, 0x3a, 0x07, 0x09, 0x1c, 0x3b,
  0x63, 0x92, 0xd0, 0x3a, 0x5f, 0xfe, 0xb3, 0x3a, 0xd6, 0xdd, 0xd5, 0x3a,
  0x7c, 0x02, 0xfb, 0x3a, 0x8e, 0x33, 0xba, 0x3a, 0x12, 0x39, 0x07, 0x3b,
  0x12, 0x00, 0x00, 0x00, 0x66, 0x69, 0x72, 0x73, 0x74, 0x5f, 0x77, 0x65,
  0x69, 0x67, 0x68, 0x74, 0x73, 0x2f, 0x72, 0x65, 0x61, 0x64, 0x00, 0x00,
  0x04, 0x00, 0x00, 0x00, 0x01, 0x00, 0x00, 0x00, 0x0a, 0x00, 0x00, 0x00,
  0x08, 0x00, 0x00, 0x00, 0x08, 0x00, 0x00, 0x00, 0x22, 0xfc, 0xff, 0xff,
  0x00, 0x00, 0x00, 0x09, 0x54, 0x00, 0x00, 0x00, 0x01, 0x00, 0x00, 0x00,
  0x28, 0x00, 0x00, 0x00, 0x04, 0x00, 0x00, 0x00, 0x14, 0xfc, 0xff, 0xff,
  0x14, 0x00, 0x00, 0x00, 0x04, 0x00, 0x00, 0x00, 0x01, 0x00, 0x00, 0x00,
  0x00, 0x00, 0x00, 0x00, 0x00, 0x00, 0x00, 0x00, 0x01, 0x00, 0x00, 0x00,
  0x30, 0x4c, 0x26, 0x3b, 0x1f, 0x00, 0x00, 0x00, 0x66, 0x69, 0x6e, 0x61,
  0x6c, 0x5f, 0x66, 0x63, 0x5f, 0x77, 0x65, 0x69, 0x67, 0x68, 0x74, 0x73,
  0x2f, 0x72, 0x65, 0x61, 0x64, 0x2f, 0x74, 0x72, 0x61, 0x6e, 0x73, 0x70,
  0x6f, 0x73, 0x65, 0x00, 0x02, 0x00, 0x00, 0x00, 0x04, 0x00, 0x00, 0x00,
  0x60, 0x00, 0x00, 0x00, 0x8a, 0xfc, 0xff, 0xff, 0x00, 0x00, 0x00, 0x09,
  0x58, 0x00, 0x00, 0x00, 0x05, 0x00, 0x00, 0x00, 0x44, 0x00, 0x00, 0x00,
  0x04, 0x00, 0x00, 0x00, 0xfc, 0xfd, 0xff, 0xff, 0x30, 0x00, 0x00, 0x00,
  0x24, 0x00, 0x00, 0x00, 0x18, 0x00, 0x00, 0x00, 0x04, 0x00, 0x00, 0x00,
  0x01, 0x00, 0x00, 0x00, 0x0f, 0x00, 0x00, 0x00, 0x00, 0x00, 0x00, 0x00,
  0x00, 0x00, 0x00, 0x00, 0x01, 0x00, 0x00, 0x00, 0x59, 0x1b, 0xce, 0x3d,
  0x01, 0x00, 0x00, 0x00, 0x33, 0x97, 0x34, 0x41, 0x01, 0x00, 0x00, 0x00,
  0x4a, 0x03, 0x66, 0xc1, 0x05, 0x00, 0x00, 0x00, 0x61, 0x64, 0x64, 0x5f,
  0x32, 0x00, 0x00, 0x00, 0x02, 0x00, 0x00, 0x00, 0x01, 0x00, 0x00, 0x00,
  0x04, 0x00, 0x00, 0x00, 0xf6, 0xfc, 0xff, 0xff, 0x00, 0x00, 0x00, 0x02,
  0x2c, 0x00, 0x00, 0x00, 0x0d, 0x00, 0x00, 0x00, 0x10, 0x00, 0x00, 0x00,
  0x08, 0x00, 0x00, 0x00, 0x04, 0x00, 0x04, 0x00, 0x04, 0x00, 0x00, 0x00,
  0x0f, 0x00, 0x00, 0x00, 0x52, 0x65, 0x73, 0x68, 0x61, 0x70, 0x65, 0x5f,
  0x32, 0x2f, 0x73, 0x68, 0x61, 0x70, 0x65, 0x00, 0x01, 0x00, 0x00, 0x00,
  0x04, 0x00, 0x00, 0x00, 0x32, 0xfd, 0xff, 0xff, 0x00, 0x00, 0x00, 0x09,
  0x5c, 0x00, 0x00, 0x00, 0x0a, 0x00, 0x00, 0x00, 0x44, 0x00, 0x00, 0x00,
  0x04, 0x00, 0x00, 0x00, 0xa4, 0xfe, 0xff, 0xff, 0x30, 0x00, 0x00, 0x00,
  0x24, 0x00, 0x00, 0x00, 0x18, 0x00, 0x00, 0x00, 0x04, 0x00, 0x00, 0x00,
  0x01, 0x00, 0x00, 0x00, 0x80, 0xff, 0xff, 0xff, 0xff, 0xff, 0xff, 0xff,
  0x00, 0x00, 0x00, 0x00, 0x01, 0x00, 0x00, 0x00, 0x41, 0x41, 0xd1, 0x3d,
  0x01, 0x00, 0x00, 0x00, 0x00, 0x70, 0xd0, 0x41, 0x01, 0x00, 0x00, 0x00,
  0x00, 0x00, 0x00, 0x00, 0x09, 0x00, 0x00, 0x00, 0x52, 0x65, 0x73, 0x68,
  0x61, 0x70, 0x65, 0x5f, 0x32, 0x00, 0x00, 0x00, 0x04, 0x00, 0x00, 0x00,
  0x01, 0x00, 0x00, 0x00, 0x31, 0x00, 0x00, 0x00, 0x28, 0x00, 0x00, 0x00,
  0x01, 0x00, 0x00, 0x00, 0xaa, 0xfd, 0xff, 0xff, 0x00, 0x00, 0x00, 0x09,
  0x5c, 0x00, 0x00, 0x00, 0x0b, 0x00, 0x00, 0x00, 0x44, 0x00, 0x00, 0x00,
  0x04, 0x00, 0x00, 0x00, 0x1c, 0xff, 0xff, 0xff, 0x30, 0x00, 0x00, 0x00,
  0x24, 0x00, 0x00, 0x00, 0x18, 0x00, 0x00, 0x00, 0x04, 0x00, 0x00, 0x00,
  0x01, 0x00, 0x00, 0x00, 0x80, 0xff, 0xff, 0xff, 0xff, 0xff, 0xff, 0xff,
  0x00, 0x00, 0x00, 0x00, 0x01, 0x00, 0x00, 0x00, 0x41, 0x41, 0xd1, 0x3d,
  0x01, 0x00, 0x00, 0x00, 0x00, 0x70, 0xd0, 0x41, 0x01, 0x00, 0x00, 0x00,
  0x00, 0x00, 0x00, 0x00, 0x09, 0x00, 0x00, 0x00, 0x52, 0x65, 0x73, 0x68,
  0x61, 0x70, 0x65, 0x5f, 0x31, 0x00, 0x00, 0x00, 0x02, 0x00, 0x00, 0x00,
  0x01, 0x00, 0x00, 0x00, 0xa8, 0x07, 0x00, 0x00, 0x1a, 0xfe, 0xff, 0xff,
  0x00, 0x00, 0x00, 0x09, 0x58, 0x00, 0x00, 0x00, 0x09, 0x00, 0x00, 0x00,
  0x44, 0x00, 0x00, 0x00, 0x04, 0x00, 0x00, 0x00, 0x8c, 0xff, 0xff, 0xff,
  0x30, 0x00, 0x00, 0x00, 0x24, 0x00, 0x00, 0x00, 0x18, 0x00, 0x00, 0x00,
  0x04, 0x00, 0x00, 0x00, 0x01, 0x00, 0x00, 0x00, 0x80, 0xff, 0xff, 0xff,
  0xff, 0xff, 0xff, 0xff, 0x00, 0x00, 0x00, 0x00, 0x01, 0x00, 0x00, 0x00,
  0xcd, 0x3f, 0xb1, 0x3d, 0x01, 0x00, 0x00, 0x00, 0x8d, 0x8e, 0xb0, 0x41,
  0x01, 0x00, 0x00, 0x00, 0x00, 0x00, 0x00, 0x00, 0x06, 0x00, 0x00, 0x00,
  0x52, 0x65, 0x6c, 0x75, 0x5f, 0x31, 0x00, 0x00, 0x04, 0x00, 0x00, 0x00,
  0x01, 0x00, 0x00, 0x00, 0x04, 0x00, 0x00, 0x00, 0x03, 0x00, 0x00, 0x00,
  0x08, 0x00, 0x00, 0x00, 0x8e, 0xfe, 0xff, 0xff, 0x00, 0x00, 0x00, 0x09,
  0x60, 0x00, 0x00, 0x00, 0x07, 0x00, 0x00, 0x00, 0x4c, 0x00, 0x00, 0x00,
  0x10, 0x00, 0x00, 0x00, 0x0c, 0x00, 0x14, 0x00, 0x04, 0x00, 0x08, 0x00,
  0x0c, 0x00, 0x10, 0x00, 0x0c, 0x00, 0x00, 0x00, 0x2c, 0x00, 0x00, 0x00,
  0x20, 0x00, 0x00, 0x00, 0x14, 0x00, 0x00, 0x00, 0x04, 0x00, 0x00, 0x00,
  0x01, 0x00, 0x00, 0x00, 0x80, 0xff, 0xff, 0xff, 0xff, 0xff, 0xff, 0xff,
  0x01, 0x00, 0x00, 0x00, 0x5b, 0x02, 0x36, 0x3e, 0x01, 0x00, 0x00, 0x00,
  0x59, 0x4c, 0x35, 0x42, 0x01, 0x00, 0x00, 0x00, 0x00, 0x00, 0x00, 0x00,
  0x04, 0x00, 0x00, 0x00, 0x52, 0x65, 0x6c, 0x75, 0x00, 0x00, 0x00, 0x00,
  0x04, 0x00, 0x00, 0x00, 0x01, 0x00, 0x00, 0x00, 0x19, 0x00, 0x00, 0x00,
  0x14, 0x00, 0x00, 0x00, 0x08, 0x00, 0x00, 0x00, 0x0a, 0xff, 0xff, 0xff,
  0x00, 0x00, 0x00, 0x02, 0x40, 0x00, 0x00, 0x00, 0x02, 0x00, 0x00, 0x00,
  0x28, 0x00, 0x00, 0x00, 0x04, 0x00, 0x00, 0x00, 0xfc, 0xfe, 0xff, 0xff,
  0x14, 0x00, 0x00, 0x00, 0x04, 0x00, 0x00, 0x00, 0x01, 0x00, 0x00, 0x00,
  0x00, 0x00, 0x00, 0x00, 0x00, 0x00, 0x00, 0x00, 0x01, 0x00, 0x00, 0x00,
  0x3e, 0x48, 0x66, 0x39, 0x0b, 0x00, 0x00, 0x00, 0x4d, 0x61, 0x74, 0x4d,
  0x75, 0x6c, 0x5f, 0x62, 0x69, 0x61, 0x73, 0x00, 0x01, 0x00, 0x00, 0x00,
  0x04, 0x00, 0x00, 0x00, 0x5a, 0xff, 0xff, 0xff, 0x00, 0x00, 0x00, 0x02,
  0x94, 0x00, 0x00, 0x00, 0x06, 0x00, 0x00, 0x00, 0x7c, 0x00, 0x00, 0x00,
  0x04, 0x00, 0x00, 0x00, 0x4c, 0xff, 0xff, 0xff, 0x4c, 0x00, 0x00, 0x00,
  0x04, 0x00, 0x00, 0x00, 0x08, 0x00, 0x00, 0x00, 0x00, 0x00, 0x00, 0x00,
  0x00, 0x00, 0x00, 0x00, 0x00, 0x00, 0x00, 0x00, 0x00, 0x00, 0x00, 0x00,
  0x00, 0x00, 0x00, 0x00, 0x00, 0x00, 0x00, 0x00, 0x00, 0x00, 0x00, 0x00,
  0x00, 0x00, 0x00, 0x00, 0x00, 0x00, 0x00, 0x00, 0x00, 0x00, 0x00, 0x00,
  0x00, 0x00, 0x00, 0x00, 0x00, 0x00, 0x00, 0x00, 0x00, 0x00, 0x00, 0x00,
  0x00, 0x00, 0x00, 0x00, 0x00, 0x00, 0x00, 0x00, 0x00, 0x00, 0x00, 0x00,
  0x08, 0x00, 0x00, 0x00, 0xc0, 0xdd, 0x2a, 0x39, 0x49, 0x16, 0x7f, 0x39,
  0xad, 0x7c, 0x2a, 0x39, 0x8d, 0x20, 0x13, 0x39, 0x9f, 0xd0, 0x2e, 0x39,
  0x03, 0x2d, 0x4d, 0x39, 0x8d, 0x33, 0x18, 0x39, 0x1f, 0x10, 0x5d, 0x39,
  0x0b, 0x00, 0x00, 0x00, 0x43, 0x6f, 0x6e, 0x76, 0x32, 0x44, 0x5f, 0x62,
  0x69, 0x61, 0x73, 0x00, 0x01, 0x00, 0x00, 0x00, 0x08, 0x00, 0x00, 0x00,
  0x00, 0x00, 0x0e, 0x00, 0x18, 0x00, 0x08, 0x00, 0x07, 0x00, 0x0c, 0x00,
  0x10, 0x00, 0x14, 0x00, 0x0e, 0x00, 0x00, 0x00, 0x00, 0x00, 0x00, 0x02,
  0xa4, 0x00, 0x00, 0x00, 0x03, 0x00, 0x00, 0x00, 0x88, 0x00, 0x00, 0x00,
  0x10, 0x00, 0x00, 0x00, 0x0c, 0x00, 0x0c, 0x00, 0x00, 0x00, 0x00, 0x00,
  0x04, 0x00, 0x08, 0x00, 0x0c, 0x00, 0x00, 0x00, 0x4c, 0x00, 0x00, 0x00,
  0x04, 0x00, 0x00, 0x00, 0x08, 0x00, 0x00, 0x00, 0x00, 0x00, 0x00, 0x00,
  0x00, 0x00, 0x00, 0x00, 0x00, 0x00, 0x00, 0x00, 0x00, 0x00, 0x00, 0x00,
  0x00, 0x00, 0x00, 0x00, 0x00, 0x00, 0x00, 0x00, 0x00, 0x00, 0x00, 0x00,
  0x00, 0x00, 0x00, 0x00, 0x00, 0x00, 0x00, 0x00, 0x00, 0x00, 0x00, 0x00,
  0x00, 0x00, 0x00, 0x00, 0x00, 0x00, 0x00, 0x00, 0x00, 0x00, 0x00, 0x00,
  0x00, 0x00, 0x00, 0x00, 0x00, 0x00, 0x00, 0x00, 0x00, 0x00, 0x00, 0x00,
  0x08, 0x00, 0x00, 0x00, 0xda, 0x09, 0x24, 0x39, 0x1e, 0x98, 0x2c, 0x39,
  0x20, 0xdb, 0x36, 0x39, 0x01, 0xcb, 0x30, 0x39, 0xc4, 0x72, 0x5e, 0x39,
  0x82, 0xaf, 0x54, 0x39, 0xdb, 0x47, 0x3f, 0x39, 0x44, 0x00, 0x75, 0x39,
  0x0d, 0x00, 0x00, 0x00, 0x43, 0x6f, 0x6e, 0x76, 0x32, 0x44, 0x5f, 0x31,
  0x5f, 0x62, 0x69, 0x61, 0x73, 0x00, 0x00, 0x00, 0x01, 0x00, 0x00, 0x00,
  0x08, 0x00, 0x00, 0x00, 0x05, 0x00, 0x00, 0x00, 0x60, 0x00, 0x00, 0x00,
  0x44, 0x00, 0x00, 0x00, 0x28, 0x00, 0x00, 0x00, 0x1c, 0x00, 0x00, 0x00,
  0x04, 0x00, 0x00, 0x00, 0xd6, 0xff, 0xff, 0xff, 0x00, 0x00, 0x00, 0x19,
  0x02, 0x00, 0x00, 0x00, 0x00, 0x00, 0x06, 0x00, 0x08, 0x00, 0x07, 0x00,
  0x06, 0x00, 0x00, 0x00, 0x00, 0x00, 0x00, 0x16, 0xf2, 0xff, 0xff, 0xff,
  0x00, 0x00, 0x00, 0x09, 0x04, 0x00, 0x00, 0x00, 0x00, 0x00, 0x0a, 0x00,
  0x0e, 0x00, 0x07, 0x00, 0x00, 0x00, 0x08, 0x00, 0x0a, 0x00, 0x00, 0x00,
  0x00, 0x00, 0x00, 0x04, 0x03, 0x00, 0x00, 0x00, 0x00, 0x00, 0x0a, 0x00,
  0x0c, 0x00, 0x07, 0x00, 0x00, 0x00, 0x08, 0x00, 0x0a, 0x00, 0x00, 0x00,
  0x00, 0x00, 0x00, 0x03, 0x03, 0x00, 0x00, 0x00
};
unsigned int models_model_tflite_len = 8864;
