unsigned char models_tiny_conv_silence_10_0_bgvol_0_1_model_tflite[] = {
  0x1c, 0x00, 0x00, 0x00, 0x54, 0x46, 0x4c, 0x33, 0x00, 0x00, 0x12, 0x00,
  0x1c, 0x00, 0x04, 0x00, 0x08, 0x00, 0x0c, 0x00, 0x10, 0x00, 0x14, 0x00,
  0x00, 0x00, 0x18, 0x00, 0x12, 0x00, 0x00, 0x00, 0x03, 0x00, 0x00, 0x00,
  0xf0, 0x38, 0x00, 0x00, 0x90, 0x32, 0x00, 0x00, 0x78, 0x32, 0x00, 0x00,
  0x3c, 0x00, 0x00, 0x00, 0x04, 0x00, 0x00, 0x00, 0x01, 0x00, 0x00, 0x00,
  0x0c, 0x00, 0x00, 0x00, 0x08, 0x00, 0x0c, 0x00, 0x04, 0x00, 0x08, 0x00,
  0x08, 0x00, 0x00, 0x00, 0x08, 0x00, 0x00, 0x00, 0x0b, 0x00, 0x00, 0x00,
  0x13, 0x00, 0x00, 0x00, 0x6d, 0x69, 0x6e, 0x5f, 0x72, 0x75, 0x6e, 0x74,
  0x69, 0x6d, 0x65, 0x5f, 0x76, 0x65, 0x72, 0x73, 0x69, 0x6f, 0x6e, 0x00,
  0x0c, 0x00, 0x00, 0x00, 0x30, 0x32, 0x00, 0x00, 0x14, 0x32, 0x00, 0x00,
  0x24, 0x03, 0x00, 0x00, 0xf4, 0x02, 0x00, 0x00, 0xec, 0x02, 0x00, 0x00,
  0xe4, 0x02, 0x00, 0x00, 0xc4, 0x02, 0x00, 0x00, 0xbc, 0x02, 0x00, 0x00,
  0x2c, 0x00, 0x00, 0x00, 0x24, 0x00, 0x00, 0x00, 0x1c, 0x00, 0x00, 0x00,
  0x04, 0x00, 0x00, 0x00, 0xba, 0xcc, 0xff, 0xff, 0x04, 0x00, 0x00, 0x00,
  0x05, 0x00, 0x00, 0x00, 0x31, 0x2e, 0x35, 0x2e, 0x30, 0x00, 0x00, 0x00,
  0x38, 0xca, 0xff, 0xff, 0x3c, 0xca, 0xff, 0xff, 0xd6, 0xcc, 0xff, 0xff,
  0x04, 0x00, 0x00, 0x00, 0x80, 0x02, 0x00, 0x00, 0x1d, 0x0c, 0xef, 0xdd,
  0xa1, 0xcb, 0xf5, 0x05, 0xe1, 0xf3, 0x0e, 0xc2, 0xc8, 0xcd, 0x11, 0xa2,
  0x06, 0x3f, 0xad, 0xd5, 0x09, 0xcb, 0xf5, 0x1d, 0x6f, 0x2a, 0x01, 0xa3,
  0x7a, 0xc5, 0xd1, 0xd9, 0x7f, 0xf2, 0xcb, 0xac, 0xe9, 0xd7, 0xe6, 0xf3,
  0xd3, 0xf2, 0x27, 0xab, 0xbf, 0xca, 0xd0, 0xcf, 0x91, 0xce, 0xda, 0xee,
  0xeb, 0xb2, 0xdc, 0x2f, 0xc6, 0xdf, 0x40, 0xb0, 0xfb, 0xb6, 0xe8, 0xb5,
  0x2d, 0x0c, 0xdd, 0xb1, 0x81, 0xa4, 0x03, 0x45, 0x1b, 0xf2, 0x0a, 0xab,
  0xd7, 0xde, 0x31, 0xc4, 0x0a, 0x5f, 0xa7, 0xb8, 0x0b, 0xde, 0x04, 0xe3,
  0x03, 0x36, 0x0c, 0xb4, 0x45, 0xa9, 0xd3, 0xd6, 0x3b, 0xe5, 0xcd, 0x83,
  0xc9, 0xcc, 0xfa, 0xb5, 0x1b, 0x13, 0x37, 0xa4, 0xb8, 0xc8, 0xea, 0xbc,
  0xc4, 0xb6, 0xcd, 0xd0, 0x24, 0xd7, 0xd1, 0x05, 0xc1, 0xdc, 0x54, 0x91,
  0x13, 0xda, 0xeb, 0xe5, 0x1f, 0xda, 0xe8, 0xf9, 0xf1, 0xc5, 0xf1, 0x13,
  0x0c, 0xf1, 0x1b, 0xd9, 0x22, 0xcd, 0x29, 0xd7, 0x09, 0x57, 0xb4, 0xcf,
  0x02, 0x05, 0xec, 0x0c, 0xdc, 0x05, 0xea, 0x8b, 0xbb, 0xaf, 0xcd, 0xc7,
  0x0c, 0xe0, 0xd5, 0xcd, 0xa8, 0xff, 0xe5, 0xe1, 0x1f, 0xfe, 0xfc, 0xbb,
  0xcd, 0xc1, 0xd7, 0xf2, 0xee, 0xa4, 0xdc, 0xb2, 0x6b, 0xe4, 0xba, 0x0d,
  0xe4, 0xe3, 0x1f, 0x81, 0x3d, 0xc3, 0xde, 0xcd, 0x0e, 0xea, 0xe1, 0x0f,
  0x2a, 0x27, 0x08, 0x27, 0xde, 0x04, 0x38, 0xe6, 0x57, 0xff, 0x34, 0xb7,
  0xf5, 0x51, 0xb2, 0xf0, 0x13, 0xc1, 0xfa, 0x20, 0xe8, 0x2e, 0x05, 0x90,
  0xb8, 0xbb, 0xe6, 0x90, 0x31, 0x05, 0xcc, 0xe0, 0xad, 0xdc, 0xd2, 0xaf,
  0x2d, 0xd6, 0x13, 0xd8, 0xb9, 0xbe, 0xdc, 0xc1, 0xfa, 0x9d, 0xd3, 0xca,
  0x68, 0x0b, 0xc9, 0x03, 0xf8, 0xf5, 0x41, 0xcf, 0x4c, 0x8f, 0xf2, 0xf8,
  0x0f, 0x29, 0xee, 0xfe, 0x1f, 0xb3, 0x11, 0x19, 0xe0, 0x2e, 0x35, 0xb2,
  0x43, 0xe8, 0x52, 0xa1, 0xeb, 0x1f, 0xd8, 0xcf, 0xfb, 0xc8, 0xea, 0x23,
  0xe1, 0x50, 0x10, 0xc1, 0x06, 0x87, 0xe2, 0xd2, 0xfa, 0x06, 0xd7, 0xb0,
  0xd3, 0xc3, 0xd0, 0xc5, 0x3f, 0x04, 0x26, 0xbd, 0xde, 0xb2, 0xe2, 0xcb,
  0x29, 0xac, 0x0c, 0xf5, 0x21, 0xa8, 0xd5, 0x0d, 0xf6, 0x25, 0x68, 0xaa,
  0x42, 0x81, 0xf6, 0xde, 0xf7, 0x24, 0xdd, 0x08, 0xd2, 0xdd, 0x2b, 0x12,
  0xf3, 0x44, 0xfc, 0xd7, 0x12, 0xb2, 0x65, 0xaa, 0xec, 0x12, 0xe2, 0xe9,
  0xf5, 0x99, 0xfd, 0x1b, 0x03, 0x79, 0xcc, 0xb7, 0x38, 0xc3, 0xe3, 0xb1,
  0xeb, 0x14, 0xd3, 0xbf, 0xe5, 0x20, 0xd4, 0xb2, 0x3a, 0x31, 0xf7, 0xca,
  0x0c, 0xea, 0xe1, 0xe6, 0x0b, 0xcd, 0x06, 0x98, 0xf3, 0x9d, 0xc9, 0x06,
  0xff, 0x4c, 0x38, 0xa2, 0x18, 0xa0, 0xe8, 0xb4, 0x04, 0xbc, 0xdc, 0x1d,
  0x9c, 0xf8, 0x3e, 0x03, 0xfd, 0x40, 0xf2, 0xf5, 0x10, 0xb7, 0x67, 0x87,
  0xe5, 0x02, 0xd4, 0xed, 0x21, 0xca, 0xef, 0x0e, 0xda, 0x7f, 0xc5, 0xce,
  0x15, 0x95, 0xed, 0x81, 0xf2, 0x1c, 0xc3, 0xde, 0xd2, 0x03, 0xee, 0xd4,
  0x45, 0x16, 0xf0, 0xda, 0x0f, 0xd9, 0xdc, 0x06, 0x10, 0xa9, 0x0a, 0xad,
  0xf9, 0xda, 0xda, 0xfe, 0xf8, 0x57, 0x3d, 0x94, 0xfa, 0xbb, 0xe5, 0xd5,
  0x02, 0x87, 0xd8, 0xb9, 0xbc, 0xf1, 0x34, 0x17, 0xee, 0xfb, 0x07, 0xe6,
  0x20, 0xba, 0x76, 0x98, 0xef, 0xc8, 0xe9, 0xda, 0x17, 0x08, 0x05, 0x1f,
  0x02, 0x0a, 0xe1, 0xc2, 0xe7, 0xaa, 0xf3, 0xb1, 0xff, 0xd3, 0xd1, 0x82,
  0xe2, 0xdd, 0xe7, 0xc3, 0x25, 0xb7, 0x0b, 0xf5, 0xee, 0xed, 0xec, 0xfd,
  0xeb, 0x91, 0x15, 0xaf, 0xf2, 0xfa, 0xf3, 0x0a, 0xfc, 0x0b, 0x4d, 0x98,
  0x02, 0xa4, 0xf9, 0xdb, 0xed, 0xc4, 0xd2, 0xdd, 0xff, 0xf9, 0x2e, 0x06,
  0xca, 0xe1, 0xe2, 0xc9, 0x0d, 0xf3, 0x70, 0xa7, 0xee, 0xc0, 0xda, 0xcd,
  0x0e, 0xfa, 0x03, 0xf4, 0xf5, 0xca, 0xa0, 0xec, 0xf2, 0xc3, 0xf8, 0xa3,
  0x16, 0x8f, 0xb6, 0x97, 0x37, 0xe0, 0xe2, 0xa4, 0x12, 0x99, 0xca, 0xd6,
  0xf8, 0xbf, 0xdd, 0xcc, 0xcc, 0xaa, 0x06, 0xbe, 0xdb, 0xac, 0xee, 0xed,
  0xd5, 0xd2, 0x32, 0x90, 0xfa, 0xc4, 0xf6, 0xda, 0xe4, 0xf8, 0xcf, 0xe7,
  0x1c, 0xc1, 0x5e, 0xd8, 0xd0, 0xf1, 0xcb, 0xb0, 0xfd, 0xc8, 0x7f, 0xa4,
  0xe8, 0xd0, 0xc9, 0xde, 0x08, 0xf4, 0x12, 0xd4, 0xd8, 0xe0, 0x81, 0xbf,
  0x11, 0xbc, 0x05, 0xa1, 0xf5, 0xb1, 0xbc, 0xab, 0x45, 0xe7, 0xf9, 0xc1,
  0xf9, 0xeb, 0xd0, 0xcd, 0x04, 0xc6, 0xfc, 0xc1, 0xe5, 0xfe, 0xe8, 0xca,
  0xcf, 0xa0, 0xfd, 0xde, 0xdb, 0x12, 0x1a, 0x89, 0xef, 0x97, 0x06, 0xd3,
  0xcc, 0xcc, 0xff, 0xff, 0x66, 0xcf, 0xff, 0xff, 0x04, 0x00, 0x00, 0x00,
  0x10, 0x00, 0x00, 0x00, 0xff, 0xff, 0xff, 0xff, 0x31, 0x00, 0x00, 0x00,
  0x28, 0x00, 0x00, 0x00, 0x01, 0x00, 0x00, 0x00, 0xec, 0xcc, 0xff, 0xff,
  0xf0, 0xcc, 0xff, 0xff, 0x8a, 0xcf, 0xff, 0xff, 0x04, 0x00, 0x00, 0x00,
  0x20, 0x00, 0x00, 0x00, 0x4e, 0x01, 0x00, 0x00, 0x1a, 0x05, 0x00, 0x00,
  0x74, 0xff, 0xff, 0xff, 0xd9, 0xff, 0xff, 0xff, 0xa9, 0x05, 0x00, 0x00,
  0xcb, 0xff, 0xff, 0xff, 0xfd, 0xff, 0xff, 0xff, 0x9b, 0xff, 0xff, 0xff,
  0xb6, 0xcf, 0xff, 0xff, 0x04, 0x00, 0x00, 0x00, 0xe0, 0x2e, 0x00, 0x00,
  0xf8, 0x15, 0xf9, 0xff, 0xd8, 0xf5, 0x04, 0x00, 0xff, 0x39, 0xf9, 0x04,
  0x64, 0xfc, 0x14, 0xf6, 0x09, 0x1b, 0x00, 0xfa, 0x11, 0x03, 0x17, 0x04,
  0x0b, 0x28, 0xfa, 0x0a, 0xc7, 0x01, 0x02, 0x05, 0x02, 0x1c, 0xf5, 0x05,
  0xf8, 0x0b, 0x0a, 0x05, 0x06, 0x32, 0xf1, 0x0c, 0x05, 0x09, 0xe6, 0xfd,
  0xff, 0x17, 0x0a, 0x0f, 0x14, 0x04, 0x01, 0x05, 0xf7, 0x19, 0x07, 0x0e,
  0x0a, 0xee, 0xef, 0xec, 0x00, 0x14, 0xfd, 0xf8, 0x07, 0x0e, 0xfe, 0xf4,
  0x08, 0x10, 0x06, 0xfe, 0x11, 0xf9, 0xe3, 0xf0, 0xf3, 0x0d, 0x09, 0xed,
  0x16, 0xff, 0xe9, 0xfd, 0xf1, 0x05, 0xff, 0x13, 0xfe, 0x03, 0xf0, 0x01,
  0xf3, 0x0f, 0x02, 0xfd, 0xff, 0x0d, 0x04, 0x02, 0xf6, 0x07, 0x09, 0x07,
  0xdb, 0x0b, 0xf8, 0xf9, 0x05, 0x1b, 0x0d, 0x12, 0x10, 0xf9, 0xe7, 0xfc,
  0x09, 0x22, 0xf8, 0xfa, 0x01, 0x17, 0xf3, 0xf9, 0x0c, 0x0b, 0x0a, 0xf5,
  0xfe, 0xf7, 0x0c, 0x05, 0xff, 0x0c, 0x05, 0x04, 0x18, 0xfd, 0x04, 0xfc,
  0x13, 0x13, 0x08, 0x01, 0xf4, 0x06, 0x19, 0xf9, 0x0c, 0x10, 0x05, 0x01,
  0x34, 0xf6, 0x0b, 0x02, 0xf0, 0x1c, 0xf2, 0xfa, 0xfc, 0x02, 0x0c, 0xee,
  0x0a, 0x21, 0xfd, 0x0e, 0x6c, 0x06, 0x11, 0xff, 0xf2, 0xfd, 0x05, 0x0b,
  0x4f, 0x11, 0x0b, 0x03, 0xf9, 0xff, 0x01, 0x19, 0xe7, 0x00, 0x17, 0xf1,
  0x00, 0x36, 0x11, 0x0a, 0xfa, 0x01, 0xee, 0xf5, 0xec, 0x18, 0xf0, 0x10,
  0xe2, 0x0b, 0xf4, 0xf5, 0xfe, 0x1c, 0x0e, 0xfa, 0xf6, 0x07, 0x0d, 0xf2,
  0xf6, 0x15, 0x0d, 0x03, 0x00, 0x05, 0x07, 0xfe, 0xee, 0x0c, 0x0a, 0xf6,
  0x1b, 0xfb, 0x00, 0x12, 0xfb, 0x02, 0x01, 0x03, 0x0f, 0x07, 0xec, 0xfa,
  0xff, 0x13, 0x07, 0xfc, 0xed, 0xf5, 0x00, 0xf9, 0x04, 0x08, 0xf5, 0x02,
  0x1f, 0xf8, 0xf2, 0xfc, 0x07, 0x09, 0x0e, 0x0c, 0x52, 0x0a, 0x02, 0xfa,
  0xf7, 0x03, 0x00, 0x06, 0x07, 0xfe, 0xf0, 0xf5, 0x03, 0x04, 0x00, 0x0e,
  0x29, 0x0c, 0xfb, 0x04, 0xf5, 0x09, 0x03, 0x00, 0x2c, 0xfa, 0xf6, 0x06,
  0xfc, 0xef, 0x02, 0xfb, 0xfc, 0xfa, 0x03, 0x01, 0xff, 0x1f, 0x13, 0x07,
  0x2f, 0xfe, 0x10, 0xf8, 0x0e, 0x17, 0x00, 0x0d, 0x0b, 0x07, 0x12, 0x0e,
  0xef, 0xf1, 0x05, 0x0b, 0xeb, 0x0b, 0x0e, 0x11, 0x20, 0x2a, 0x27, 0x07,
  0x02, 0x05, 0xfd, 0xf8, 0x0e, 0x34, 0x05, 0xfc, 0x60, 0x0f, 0x10, 0xf7,
  0xfc, 0x0b, 0xf5, 0x00, 0x45, 0x07, 0x14, 0xf6, 0x17, 0xf8, 0x00, 0x0f,
  0xee, 0x0b, 0x04, 0xf8, 0x07, 0x0c, 0x0a, 0x13, 0x12, 0xfd, 0x04, 0xee,
  0x0a, 0xfc, 0x02, 0x0d, 0x01, 0xfb, 0x10, 0xfe, 0xfe, 0x04, 0x04, 0x12,
  0xfa, 0xf8, 0x08, 0xf7, 0x0e, 0xe5, 0x0c, 0xf9, 0x1a, 0x14, 0x03, 0x04,
  0x11, 0xfd, 0x0b, 0x0e, 0x4b, 0x09, 0x0c, 0xf3, 0x07, 0xf8, 0x14, 0x14,
  0x04, 0x0c, 0x04, 0xff, 0xf6, 0x22, 0x1d, 0x04, 0x11, 0x05, 0x08, 0x08,
  0xef, 0xd8, 0x13, 0xfa, 0x0f, 0x0b, 0x04, 0x02, 0x01, 0x0e, 0x09, 0xf9,
  0x30, 0xfe, 0xfb, 0x01, 0x04, 0xde, 0x10, 0x03, 0x03, 0xfc, 0x08, 0x03,
  0x01, 0xe9, 0x03, 0xf6, 0x28, 0x06, 0xf9, 0x0e, 0x17, 0x26, 0x05, 0x02,
  0x00, 0x00, 0x06, 0x05, 0x04, 0xed, 0x01, 0x01, 0xee, 0xf8, 0xf9, 0xff,
  0x18, 0x49, 0x15, 0xf5, 0x1a, 0x10, 0x0d, 0xfe, 0x0a, 0x55, 0x06, 0x09,
  0xf0, 0x02, 0x0c, 0x04, 0x2d, 0x14, 0x06, 0x0e, 0xf1, 0x0c, 0x0a, 0xff,
  0x20, 0x26, 0x11, 0x03, 0x17, 0x0c, 0xf2, 0xfb, 0x0d, 0x32, 0x1b, 0xf1,
  0x23, 0x0d, 0x13, 0xfa, 0xed, 0x2e, 0x03, 0xfe, 0x04, 0xff, 0x1f, 0xfb,
  0x13, 0x0e, 0xfb, 0xf9, 0xf4, 0xfa, 0xf8, 0xf5, 0x10, 0x23, 0x0a, 0x04,
  0x16, 0x0c, 0x04, 0x07, 0x0d, 0x11, 0x1d, 0xee, 0x06, 0x0f, 0x06, 0xeb,
  0xfc, 0x07, 0x11, 0x09, 0xf6, 0xfd, 0x00, 0xf7, 0xfe, 0xdf, 0xfe, 0xf6,
  0x13, 0x03, 0x08, 0xee, 0xff, 0xe5, 0x0d, 0xf0, 0x31, 0xf8, 0x11, 0xf9,
  0x05, 0x05, 0xfb, 0x06, 0xf6, 0xf7, 0xfd, 0xfc, 0x05, 0x1a, 0x0b, 0x17,
  0xd9, 0x03, 0x12, 0x11, 0x00, 0xfe, 0xf7, 0xff, 0x11, 0x08, 0xfc, 0x04,
  0xf9, 0x05, 0x08, 0x0d, 0x35, 0x0d, 0x03, 0x04, 0x04, 0xe0, 0x08, 0xff,
  0x0b, 0x0d, 0x0c, 0xf1, 0x1b, 0xe9, 0x07, 0x04, 0xff, 0xee, 0x08, 0xed,
  0x16, 0x02, 0x10, 0x02, 0x10, 0x04, 0x02, 0xfe, 0x0c, 0x1a, 0x06, 0xfd,
  0x0b, 0xfc, 0x0f, 0xff, 0x0d, 0x24, 0xed, 0x03, 0x1e, 0xfc, 0x0a, 0xfd,
  0xec, 0x2e, 0x02, 0xfd, 0xf0, 0xf5, 0xfc, 0xf1, 0x28, 0x15, 0x16, 0x0c,
  0x0e, 0x0e, 0xeb, 0xff, 0xff, 0x19, 0x26, 0x06, 0x19, 0x13, 0x12, 0xed,
  0x04, 0x19, 0x0b, 0x14, 0x2a, 0xfc, 0x08, 0xfe, 0x01, 0x2e, 0x24, 0x02,
  0xfe, 0xfa, 0xf7, 0x02, 0xfe, 0x00, 0x36, 0xf8, 0xda, 0x19, 0x15, 0xfc,
  0x0e, 0xf6, 0x12, 0xfc, 0xf6, 0xf4, 0x0a, 0xfb, 0xfd, 0xf5, 0x0d, 0x00,
  0xff, 0x06, 0x00, 0x09, 0xf7, 0x26, 0xf4, 0x13, 0x2a, 0xfd, 0xfc, 0x02,
  0xfe, 0xf7, 0x01, 0xf8, 0xf9, 0xfa, 0xf4, 0x02, 0x01, 0x16, 0x02, 0x09,
  0xe5, 0x03, 0xff, 0xf2, 0x07, 0x1d, 0xfc, 0xf3, 0xe3, 0xfc, 0x03, 0xfe,
  0xeb, 0x10, 0xf9, 0x04, 0xe4, 0x13, 0xfa, 0x03, 0x06, 0x10, 0xf5, 0xfa,
  0xfa, 0xf2, 0xfb, 0x05, 0xf0, 0x09, 0xec, 0x0e, 0xed, 0xfc, 0x10, 0xf3,
  0xfc, 0xd4, 0xeb, 0xfb, 0xdb, 0x14, 0x0f, 0xfc, 0x02, 0xf1, 0x03, 0x0a,
  0xc7, 0x01, 0xf6, 0xee, 0x09, 0x0c, 0x14, 0x0b, 0xf8, 0xfb, 0x14, 0x00,
  0x0f, 0x0e, 0x0d, 0xf7, 0xf9, 0xfe, 0x00, 0xf9, 0x01, 0x05, 0xc7, 0x06,
  0xd5, 0x01, 0x08, 0xf0, 0xe7, 0x14, 0x12, 0x02, 0xe1, 0xff, 0xf9, 0x02,
  0x35, 0x17, 0x0e, 0x03, 0xe2, 0x0e, 0xfe, 0xfd, 0xcb, 0x30, 0x49, 0xef,
  0x25, 0xf2, 0x06, 0x04, 0x09, 0x26, 0x0c, 0xfd, 0x1b, 0x06, 0x06, 0xf1,
  0xde, 0x2d, 0x1c, 0xfe, 0xe7, 0x0d, 0x01, 0xf7, 0x0e, 0x06, 0x51, 0x0c,
  0xc2, 0x0a, 0x02, 0xf6, 0xfb, 0xec, 0x32, 0xfa, 0xe4, 0x0c, 0xf6, 0x02,
  0x02, 0xe7, 0x29, 0xfd, 0xfb, 0x08, 0x04, 0xe9, 0x02, 0x03, 0x23, 0xff,
  0x25, 0x01, 0x05, 0xff, 0x14, 0x24, 0xf6, 0x06, 0xf4, 0x07, 0x1d, 0xf2,
  0x08, 0xe8, 0x11, 0x12, 0xd8, 0x10, 0x05, 0xfb, 0x0a, 0x03, 0x2a, 0x09,
  0x04, 0x0d, 0x04, 0xfe, 0xf1, 0x18, 0xfd, 0x02, 0xd9, 0x0c, 0xf0, 0xf2,
  0xf2, 0x0f, 0xda, 0xf6, 0x07, 0x12, 0x00, 0xeb, 0xf3, 0x28, 0xe1, 0xf8,
  0x20, 0x05, 0x19, 0x04, 0xf1, 0xcf, 0xee, 0xf4, 0xdb, 0x0c, 0x11, 0x0b,
  0x09, 0x02, 0xe5, 0xfd, 0xd5, 0x0e, 0x00, 0xf1, 0x12, 0xd0, 0x0c, 0xfb,
  0x00, 0xfb, 0x04, 0x02, 0x13, 0xfc, 0x03, 0x0b, 0xf4, 0x11, 0x01, 0xf2,
  0x0e, 0x0a, 0xc7, 0x02, 0xe6, 0x13, 0x06, 0xe7, 0xf3, 0xf4, 0x03, 0x03,
  0xf6, 0x03, 0x1a, 0x0b, 0x42, 0x26, 0x10, 0x09, 0xe0, 0x10, 0x03, 0xfa,
  0xc5, 0x2d, 0x58, 0x03, 0xff, 0xfc, 0xf5, 0xf9, 0xf2, 0x19, 0x0f, 0xea,
  0x05, 0xfd, 0x0e, 0x09, 0xec, 0x1c, 0x08, 0x0f, 0xd8, 0x04, 0x11, 0x07,
  0x16, 0x08, 0x3d, 0x11, 0xce, 0x01, 0x03, 0x06, 0xf9, 0xe3, 0x2c, 0x09,
  0xce, 0xfb, 0xf1, 0xf5, 0x01, 0x19, 0x30, 0xf6, 0xff, 0xfc, 0x13, 0xff,
  0xf4, 0xda, 0x0f, 0xfc, 0x20, 0x03, 0x0c, 0x02, 0x06, 0x2f, 0xf7, 0x0d,
  0xfd, 0x04, 0x14, 0x0a, 0xff, 0xde, 0x12, 0xfa, 0xda, 0xee, 0x09, 0xf1,
  0x0a, 0x18, 0x17, 0xf2, 0x07, 0x06, 0xf5, 0xfb, 0xda, 0x10, 0x1a, 0xff,
  0xe3, 0x05, 0xf3, 0xf8, 0xfe, 0x0b, 0xfb, 0x12, 0x15, 0x00, 0xfc, 0xef,
  0xea, 0x24, 0xfd, 0x18, 0x2c, 0x08, 0x0c, 0xf2, 0xfc, 0xeb, 0xe9, 0x05,
  0xe7, 0x12, 0x0b, 0x02, 0x0a, 0xfd, 0xd7, 0xfe, 0xdc, 0x0a, 0x07, 0xe8,
  0xf1, 0xe6, 0xfe, 0x0f, 0x0b, 0xf1, 0xf3, 0xf3, 0x12, 0xf0, 0xfd, 0x01,
  0xea, 0x08, 0x16, 0xf0, 0xfe, 0x1d, 0xc8, 0x00, 0xde, 0x0e, 0x0d, 0x04,
  0xea, 0x2c, 0x12, 0x0b, 0xff, 0xfe, 0xf8, 0xfa, 0x46, 0x0d, 0x02, 0xed,
  0xdd, 0x0c, 0x0f, 0xfe, 0xc8, 0x31, 0x48, 0xf5, 0xf0, 0x05, 0x0a, 0xf9,
  0x04, 0x0a, 0x2d, 0xf8, 0x12, 0x0e, 0x0b, 0xfb, 0xd2, 0x10, 0xf0, 0xfb,
  0xec, 0xfb, 0x18, 0x07, 0xf7, 0xec, 0x0a, 0x09, 0xbd, 0xfc, 0x0a, 0xfb,
  0xdf, 0xf8, 0xff, 0xf8, 0xce, 0x14, 0x06, 0xfc, 0x17, 0xfb, 0xf6, 0xfd,
  0xfc, 0x12, 0xfc, 0xfd, 0xee, 0x18, 0xfb, 0x08, 0x2e, 0x15, 0x0c, 0xfd,
  0x03, 0x33, 0xe9, 0x01, 0xed, 0x0e, 0x19, 0xf6, 0xfb, 0xe5, 0x02, 0xf5,
  0xe7, 0xf6, 0x08, 0xfb, 0xf5, 0x3d, 0x0f, 0x0a, 0x07, 0x08, 0x02, 0xf7,
  0xea, 0xf7, 0x10, 0x03, 0xf3, 0x00, 0x0d, 0xf2, 0x0a, 0x03, 0x0a, 0xfd,
  0x16, 0x09, 0xf0, 0xec, 0xde, 0x1d, 0xeb, 0x18, 0x30, 0x04, 0x08, 0xe7,
  0xee, 0xe1, 0xe8, 0x03, 0xfe, 0x11, 0x18, 0x06, 0x00, 0x06, 0xe2, 0x0a,
  0xdf, 0x0a, 0x12, 0xfe, 0xf9, 0xdf, 0x04, 0xff, 0x02, 0x06, 0x04, 0xf1,
  0x1c, 0x0a, 0x1d, 0xed, 0x03, 0x02, 0x15, 0xec, 0xea, 0x4c, 0xe7, 0xf5,
  0xec, 0x09, 0x0f, 0x03, 0xf4, 0x22, 0xf1, 0xf1, 0xda, 0x0a, 0x03, 0xfd,
  0x28, 0x10, 0xf7, 0x05, 0xe0, 0x06, 0x13, 0xfe, 0xd1, 0x1b, 0x24, 0x0b,
  0xda, 0x0c, 0x03, 0xf0, 0x11, 0xf3, 0x39, 0xf0, 0x07, 0xf9, 0x12, 0x01,
  0xe7, 0x20, 0xe1, 0x00, 0xee, 0xfc, 0x09, 0xf5, 0x17, 0xdf, 0x06, 0x01,
  0xdd, 0x07, 0xf5, 0xfa, 0xec, 0x02, 0xfe, 0x07, 0xe2, 0xf1, 0xf8, 0xfb,
  0x15, 0x0a, 0xe7, 0x10, 0x02, 0x05, 0x0a, 0xec, 0xfb, 0x1d, 0xe7, 0x07,
  0x13, 0xf7, 0x14, 0x00, 0x01, 0x0e, 0x10, 0xf8, 0xdb, 0x14, 0x11, 0xfa,
  0x07, 0xf5, 0x0f, 0x08, 0xce, 0xf8, 0x16, 0xfd, 0xfd, 0x23, 0x15, 0xfb,
  0x08, 0x0b, 0x0c, 0x0a, 0xef, 0xe2, 0x0e, 0xfc, 0xf6, 0xfb, 0xfe, 0xec,
  0xf6, 0xfa, 0xee, 0x00, 0x0d, 0x0d, 0x02, 0x04, 0xcf, 0x13, 0xd2, 0x02,
  0x0d, 0xff, 0x07, 0xf1, 0xdd, 0xe3, 0xe0, 0xfc, 0x0d, 0x0d, 0x08, 0xf2,
  0xe8, 0x09, 0xe1, 0xf3, 0xed, 0xfe, 0x15, 0xf1, 0xe0, 0xbe, 0x0b, 0xf2,
  0xe7, 0xf4, 0x1d, 0x01, 0x16, 0x21, 0x2f, 0xf6, 0x26, 0x06, 0x0d, 0x09,
  0xe5, 0x3b, 0x05, 0xfa, 0xe4, 0x0f, 0x0c, 0x0c, 0x00, 0xe4, 0xeb, 0xf9,
  0xc1, 0x08, 0x02, 0x07, 0x20, 0x05, 0xf1, 0xf1, 0x00, 0xf1, 0x1d, 0xf9,
  0xb4, 0x2b, 0x2b, 0x02, 0xe7, 0x04, 0xf0, 0x08, 0x0d, 0x28, 0x40, 0xef,
  0x1e, 0x09, 0xfa, 0xfa, 0xf5, 0x31, 0xee, 0xec, 0xdc, 0xfb, 0x14, 0xf4,
  0xf5, 0xc4, 0xfa, 0xff, 0xd8, 0x00, 0x1e, 0xfa, 0xf1, 0xdb, 0xfc, 0x01,
  0xe7, 0x11, 0x15, 0xff, 0xfc, 0xe1, 0xf4, 0x07, 0x00, 0x07, 0x10, 0xe7,
  0xee, 0x19, 0xe5, 0xf5, 0x23, 0xf8, 0x00, 0x04, 0xf4, 0x0b, 0x04, 0x03,
  0xb9, 0x04, 0xff, 0x01, 0xe5, 0xdf, 0x08, 0x0b, 0xc8, 0x02, 0x0a, 0x00,
  0xed, 0x2f, 0xfa, 0xfd, 0x01, 0x04, 0xfc, 0xf7, 0xf6, 0xdc, 0xfc, 0x0a,
  0xfe, 0x09, 0x07, 0xf6, 0x11, 0x09, 0x0a, 0xed, 0x0b, 0x04, 0x1b, 0xfe,
  0xdd, 0x0e, 0xda, 0x01, 0xed, 0xff, 0xfe, 0x04, 0xeb, 0x08, 0xc2, 0x05,
  0x0f, 0xfb, 0x19, 0x09, 0xf4, 0x07, 0xea, 0xfd, 0xfa, 0xff, 0x06, 0xf0,
  0xce, 0xd0, 0x1d, 0xfa, 0xea, 0x10, 0x04, 0x04, 0xfa, 0x01, 0x3a, 0x08,
  0x28, 0xfd, 0x06, 0xff, 0xf3, 0x53, 0x17, 0xff, 0xe5, 0xfa, 0x0c, 0x03,
  0xf8, 0xeb, 0xf1, 0x08, 0xb9, 0xf1, 0x09, 0xf8, 0x0f, 0x1d, 0x01, 0x08,
  0x09, 0x05, 0x08, 0x09, 0xd8, 0x2d, 0x2e, 0xf2, 0xe4, 0xff, 0xf6, 0x0a,
  0xfb, 0x1f, 0x3d, 0x01, 0x1a, 0xf2, 0x05, 0x0a, 0x1b, 0x37, 0x10, 0xf3,
  0xe1, 0x07, 0xf1, 0x03, 0xcb, 0xd1, 0x11, 0xfa, 0xe3, 0x06, 0x0a, 0xf6,
  0xe6, 0xde, 0x09, 0xf0, 0xdf, 0xf0, 0x1b, 0x13, 0x0f, 0x10, 0xff, 0x03,
  0x0b, 0x0a, 0xfa, 0xf8, 0x10, 0xd6, 0x03, 0x0f, 0x17, 0xef, 0x01, 0x03,
  0x00, 0x0c, 0x13, 0xf5, 0xdb, 0x02, 0xfe, 0x08, 0x07, 0xd2, 0x05, 0x0c,
  0xf3, 0x05, 0x01, 0x07, 0xdc, 0x27, 0xf1, 0x03, 0x0d, 0xfe, 0x16, 0xfd,
  0xf9, 0xd6, 0x13, 0xfa, 0xe8, 0x08, 0x17, 0xf9, 0xf9, 0x29, 0x21, 0x00,
  0x05, 0xf7, 0x1d, 0xfa, 0xf8, 0xf4, 0xda, 0xef, 0x08, 0x04, 0x17, 0xff,
  0xef, 0x08, 0xd2, 0xf7, 0x29, 0xef, 0x08, 0xf5, 0x0d, 0xed, 0x00, 0x09,
  0xf2, 0x03, 0x1e, 0xf9, 0xba, 0xea, 0x08, 0x00, 0xe9, 0x05, 0x05, 0x07,
  0x03, 0xe1, 0x51, 0x05, 0x04, 0x17, 0x08, 0x01, 0x03, 0x39, 0x1f, 0xfb,
  0xdb, 0x03, 0x08, 0xf9, 0xde, 0xd9, 0xfc, 0x04, 0xe3, 0x11, 0x0a, 0x05,
  0xfe, 0x45, 0x04, 0xfd, 0xfb, 0xf5, 0x13, 0x0f, 0xd0, 0x24, 0x17, 0x00,
  0xf7, 0xf6, 0xf1, 0x02, 0xf2, 0x1c, 0x1f, 0xf9, 0x39, 0x06, 0x0a, 0xf6,
  0x0b, 0x36, 0x41, 0xfd, 0xd1, 0xf8, 0x02, 0x05, 0xe6, 0xd4, 0x0d, 0x0a,
  0xc9, 0xf3, 0x15, 0x16, 0xf1, 0xe7, 0xfb, 0xf5, 0xdf, 0x05, 0x16, 0x0e,
  0x0c, 0x0a, 0x05, 0x02, 0xf3, 0x04, 0xfd, 0xff, 0xfa, 0xe0, 0x06, 0xf7,
  0x0b, 0xf2, 0x03, 0xf4, 0x06, 0x2f, 0x1a, 0x17, 0xcb, 0x11, 0x1e, 0xf1,
  0xf9, 0xb8, 0xf1, 0x00, 0x06, 0xf5, 0xf6, 0xf4, 0xdb, 0x32, 0xec, 0xf0,
  0xed, 0x0a, 0x0d, 0xff, 0xdc, 0xd0, 0x07, 0xf9, 0xd8, 0xf9, 0x08, 0xfc,
  0xfc, 0x16, 0x30, 0xf2, 0x1a, 0x03, 0x24, 0xfd, 0xe3, 0xec, 0xff, 0x0b,
  0x19, 0x0e, 0xff, 0x06, 0xf3, 0x05, 0xdb, 0x00, 0x21, 0x0b, 0x0b, 0xec,
  0x1d, 0xe6, 0x00, 0x07, 0x10, 0xf5, 0x1f, 0xf9, 0xa8, 0xfd, 0xdf, 0x01,
  0xfc, 0x05, 0x14, 0xfc, 0x0a, 0xc8, 0x32, 0x08, 0x1c, 0x04, 0x1d, 0xf1,
  0xe9, 0x49, 0x1e, 0xfd, 0xdc, 0xee, 0xfb, 0xfd, 0xe6, 0xfc, 0xec, 0x0e,
  0x01, 0xfb, 0x05, 0x06, 0xef, 0x2d, 0xf3, 0x0e, 0x14, 0xfe, 0x17, 0xfb,
  0xc8, 0x0c, 0x10, 0xff, 0xe3, 0x0d, 0x04, 0xf9, 0x09, 0x0b, 0x0c, 0x09,
  0x22, 0x0a, 0xff, 0x09, 0x13, 0x45, 0x39, 0x10, 0xd1, 0xfb, 0x08, 0x04,
  0xfd, 0xeb, 0x0d, 0x08, 0xd3, 0x09, 0x10, 0x0a, 0x00, 0xc9, 0xf0, 0x05,
  0xde, 0xfa, 0x23, 0x04, 0x08, 0x0a, 0x34, 0x06, 0xf1, 0x04, 0xff, 0xf2,
  0x04, 0x05, 0x1f, 0x0f, 0xea, 0xfe, 0x0b, 0xfe, 0xf1, 0x25, 0x2a, 0x0f,
  0xcb, 0x07, 0x04, 0x12, 0xf4, 0xe3, 0xe2, 0xf9, 0x17, 0x18, 0xe2, 0x00,
  0xd8, 0x10, 0xfa, 0x01, 0xeb, 0xfe, 0xf0, 0x08, 0xea, 0xd3, 0xfc, 0xf5,
  0xf1, 0xf5, 0x15, 0xf9, 0x0a, 0x1e, 0x0d, 0xeb, 0xf1, 0xff, 0x29, 0x01,
  0xe3, 0xda, 0xfb, 0x09, 0x02, 0xf5, 0x16, 0x01, 0xf3, 0x29, 0xe4, 0xf8,
  0x0d, 0xf4, 0x1e, 0x06, 0x02, 0xc5, 0x1c, 0x03, 0x1d, 0x00, 0x05, 0xe9,
  0xa8, 0xee, 0xf1, 0xec, 0xf1, 0xf5, 0x1f, 0xf9, 0xef, 0xc2, 0x36, 0x05,
  0x14, 0xf5, 0x17, 0xf9, 0x04, 0x2d, 0x1f, 0xfa, 0xe6, 0x07, 0x0d, 0xe9,
  0xdf, 0x0e, 0x02, 0xfa, 0x08, 0x02, 0x0e, 0xf2, 0xeb, 0x40, 0x0e, 0x12,
  0x1c, 0xfd, 0x13, 0xf5, 0xc3, 0x18, 0x02, 0xfb, 0xe5, 0x09, 0x0a, 0xf8,
  0x12, 0x25, 0xed, 0x04, 0x11, 0xfb, 0x02, 0xfa, 0x01, 0x47, 0x31, 0xf6,
  0xc8, 0x03, 0x0b, 0x12, 0xf9, 0xed, 0x39, 0x14, 0xcf, 0xee, 0x1e, 0x0a,
  0xe6, 0xd9, 0xe3, 0xec, 0xfc, 0x03, 0x0d, 0xfb, 0x04, 0x0a, 0x2a, 0xf8,
  0xe9, 0x02, 0x02, 0xf8, 0xf0, 0xe8, 0x23, 0x14, 0xe4, 0x07, 0xfe, 0xfb,
  0xed, 0x03, 0x2f, 0xfc, 0xdb, 0xf3, 0x0a, 0x06, 0xec, 0xe3, 0xe6, 0xf9,
  0x1e, 0x0a, 0xee, 0xf6, 0xe2, 0x1f, 0xea, 0xff, 0xf1, 0x11, 0xf3, 0x02,
  0xdd, 0xcc, 0x01, 0xef, 0xfc, 0xfc, 0x0c, 0x0d, 0x05, 0x1c, 0x19, 0xe9,
  0x02, 0x06, 0x2b, 0xf4, 0xe4, 0xc0, 0xf9, 0x04, 0x1c, 0xf6, 0x11, 0x0d,
  0xee, 0x22, 0xf4, 0xfe, 0xdb, 0x0b, 0x1b, 0xef, 0xed, 0xd4, 0x25, 0xff,
  0xf9, 0xf5, 0x19, 0xef, 0xb8, 0xd5, 0xf6, 0xfd, 0xe8, 0xf5, 0x15, 0xf1,
  0xfc, 0xe8, 0x30, 0x01, 0x26, 0x0c, 0x19, 0xf4, 0xf5, 0x1d, 0x04, 0xf9,
  0xe2, 0x01, 0x17, 0xed, 0x0b, 0xe3, 0x13, 0x07, 0xfd, 0xf7, 0x15, 0xf1,
  0xd8, 0x47, 0x0d, 0x08, 0x03, 0x15, 0x1c, 0xfa, 0xce, 0xf3, 0xf5, 0xff,
  0xc6, 0xed, 0x10, 0xf1, 0x10, 0x15, 0x1b, 0xfa, 0x17, 0xff, 0xff, 0xfc,
  0xef, 0x4d, 0x0e, 0x02, 0xae, 0x0c, 0x06, 0xff, 0xfa, 0xf3, 0x26, 0xf7,
  0xc0, 0xfe, 0x19, 0x09, 0xee, 0xe3, 0xfe, 0xfa, 0x00, 0x0d, 0xff, 0xf9,
  0xfc, 0x07, 0x1e, 0xed, 0xe5, 0x01, 0xf2, 0xff, 0xe3, 0xe8, 0x19, 0x01,
  0xdf, 0x0a, 0xfb, 0x12, 0xeb, 0xff, 0x2b, 0x0b, 0xde, 0x02, 0x10, 0x05,
  0x01, 0xf4, 0xfa, 0x0d, 0x1c, 0x08, 0xec, 0x08, 0xec, 0x0d, 0xe2, 0x09,
  0xd8, 0x17, 0x01, 0xf2, 0xdf, 0xce, 0x0f, 0x0c, 0xff, 0xef, 0x20, 0x02,
  0xfe, 0x16, 0x0b, 0xf7, 0x02, 0xff, 0x19, 0xfb, 0xeb, 0xdf, 0x1b, 0x0b,
  0x14, 0x0b, 0x17, 0x07, 0xd3, 0x1e, 0x0c, 0x09, 0x01, 0xf2, 0x13, 0x0e,
  0xf9, 0xe0, 0x23, 0xfa, 0xfb, 0xfe, 0xf1, 0x00, 0xc2, 0xf3, 0x03, 0x06,
  0x14, 0xf5, 0x15, 0x03, 0x12, 0xd6, 0x19, 0xf4, 0x0c, 0x01, 0x0e, 0xf0,
  0xe5, 0x04, 0x1b, 0x06, 0xda, 0xf9, 0x15, 0xf7, 0xf3, 0xed, 0x0f, 0x06,
  0x32, 0x06, 0x0d, 0xfe, 0xe0, 0x35, 0x05, 0x05, 0x0b, 0x03, 0x10, 0xfb,
  0xb6, 0xd4, 0xf6, 0x08, 0xd6, 0xfa, 0x00, 0xeb, 0xf9, 0x2c, 0x3d, 0xfa,
  0x0b, 0xfd, 0x09, 0xf3, 0xe5, 0x31, 0x05, 0xfb, 0xa4, 0xef, 0x0f, 0x03,
  0xfe, 0xcf, 0x25, 0x08, 0xd1, 0xf9, 0x36, 0x13, 0xff, 0x03, 0xe2, 0x11,
  0x00, 0xff, 0x16, 0xf8, 0x0a, 0x38, 0x20, 0xfa, 0xf8, 0x06, 0x08, 0xfe,
  0xf6, 0xf7, 0x15, 0xfe, 0xbf, 0x01, 0x03, 0x07, 0xdf, 0x01, 0x1a, 0x02,
  0xc4, 0xfb, 0x12, 0xf9, 0xf2, 0xe7, 0xf7, 0x11, 0x08, 0x00, 0xf1, 0xfe,
  0x01, 0xf4, 0xd9, 0xf8, 0xe2, 0xfe, 0x05, 0x03, 0xc6, 0xdb, 0x23, 0xfd,
  0xe7, 0xfd, 0x19, 0x0b, 0x0b, 0x05, 0xfa, 0x0c, 0xfe, 0xfe, 0x16, 0xe5,
  0xe3, 0xd5, 0x19, 0xfb, 0x05, 0xfd, 0x17, 0x09, 0xe3, 0x0f, 0x26, 0x13,
  0xe7, 0x12, 0xf7, 0x08, 0xfd, 0xe2, 0x32, 0xf2, 0x17, 0xf6, 0xfe, 0xef,
  0xea, 0xe6, 0xf6, 0x08, 0xf7, 0xfc, 0x0e, 0x04, 0xfe, 0xe0, 0x04, 0x11,
  0x18, 0x05, 0x06, 0xfe, 0xee, 0x02, 0x20, 0xf9, 0xfc, 0xf2, 0x1c, 0xff,
  0xe4, 0xec, 0x0a, 0xf9, 0x0e, 0xff, 0xff, 0x0d, 0xe1, 0x27, 0xfe, 0x04,
  0x05, 0x08, 0x0f, 0xf8, 0xd2, 0xce, 0xff, 0x01, 0xe4, 0xf4, 0xf2, 0x0b,
  0xec, 0x16, 0x52, 0xf5, 0x03, 0xfc, 0xfd, 0x05, 0xf1, 0x1c, 0xe3, 0x00,
  0x9c, 0x04, 0x06, 0x0f, 0xfd, 0xe6, 0x2f, 0x0d, 0xd1, 0x03, 0x21, 0xed,
  0xef, 0x22, 0xf7, 0xfd, 0x0b, 0x04, 0x0b, 0x01, 0x02, 0x1f, 0x35, 0xef,
  0x09, 0xf5, 0xfd, 0xf5, 0xe5, 0x04, 0x1d, 0x14, 0xc0, 0x12, 0x14, 0x05,
  0xcd, 0x17, 0x24, 0xfb, 0xbe, 0x0a, 0xfb, 0xff, 0xfa, 0xc4, 0x12, 0xfb,
  0x24, 0xfc, 0xe8, 0x03, 0xff, 0x0a, 0xdb, 0x0e, 0xe7, 0xf8, 0xfb, 0x01,
  0xe8, 0xd7, 0x34, 0x03, 0x13, 0x01, 0x19, 0xf9, 0xfd, 0xef, 0xfe, 0x08,
  0xf3, 0xf8, 0x0d, 0xe8, 0x02, 0xe6, 0x12, 0x02, 0x12, 0x06, 0xfa, 0xfc,
  0xd7, 0x01, 0x21, 0x0d, 0xf6, 0x13, 0x0b, 0xff, 0xf1, 0xce, 0x1c, 0x01,
  0x13, 0xfa, 0xfe, 0x01, 0xf3, 0xe6, 0xf6, 0x03, 0x06, 0xf4, 0x0c, 0xff,
  0xf4, 0xf1, 0x0f, 0x02, 0x0e, 0x09, 0x01, 0xf4, 0xf6, 0xde, 0x22, 0xf8,
  0xed, 0xf9, 0x17, 0xf7, 0xf2, 0xdf, 0x1c, 0xf0, 0xfa, 0xfa, 0xfe, 0xf9,
  0xe7, 0x09, 0x0d, 0xfc, 0xfd, 0xfc, 0x0f, 0x10, 0xcc, 0xd9, 0x19, 0x01,
  0xec, 0xf9, 0x03, 0x0b, 0xd5, 0xfb, 0x36, 0xfb, 0x0a, 0x12, 0x11, 0xee,
  0xf2, 0x1a, 0xf1, 0x0b, 0x9f, 0x06, 0x03, 0x10, 0xed, 0xcf, 0x1d, 0x10,
  0xd1, 0x0d, 0x28, 0x05, 0xe8, 0x27, 0x28, 0x12, 0xfb, 0xf6, 0xff, 0x09,
  0x1a, 0xf8, 0x28, 0xf6, 0xe5, 0x08, 0x09, 0xf3, 0x0a, 0x20, 0xf6, 0x0c,
  0xa7, 0x08, 0x00, 0xfb, 0xb6, 0xfc, 0x2b, 0x02, 0xc3, 0x15, 0x09, 0x02,
  0xed, 0xde, 0xf7, 0x0e, 0x17, 0x02, 0xe6, 0xf6, 0x00, 0x0a, 0x1e, 0x07,
  0xe7, 0xf9, 0xf8, 0xfb, 0xdc, 0xda, 0x2f, 0xfa, 0xe8, 0x0e, 0x26, 0x06,
  0xea, 0xee, 0xe6, 0xfd, 0x0b, 0xf5, 0xfd, 0xf7, 0xf4, 0xf8, 0x1a, 0x07,
  0x20, 0xfc, 0x03, 0xf7, 0xed, 0xf4, 0x13, 0x02, 0xf4, 0x05, 0x0c, 0x00,
  0xfd, 0xf2, 0x25, 0xff, 0x1a, 0xff, 0x04, 0xf7, 0x03, 0xdf, 0x04, 0xfb,
  0x0b, 0xf9, 0xf8, 0xf7, 0x10, 0xfa, 0x1e, 0x03, 0x01, 0x08, 0xf6, 0xef,
  0xf3, 0xc5, 0x0c, 0x09, 0xf4, 0x0d, 0x09, 0x0b, 0xe1, 0xca, 0x2d, 0xfd,
  0xfa, 0x0b, 0xf0, 0xf8, 0xd7, 0x03, 0x1f, 0x13, 0xc3, 0x08, 0x0d, 0xfc,
  0xd1, 0xde, 0x22, 0x0e, 0xf7, 0x13, 0x01, 0xf7, 0xe1, 0x08, 0x36, 0xfd,
  0xfe, 0xfe, 0x06, 0x01, 0xce, 0x2a, 0x15, 0x07, 0xaa, 0x04, 0x02, 0x07,
  0xf8, 0xc2, 0x26, 0xf6, 0xbe, 0x00, 0x16, 0x07, 0xd9, 0x0c, 0x2b, 0xf3,
  0xee, 0xf8, 0x12, 0xf9, 0x15, 0x1a, 0x25, 0xfc, 0xfb, 0x00, 0xfa, 0xfa,
  0xf9, 0x1a, 0x07, 0x0c, 0xb2, 0xf3, 0x11, 0xf9, 0xcf, 0xfe, 0x1a, 0x05,
  0xca, 0x06, 0xfd, 0x02, 0xe2, 0xfb, 0xff, 0xf3, 0x08, 0xfe, 0x04, 0x08,
  0xfa, 0xf8, 0x2e, 0xfd, 0xe4, 0xec, 0x00, 0xfc, 0xf6, 0x07, 0x1d, 0x04,
  0xef, 0x08, 0x19, 0xfc, 0xe8, 0xf0, 0xf7, 0x01, 0x10, 0xf2, 0xfd, 0x03,
  0x0b, 0xff, 0x19, 0x05, 0x38, 0xff, 0xf4, 0xef, 0xee, 0xf3, 0x11, 0x03,
  0x0f, 0x07, 0x0b, 0x08, 0x0a, 0x09, 0x17, 0xfc, 0x17, 0xf7, 0xff, 0xfe,
  0xff, 0xdb, 0xfe, 0x02, 0xfc, 0xf5, 0xf3, 0xf8, 0x1b, 0x04, 0x1e, 0x03,
  0x08, 0x07, 0xf7, 0xf8, 0xd6, 0xad, 0x0d, 0xfb, 0x02, 0x06, 0x04, 0xf3,
  0xfd, 0xad, 0x2f, 0xfe, 0x02, 0xf5, 0xfc, 0x0a, 0xd1, 0x06, 0x22, 0x03,
  0xd8, 0x07, 0x0c, 0xf2, 0xe6, 0xdd, 0x3c, 0xfe, 0xf2, 0x10, 0xf0, 0xec,
  0xf1, 0x1c, 0x3e, 0x0a, 0xfd, 0xea, 0xe9, 0x0f, 0xdc, 0x27, 0x19, 0x06,
  0xc6, 0x05, 0xf0, 0xee, 0xf5, 0xc4, 0x38, 0x0a, 0xc1, 0xf8, 0x1b, 0xff,
  0xeb, 0xff, 0x35, 0xf1, 0xe2, 0xf1, 0xed, 0xf9, 0x0a, 0xe9, 0x31, 0x02,
  0xf1, 0xf6, 0xf3, 0xf7, 0x00, 0x3b, 0x0d, 0x15, 0xde, 0xfe, 0x26, 0x06,
  0xe1, 0x1f, 0x09, 0xed, 0xd4, 0xf7, 0xf4, 0xf5, 0x03, 0xec, 0x06, 0xff,
  0xf3, 0x06, 0xf0, 0x09, 0xfd, 0x06, 0x1d, 0xfc, 0xcf, 0xfd, 0xe4, 0xfe,
  0xf5, 0x12, 0xf4, 0xf6, 0xf6, 0xfd, 0x09, 0x14, 0xef, 0xed, 0x03, 0xff,
  0xeb, 0x00, 0x03, 0xeb, 0x08, 0xf7, 0x09, 0x16, 0x1d, 0xfa, 0xef, 0xed,
  0xf7, 0x00, 0x07, 0x01, 0x17, 0x03, 0xfa, 0x05, 0x09, 0x08, 0x35, 0xeb,
  0x22, 0xee, 0xfb, 0x0c, 0x08, 0xdc, 0xd6, 0xf1, 0x08, 0x16, 0x03, 0xf2,
  0x43, 0x1e, 0x43, 0xff, 0x00, 0x08, 0xfc, 0x04, 0xda, 0xbe, 0xfc, 0xff,
  0x1f, 0x04, 0xfc, 0xf6, 0xf8, 0xcd, 0x24, 0xf7, 0xf4, 0xf8, 0x09, 0xf8,
  0xc6, 0xe9, 0x0f, 0xfb, 0xbb, 0x02, 0x06, 0x00, 0xd9, 0xed, 0x1d, 0xf4,
  0xf9, 0xfe, 0xf7, 0x13, 0xef, 0x13, 0x32, 0xf4, 0xf8, 0x04, 0x13, 0x04,
  0xd8, 0xfe, 0x23, 0x08, 0xbc, 0xfd, 0x00, 0x06, 0xef, 0xe0, 0x52, 0x04,
  0xaf, 0xf0, 0x1e, 0xf1, 0xea, 0x1d, 0x26, 0xf8, 0xe6, 0x08, 0xf5, 0xfd,
  0xfc, 0xca, 0x0c, 0xf6, 0xf5, 0x01, 0xf7, 0x00, 0xe2, 0x29, 0x0d, 0x03,
  0xe3, 0xf1, 0x0d, 0x06, 0xec, 0x10, 0x0f, 0x06, 0xda, 0xfb, 0xf7, 0xf7,
  0xec, 0xee, 0x0a, 0x01, 0x02, 0xf0, 0x01, 0x09, 0x04, 0x23, 0x00, 0xf8,
  0xd0, 0x02, 0xf8, 0x12, 0xfa, 0x00, 0xfb, 0x15, 0xf8, 0xfe, 0x0e, 0x09,
  0xf0, 0xf5, 0x14, 0xfc, 0x03, 0x0f, 0x0c, 0xf2, 0x0b, 0xe7, 0x0f, 0xfd,
  0x1b, 0x0b, 0x03, 0x05, 0x07, 0xf2, 0x07, 0x02, 0xf6, 0x0c, 0xfe, 0x04,
  0xf8, 0xfc, 0x15, 0x01, 0xfb, 0xf6, 0xfd, 0x07, 0xf4, 0xea, 0xcf, 0x06,
  0x06, 0x03, 0xee, 0xf6, 0x1f, 0x4a, 0x39, 0x01, 0xf1, 0x04, 0x09, 0xfc,
  0x11, 0xc6, 0xda, 0x08, 0x08, 0x14, 0x22, 0x01, 0x12, 0xd5, 0x40, 0x0c,
  0xe6, 0xfb, 0xf7, 0x0d, 0xb9, 0xd8, 0x21, 0xfd, 0xaf, 0x09, 0x12, 0xf2,
  0xe9, 0x11, 0x4a, 0x11, 0xce, 0x03, 0xfd, 0xfc, 0xd1, 0x0b, 0x47, 0x04,
  0xf0, 0x0a, 0xfb, 0xf9, 0xca, 0x07, 0x0b, 0xfa, 0xaf, 0xfb, 0x12, 0x05,
  0xfd, 0x01, 0x49, 0x12, 0xa5, 0x02, 0x0a, 0xea, 0xe3, 0xf7, 0xfe, 0xff,
  0xd4, 0x12, 0x10, 0x10, 0x21, 0xdc, 0x13, 0x00, 0xf5, 0xf1, 0xf1, 0xfa,
  0xc1, 0x24, 0x19, 0xf8, 0xdf, 0x05, 0x03, 0xf5, 0xdc, 0x1d, 0x02, 0x02,
  0xf1, 0xf8, 0x0a, 0xfe, 0xea, 0x01, 0xe3, 0xfc, 0xe2, 0x00, 0x00, 0xf1,
  0xec, 0x1e, 0x02, 0x12, 0xd7, 0xf5, 0xf4, 0x09, 0xfe, 0xf9, 0x0b, 0x08,
  0xe6, 0xf7, 0x07, 0xff, 0xf4, 0xfd, 0x26, 0x0b, 0x07, 0xf6, 0x1a, 0x08,
  0x00, 0xf5, 0x0d, 0x03, 0x07, 0xf7, 0xfe, 0xfa, 0x12, 0xef, 0xe8, 0x05,
  0xf7, 0xfb, 0x04, 0x0a, 0x08, 0x1c, 0xf5, 0xf7, 0xf5, 0xff, 0xf4, 0xf3,
  0x08, 0xbf, 0xbd, 0x12, 0x23, 0xf2, 0x02, 0x0d, 0x34, 0x28, 0x48, 0x0a,
  0x1f, 0xfb, 0x02, 0x0d, 0x18, 0xe5, 0xdc, 0x05, 0x28, 0xfa, 0x31, 0x14,
  0x2a, 0xc2, 0x45, 0x01, 0xf8, 0x10, 0x0a, 0xfa, 0xc2, 0xd8, 0x35, 0x10,
  0xaf, 0xfd, 0xf7, 0xee, 0x0a, 0x2f, 0x3d, 0x04, 0xc8, 0x07, 0x00, 0xfb,
  0xd9, 0x1f, 0x51, 0x0e, 0xf0, 0xfd, 0x0d, 0x09, 0xd0, 0x14, 0x01, 0xfa,
  0xb2, 0xfd, 0x0f, 0x03, 0xfb, 0x12, 0x11, 0x03, 0xb8, 0x0a, 0x05, 0x07,
  0x03, 0xfc, 0xe2, 0xfd, 0xb3, 0x06, 0x05, 0x0a, 0x11, 0xe4, 0x0d, 0x02,
  0xe2, 0xf5, 0x0f, 0xfc, 0xcd, 0x13, 0x0f, 0xf6, 0xe1, 0xf8, 0xf6, 0xf8,
  0xd6, 0x2c, 0xe4, 0xff, 0xeb, 0xf0, 0xf0, 0xf8, 0x03, 0x15, 0xd5, 0x07,
  0x00, 0x04, 0xf0, 0x16, 0x18, 0x1f, 0x12, 0x05, 0xeb, 0x09, 0xfb, 0x19,
  0x04, 0x1f, 0xff, 0x03, 0x01, 0xfb, 0x15, 0x04, 0x1f, 0xec, 0x11, 0x08,
  0x11, 0xf6, 0x08, 0xfa, 0x27, 0xdb, 0x0e, 0x0b, 0x0d, 0x0c, 0xfd, 0xfe,
  0x26, 0x06, 0xf5, 0x0a, 0xed, 0x0b, 0xfc, 0x02, 0x04, 0xf7, 0xd5, 0x0e,
  0xf8, 0x09, 0xf3, 0xf9, 0x28, 0xdb, 0xdb, 0x13, 0x0a, 0xf4, 0x01, 0x07,
  0x64, 0x43, 0x3e, 0xfd, 0x28, 0x0b, 0x02, 0xf8, 0x2d, 0xd1, 0xbe, 0x0e,
  0x06, 0x0e, 0x1b, 0xfd, 0x38, 0xb9, 0x15, 0x00, 0x21, 0xfd, 0xf8, 0xf7,
  0xd5, 0xd5, 0x06, 0x0c, 0xea, 0xef, 0x0a, 0x04, 0x0b, 0x2b, 0xfe, 0x07,
  0xa4, 0xee, 0x0a, 0xf9, 0xcc, 0x1e, 0x33, 0xee, 0xc7, 0x0f, 0x04, 0xf7,
  0xd3, 0x25, 0x16, 0xf0, 0xae, 0xfc, 0xf8, 0xfc, 0xfb, 0x2a, 0x0f, 0x00,
  0x9b, 0x0e, 0x04, 0xef, 0x08, 0x0c, 0xfe, 0xfe, 0xaf, 0xef, 0x12, 0x00,
  0x16, 0xeb, 0x1f, 0xfc, 0xd4, 0xed, 0xf6, 0x12, 0xde, 0x0c, 0x08, 0xff,
  0xe9, 0x0f, 0x10, 0xf7, 0xec, 0x0f, 0xe7, 0xf7, 0xdd, 0x0b, 0x0c, 0x01,
  0x06, 0x07, 0xe0, 0x04, 0xf8, 0x13, 0x0f, 0xfd, 0xe7, 0x35, 0x0e, 0x09,
  0xe3, 0x0b, 0xfb, 0xfb, 0xfc, 0x33, 0x21, 0x0a, 0x0a, 0xfe, 0xff, 0xfa,
  0x34, 0xf3, 0xf5, 0x16, 0x05, 0xf5, 0x02, 0x06, 0x1e, 0xf9, 0x34, 0x01,
  0x0e, 0xf7, 0x0b, 0xfb, 0x29, 0x02, 0x17, 0xf1, 0xf1, 0xf8, 0x05, 0x05,
  0xff, 0x12, 0xe7, 0x0d, 0x02, 0x06, 0x0e, 0x07, 0x21, 0xe6, 0xf2, 0x07,
  0x0b, 0x06, 0xef, 0x0c, 0x44, 0x4b, 0x28, 0xfd, 0x11, 0xf0, 0xf9, 0x02,
  0x38, 0xf6, 0xb3, 0xf6, 0x20, 0xfe, 0x10, 0xf8, 0x18, 0xa0, 0x0c, 0x13,
  0x26, 0xff, 0xf6, 0x12, 0xf5, 0x03, 0x0f, 0x07, 0xfd, 0xf3, 0xf1, 0x08,
  0xf2, 0x00, 0x05, 0xf0, 0xb5, 0x00, 0xfe, 0xfe, 0xc0, 0x11, 0x31, 0xeb,
  0xd1, 0xfe, 0x02, 0xe8, 0xdb, 0xf8, 0x17, 0xfc, 0xa7, 0xed, 0xfd, 0x02,
  0xeb, 0x1c, 0x03, 0x0e, 0x81, 0xf2, 0x02, 0x03, 0xf6, 0x15, 0xc9, 0x0e,
  0xc3, 0xfe, 0x15, 0xf7, 0x17, 0xd2, 0x04, 0x0e, 0xd8, 0xf1, 0x0f, 0x04,
  0xf7, 0x06, 0xe6, 0xf1, 0xf8, 0x09, 0xf8, 0xef, 0x09, 0x11, 0x00, 0x04,
  0xea, 0xfb, 0x04, 0xf9, 0xf0, 0x03, 0x0f, 0x04, 0xce, 0xff, 0x01, 0x0a,
  0xef, 0x36, 0xf1, 0x08, 0xdc, 0xfc, 0x06, 0x04, 0x01, 0x38, 0x3b, 0xfa,
  0x19, 0x03, 0x09, 0x03, 0x1d, 0x09, 0xd3, 0x12, 0x10, 0xfe, 0xf0, 0xf2,
  0x27, 0xe3, 0x22, 0x04, 0x1d, 0xf2, 0x05, 0x03, 0x10, 0x3b, 0x0b, 0x08,
  0xe9, 0x01, 0x00, 0x06, 0x16, 0x1f, 0xdb, 0x0d, 0x0d, 0xee, 0xff, 0x01,
  0x41, 0x04, 0x16, 0x06, 0x16, 0x0b, 0xfc, 0xee, 0x49, 0x5f, 0x14, 0xfa,
  0x0a, 0xff, 0x03, 0x0d, 0x33, 0x0d, 0xad, 0xf3, 0x0d, 0x03, 0x08, 0xfb,
  0x1c, 0xb9, 0xef, 0x10, 0x22, 0x05, 0x09, 0x11, 0x06, 0xf8, 0xf1, 0x01,
  0x0b, 0x04, 0x05, 0xf7, 0xfd, 0xec, 0x04, 0x08, 0x20, 0x03, 0xff, 0x00,
  0x00, 0xd5, 0xfe, 0xff, 0xb2, 0xfb, 0xf9, 0xf2, 0x15, 0xdd, 0x07, 0xf0,
  0xe7, 0x02, 0xe2, 0x15, 0x0b, 0xd9, 0xf8, 0xf4, 0x27, 0x03, 0xe8, 0xf9,
  0xfc, 0xd8, 0x01, 0xff, 0xfb, 0x01, 0x10, 0xf1, 0x03, 0xda, 0xf9, 0x00,
  0xfe, 0x05, 0x0a, 0x01, 0x08, 0xf1, 0xf0, 0xfe, 0xf6, 0x11, 0x05, 0x06,
  0xfa, 0xec, 0xfe, 0xf9, 0xfd, 0xfb, 0x08, 0xfa, 0x03, 0xfe, 0xf6, 0x10,
  0xf4, 0x03, 0x01, 0x10, 0xf8, 0xee, 0xfa, 0x05, 0xf3, 0xf6, 0x18, 0xf8,
  0xfe, 0xf2, 0x00, 0x12, 0xf7, 0xfb, 0x12, 0x0f, 0xfd, 0x07, 0xeb, 0xf3,
  0x06, 0x02, 0x0d, 0xff, 0x00, 0xf4, 0xec, 0x07, 0xf6, 0xfd, 0xf7, 0x0e,
  0x07, 0xf2, 0xf9, 0x0e, 0x10, 0xf9, 0x13, 0x00, 0xf4, 0xe6, 0xfe, 0xf8,
  0xfe, 0xfa, 0x09, 0xfd, 0x0a, 0xd6, 0xf6, 0xf0, 0xe4, 0xed, 0x03, 0x0a,
  0x05, 0xf0, 0x02, 0xfb, 0xf9, 0x03, 0xf7, 0xfe, 0xf5, 0xf1, 0xff, 0xf4,
  0xef, 0x04, 0xf0, 0x0e, 0xfe, 0xf3, 0x07, 0xfb, 0x01, 0xf2, 0xde, 0xf6,
  0x05, 0xea, 0x0f, 0xff, 0xd8, 0xf7, 0xe0, 0x0a, 0xfa, 0xef, 0xfb, 0xf2,
  0x18, 0xf4, 0x04, 0x03, 0x0d, 0xea, 0xfd, 0x06, 0xa9, 0xfa, 0xe5, 0x12,
  0x00, 0x09, 0xf9, 0xfc, 0xbf, 0xf4, 0xf0, 0x13, 0x01, 0xf8, 0xfd, 0xf4,
  0x16, 0xf0, 0xed, 0x0f, 0xf7, 0xd1, 0xfa, 0x0f, 0x0a, 0xfa, 0x0b, 0x10,
  0xf2, 0xf3, 0xea, 0xef, 0x33, 0xeb, 0xf4, 0x05, 0xeb, 0x02, 0xec, 0x07,
  0x09, 0xf4, 0xf4, 0xfc, 0x05, 0xf7, 0xf7, 0xfa, 0x0b, 0xfe, 0x02, 0x05,
  0xeb, 0x02, 0xf4, 0x02, 0xd3, 0xf6, 0x00, 0x0a, 0x08, 0xf8, 0x01, 0x0c,
  0x0c, 0x00, 0x12, 0xf8, 0x00, 0x06, 0xff, 0x0e, 0x08, 0xfa, 0xfa, 0x12,
  0xfa, 0x0e, 0xfe, 0x02, 0xe5, 0xf2, 0x0e, 0xfa, 0x0f, 0xfa, 0xf0, 0x10,
  0xde, 0xe6, 0x04, 0x0d, 0xff, 0xfd, 0x0a, 0x0d, 0x06, 0xf2, 0xeb, 0x07,
  0xfa, 0x05, 0xfc, 0xf7, 0xed, 0x00, 0x0d, 0xff, 0xf1, 0xfd, 0xf3, 0xfb,
  0xc9, 0x0b, 0xfc, 0xfd, 0x06, 0x0d, 0xfb, 0xf7, 0x20, 0x04, 0x0e, 0x02,
  0x04, 0xe8, 0xf4, 0xfe, 0xea, 0xf8, 0x02, 0x02, 0x04, 0xe0, 0x00, 0xf9,
  0x0e, 0xff, 0xf3, 0x01, 0xf4, 0x1a, 0xf8, 0xff, 0x0e, 0xf2, 0xfd, 0x01,
  0xe1, 0xdb, 0xf5, 0xfb, 0x18, 0x0e, 0xfe, 0x04, 0xf3, 0xcc, 0xf3, 0xfb,
  0xb7, 0xea, 0xf3, 0xf4, 0xfc, 0xfd, 0xf9, 0x02, 0xd3, 0xfd, 0xe9, 0x0e,
  0xf2, 0x15, 0xec, 0x05, 0x15, 0xfe, 0xef, 0x00, 0xf5, 0xf3, 0xe6, 0xfc,
  0xef, 0xef, 0xf0, 0x07, 0xec, 0x05, 0xe9, 0xf5, 0x1e, 0xf9, 0xf5, 0x19,
  0x06, 0x1c, 0xf2, 0x05, 0x0a, 0xe7, 0xfa, 0xf9, 0x0c, 0x1b, 0xfc, 0x00,
  0xed, 0xfb, 0x04, 0x07, 0xfa, 0x0d, 0xfd, 0xfd, 0xd3, 0xf2, 0xff, 0x15,
  0xf1, 0x1d, 0xf0, 0x0a, 0x02, 0xfd, 0x0d, 0x0a, 0xfc, 0xe6, 0xf5, 0xfd,
  0xf2, 0x06, 0x06, 0x04, 0xfd, 0x24, 0xfe, 0xfb, 0x05, 0xf9, 0xfb, 0x18,
  0xf7, 0x0c, 0xfd, 0x12, 0xd4, 0xf3, 0xf1, 0x18, 0x02, 0x32, 0xfe, 0xf3,
  0x06, 0xea, 0xfd, 0x1b, 0x05, 0x1d, 0xfa, 0x0a, 0xe7, 0xfd, 0x0d, 0x1c,
  0xf7, 0x00, 0xf7, 0x0b, 0x05, 0x09, 0x0d, 0x1c, 0x01, 0x23, 0xe8, 0xfa,
  0x0e, 0xfb, 0x01, 0xff, 0xed, 0xd4, 0x13, 0xfb, 0x14, 0x0a, 0xe7, 0x03,
  0x05, 0xbd, 0xf9, 0xf6, 0x06, 0x07, 0xf9, 0x0e, 0xdb, 0x08, 0xfa, 0x08,
  0x11, 0xf1, 0xf1, 0xff, 0xdc, 0xd8, 0xd7, 0x00, 0xf1, 0x08, 0xf9, 0xfa,
  0xf2, 0xde, 0xf0, 0x06, 0xd7, 0xfc, 0xdf, 0x05, 0x13, 0xe4, 0xf4, 0xfb,
  0xf9, 0x00, 0xee, 0x07, 0xfe, 0xef, 0xfa, 0x0a, 0x17, 0xf3, 0xfb, 0x16,
  0x01, 0x05, 0x06, 0x02, 0xf4, 0xec, 0xfb, 0x06, 0xfd, 0x0f, 0xf9, 0xf4,
  0xf8, 0xfd, 0x02, 0x07, 0x08, 0x10, 0x10, 0xf3, 0xfb, 0xeb, 0xfa, 0x08,
  0x05, 0x3b, 0x01, 0xfe, 0xe0, 0x00, 0xf6, 0x11, 0x02, 0x25, 0x07, 0x0b,
  0xf2, 0x02, 0xec, 0xf5, 0xfe, 0x16, 0x09, 0xfc, 0x0f, 0x07, 0x04, 0xff,
  0x12, 0x0a, 0xf6, 0xff, 0x1b, 0xfc, 0xec, 0x00, 0x13, 0x12, 0xf4, 0xf0,
  0x04, 0x09, 0xec, 0xff, 0x0a, 0xfa, 0x13, 0xfd, 0xe6, 0x01, 0xf8, 0x0b,
  0x0f, 0x41, 0x01, 0xfd, 0x01, 0xfe, 0xf5, 0xfb, 0xfc, 0x2f, 0x0a, 0x03,
  0xe9, 0xf2, 0xe4, 0x01, 0xf2, 0x0e, 0xf3, 0xed, 0xf8, 0xf8, 0xe4, 0x11,
  0xdc, 0xfa, 0x13, 0x00, 0xf5, 0xff, 0xf2, 0x0b, 0xe8, 0xfe, 0x2f, 0xf9,
  0x01, 0x10, 0xf4, 0x0f, 0x0d, 0xed, 0xfe, 0xfa, 0x16, 0xed, 0xf6, 0x05,
  0xc0, 0x05, 0x00, 0xec, 0x1a, 0x03, 0xf9, 0x00, 0x1d, 0xe8, 0xd1, 0xf5,
  0xd8, 0x12, 0x07, 0x0a, 0xfe, 0xf7, 0xf6, 0xf6, 0xe7, 0x00, 0xf5, 0x0c,
  0x04, 0xd1, 0xea, 0x09, 0x23, 0x07, 0xfc, 0xfe, 0xf3, 0xfc, 0xc6, 0x08,
  0x1c, 0x04, 0xff, 0x03, 0xf5, 0x0f, 0xf8, 0x13, 0x14, 0x00, 0x0e, 0x04,
  0xf7, 0x10, 0xee, 0x00, 0x03, 0xfa, 0xfc, 0x15, 0x0c, 0xf2, 0xf5, 0xfc,
  0xdd, 0xf4, 0xfa, 0x06, 0x06, 0x20, 0x14, 0x01, 0xf5, 0xfd, 0xf4, 0x14,
  0xfd, 0x0a, 0x16, 0x02, 0x1e, 0x07, 0xf9, 0x18, 0x01, 0xf0, 0x11, 0xfc,
  0x10, 0x05, 0xfb, 0x08, 0x19, 0xe9, 0xf5, 0xf2, 0x1b, 0xfd, 0x00, 0x16,
  0x0a, 0xf8, 0x16, 0xfa, 0xfd, 0xff, 0xfd, 0x0d, 0x0f, 0xf2, 0x09, 0x03,
  0x0d, 0x03, 0x02, 0xf8, 0x0a, 0x36, 0x0d, 0xef, 0x2e, 0x04, 0xfb, 0x0a,
  0xea, 0x18, 0x19, 0x05, 0x46, 0xf8, 0xfb, 0x1a, 0xfb, 0x17, 0xf7, 0x08,
  0x07, 0xfc, 0x06, 0x17, 0xf4, 0x0d, 0xf8, 0x06, 0x24, 0xf9, 0x00, 0x18,
  0xe6, 0x02, 0x3f, 0x04, 0x33, 0x04, 0xfa, 0x14, 0x09, 0x07, 0xf0, 0xf0,
  0x2a, 0xfc, 0xfb, 0x01, 0xc5, 0x17, 0xfd, 0xfa, 0x3a, 0x03, 0x09, 0x00,
  0x32, 0xf0, 0xad, 0x09, 0xf3, 0xf7, 0x09, 0xf9, 0xf7, 0xe7, 0xf2, 0x07,
  0xd7, 0xfc, 0xfc, 0x07, 0x07, 0xdf, 0xdb, 0xfe, 0x2c, 0x00, 0xf2, 0xf6,
  0xe2, 0x08, 0xbf, 0x0a, 0x2c, 0x04, 0xfb, 0x1b, 0x16, 0x12, 0xe2, 0x00,
  0x28, 0x0c, 0xf5, 0xfe, 0x09, 0x05, 0xcf, 0xfc, 0x18, 0x0c, 0x03, 0xf7,
  0xff, 0x04, 0xdc, 0x05, 0xea, 0xfb, 0x06, 0xff, 0xf8, 0xe9, 0x17, 0x02,
  0x19, 0x11, 0xfc, 0x02, 0x0f, 0x2a, 0xff, 0xfa, 0x27, 0xf1, 0xf2, 0x0e,
  0x06, 0xf8, 0xee, 0xf0, 0x0b, 0x02, 0x00, 0x0c, 0x13, 0xed, 0xeb, 0xf9,
  0x25, 0xea, 0x01, 0x02, 0xff, 0x00, 0x2f, 0x00, 0xf8, 0x03, 0xf8, 0x08,
  0x11, 0xcf, 0x1a, 0xfa, 0xef, 0xf7, 0xe5, 0x12, 0x0c, 0x3c, 0x1e, 0x0e,
  0x18, 0xeb, 0xfd, 0x0f, 0xf6, 0x0e, 0x11, 0x10, 0x3d, 0xf0, 0x0a, 0x00,
  0xfe, 0x3e, 0x06, 0xeb, 0x04, 0xe7, 0xfd, 0x09, 0xee, 0x23, 0x05, 0xf6,
  0x33, 0xfb, 0x05, 0xfe, 0x07, 0x0e, 0x3c, 0x05, 0x15, 0x07, 0x01, 0xf8,
  0xff, 0x17, 0xfb, 0xf9, 0x1c, 0xf7, 0x05, 0xf3, 0xc3, 0xf7, 0xf5, 0xf7,
  0x17, 0xfd, 0xf9, 0xfa, 0x45, 0xd4, 0xba, 0x06, 0x0d, 0xfc, 0xfb, 0x0c,
  0xfa, 0xfa, 0xe7, 0xf2, 0xe5, 0xfa, 0xf2, 0x11, 0x09, 0x04, 0xe7, 0xf6,
  0x27, 0xff, 0xf1, 0xf9, 0xe6, 0xf0, 0xd0, 0xf5, 0x32, 0xed, 0xff, 0x09,
  0x02, 0x13, 0xd4, 0xfe, 0x33, 0xf0, 0xfd, 0xfa, 0xf7, 0xfe, 0xd7, 0x00,
  0x08, 0xf3, 0xff, 0x01, 0xf8, 0x0d, 0xe0, 0x02, 0xde, 0x01, 0x03, 0xfb,
  0xf6, 0xd6, 0x1f, 0xff, 0x08, 0xf8, 0xf4, 0xfb, 0xf7, 0x37, 0xee, 0xf9,
  0x3d, 0x12, 0xf5, 0x07, 0x01, 0xe7, 0xe2, 0x05, 0xec, 0x00, 0x07, 0x15,
  0x23, 0x0b, 0xe8, 0xf1, 0x33, 0xfa, 0x01, 0xfe, 0x0b, 0xea, 0x13, 0xf7,
  0x02, 0xfe, 0x02, 0x0b, 0x0a, 0xe1, 0x07, 0xfb, 0xdf, 0xf7, 0x01, 0x08,
  0x01, 0x48, 0x17, 0x04, 0x2c, 0xec, 0x01, 0xef, 0x05, 0x05, 0x2d, 0x0a,
  0x28, 0xff, 0xfc, 0x0c, 0x0d, 0x30, 0x14, 0x07, 0xfb, 0xfd, 0xfd, 0x0f,
  0xe0, 0x17, 0x18, 0xf6, 0x0a, 0x07, 0xf7, 0x07, 0xfa, 0xf0, 0x3f, 0xfd,
  0x25, 0xf0, 0x06, 0x0c, 0x0d, 0xe7, 0xfe, 0xf3, 0x00, 0x05, 0x07, 0x04,
  0xd9, 0x12, 0x00, 0x0a, 0x21, 0xef, 0xfe, 0x02, 0x3d, 0xe1, 0xd0, 0xfa,
  0x2b, 0xf2, 0x0e, 0x10, 0xed, 0x00, 0xcb, 0xf8, 0xe0, 0x09, 0xf2, 0x02,
  0x1f, 0xff, 0x07, 0xeb, 0x1e, 0x09, 0xf6, 0x08, 0xfd, 0x0f, 0xf7, 0xfa,
  0x41, 0xed, 0xfc, 0x07, 0x09, 0xfd, 0xdd, 0xf1, 0x41, 0x10, 0xfd, 0xfc,
  0xec, 0x03, 0xf5, 0xf0, 0xf1, 0xff, 0xfe, 0x01, 0x08, 0x03, 0x0b, 0x0f,
  0xea, 0xf3, 0x06, 0xf5, 0x0c, 0xf4, 0x19, 0x06, 0x2b, 0x07, 0xdf, 0xf6,
  0x0c, 0x3c, 0xfe, 0xfd, 0x22, 0x00, 0xf6, 0x04, 0x05, 0xf0, 0xee, 0xf7,
  0xf6, 0x0c, 0x02, 0x0a, 0x1a, 0x16, 0xe6, 0xfa, 0x25, 0xe8, 0x09, 0x06,
  0xff, 0x02, 0xf2, 0x0b, 0xe2, 0x0d, 0xf9, 0xfc, 0x1c, 0xf6, 0x0f, 0x03,
  0xea, 0xfc, 0xf5, 0xfa, 0x23, 0x27, 0x12, 0x05, 0x12, 0x02, 0xf0, 0x0a,
  0xed, 0x0a, 0x31, 0xf3, 0x31, 0xf4, 0x0e, 0xfa, 0xfe, 0x2d, 0x0d, 0x0b,
  0x04, 0x02, 0xf7, 0x07, 0xe5, 0x1a, 0xf8, 0x00, 0x05, 0xf7, 0xe4, 0x02,
  0x05, 0xce, 0x22, 0xf8, 0x3c, 0xfc, 0xec, 0xfd, 0x07, 0xe6, 0x0e, 0xfc,
  0x2e, 0xf2, 0x01, 0xf7, 0xd0, 0xfe, 0x16, 0xfe, 0x2a, 0x0d, 0xe4, 0x05,
  0x25, 0xe7, 0xd7, 0xfc, 0x31, 0x0b, 0x0a, 0x06, 0xf5, 0x17, 0xc9, 0x07,
  0xd9, 0xf5, 0xfe, 0x01, 0x06, 0xe0, 0x18, 0xfe, 0x00, 0x08, 0xfa, 0xfc,
  0xf3, 0x24, 0xfa, 0xeb, 0x45, 0x02, 0xe7, 0x02, 0x05, 0xe4, 0xfe, 0xf8,
  0x1b, 0xea, 0xfe, 0x00, 0xf9, 0x08, 0x0f, 0x09, 0xf2, 0x0a, 0xec, 0xf4,
  0x1b, 0xe8, 0x11, 0x16, 0xfe, 0xf7, 0xfb, 0xf2, 0x0d, 0xf9, 0xf2, 0x0d,
  0x19, 0xf5, 0xe8, 0xfe, 0xfa, 0x22, 0xee, 0x0b, 0x29, 0x10, 0xf2, 0xec,
  0x12, 0xd6, 0xff, 0xf1, 0xf9, 0x07, 0xfc, 0x0c, 0xfe, 0x1b, 0xee, 0xf8,
  0x11, 0x09, 0xf9, 0x0d, 0x11, 0x08, 0xfd, 0xe9, 0xf7, 0x00, 0xeb, 0xfc,
  0x1e, 0xfc, 0x2f, 0x03, 0xfe, 0xfc, 0x01, 0xf8, 0x19, 0x1f, 0x25, 0x06,
  0xef, 0xfb, 0xf4, 0x02, 0x0b, 0x00, 0x1a, 0xed, 0x24, 0x05, 0xe9, 0xec,
  0x22, 0x31, 0xe8, 0x02, 0x2a, 0x0c, 0x05, 0x07, 0xfe, 0xf3, 0xda, 0x0c,
  0xe5, 0xef, 0xf6, 0xfe, 0x13, 0xd8, 0x0b, 0x04, 0x2a, 0x00, 0xff, 0x12,
  0xfd, 0x1f, 0x24, 0x08, 0x51, 0xfc, 0x01, 0xf7, 0xdd, 0x08, 0x10, 0xf0,
  0xfa, 0x04, 0xf3, 0x06, 0x3b, 0xef, 0xd2, 0xf2, 0x2d, 0xf0, 0x01, 0xf8,
  0xf0, 0xe2, 0xcc, 0xf7, 0xe0, 0xfc, 0xf0, 0x00, 0xf6, 0xf0, 0x11, 0xfb,
  0x04, 0xf7, 0xe4, 0xf8, 0xf7, 0x43, 0x03, 0x07, 0x2a, 0xfe, 0xf4, 0x07,
  0x11, 0xed, 0x01, 0x06, 0xfb, 0x0b, 0xe5, 0x06, 0x10, 0x10, 0x1b, 0xf4,
  0xdb, 0x05, 0xea, 0xf4, 0x18, 0xfe, 0x13, 0xea, 0xf0, 0x0d, 0xfb, 0x05,
  0x0d, 0x19, 0x0c, 0xed, 0x39, 0x03, 0xfb, 0x09, 0x09, 0x36, 0xf2, 0xed,
  0x33, 0xfd, 0xdf, 0x03, 0x0f, 0xd4, 0x09, 0xfe, 0x0c, 0xf3, 0xf9, 0x0c,
  0x15, 0x2e, 0xf3, 0xf2, 0x16, 0x0b, 0xdf, 0x11, 0x04, 0xfa, 0xeb, 0xfb,
  0xea, 0x02, 0xed, 0x0a, 0x1b, 0x06, 0x31, 0x03, 0xfc, 0xf7, 0xf3, 0x06,
  0x1d, 0x06, 0x41, 0xf4, 0xf8, 0x06, 0xed, 0x0e, 0x00, 0x0a, 0x04, 0x00,
  0xfb, 0xf7, 0xea, 0xf3, 0x23, 0x3d, 0xda, 0xfa, 0x23, 0x02, 0xee, 0xfd,
  0xfa, 0x18, 0xd4, 0x02, 0xeb, 0x02, 0xde, 0x0d, 0x0e, 0xc6, 0xee, 0xe9,
  0x2b, 0x09, 0xf2, 0x02, 0xf7, 0x1a, 0x24, 0xf5, 0x32, 0xe6, 0x00, 0x0b,
  0xed, 0xcc, 0x11, 0x07, 0x0a, 0xf0, 0xde, 0x08, 0x1b, 0xe6, 0xe7, 0x04,
  0x1f, 0x05, 0xfc, 0x0c, 0x0a, 0xe9, 0xd9, 0x14, 0xea, 0xfc, 0xf7, 0xfd,
  0xe8, 0xdf, 0xf4, 0x0c, 0x17, 0x02, 0xf8, 0xf5, 0x20, 0x4c, 0xee, 0x02,
  0x27, 0xfd, 0xe4, 0x0e, 0x1b, 0x0b, 0xf3, 0xfc, 0x23, 0x05, 0xe5, 0xfa,
  0x11, 0x00, 0x10, 0xff, 0xd7, 0x01, 0x0e, 0x05, 0x15, 0x2e, 0x0a, 0xfd,
  0xf5, 0xf7, 0xf6, 0x00, 0xf0, 0x07, 0xfb, 0x04, 0x22, 0xff, 0x03, 0x0b,
  0xf6, 0x33, 0x08, 0x0c, 0x28, 0x05, 0x07, 0x08, 0x1d, 0xda, 0x18, 0x0d,
  0xfd, 0x03, 0xf9, 0xfc, 0x05, 0x2c, 0xf1, 0xfe, 0x27, 0x04, 0xee, 0xf4,
  0x07, 0xd8, 0xda, 0xfb, 0xe1, 0xfc, 0xf3, 0xfe, 0x21, 0x22, 0x16, 0x04,
  0x0d, 0xef, 0xd4, 0x13, 0x13, 0x05, 0x40, 0x08, 0xf9, 0xf9, 0x02, 0x05,
  0x04, 0x30, 0x11, 0xf8, 0x1b, 0xfc, 0xdd, 0xf2, 0x47, 0x1b, 0x00, 0x07,
  0x19, 0x0d, 0xed, 0x0d, 0xfa, 0x0e, 0xc0, 0xf4, 0xfa, 0x00, 0xf4, 0x0a,
  0xfa, 0xd4, 0xf2, 0xfb, 0x3d, 0xff, 0x08, 0x0b, 0x2f, 0x1d, 0x12, 0xf5,
  0x13, 0xf4, 0xf2, 0x08, 0x12, 0xc4, 0xef, 0xfa, 0x04, 0xfe, 0xf4, 0xfb,
  0x22, 0xec, 0xe3, 0xfd, 0x21, 0xfb, 0xfd, 0xf5, 0x0b, 0xe8, 0xe7, 0x02,
  0xd9, 0x0a, 0xfd, 0xf7, 0xeb, 0xdc, 0xc6, 0xfc, 0x19, 0x04, 0xf5, 0xf8,
  0x0a, 0x4e, 0xe5, 0x0e, 0x24, 0x0e, 0xc8, 0x08, 0x10, 0x05, 0x0b, 0x03,
  0x2a, 0x08, 0xf6, 0x0a, 0xfe, 0x0a, 0xea, 0x09, 0xea, 0x02, 0x0d, 0xfe,
  0x00, 0x26, 0xf7, 0xfe, 0xe8, 0x02, 0xf5, 0xf9, 0x10, 0xdb, 0xd6, 0x03,
  0x2b, 0xf6, 0xfb, 0x08, 0x11, 0x33, 0x03, 0x08, 0x13, 0xf6, 0x04, 0xfe,
  0x1a, 0xd4, 0x0a, 0xf8, 0xf6, 0xfe, 0x06, 0x12, 0x24, 0x22, 0xfc, 0xfa,
  0x1a, 0xeb, 0xee, 0xff, 0x0a, 0x07, 0xdd, 0xfa, 0xfc, 0xf1, 0xe6, 0xfd,
  0x10, 0x38, 0xf3, 0xed, 0xed, 0x05, 0xea, 0x07, 0x0c, 0x09, 0x1b, 0xff,
  0xfb, 0xf7, 0xdd, 0xfc, 0xd9, 0x29, 0x0d, 0xf0, 0x0e, 0xf0, 0xe7, 0xf5,
  0x50, 0x16, 0x25, 0x03, 0x1f, 0x00, 0xf7, 0x01, 0x01, 0x3e, 0xcc, 0xf7,
  0xe1, 0x00, 0xef, 0xfb, 0x1b, 0xdd, 0xe1, 0xe9, 0x38, 0xf3, 0xff, 0x05,
  0x09, 0x23, 0x09, 0xfe, 0x06, 0x06, 0xf3, 0x0f, 0x13, 0xb9, 0x10, 0x0a,
  0xf1, 0xf9, 0xee, 0xfa, 0x2b, 0xf9, 0xf0, 0x05, 0x11, 0x12, 0x02, 0x02,
  0x00, 0xf3, 0xfe, 0xfe, 0xee, 0xfd, 0xe7, 0xf7, 0xfc, 0xcf, 0xc9, 0xfe,
  0x2d, 0xf7, 0xfd, 0xf5, 0xef, 0x2f, 0xf6, 0x08, 0x2e, 0x07, 0xd8, 0xfb,
  0x0d, 0x16, 0x04, 0x02, 0x07, 0x01, 0xeb, 0x10, 0xfa, 0x0c, 0xdc, 0xfb,
  0xf3, 0xfb, 0xf9, 0xfe, 0x0a, 0x2b, 0xe1, 0x00, 0x1e, 0xfc, 0xec, 0x0a,
  0x08, 0xf7, 0xc7, 0x04, 0x16, 0x0e, 0xf1, 0xf2, 0x0c, 0x0b, 0x18, 0x04,
  0x09, 0x12, 0x09, 0x05, 0x25, 0xfd, 0x0b, 0xf2, 0x09, 0x01, 0x09, 0xff,
  0x1f, 0x2f, 0xf6, 0x05, 0x0f, 0xef, 0xf5, 0x02, 0x0d, 0xfc, 0xf0, 0xff,
  0xee, 0xfa, 0xde, 0xff, 0x11, 0x3d, 0xf7, 0xf7, 0xf6, 0x0a, 0xef, 0x09,
  0x27, 0xe3, 0x24, 0x11, 0x00, 0xf2, 0xf3, 0x00, 0x11, 0x3f, 0xf2, 0xfb,
  0x05, 0xf6, 0xf7, 0xe8, 0x6d, 0x1b, 0x08, 0xf6, 0x1f, 0xff, 0xfa, 0x05,
  0x11, 0x45, 0xcb, 0x08, 0xee, 0xf2, 0xfc, 0xff, 0x0b, 0xe8, 0xda, 0x0a,
  0x2a, 0xfb, 0xfb, 0xff, 0x06, 0xfb, 0xf7, 0xee, 0x09, 0x0e, 0x02, 0xfa,
  0x13, 0xcf, 0xe6, 0x0a, 0xed, 0xf9, 0xeb, 0xf2, 0x22, 0x04, 0xfd, 0x03,
  0x26, 0xfa, 0xf3, 0x06, 0xfb, 0xfb, 0x0c, 0x07, 0xd8, 0xfe, 0x01, 0x04,
  0x0c, 0xd9, 0xca, 0xfe, 0x31, 0xfb, 0xf3, 0x0f, 0xfb, 0x08, 0xcb, 0xf6,
  0x27, 0xf2, 0xef, 0x02, 0x04, 0x09, 0x1c, 0x0b, 0x15, 0xf8, 0xf1, 0x03,
  0x00, 0x04, 0xda, 0xfe, 0x0e, 0x05, 0x0a, 0x04, 0x29, 0x36, 0xed, 0x02,
  0x1a, 0xf8, 0x02, 0x02, 0x3c, 0x00, 0xd3, 0x15, 0x37, 0xf3, 0xea, 0xf7,
  0x13, 0x29, 0x1f, 0xfd, 0xf4, 0x09, 0x15, 0xf0, 0x37, 0xeb, 0x07, 0x04,
  0x0c, 0xf5, 0xfa, 0xe9, 0x2d, 0x38, 0xf3, 0x06, 0x05, 0xfb, 0xe5, 0x13,
  0xf3, 0xee, 0xe9, 0x0a, 0xf8, 0xfd, 0xda, 0xfb, 0x23, 0x51, 0xee, 0x00,
  0x00, 0x10, 0xed, 0x04, 0x2f, 0xef, 0x15, 0x07, 0x08, 0x00, 0xfd, 0x07,
  0xf9, 0x38, 0xf7, 0xf9, 0xfa, 0xfd, 0xe9, 0xfe, 0x46, 0x24, 0x1e, 0xf4,
  0x14, 0x06, 0xec, 0xff, 0x08, 0x33, 0xdf, 0xf8, 0xeb, 0x0d, 0xf9, 0xfd,
  0x17, 0xff, 0xf2, 0x00, 0x29, 0x08, 0xdf, 0xfe, 0xfe, 0x10, 0xff, 0x01,
  0x02, 0x05, 0xf8, 0x0a, 0x18, 0xc6, 0xec, 0xfa, 0x07, 0x09, 0xf8, 0x04,
  0x45, 0x0b, 0x13, 0xff, 0x2e, 0x10, 0x05, 0x05, 0x04, 0xed, 0xd8, 0x04,
  0x00, 0x03, 0x11, 0x09, 0x20, 0xce, 0xe9, 0xfb, 0x53, 0xf8, 0x00, 0xfc,
  0x13, 0x0f, 0xcb, 0x07, 0x3c, 0xf9, 0xd6, 0xf1, 0x0f, 0xdf, 0x03, 0x04,
  0x11, 0x13, 0xf3, 0x01, 0xfa, 0x00, 0xd8, 0xf8, 0x01, 0xff, 0xfd, 0x0e,
  0x28, 0x2e, 0xe5, 0x0c, 0x37, 0xfc, 0x05, 0xf9, 0x0c, 0x09, 0xd4, 0xfa,
  0x2c, 0x06, 0x01, 0xff, 0x02, 0xf9, 0x11, 0x0c, 0xf2, 0x0a, 0x18, 0x0c,
  0x1a, 0xf8, 0x20, 0xfb, 0x05, 0x0b, 0x07, 0xf1, 0x2c, 0x2e, 0xe8, 0x0c,
  0x21, 0xf7, 0xfa, 0x03, 0xfa, 0xf9, 0x11, 0xf7, 0xf9, 0x01, 0xea, 0xfa,
  0x24, 0x34, 0xda, 0xff, 0xe6, 0xf9, 0xf1, 0x01, 0x25, 0x02, 0xf7, 0x05,
  0x04, 0x04, 0xf1, 0xfe, 0x0b, 0x48, 0x06, 0xf2, 0xee, 0xf6, 0xf9, 0xf5,
  0x35, 0x0e, 0x12, 0x0a, 0x01, 0xfe, 0xed, 0x08, 0xe6, 0x3a, 0xe4, 0xf1,
  0xee, 0xfd, 0xf6, 0x0b, 0xf7, 0x07, 0xe5, 0xfd, 0x26, 0xec, 0xe4, 0xfd,
  0xf7, 0x29, 0xf9, 0xfd, 0xe6, 0x07, 0xf9, 0x01, 0x09, 0xc6, 0xf2, 0xf5,
  0x0c, 0xff, 0x04, 0xf2, 0x40, 0x2d, 0x01, 0x0c, 0x1f, 0x09, 0x03, 0x0e,
  0xfd, 0x07, 0xb6, 0x0d, 0xf3, 0xff, 0x00, 0xfb, 0x12, 0xdb, 0xfb, 0xf4,
  0x74, 0xff, 0xec, 0x07, 0x12, 0x25, 0xdb, 0x02, 0x36, 0x01, 0xe1, 0xf6,
  0xff, 0xd6, 0x16, 0xf6, 0x09, 0x0d, 0xfb, 0x02, 0xf6, 0xe3, 0xdc, 0xf7,
  0x0c, 0xfe, 0xfc, 0xf7, 0x17, 0x12, 0xec, 0xff, 0x44, 0x08, 0xf4, 0x0b,
  0x2a, 0x11, 0xdc, 0xf6, 0x2a, 0x0a, 0xf6, 0x16, 0x14, 0x1f, 0xf8, 0xfa,
  0xde, 0x00, 0xf2, 0xfd, 0x0e, 0x0c, 0x25, 0x0a, 0xec, 0x02, 0x0b, 0xff,
  0x1f, 0x1b, 0xe9, 0xfd, 0x20, 0x03, 0xed, 0x02, 0x06, 0x16, 0x02, 0x03,
  0x03, 0xfc, 0xf5, 0xff, 0x16, 0x33, 0xf1, 0xf7, 0xe9, 0x08, 0xfc, 0xfe,
  0x2c, 0xfe, 0xe4, 0x03, 0x11, 0xfa, 0xf0, 0xf6, 0x00, 0x2f, 0xf2, 0xfc,
  0x0e, 0xf9, 0x01, 0x11, 0x22, 0x1e, 0x04, 0xf7, 0x01, 0x09, 0xf8, 0xfb,
  0xe9, 0x3a, 0x01, 0xff, 0xec, 0x0d, 0xf0, 0x07, 0x0f, 0x14, 0xd5, 0xfb,
  0x1c, 0x00, 0xf3, 0xf8, 0x20, 0x23, 0x08, 0xf4, 0xf4, 0x02, 0x00, 0xf9,
  0x17, 0xca, 0xf3, 0xf6, 0x0d, 0xfa, 0xe6, 0xff, 0x3d, 0x35, 0xf6, 0x01,
  0x25, 0x00, 0x09, 0xfd, 0x16, 0x00, 0xd0, 0xf1, 0xf0, 0x09, 0xef, 0xf9,
  0x0b, 0x0c, 0x26, 0xf7, 0x64, 0xfa, 0xe4, 0x13, 0xf6, 0x16, 0xce, 0x09,
  0x2f, 0xf7, 0xc8, 0x07, 0xf6, 0xee, 0xfb, 0x09, 0xf9, 0xff, 0xf1, 0x02,
  0xe9, 0x08, 0xdf, 0x0d, 0x08, 0x09, 0x13, 0xee, 0x10, 0xf5, 0xfe, 0xf5,
  0x3c, 0x07, 0xf5, 0xf9, 0x3c, 0xf9, 0xef, 0xfa, 0x43, 0xfa, 0xe1, 0xfe,
  0x11, 0x13, 0xee, 0x0a, 0xf3, 0xef, 0x0b, 0xfb, 0xfa, 0x0c, 0x20, 0x0c,
  0xfa, 0xfe, 0x03, 0x02, 0x17, 0x16, 0xc6, 0x07, 0x1c, 0xee, 0xf1, 0xfa,
  0x01, 0x2b, 0x0d, 0x03, 0x01, 0xf7, 0xef, 0x0b, 0x04, 0x25, 0xdf, 0xf9,
  0xeb, 0xfa, 0xf0, 0x09, 0x28, 0x09, 0xed, 0xf8, 0x1c, 0xf9, 0xfe, 0x02,
  0x0d, 0x23, 0xe0, 0x04, 0xf2, 0xf1, 0xfb, 0x01, 0x13, 0x0d, 0x22, 0xff,
  0xf0, 0x11, 0xe3, 0x02, 0x08, 0x17, 0xdf, 0x0e, 0x05, 0xf1, 0xf0, 0xf6,
  0x07, 0x29, 0xe1, 0x08, 0x32, 0x0a, 0xe5, 0xfd, 0x18, 0x36, 0xeb, 0xf1,
  0x11, 0xfd, 0x04, 0x04, 0x17, 0xd5, 0xf6, 0x00, 0x28, 0xf6, 0xf6, 0xf6,
  0x3c, 0x36, 0xee, 0x02, 0x33, 0x02, 0xef, 0xfb, 0x18, 0x0e, 0xd8, 0x02,
  0xf3, 0xed, 0xf8, 0xf8, 0x17, 0x07, 0x0c, 0xff, 0x7b, 0xfa, 0xfc, 0xfa,
  0x10, 0x2a, 0xd4, 0xff, 0x43, 0xf5, 0xe7, 0xf9, 0x0f, 0xce, 0xf2, 0x09,
  0x04, 0xf4, 0xeb, 0x02, 0xe7, 0x07, 0xd3, 0xee, 0x07, 0x09, 0x0f, 0x05,
  0x12, 0xf1, 0xf8, 0xef, 0x3c, 0xf9, 0xe3, 0x02, 0x33, 0x11, 0xe4, 0x00,
  0x30, 0x08, 0xfc, 0xfb, 0xfd, 0x12, 0x02, 0x07, 0xea, 0x0b, 0xfe, 0xfc,
  0x0b, 0x1a, 0xeb, 0xff, 0xff, 0xfa, 0x09, 0xff, 0x1d, 0x15, 0xd7, 0xf6,
  0x11, 0xee, 0xff, 0x00, 0x1a, 0x1e, 0x15, 0x03, 0xf4, 0x04, 0xfa, 0xf1,
  0x08, 0x10, 0xd8, 0xff, 0xf1, 0xfc, 0xf0, 0xfe, 0x28, 0x09, 0xde, 0xf8,
  0xec, 0x0b, 0xeb, 0x04, 0x0e, 0xfd, 0xf2, 0xfb, 0xee, 0x07, 0x02, 0xfb,
  0x0b, 0x12, 0x23, 0xf6, 0xf9, 0x08, 0xfb, 0xf5, 0xef, 0x02, 0xe4, 0xfd,
  0x10, 0xfa, 0xfc, 0xff, 0x1b, 0x2d, 0xee, 0xf9, 0x1f, 0xf9, 0xfb, 0x00,
  0x07, 0x2f, 0xe0, 0x11, 0x16, 0xf5, 0x07, 0x10, 0x32, 0xf1, 0xe4, 0xf5,
  0x34, 0xed, 0xf9, 0xf0, 0x23, 0x29, 0xe4, 0x0e, 0x17, 0xfe, 0xff, 0xfb,
  0x3c, 0xf9, 0xe0, 0xf0, 0xff, 0xff, 0x10, 0xf6, 0x2c, 0xf6, 0x0b, 0x15,
  0x4f, 0x05, 0x05, 0x08, 0x00, 0x35, 0xe0, 0xfd, 0x45, 0x08, 0xcf, 0x0d,
  0x2c, 0xef, 0xd8, 0x0d, 0x0d, 0xef, 0xf2, 0xfa, 0xed, 0xf3, 0xe7, 0x03,
  0x05, 0xf5, 0x0b, 0xf2, 0x03, 0xec, 0xec, 0x0a, 0x36, 0x10, 0x0a, 0xef,
  0x38, 0x13, 0xfb, 0x0b, 0x58, 0xfb, 0xf7, 0x02, 0x16, 0x03, 0x0a, 0xf7,
  0x02, 0x03, 0x10, 0xfe, 0xfe, 0x14, 0xd9, 0x01, 0x0b, 0x0d, 0xfe, 0x00,
  0x0d, 0x17, 0xec, 0x09, 0x18, 0x12, 0xe6, 0xf4, 0x32, 0x13, 0x19, 0xfa,
  0xfa, 0xfe, 0xe9, 0xfe, 0xfb, 0xf6, 0xe4, 0x01, 0xdd, 0xfc, 0xff, 0xf5,
  0x17, 0x1f, 0xdc, 0x05, 0xfa, 0x0a, 0xf9, 0x03, 0xfb, 0x02, 0xdd, 0xed,
  0xfb, 0xf8, 0xf7, 0xed, 0x0e, 0x2e, 0xfc, 0xfd, 0xe1, 0x06, 0x09, 0x00,
  0xd1, 0x0a, 0xda, 0x0c, 0x22, 0xff, 0xf3, 0xfe, 0x13, 0x42, 0xf7, 0xf2,
  0x0c, 0x0f, 0x09, 0xf5, 0xfc, 0x39, 0xca, 0xf7, 0x11, 0x06, 0x0c, 0xfd,
  0x3e, 0xff, 0xd3, 0x00, 0x56, 0x09, 0xfd, 0x08, 0x24, 0x27, 0xe5, 0x0d,
  0x10, 0xef, 0x0f, 0xf9, 0x21, 0xdd, 0xdf, 0xf4, 0xfe, 0xe9, 0x06, 0x12,
  0x36, 0x05, 0xdf, 0x10, 0x49, 0xfb, 0xfb, 0xf5, 0x1d, 0x42, 0xbe, 0xff,
  0x37, 0x0c, 0xe9, 0x07, 0x0c, 0xfc, 0xcb, 0x12, 0x10, 0xfe, 0xf7, 0xef,
  0xf6, 0x26, 0xc6, 0x0a, 0x0d, 0xf6, 0x01, 0x00, 0x00, 0xb3, 0xfa, 0xf5,
  0x02, 0xf8, 0xe9, 0x05, 0x1c, 0xfc, 0x0f, 0xe9, 0x4a, 0xf8, 0x0a, 0xf7,
  0xf7, 0x07, 0x06, 0xff, 0x09, 0x07, 0x0e, 0xfb, 0xf5, 0x0d, 0xe1, 0xfd,
  0x0c, 0x04, 0x06, 0xf8, 0x0c, 0x06, 0x10, 0x00, 0x15, 0x06, 0xe9, 0xfb,
  0x11, 0x1b, 0xf2, 0x03, 0x05, 0x11, 0xf2, 0x04, 0xf7, 0x03, 0xf9, 0x0b,
  0xeb, 0x0f, 0x1a, 0xf8, 0x07, 0x0e, 0xec, 0xf7, 0x04, 0x06, 0xfd, 0x0d,
  0x04, 0xe8, 0xb9, 0x02, 0xf3, 0x13, 0x0e, 0xf9, 0x00, 0x24, 0x17, 0x0a,
  0xf1, 0xfc, 0x02, 0xf3, 0xb4, 0xc9, 0xb6, 0x06, 0x14, 0x02, 0x05, 0xec,
  0x24, 0x46, 0xf9, 0x0d, 0xfc, 0x01, 0xf7, 0xfb, 0x00, 0x2b, 0xce, 0xff,
  0x16, 0xec, 0x12, 0x10, 0x44, 0x23, 0xe9, 0x08, 0x50, 0xf7, 0xff, 0xf7,
  0x19, 0x1e, 0xdd, 0x03, 0x06, 0xed, 0xf3, 0x0b, 0x1f, 0x03, 0xd7, 0x0a,
  0xf0, 0xf4, 0x08, 0x11, 0x3c, 0xfe, 0xfb, 0xf9, 0x51, 0x07, 0x04, 0xfb,
  0x27, 0x1d, 0xbd, 0xf4, 0x3c, 0xfe, 0xec, 0x07, 0x13, 0xfc, 0xf0, 0x00,
  0x18, 0xfd, 0x09, 0xf5, 0x0d, 0x40, 0xd1, 0x02, 0x16, 0xed, 0xfa, 0x10,
  0x08, 0xc4, 0xef, 0x0d, 0x0c, 0xf0, 0xf0, 0xfc, 0x12, 0x02, 0x04, 0xfa,
  0x2f, 0x0b, 0x0e, 0xf1, 0x1f, 0x13, 0xf7, 0xfd, 0x18, 0x08, 0x02, 0x0a,
  0xef, 0xe7, 0xfb, 0xf0, 0x15, 0xf4, 0x04, 0x0b, 0x0b, 0x09, 0x10, 0x04,
  0x12, 0x01, 0xe4, 0x11, 0x0a, 0x21, 0xef, 0x06, 0x0a, 0xfa, 0xfb, 0xfe,
  0x0a, 0xf7, 0xf7, 0x02, 0xf1, 0xed, 0xf6, 0x0d, 0xf1, 0x0e, 0xfd, 0x0c,
  0x07, 0xfc, 0x03, 0xf9, 0xfd, 0x01, 0xe7, 0xf6, 0x13, 0xfa, 0x15, 0x0f,
  0x12, 0x25, 0x36, 0x06, 0xf6, 0x0a, 0x07, 0xfc, 0xdb, 0xb3, 0xb3, 0x12,
  0x14, 0x00, 0x0b, 0x00, 0xe8, 0x21, 0x19, 0xf4, 0x05, 0x05, 0xe5, 0x06,
  0xe5, 0x21, 0xbf, 0xf6, 0x21, 0xf7, 0xf4, 0x0c, 0x34, 0x2e, 0xe2, 0x00,
  0x4c, 0x0a, 0xf3, 0xff, 0x09, 0x09, 0xc2, 0xf2, 0x2f, 0x08, 0x0a, 0xff,
  0x19, 0xe4, 0xac, 0xf2, 0x11, 0xed, 0xfd, 0x03, 0x3c, 0xed, 0xf1, 0xf1,
  0x42, 0xf7, 0xeb, 0xfd, 0x02, 0x20, 0xcf, 0xfb, 0x46, 0xfb, 0xf0, 0xfe,
  0x0f, 0x21, 0x04, 0xfa, 0x2c, 0xf5, 0xfe, 0xec, 0xf1, 0x26, 0xd7, 0x07,
  0x12, 0xef, 0xee, 0xfd, 0x2f, 0xc2, 0xf4, 0x01, 0x18, 0xfa, 0x02, 0x00,
  0x1a, 0x10, 0x01, 0xff, 0x13, 0x06, 0x06, 0x01, 0x1c, 0x08, 0x1b, 0xf6,
  0x21, 0xec, 0x15, 0x04, 0x13, 0x06, 0x04, 0x00, 0x29, 0xf4, 0x0a, 0x17,
  0x11, 0x19, 0xf7, 0xff, 0x1f, 0x02, 0xf3, 0xee, 0x00, 0x05, 0xd7, 0x0e,
  0x0c, 0xf1, 0xf1, 0xf9, 0x0a, 0x0a, 0xf6, 0x08, 0xf9, 0x0c, 0xfd, 0x14,
  0xe6, 0x1e, 0x0d, 0x0a, 0xf7, 0x04, 0x05, 0xed, 0x00, 0xcf, 0x09, 0x0b,
  0x14, 0x0c, 0xff, 0x01, 0x02, 0x24, 0x2a, 0x04, 0xdd, 0xf5, 0x16, 0xf4,
  0xe1, 0xe6, 0xb8, 0x01, 0xef, 0x08, 0x07, 0x01, 0xe8, 0x02, 0x29, 0xf4,
  0xfd, 0x0e, 0xca, 0x13, 0xd2, 0x21, 0xcc, 0xf5, 0x05, 0xfa, 0xeb, 0xf1,
  0x3b, 0x28, 0xd9, 0x0d, 0x58, 0xf7, 0xf5, 0xf6, 0xf3, 0xeb, 0xb7, 0x04,
  0x4a, 0x11, 0x04, 0x00, 0x22, 0xcf, 0xb8, 0x03, 0x10, 0xfc, 0xfe, 0xfd,
  0x22, 0xe6, 0xf3, 0xfc, 0x50, 0x07, 0xe8, 0x0b, 0x03, 0x16, 0xf8, 0xfb,
  0x58, 0x0b, 0xf1, 0xfb, 0xf4, 0x26, 0x1b, 0xf0, 0x21, 0x13, 0xf3, 0x08,
  0xd8, 0x1d, 0xf3, 0xfc, 0x29, 0x09, 0xea, 0x07, 0x2b, 0xf0, 0x04, 0xf5,
  0x07, 0xfc, 0xf8, 0xf8, 0x0e, 0x0b, 0x36, 0x08, 0x18, 0xfd, 0x00, 0x0b,
  0x02, 0xed, 0x25, 0x02, 0x1e, 0xf0, 0x0f, 0x01, 0xe0, 0xfd, 0x07, 0xe8,
  0x25, 0xf9, 0xf0, 0x03, 0xed, 0x24, 0xfd, 0x11, 0x03, 0xfa, 0xf5, 0x00,
  0xe3, 0x01, 0xe8, 0x02, 0xec, 0x12, 0xee, 0x05, 0xec, 0x03, 0xea, 0x08,
  0xf2, 0xfb, 0xfd, 0xf2, 0xc1, 0x0c, 0x0d, 0xf6, 0x10, 0xfa, 0xf4, 0x06,
  0xf1, 0xf9, 0x2c, 0x06, 0x06, 0xf4, 0xf5, 0x03, 0xcd, 0x27, 0x2b, 0x11,
  0xec, 0xf9, 0x02, 0xf3, 0xa7, 0xbb, 0xc8, 0x04, 0xf5, 0x02, 0xfd, 0xfd,
  0xc5, 0x2b, 0x40, 0xfb, 0xed, 0xfc, 0xdd, 0x0e, 0xd3, 0x4c, 0xdf, 0xfe,
  0xd7, 0x0d, 0xf1, 0xfc, 0x22, 0x17, 0xdc, 0x0a, 0x22, 0x07, 0xfa, 0x06,
  0x04, 0xc2, 0xf5, 0xf6, 0x56, 0xf8, 0x03, 0xfd, 0x30, 0xc7, 0xcb, 0xf0,
  0x25, 0x02, 0xf7, 0xf6, 0x1c, 0xbe, 0xe6, 0x02, 0x49, 0x0f, 0xf4, 0x00,
  0x0a, 0xdc, 0xfd, 0xf6, 0x51, 0x03, 0xf5, 0x01, 0xfd, 0x1b, 0x05, 0x00,
  0x55, 0xfc, 0xfd, 0xfa, 0xf7, 0x23, 0xde, 0xfc, 0x41, 0x02, 0x03, 0x01,
  0x1c, 0xda, 0xef, 0xee, 0xff, 0xfa, 0xf3, 0xef, 0x11, 0x11, 0x24, 0xfe,
  0x34, 0x14, 0xf8, 0xf8, 0x05, 0xef, 0x04, 0xfb, 0x24, 0xfb, 0x04, 0xf1,
  0x0d, 0xdb, 0x07, 0xf4, 0x1e, 0x0d, 0x07, 0x08, 0xec, 0xf8, 0xe9, 0xfa,
  0xe2, 0x00, 0x0a, 0xf5, 0xe4, 0x28, 0x01, 0x05, 0x0d, 0x01, 0xee, 0xff,
  0xee, 0x0c, 0xdf, 0x02, 0xe4, 0xfd, 0x08, 0x09, 0xe9, 0x16, 0xfe, 0xfb,
  0x25, 0xfd, 0x06, 0x09, 0x16, 0xe3, 0x2c, 0xff, 0x02, 0xff, 0x0c, 0xf3,
  0xcb, 0x2b, 0x0f, 0x02, 0xf8, 0xfa, 0x01, 0x01, 0xbd, 0xc8, 0xd1, 0x02,
  0xf8, 0xfc, 0xf6, 0xfe, 0xd8, 0x29, 0x5a, 0x0e, 0xec, 0x04, 0xea, 0xf4,
  0xdb, 0x6a, 0xf0, 0xfc, 0xe8, 0x02, 0xfb, 0x06, 0x10, 0x14, 0xef, 0x07,
  0x0b, 0xff, 0xf6, 0xf9, 0x11, 0x01, 0xfd, 0xf7, 0x58, 0x0c, 0x01, 0x10,
  0x2f, 0xf0, 0xce, 0x0c, 0x2a, 0x04, 0xf5, 0x11, 0x3c, 0xe0, 0xeb, 0x04,
  0x44, 0x02, 0xff, 0xfc, 0x14, 0xe2, 0xf7, 0xff, 0x6a, 0xf6, 0xf5, 0x07,
  0x1b, 0x0a, 0x3c, 0x04, 0x45, 0x00, 0xf1, 0xfc, 0xfb, 0x26, 0x16, 0x07,
  0x27, 0xfc, 0xe9, 0xf2, 0x28, 0x00, 0x1a, 0x0e, 0xf4, 0x12, 0x03, 0x05,
  0x09, 0x16, 0x02, 0x0e, 0x20, 0xff, 0xfc, 0xf3, 0xfe, 0xf5, 0x02, 0x09,
  0x25, 0x04, 0x11, 0xf7, 0xfe, 0xd8, 0x12, 0xf3, 0x2a, 0xfe, 0x01, 0x05,
  0xf4, 0xf5, 0xe1, 0x0d, 0xde, 0xeb, 0x13, 0x05, 0xd5, 0x1b, 0x4b, 0xf3,
  0xed, 0x05, 0x01, 0x14, 0xda, 0x2d, 0xf3, 0xfa, 0xde, 0xf9, 0xf4, 0x03,
  0xec, 0xe2, 0x0a, 0x01, 0x29, 0xf6, 0xf6, 0xf4, 0xfe, 0xea, 0x26, 0x07,
  0x0e, 0xff, 0xf0, 0xfd, 0xb8, 0x0f, 0xfc, 0x11, 0xef, 0xec, 0xff, 0x0c,
  0xc7, 0xc8, 0x09, 0x01, 0x13, 0xff, 0x06, 0xff, 0xbf, 0x16, 0x6c, 0x06,
  0xe8, 0xf9, 0xf7, 0xfa, 0xe0, 0x5b, 0x19, 0x05, 0xf6, 0x0b, 0xfd, 0x08,
  0xfa, 0x17, 0x1b, 0xf1, 0xff, 0x01, 0x0a, 0x0e, 0xf6, 0xed, 0x02, 0x04,
  0xf3, 0x02, 0xf7, 0x04, 0xf5, 0xf0, 0xfe, 0x08, 0x08, 0x05, 0xfb, 0xfd,
  0x01, 0x03, 0xef, 0xf3, 0x01, 0xf8, 0x07, 0x03, 0xfe, 0x0e, 0xfc, 0x0f,
  0xfe, 0xf9, 0xfe, 0xfe, 0x06, 0xf3, 0x06, 0xf4, 0x03, 0xfd, 0x04, 0xf5,
  0x04, 0x00, 0x05, 0xfd, 0xfe, 0xfd, 0xfb, 0x00, 0xfe, 0x0a, 0xf3, 0x12,
  0xf6, 0xf4, 0x06, 0xf5, 0xfb, 0xf6, 0xf8, 0x0d, 0xf3, 0x02, 0x00, 0x05,
  0xf6, 0xfc, 0x00, 0xff, 0x01, 0xec, 0x12, 0xff, 0xfd, 0x05, 0x05, 0x0c,
  0xef, 0x06, 0xf3, 0x04, 0x01, 0xee, 0xfa, 0x03, 0x0b, 0x0b, 0x04, 0xfc,
  0xf6, 0xf4, 0x09, 0x07, 0x05, 0xf1, 0xf8, 0xec, 0x11, 0xfd, 0xf7, 0x0d,
  0x07, 0x03, 0xf5, 0x04, 0x04, 0xfc, 0xf3, 0x09, 0xf9, 0xf9, 0x05, 0x11,
  0xfa, 0x03, 0x01, 0x0f, 0xf7, 0x08, 0xfc, 0xec, 0xee, 0x01, 0x01, 0x04,
  0xf8, 0xfa, 0x00, 0xf0, 0xf6, 0xf5, 0x05, 0x08, 0x04, 0x04, 0x05, 0x01,
  0x06, 0x09, 0xfe, 0x02, 0xfd, 0xfb, 0x00, 0x06, 0x0a, 0x06, 0x01, 0xf3,
  0xff, 0xfc, 0xfa, 0xfb, 0xf3, 0xf5, 0x13, 0x07, 0xfa, 0xf5, 0xfe, 0xf9,
  0xfa, 0x06, 0xfb, 0xf8, 0x10, 0x05, 0xf3, 0x01, 0x08, 0xed, 0x08, 0xf6,
  0xfe, 0xf4, 0xf1, 0xf5, 0x04, 0xf4, 0x02, 0xfd, 0xfe, 0xf2, 0x02, 0xfa,
  0xf4, 0xfb, 0x01, 0xef, 0x05, 0xff, 0xfd, 0x06, 0x00, 0x0e, 0xef, 0x03,
  0x06, 0x00, 0xef, 0xfd, 0x0a, 0xf8, 0x08, 0x00, 0x07, 0xf3, 0x0f, 0xfb,
  0xf0, 0xf3, 0xeb, 0xf4, 0x05, 0x02, 0x0d, 0xfb, 0xfe, 0xf1, 0xfb, 0x02,
  0xe6, 0x0e, 0x03, 0xfd, 0xff, 0xeb, 0x0e, 0xf4, 0xfa, 0x05, 0xfa, 0xfa,
  0x02, 0xf8, 0xfa, 0xfe, 0xf0, 0x09, 0x05, 0x00, 0xf3, 0xf4, 0x02, 0xfe,
  0x05, 0xeb, 0x0b, 0xff, 0x01, 0xfc, 0xfc, 0xee, 0x01, 0xf9, 0xec, 0x07,
  0xfa, 0xee, 0xfd, 0xf7, 0x03, 0x02, 0x0a, 0xe8, 0x0f, 0x00, 0xfb, 0xf9,
  0xfd, 0xfc, 0x07, 0x0d, 0xff, 0xff, 0xf2, 0xfd, 0xf1, 0x02, 0xff, 0x03,
  0xfb, 0xea, 0xf6, 0xf1, 0xf5, 0xea, 0xfe, 0xf8, 0xff, 0xf8, 0x08, 0xf5,
  0xf1, 0xff, 0xf4, 0xfb, 0xf3, 0xef, 0x0b, 0xf2, 0xed, 0xfd, 0x08, 0xf8,
  0xfa, 0x05, 0xfc, 0x02, 0xe6, 0xf5, 0xfa, 0x0e, 0x0c, 0xea, 0x08, 0xf7,
  0xec, 0xf4, 0x02, 0xfe, 0xf9, 0x01, 0x01, 0x06, 0xfa, 0xfd, 0x02, 0x10,
  0xf6, 0xe5, 0xf7, 0x01, 0xe9, 0x0b, 0xff, 0xfd, 0xf2, 0xe5, 0xfc, 0x04,
  0xf2, 0x01, 0x00, 0x01, 0xf4, 0xfa, 0xf5, 0x03, 0xe7, 0xfe, 0x13, 0x01,
  0x11, 0xe5, 0x02, 0xed, 0xf4, 0x05, 0xf2, 0xfb, 0xf5, 0xf6, 0xf8, 0xee,
  0xed, 0x06, 0x0d, 0xfd, 0x0a, 0xe4, 0xf4, 0xfe, 0xfe, 0x08, 0x05, 0xeb,
  0x08, 0xec, 0x0c, 0x11, 0xfc, 0xf9, 0xee, 0xf8, 0x05, 0xdf, 0xf4, 0x09,
  0xf8, 0x09, 0xf6, 0xee, 0xef, 0xed, 0x06, 0xf3, 0xe8, 0xf6, 0x13, 0xf6,
  0x0a, 0xf7, 0xf9, 0xe9, 0xfe, 0xff, 0x02, 0xfe, 0x03, 0xe0, 0x0b, 0x00,
  0xee, 0xec, 0x0a, 0xfc, 0x04, 0xdb, 0xfd, 0xf8, 0xf1, 0xf5, 0xff, 0xf0,
  0xea, 0xea, 0x07, 0xec, 0xfc, 0xfe, 0x01, 0x0e, 0xf5, 0xed, 0xef, 0x0c,
  0xee, 0x00, 0xff, 0xfa, 0x07, 0xee, 0xe9, 0x0e, 0xf3, 0x05, 0x07, 0x01,
  0xed, 0xe2, 0x02, 0x05, 0x07, 0x00, 0x07, 0x01, 0x0d, 0xe4, 0xe9, 0x00,
  0xf2, 0xfe, 0x04, 0xed, 0x0a, 0xfc, 0x00, 0xfa, 0xeb, 0xf2, 0x07, 0xff,
  0xf8, 0xe0, 0xf9, 0x0b, 0xf9, 0xfb, 0xf8, 0x09, 0x0b, 0x06, 0xf7, 0x08,
  0xf4, 0x01, 0x02, 0xf5, 0x05, 0xec, 0xf9, 0x06, 0x15, 0x09, 0xee, 0x0b,
  0x0d, 0xe7, 0xf9, 0xee, 0x08, 0xfc, 0xf7, 0xff, 0x07, 0xfd, 0xf4, 0x05,
  0xee, 0xff, 0xfd, 0xf4, 0xfe, 0xd8, 0xe8, 0x10, 0x01, 0xec, 0x14, 0xf4,
  0x08, 0xe2, 0xe7, 0x07, 0xed, 0x01, 0xf2, 0xf5, 0xf2, 0xe6, 0x03, 0xea,
  0x03, 0xff, 0xf4, 0xe9, 0x0a, 0xf7, 0xed, 0xf5, 0xfc, 0x0a, 0xf9, 0x03,
  0x06, 0xfb, 0xf5, 0xe9, 0xe9, 0xfa, 0x0b, 0x03, 0x08, 0xde, 0x07, 0x00,
  0x08, 0x0f, 0x08, 0xf6, 0xfd, 0x01, 0xff, 0xf5, 0xf8, 0xfc, 0x0a, 0xfa,
  0x06, 0xf8, 0xf9, 0x07, 0xf3, 0xfb, 0xfa, 0xfd, 0xfa, 0x01, 0x04, 0xf3,
  0xf5, 0x07, 0x01, 0xf5, 0xf7, 0xf3, 0x08, 0xfb, 0xfc, 0xfc, 0xff, 0xeb,
  0xf6, 0xee, 0xf9, 0xfc, 0xf1, 0x0a, 0xf1, 0xf7, 0xf8, 0xd8, 0xed, 0xfc,
  0xf2, 0xfa, 0xef, 0xf9, 0xfb, 0xd9, 0xf9, 0x01, 0x0c, 0xfe, 0xf6, 0xf7,
  0xfc, 0xfd, 0xf3, 0x00, 0xff, 0xfe, 0x09, 0x01, 0xfc, 0xee, 0xff, 0xf1,
  0xf4, 0xef, 0x01, 0x05, 0x0c, 0xe9, 0xf5, 0xfb, 0x0a, 0xfb, 0x04, 0xfd,
  0x13, 0xf6, 0x0c, 0x00, 0x07, 0xff, 0x09, 0xe8, 0x06, 0xf1, 0xff, 0xf2,
  0xfe, 0xfb, 0x02, 0xf8, 0xf4, 0xed, 0xf2, 0x00, 0xf8, 0x0c, 0xf1, 0xff,
  0xf6, 0x0c, 0xfe, 0xeb, 0x01, 0x01, 0xfc, 0xf7, 0x00, 0xf5, 0x04, 0xf5,
  0xf0, 0x02, 0x04, 0x00, 0x03, 0xf5, 0x11, 0xf8, 0xf7, 0xf2, 0x0c, 0xff,
  0xf4, 0x0a, 0x06, 0xfc, 0xfe, 0x0f, 0xeb, 0xff, 0x06, 0xe8, 0xf5, 0x01,
  0xfe, 0x09, 0x04, 0xfa, 0xfa, 0xee, 0xf0, 0x01, 0xf7, 0x00, 0xf3, 0x07,
  0xf4, 0xe5, 0xf2, 0xf0, 0xf6, 0x03, 0xf3, 0xfb, 0x0d, 0xf6, 0x08, 0xfc,
  0x00, 0xfd, 0x09, 0xf2, 0x0c, 0x01, 0xee, 0x0c, 0xec, 0x0a, 0xf8, 0xf2,
  0xf5, 0xf7, 0xf1, 0x0c, 0xfd, 0x03, 0x13, 0x0c, 0x0c, 0xf1, 0xfb, 0xee,
  0x07, 0x00, 0x05, 0x06, 0x03, 0xf2, 0xf2, 0x12, 0xfd, 0x00, 0xfc, 0x00,
  0xf2, 0xe2, 0xfc, 0xef, 0xf6, 0xfa, 0xf6, 0xfc, 0xfd, 0xe9, 0x02, 0x07,
  0xf8, 0x0c, 0xfd, 0xf5, 0xf4, 0xdf, 0xf5, 0x01, 0x04, 0x02, 0x01, 0xec,
  0x02, 0xe8, 0xf9, 0xfd, 0x03, 0xfc, 0xfd, 0xf8, 0xfa, 0xdf, 0x05, 0x05,
  0xf5, 0xf4, 0x03, 0x05, 0xfa, 0xfa, 0xfb, 0xff, 0xfd, 0xf2, 0xf2, 0xfa,
  0xfe, 0xe2, 0x03, 0xf8, 0x0e, 0x10, 0xf1, 0xfa, 0x06, 0xdf, 0x0a, 0x08,
  0x00, 0xee, 0x09, 0xf7, 0xfe, 0x04, 0x06, 0x0a, 0x0e, 0xfb, 0xf2, 0xf6,
  0x11, 0x15, 0xfe, 0xfb, 0xf4, 0xff, 0x09, 0x0c, 0x08, 0xf0, 0xfb, 0x06,
  0xfa, 0x08, 0x09, 0xfb, 0x0b, 0x08, 0xfb, 0x07, 0xf3, 0xff, 0xfc, 0x01,
  0x04, 0xf7, 0xe7, 0x00, 0x00, 0xf8, 0x07, 0x08, 0x07, 0xdf, 0xfe, 0x0b,
  0x05, 0x0a, 0x09, 0xf3, 0xfd, 0xef, 0x07, 0x0b, 0xf2, 0xfe, 0xef, 0xf4,
  0x01, 0x09, 0x04, 0x0d, 0x06, 0xfe, 0x05, 0xfd, 0x08, 0xfc, 0x03, 0x08,
  0xfc, 0xfe, 0xf3, 0xfd, 0xff, 0xfa, 0x0a, 0xf2, 0xff, 0xf3, 0x13, 0xf6,
  0x07, 0xe5, 0xfe, 0xff, 0xe8, 0xf8, 0xf5, 0xf4, 0xf6, 0xf5, 0xe9, 0xf0,
  0xfc, 0xfd, 0xed, 0x14, 0x03, 0xed, 0xf8, 0xfc, 0xea, 0x0e, 0xee, 0x0a,
  0x03, 0xdd, 0x02, 0x06, 0xf1, 0x02, 0xfa, 0xfa, 0xf5, 0xf1, 0xfe, 0x0a,
  0xe8, 0xfd, 0xfb, 0xf1, 0xfd, 0xef, 0xf5, 0x05, 0xf4, 0xfc, 0xf5, 0x0a,
  0x12, 0xdf, 0x03, 0xfd, 0xf8, 0xf4, 0xf8, 0x0a, 0x07, 0xf3, 0xed, 0x0a,
  0xf7, 0xed, 0xeb, 0x0c, 0x07, 0xf3, 0xfb, 0xfe, 0x0b, 0xfb, 0x05, 0x13,
  0xfe, 0xf1, 0x03, 0x10, 0xfc, 0x0f, 0xf2, 0xfd, 0xfa, 0xf4, 0x02, 0xf2,
  0xf6, 0xf0, 0xfb, 0xf9, 0x0b, 0x1a, 0xef, 0x08, 0xfe, 0x03, 0xef, 0x09,
  0xfe, 0xf8, 0xfb, 0x12, 0xf0, 0x05, 0x18, 0xf8, 0xee, 0xf4, 0xf9, 0xf1,
  0xef, 0x01, 0x0b, 0x0a, 0xfb, 0x07, 0x01, 0x02, 0xf7, 0x11, 0xfb, 0xf8,
  0xf4, 0xe6, 0x0c, 0x0f, 0xfa, 0x0f, 0x03, 0xfa, 0x0f, 0x02, 0x01, 0xf7,
  0x07, 0x0b, 0x0a, 0x04, 0xf0, 0xed, 0x03, 0xf8, 0xfd, 0x05, 0xfd, 0x00,
  0xfe, 0x00, 0x0b, 0xfd, 0xec, 0x04, 0x01, 0x12, 0xf9, 0xf9, 0xf3, 0xfb,
  0x09, 0xf7, 0xf9, 0xff, 0x00, 0xe9, 0xea, 0xf3, 0xf8, 0x05, 0xff, 0x0f,
  0xf2, 0xf3, 0xfa, 0xff, 0x00, 0xf9, 0xeb, 0xf8, 0xf3, 0xf3, 0xee, 0xf5,
  0x03, 0xf4, 0x02, 0x05, 0x08, 0xf3, 0xfd, 0xf1, 0xfc, 0xfd, 0x05, 0x07,
  0x04, 0xfe, 0xf2, 0x07, 0xfa, 0xff, 0x05, 0x04, 0x05, 0xf5, 0xed, 0xf7,
  0xf9, 0x08, 0xee, 0xff, 0xee, 0xe7, 0xf5, 0x0c, 0xff, 0xf1, 0xfe, 0x10,
  0x08, 0xef, 0xeb, 0xee, 0x06, 0x04, 0x00, 0xfe, 0xf4, 0xfd, 0x11, 0x13,
  0xfc, 0x15, 0xfb, 0x04, 0x0a, 0xf4, 0x06, 0x08, 0x02, 0x08, 0x0b, 0xef,
  0xfc, 0xe7, 0xff, 0xfd, 0x00, 0xf7, 0x05, 0xf9, 0xef, 0xf8, 0x07, 0xf0,
  0x02, 0xf6, 0x03, 0x03, 0x05, 0xdf, 0xfd, 0x07, 0x0d, 0x01, 0xfa, 0x0c,
  0x04, 0xe4, 0x0c, 0xfb, 0xfc, 0xfb, 0x06, 0x07, 0xea, 0xfd, 0xfa, 0x09,
  0xf0, 0x0c, 0xf8, 0x0b, 0x00, 0xea, 0x0e, 0xfe, 0xee, 0xf8, 0x15, 0xf8,
  0x0c, 0xe5, 0xf6, 0x06, 0xff, 0x12, 0x0a, 0x04, 0x06, 0xfb, 0xfb, 0x0f,
  0xe8, 0xec, 0xfc, 0x0c, 0xff, 0xf8, 0xfb, 0x01, 0xed, 0x12, 0x0e, 0xfd,
  0xfb, 0x00, 0xfe, 0xeb, 0xfc, 0xff, 0x08, 0xfc, 0x00, 0xee, 0xec, 0xfa,
  0xef, 0x0b, 0x04, 0xf6, 0x02, 0xf0, 0x08, 0xff, 0xfd, 0x07, 0xf6, 0x0d,
  0xfe, 0xf7, 0xee, 0xfb, 0x00, 0xf7, 0xf8, 0x0f, 0x04, 0xdc, 0xf6, 0x10,
  0x06, 0x01, 0x01, 0x06, 0x02, 0xe6, 0x06, 0x00, 0x02, 0xfe, 0x03, 0xfc,
  0xf9, 0xf4, 0xfc, 0xf2, 0x05, 0xf3, 0xf4, 0x05, 0xff, 0xde, 0xf8, 0x02,
  0xfb, 0xee, 0xfb, 0x05, 0x02, 0xfa, 0xf9, 0x02, 0xf3, 0x06, 0xfb, 0xf0,
  0xfb, 0xf2, 0xfa, 0x0d, 0x02, 0x13, 0x0e, 0x0e, 0x00, 0xe6, 0x00, 0x03,
  0xfe, 0x01, 0xf1, 0x03, 0xfe, 0xf9, 0x04, 0xff, 0xf8, 0x09, 0x0e, 0x04,
  0xfd, 0x14, 0x00, 0x0c, 0x14, 0xf5, 0xf9, 0x05, 0xfc, 0xe7, 0x00, 0xf7,
  0x05, 0xff, 0xfa, 0xf6, 0x06, 0xe4, 0x06, 0xf6, 0xe5, 0xfa, 0x0b, 0xf2,
  0x02, 0xec, 0x12, 0x0a, 0x0c, 0xf8, 0xea, 0x08, 0x03, 0xf2, 0x09, 0x0e,
  0xf5, 0x0a, 0x02, 0xf8, 0x07, 0xed, 0xf4, 0xf2, 0xfd, 0x03, 0xee, 0xfc,
  0x07, 0xfe, 0x01, 0x08, 0x06, 0xfd, 0xf8, 0x11, 0xf4, 0xe8, 0xfb, 0x01,
  0x03, 0x10, 0x01, 0xfa, 0x00, 0xee, 0xfc, 0x06, 0x08, 0x05, 0x0d, 0xf4,
  0xf9, 0xf2, 0x05, 0x08, 0xf7, 0xed, 0xfd, 0x11, 0xfd, 0xed, 0x04, 0xf2,
  0xf4, 0xf8, 0x04, 0x08, 0xea, 0xfa, 0xfe, 0x05, 0xf9, 0xff, 0xfa, 0xf1,
  0xf1, 0xf5, 0x01, 0xf1, 0xf3, 0xf7, 0x0c, 0x10, 0xff, 0xe3, 0xff, 0x06,
  0x05, 0xf5, 0xee, 0x0f, 0x0a, 0xfa, 0xfb, 0x10, 0xf2, 0x0b, 0x00, 0x06,
  0xf9, 0xec, 0x02, 0x07, 0xec, 0x04, 0x07, 0x03, 0xff, 0xec, 0x10, 0x03,
  0xf8, 0x0f, 0xf9, 0xfb, 0x06, 0x12, 0xfd, 0xf4, 0x06, 0x0a, 0x0a, 0x01,
  0xff, 0xf1, 0xfe, 0x02, 0x1c, 0xed, 0x07, 0x0b, 0x00, 0x08, 0xec, 0xef,
  0x05, 0x01, 0xff, 0x0a, 0x0b, 0x31, 0x0d, 0x0d, 0x10, 0x01, 0xf9, 0xfc,
  0x0d, 0xf5, 0x01, 0x10, 0x04, 0x0c, 0xf9, 0x0a, 0x11, 0xff, 0x01, 0xe8,
  0xec, 0xfd, 0x04, 0xf6, 0xf5, 0xef, 0xff, 0xf5, 0xf2, 0x0e, 0xff, 0xff,
  0xfd, 0xef, 0xfc, 0xff, 0xfc, 0x06, 0xff, 0x0a, 0xfe, 0xfc, 0x0a, 0x03,
  0xfc, 0x08, 0x0f, 0x06, 0xfb, 0xf3, 0xf4, 0x01, 0xf3, 0x0a, 0xfb, 0x02,
  0xff, 0x04, 0xfb, 0x03, 0xfe, 0x09, 0x04, 0x11, 0x05, 0x0a, 0xed, 0xff,
  0x08, 0xfd, 0xff, 0xf6, 0xf2, 0xfe, 0xf5, 0xf6, 0x00, 0xfe, 0xf6, 0xfa,
  0xf0, 0xf1, 0xf9, 0x03, 0xe7, 0xfa, 0x0c, 0xfb, 0xeb, 0xe8, 0xfb, 0x06,
  0xf6, 0xfe, 0xf6, 0x09, 0xf3, 0xf8, 0x0a, 0x04, 0xf8, 0xff, 0x03, 0x10,
  0x13, 0xf1, 0xf8, 0xf1, 0xee, 0xf9, 0xf4, 0xf8, 0x0c, 0xf9, 0xf8, 0x04,
  0xfe, 0x00, 0xf7, 0x08, 0x0c, 0xf8, 0xf4, 0xfa, 0xf9, 0x01, 0xe7, 0xfa,
  0x05, 0x06, 0x0a, 0x00, 0xeb, 0xfd, 0xfb, 0xea, 0x05, 0xec, 0x0e, 0xf7,
  0xf9, 0xf9, 0x08, 0xf7, 0x07, 0xe6, 0xef, 0xf5, 0x07, 0x11, 0x09, 0x0b,
  0x0f, 0xe7, 0x02, 0xf5, 0xe5, 0x02, 0x07, 0xef, 0x0a, 0x1a, 0x0c, 0xf7,
  0xfd, 0x09, 0xfb, 0xf1, 0xef, 0xed, 0x03, 0xfa, 0x0f, 0x00, 0x0c, 0x01,
  0x04, 0x06, 0x01, 0x08, 0xe7, 0xef, 0x0d, 0x09, 0xf4, 0x04, 0xf9, 0xe3,
  0xfd, 0xfa, 0xfb, 0xf2, 0x05, 0xff, 0xfc, 0xff, 0xf1, 0x11, 0xf3, 0x06,
  0x05, 0x05, 0x09, 0xfd, 0x0d, 0xfa, 0x0c, 0xff, 0x06, 0xff, 0x06, 0x05,
  0xf6, 0xff, 0x14, 0x0e, 0x09, 0xed, 0x07, 0x05, 0xf7, 0xfb, 0xfa, 0x10,
  0x03, 0xf0, 0x0d, 0x05, 0x01, 0xf2, 0x11, 0x00, 0x06, 0xf5, 0xf1, 0xec,
  0xf9, 0x03, 0x13, 0x01, 0xf5, 0xed, 0x01, 0x0e, 0x0b, 0x06, 0xf7, 0x18,
  0xfe, 0x01, 0xfb, 0x0a, 0xfd, 0x06, 0xf6, 0x0f, 0x12, 0xfe, 0x01, 0x07,
  0xed, 0xfa, 0x02, 0x0a, 0x08, 0x02, 0xfc, 0x17, 0x0a, 0x07, 0xfe, 0x09,
  0xf6, 0xfc, 0xfb, 0xf0, 0xe7, 0x0d, 0xfd, 0x11, 0x01, 0xfe, 0x07, 0x0a,
  0xff, 0x03, 0xe8, 0xf6, 0xfb, 0xf3, 0xeb, 0xf1, 0x04, 0xf5, 0x08, 0xf7,
  0xfd, 0xde, 0x01, 0x04, 0xf9, 0x0b, 0xfb, 0x00, 0x0d, 0xd7, 0xff, 0x14,
  0x04, 0xf6, 0x01, 0x0c, 0x01, 0xe8, 0x10, 0xf7, 0xec, 0xf8, 0xfb, 0xfd,
  0x02, 0x12, 0x12, 0xf7, 0x01, 0x0e, 0xfa, 0x01, 0x04, 0xdd, 0x13, 0x0d,
  0x0c, 0x00, 0x09, 0x09, 0x0e, 0xee, 0xf8, 0xed, 0xef, 0x01, 0x01, 0xfe,
  0xf2, 0xe8, 0x0f, 0xff, 0x08, 0x04, 0xf2, 0x02, 0x09, 0x07, 0x0a, 0x0c,
  0xe9, 0xfe, 0x03, 0xf9, 0x04, 0xff, 0x13, 0x0b, 0x0a, 0x0a, 0xfc, 0x18,
  0x01, 0x15, 0x15, 0xf6, 0xf9, 0xfa, 0xf1, 0x07, 0x13, 0xfc, 0x02, 0x03,
  0xfd, 0xf9, 0x04, 0x09, 0xfb, 0xe9, 0xf9, 0x03, 0x07, 0x0e, 0xf9, 0xe9,
  0xf1, 0xfb, 0x0a, 0xfa, 0x02, 0xf0, 0x06, 0xfb, 0x09, 0xf1, 0xfe, 0xe9,
  0x06, 0x04, 0xfd, 0x1b, 0x03, 0xf4, 0x02, 0x0c, 0xed, 0x0e, 0xff, 0xf9,
  0xed, 0x04, 0xf4, 0x17, 0xf7, 0x06, 0xeb, 0x10, 0x06, 0xf5, 0xf3, 0x00,
  0xf8, 0xfd, 0x15, 0x05, 0x01, 0xef, 0xf8, 0x16, 0xf8, 0xf8, 0xf0, 0x15,
  0x0f, 0xee, 0xf5, 0xf2, 0x08, 0x04, 0xfd, 0x18, 0x06, 0xf1, 0xf8, 0x06,
  0x0d, 0x08, 0xfb, 0xf2, 0x04, 0xfd, 0xfd, 0x05, 0x01, 0x05, 0x06, 0xf4,
  0xfd, 0xe3, 0x00, 0xfe, 0x08, 0xed, 0x0e, 0x11, 0xf5, 0xed, 0x05, 0x07,
  0xf8, 0xf7, 0x02, 0xf2, 0x05, 0x09, 0xfe, 0xf8, 0x01, 0x08, 0x07, 0xfc,
  0xee, 0xe0, 0x00, 0x0c, 0x07, 0x00, 0x0c, 0x0e, 0x04, 0xe2, 0x02, 0x08,
  0xf3, 0x02, 0xf5, 0xf2, 0x04, 0xef, 0xfa, 0xff, 0x1c, 0xfd, 0xed, 0x04,
  0xf1, 0x10, 0x02, 0xfc, 0xee, 0xf9, 0xfd, 0xfc, 0xf8, 0xf8, 0x04, 0xff,
  0x15, 0x0b, 0xf8, 0x09, 0x05, 0x07, 0x09, 0x0b, 0xfc, 0x04, 0x09, 0x02,
  0xf2, 0xe4, 0x00, 0xf5, 0x12, 0x00, 0xee, 0x07, 0x05, 0xf0, 0x03, 0xfd,
  0xfa, 0xf6, 0x06, 0x07, 0x07, 0xed, 0xfc, 0xf8, 0x17, 0xf5, 0x0b, 0x0d,
  0xfa, 0xe9, 0x04, 0xf2, 0xfd, 0x04, 0x03, 0xff, 0xfb, 0xec, 0x04, 0x0f,
  0xf2, 0x04, 0x00, 0x09, 0x02, 0xe7, 0x09, 0xf8, 0x02, 0xfb, 0x10, 0x0d,
  0x0b, 0xf0, 0x01, 0xfe, 0xf8, 0xf0, 0x08, 0x17, 0x0f, 0xeb, 0x05, 0xf0,
  0xf7, 0x06, 0xf6, 0x08, 0xfd, 0x00, 0xf5, 0x0a, 0xf1, 0xf6, 0x06, 0xf7,
  0x16, 0xf3, 0xf7, 0x15, 0x0c, 0xf2, 0x04, 0x05, 0x07, 0xf6, 0xe8, 0x06,
  0xf1, 0x04, 0xf6, 0x02, 0xee, 0xe8, 0x03, 0x04, 0x0a, 0xfe, 0x07, 0x05,
  0xf8, 0xfb, 0xfc, 0x02, 0xff, 0x0a, 0xfe, 0x02, 0xf3, 0x2c, 0xf1, 0xfb,
  0xff, 0x00, 0x03, 0xef, 0x0b, 0xf4, 0x03, 0xff, 0x13, 0xfe, 0x05, 0x0b,
  0x00, 0xf2, 0xfd, 0xfc, 0xfc, 0xfe, 0xf9, 0xfa, 0xfb, 0x0e, 0xf7, 0xff,
  0xf5, 0xf4, 0x02, 0x06, 0xfb, 0xff, 0x13, 0x0f, 0xf3, 0xf8, 0x00, 0xfc,
  0xff, 0x0a, 0x02, 0x0a, 0x05, 0x13, 0x05, 0x0c, 0xf1, 0x01, 0x13, 0x07,
  0xf2, 0x04, 0xfd, 0xfc, 0x0d, 0xea, 0x05, 0x06, 0xf1, 0xf8, 0xf1, 0x0e,
  0xfc, 0xdd, 0x0a, 0x00, 0xf0, 0xfe, 0x02, 0xff, 0xf9, 0xe8, 0xf0, 0x02,
  0x04, 0x07, 0xf5, 0xf6, 0x0c, 0xf9, 0x0b, 0xf0, 0xfd, 0xfc, 0xfb, 0x15,
  0x02, 0xf2, 0x04, 0x0d, 0xf7, 0xfd, 0xf0, 0x11, 0xf5, 0xf9, 0xef, 0x0b,
  0xed, 0xef, 0xf9, 0x1f, 0x02, 0xee, 0xf8, 0x09, 0xf7, 0x03, 0x09, 0x05,
  0xfe, 0xe1, 0x07, 0x14, 0xf9, 0xfa, 0x08, 0x0a, 0xf7, 0x02, 0x0d, 0x00,
  0xe6, 0x01, 0xec, 0xfb, 0xfa, 0xfe, 0xf5, 0x00, 0x07, 0xeb, 0xf9, 0x00,
  0x03, 0x09, 0xfc, 0xf8, 0x00, 0xfc, 0xfe, 0xf5, 0x07, 0xf0, 0x0a, 0x11,
  0xf8, 0xff, 0xef, 0xf1, 0x0b, 0x05, 0x0c, 0x05, 0xf2, 0x0a, 0x09, 0xf7,
  0xfe, 0x13, 0xfe, 0x05, 0xee, 0x0b, 0xec, 0xfc, 0xf3, 0xef, 0x06, 0x04,
  0x08, 0xf9, 0xf5, 0x0e, 0xfd, 0xfc, 0x0d, 0xf5, 0x0c, 0xf5, 0xf0, 0x08,
  0xef, 0xee, 0x0f, 0x0b, 0xf5, 0x00, 0x0b, 0x09, 0x04, 0x28, 0xf8, 0x0a,
  0xfa, 0xfb, 0xff, 0xef, 0x02, 0x06, 0xef, 0xf4, 0x1b, 0x0b, 0x04, 0x0e,
  0x09, 0x01, 0x10, 0xff, 0xf6, 0xf5, 0xfd, 0xfe, 0xf6, 0xf2, 0xfb, 0x04,
  0x0d, 0x06, 0xf1, 0x18, 0xf4, 0xf5, 0xf5, 0x01, 0xf4, 0x0b, 0x03, 0xed,
  0x0b, 0x00, 0xf2, 0x0d, 0x0e, 0xfc, 0x15, 0x0b, 0x0c, 0xe7, 0xf3, 0xf9,
  0xfc, 0x04, 0xfd, 0x0a, 0x12, 0xfe, 0x01, 0xfa, 0xed, 0xfe, 0x04, 0x14,
  0xed, 0xf6, 0x02, 0x0c, 0xfd, 0xfb, 0xff, 0x07, 0xf8, 0xfb, 0xf1, 0x09,
  0xf4, 0x05, 0xf4, 0x12, 0xfb, 0xf3, 0xee, 0xfc, 0x00, 0x0d, 0xf9, 0x15,
  0x04, 0x15, 0x02, 0xff, 0xf4, 0x01, 0xf7, 0xf0, 0x06, 0xf9, 0xfb, 0x0b,
  0xed, 0xfe, 0x0c, 0x12, 0xf2, 0xf8, 0xfd, 0x0b, 0xef, 0xfd, 0xf6, 0xf4,
  0x09, 0x05, 0xfd, 0xff, 0x04, 0xfe, 0xeb, 0xff, 0xf5, 0x08, 0xfa, 0xfd,
  0xfa, 0xf7, 0x08, 0x06, 0x00, 0x0a, 0xf3, 0x0a, 0x04, 0x08, 0x01, 0x0a,
  0x00, 0xdc, 0xf2, 0x07, 0xf9, 0x0d, 0x03, 0x1b, 0xf0, 0xdb, 0x0f, 0xfe,
  0xf2, 0x05, 0xfd, 0xf2, 0x10, 0xea, 0xf8, 0xf7, 0x13, 0x10, 0xf8, 0x03,
  0x06, 0x19, 0x02, 0xef, 0xfd, 0xfc, 0x0d, 0x00, 0xfe, 0x0b, 0xf8, 0xf8,
  0x32, 0xf0, 0x02, 0x07, 0x01, 0x05, 0x0d, 0x00, 0xf6, 0x04, 0x0a, 0x0d,
  0xf8, 0xde, 0x06, 0xfc, 0xf7, 0x08, 0x08, 0x0a, 0xf0, 0xe4, 0xf7, 0xfd,
  0xfb, 0xfc, 0xff, 0xff, 0xf1, 0xf4, 0xfe, 0xff, 0xfd, 0xfe, 0x01, 0xf9,
  0xfa, 0xf9, 0xeb, 0x03, 0xe7, 0xfb, 0x07, 0x02, 0x00, 0xfe, 0x10, 0x09,
  0xe5, 0x0d, 0xfd, 0xfa, 0x08, 0xea, 0x06, 0xfe, 0x08, 0x05, 0xfd, 0x0a,
  0x0c, 0xf6, 0x0d, 0x06, 0xf9, 0xf4, 0x0b, 0x13, 0xf9, 0x06, 0x0f, 0x0f,
  0xf0, 0xf3, 0x03, 0x08, 0x02, 0xfa, 0xf5, 0x11, 0xfa, 0x11, 0x0c, 0x0b,
  0xed, 0xfa, 0xf2, 0x03, 0xfb, 0x03, 0xf6, 0xf0, 0xff, 0xe4, 0xff, 0x01,
  0x13, 0x07, 0x02, 0x02, 0x0f, 0xf6, 0xfe, 0x04, 0x00, 0xfc, 0x02, 0x03,
  0x11, 0xf7, 0x01, 0x0f, 0xf8, 0x12, 0x11, 0x08, 0xf4, 0xf7, 0xf8, 0x0d,
  0xed, 0x01, 0xf9, 0x0b, 0xef, 0xe3, 0x06, 0x02, 0xf5, 0xff, 0xee, 0x04,
  0x01, 0xfc, 0x0c, 0x08, 0xfe, 0xfe, 0x00, 0xfb, 0xf7, 0xe1, 0x01, 0xfb,
  0x13, 0x07, 0xff, 0x10, 0x0b, 0x25, 0x03, 0x07, 0xfa, 0xff, 0xfa, 0xf6,
  0xf2, 0xf4, 0x09, 0x0d, 0x32, 0x02, 0x01, 0x01, 0x09, 0x15, 0x16, 0xfb,
  0xfd, 0x09, 0x05, 0xfb, 0x0c, 0xde, 0xf6, 0x12, 0x11, 0x04, 0x03, 0x11,
  0x06, 0xfb, 0xfe, 0x0b, 0xf1, 0xf8, 0xfe, 0xfb, 0xee, 0xef, 0xfa, 0x06,
  0x0d, 0x13, 0x04, 0xfe, 0x13, 0x01, 0xf8, 0x14, 0x05, 0x07, 0xf5, 0x10,
  0xf2, 0xfc, 0x0d, 0x04, 0x03, 0xff, 0xf7, 0x02, 0xf6, 0xfa, 0xf9, 0x08,
  0x04, 0x0d, 0x04, 0x03, 0xf7, 0x0c, 0xf4, 0x04, 0xf2, 0xf1, 0xef, 0x17,
  0x04, 0x1b, 0x04, 0x09, 0xef, 0xf2, 0x00, 0xff, 0xf3, 0x19, 0xfe, 0x10,
  0xf6, 0xfa, 0xfb, 0xff, 0x01, 0xfd, 0xf9, 0x0d, 0x08, 0x02, 0xec, 0x00,
  0xf5, 0xf8, 0xf4, 0xee, 0x06, 0x04, 0xf9, 0x03, 0x0c, 0xef, 0x0a, 0x12,
  0x04, 0x0a, 0x06, 0xf6, 0x03, 0x19, 0xfe, 0x02, 0xf0, 0x04, 0x04, 0xf6,
  0x00, 0xfb, 0x08, 0x05, 0x0e, 0x0d, 0x14, 0x0d, 0xf1, 0xeb, 0x01, 0x02,
  0xfd, 0x05, 0xf8, 0x0d, 0xfb, 0xd6, 0x07, 0xfa, 0xfb, 0xf5, 0xed, 0xf9,
  0xf3, 0xf0, 0xf7, 0xfa, 0xf1, 0x04, 0x0e, 0xfb, 0x00, 0x06, 0xfd, 0x06,
  0xf6, 0xf9, 0xef, 0xec, 0x0c, 0xeb, 0x0b, 0x0f, 0x1a, 0xf3, 0xfd, 0xf9,
  0x10, 0xff, 0x10, 0xfb, 0x0d, 0x01, 0xfb, 0xfd, 0xf5, 0xf5, 0x08, 0x0a,
  0x06, 0x06, 0x13, 0x00, 0x0d, 0xf9, 0xff, 0xec, 0xec, 0x02, 0x01, 0x07,
  0xfd, 0xef, 0x06, 0x0f, 0x07, 0x03, 0x0a, 0xf8, 0x0a, 0x10, 0xf8, 0xfe,
  0xeb, 0x0c, 0x0d, 0x11, 0x01, 0xfa, 0x06, 0xf4, 0x14, 0xf7, 0x0f, 0x07,
  0xf9, 0x03, 0x04, 0x0f, 0xf0, 0x08, 0x0a, 0xf7, 0xfb, 0xfb, 0x0f, 0xfa,
  0xf0, 0x07, 0x07, 0x0d, 0x09, 0x17, 0x12, 0x0e, 0xea, 0x16, 0x00, 0x05,
  0xf9, 0xfd, 0x0f, 0x0a, 0xf2, 0xfc, 0xf6, 0x05, 0x0a, 0xff, 0xff, 0xf4,
  0xfb, 0xf6, 0x00, 0x0b, 0x0e, 0xee, 0xfd, 0xf6, 0x07, 0x12, 0xee, 0x01,
  0x07, 0xf7, 0x03, 0x04, 0xf3, 0xfb, 0xf7, 0xfa, 0xfb, 0x0c, 0x0b, 0xf2,
  0xfe, 0x05, 0x05, 0x04, 0x0f, 0x0a, 0xfd, 0x00, 0x0d, 0xf9, 0x04, 0x15,
  0xf5, 0xf6, 0xf3, 0xf9, 0xee, 0x04, 0xfe, 0xfd, 0xf7, 0x05, 0x01, 0xff,
  0x14, 0x04, 0x0c, 0x02, 0x01, 0xf8, 0x09, 0x09, 0xe2, 0xfe, 0x00, 0xf3,
  0x16, 0x0d, 0xf8, 0xf4, 0xf7, 0x0d, 0x06, 0xf5, 0x0a, 0x08, 0xed, 0x02,
  0x1d, 0xf3, 0x05, 0x09, 0x03, 0xef, 0xfc, 0xee, 0x1b, 0x14, 0xff, 0x00,
  0xf7, 0x02, 0xf3, 0x0a, 0x0c, 0x02, 0xee, 0xfb, 0xf2, 0x10, 0x03, 0x0e,
  0xf5, 0x02, 0xf6, 0x07, 0xf2, 0x0d, 0x0e, 0x08, 0x06, 0xf7, 0x06, 0x0d,
  0xfb, 0x04, 0x11, 0x0a, 0x01, 0x02, 0xf3, 0xf9, 0xf3, 0x0a, 0x04, 0x01,
  0x00, 0xf1, 0x02, 0x03, 0xee, 0x0c, 0x1a, 0x0a, 0xf3, 0xf9, 0x05, 0xfb,
  0x06, 0x0e, 0x0c, 0xfd, 0x05, 0xf4, 0x08, 0xf8, 0x09, 0x06, 0xff, 0x01,
  0xf0, 0xee, 0xf9, 0x15, 0xf6, 0x09, 0x00, 0xfc, 0xe8, 0x0f, 0xfd, 0xfd,
  0x01, 0x0b, 0x03, 0xf5, 0xfb, 0x02, 0x0f, 0xfe, 0xfe, 0xf3, 0x04, 0xef,
  0xf8, 0xf6, 0x14, 0x00, 0x01, 0x00, 0x00, 0x13, 0xe1, 0xf8, 0x10, 0x05,
  0xf3, 0xf6, 0x00, 0xf0, 0x14, 0x0b, 0x18, 0xfc, 0xf8, 0xf8, 0xea, 0x0a,
  0xf1, 0x04, 0x04, 0x0c, 0xfa, 0xe4, 0xef, 0x06, 0xf6, 0xf7, 0x09, 0xf4,
  0x06, 0xfe, 0x01, 0xf7, 0x18, 0xf2, 0xff, 0xf2, 0xfe, 0xf8, 0xeb, 0xfc,
  0xf9, 0x0c, 0x0b, 0x06, 0x01, 0x03, 0x0a, 0x03, 0xef, 0xf6, 0xfa, 0x06,
  0xfd, 0xe1, 0xfd, 0x0e, 0x25, 0x05, 0x0b, 0xfb, 0x02, 0xf0, 0x11, 0xfa,
  0x05, 0x06, 0xfc, 0xf1, 0xef, 0xf5, 0xfd, 0xfc, 0xee, 0xf4, 0x06, 0x06,
  0x0b, 0x18, 0x0c, 0xfd, 0xe8, 0x02, 0x05, 0x12, 0xf9, 0x0d, 0x20, 0xfa,
  0xf7, 0xfc, 0xf8, 0xf9, 0xf2, 0x1a, 0x0e, 0x0a, 0xf8, 0x0b, 0x01, 0xfa,
  0xea, 0x04, 0x19, 0xf3, 0xfa, 0x07, 0xf8, 0x0f, 0xfa, 0x0e, 0x05, 0xf7,
  0xea, 0x01, 0xf6, 0x0a, 0x0f, 0xff, 0x09, 0xf1, 0x0d, 0xfa, 0xfb, 0x07,
  0xf6, 0x07, 0x14, 0x09, 0xfc, 0x08, 0x0a, 0x11, 0xfb, 0xf1, 0xfb, 0x06,
  0x03, 0xfb, 0x01, 0xff, 0x08, 0xe6, 0xfd, 0x05, 0xff, 0xf4, 0xfa, 0xef,
  0xfd, 0x01, 0xfe, 0x07, 0xf6, 0x0f, 0xed, 0x0f, 0x0d, 0x02, 0xfa, 0x09,
  0xfd, 0x06, 0x06, 0xf8, 0x01, 0xf3, 0x06, 0x09, 0x0a, 0xfd, 0x0b, 0xf3,
  0x0c, 0xeb, 0x00, 0x05, 0xfb, 0xef, 0x11, 0x00, 0xf1, 0xff, 0x02, 0x11,
  0xfc, 0x13, 0xf6, 0xed, 0xfc, 0x13, 0xf3, 0xf0, 0x12, 0xfe, 0xfb, 0xf5,
  0xff, 0xd1, 0xfe, 0xfb, 0xe9, 0x0b, 0x0b, 0x0a, 0xf2, 0x04, 0xfa, 0xf1,
  0xf1, 0x03, 0xf8, 0xfa, 0xfc, 0xdf, 0x06, 0x10, 0x00, 0x13, 0x1d, 0xfb,
  0x08, 0xf6, 0x01, 0xec, 0x0d, 0xf9, 0xf7, 0xfb, 0x10, 0xf5, 0xe9, 0xfa,
  0xfc, 0x01, 0xfa, 0xf0, 0xf0, 0xf6, 0xfe, 0xf4, 0xf8, 0x03, 0x05, 0x0d,
  0x0c, 0x14, 0x13, 0xf5, 0xf4, 0x0a, 0xf3, 0xf8, 0x0b, 0x11, 0x09, 0xec,
  0xef, 0x08, 0x07, 0x05, 0xf2, 0x08, 0x06, 0xf4, 0x04, 0xf9, 0xf8, 0x09,
  0x12, 0x09, 0x03, 0xfe, 0x01, 0xf0, 0xf9, 0xf8, 0x02, 0x12, 0x03, 0x0e,
  0xef, 0xf5, 0xf9, 0x10, 0x05, 0xf3, 0x01, 0xf2, 0xf2, 0xfd, 0xf4, 0xfc,
  0x05, 0x02, 0xf2, 0xfc, 0x02, 0x11, 0xfb, 0x06, 0xfa, 0xf2, 0xf2, 0xf5,
  0x00, 0x0a, 0x00, 0x0a, 0x01, 0xfb, 0xfd, 0x17, 0x17, 0xfd, 0x08, 0xf9,
  0xef, 0x0d, 0xf8, 0x09, 0x13, 0x09, 0xf8, 0x09, 0x08, 0xdc, 0x03, 0x02,
  0x11, 0xf7, 0x00, 0x06, 0xf3, 0xdc, 0xfa, 0x08, 0x18, 0x07, 0xec, 0xfe,
  0xf1, 0xf4, 0xf8, 0xfc, 0xf7, 0x09, 0xf5, 0xf8, 0x0e, 0x07, 0x01, 0x04,
  0x27, 0xf6, 0x0e, 0xf2, 0x04, 0xe4, 0xfe, 0x17, 0xf5, 0x10, 0x00, 0xf7,
  0x0c, 0x04, 0x07, 0x00, 0xf7, 0xf4, 0x01, 0x05, 0xfc, 0xee, 0xf5, 0x12,
  0x0b, 0x03, 0x02, 0xf4, 0x02, 0xe6, 0xfa, 0xfe, 0x06, 0xf6, 0xfe, 0xf4,
  0x01, 0xe9, 0xfd, 0xfe, 0xf5, 0xfd, 0xfe, 0xef, 0xfa, 0x02, 0xf8, 0xfd,
  0xf3, 0xfc, 0xfc, 0x0b, 0x01, 0x02, 0xf9, 0xfe, 0xed, 0x0e, 0x04, 0xfe,
  0x0d, 0x14, 0xf8, 0x01, 0xf9, 0x04, 0x01, 0xf8, 0x03, 0x13, 0xfc, 0x04,
  0x0e, 0x08, 0xfa, 0xfd, 0xf8, 0x09, 0xfb, 0xee, 0xfa, 0x0e, 0x09, 0xf0,
  0x11, 0x22, 0xff, 0xf5, 0xf0, 0x03, 0xfe, 0x0a, 0x05, 0x15, 0xf7, 0xe7,
  0x04, 0xfd, 0xee, 0xfc, 0x07, 0x16, 0x10, 0x01, 0x02, 0x0e, 0x02, 0x0c,
  0xf7, 0x03, 0x03, 0x05, 0xf8, 0xf2, 0xfd, 0x11, 0x0a, 0xfa, 0x08, 0x06,
  0x0c, 0xf4, 0x08, 0x00, 0xfc, 0x1f, 0x03, 0x17, 0xfd, 0xfe, 0xf7, 0xfa,
  0x03, 0xf6, 0xf5, 0xf7, 0x09, 0x00, 0xfb, 0x09, 0x09, 0xec, 0xfa, 0x0c,
  0x05, 0xf8, 0xfd, 0xf9, 0x09, 0x02, 0xfe, 0x0c, 0x0e, 0x04, 0x12, 0x03,
  0xf1, 0x00, 0x01, 0xfc, 0x0f, 0x08, 0xfd, 0xfa, 0x10, 0xf0, 0xfa, 0xf5,
  0xfb, 0xfc, 0x0d, 0xfd, 0xee, 0xe4, 0xfd, 0x03, 0xe6, 0xf2, 0xf3, 0x04,
  0x02, 0xfe, 0xfc, 0xfa, 0xf9, 0x03, 0x0a, 0xf1, 0x11, 0xde, 0xfa, 0xfc,
  0x12, 0xeb, 0xef, 0x0f, 0x02, 0xfc, 0xf2, 0xf3, 0xf1, 0xf7, 0x00, 0xef,
  0x01, 0x11, 0xfd, 0xef, 0x04, 0x0b, 0xfb, 0xfc, 0x01, 0xf8, 0xf4, 0xfb,
  0x0b, 0xeb, 0x00, 0xf8, 0xfa, 0x20, 0xff, 0xff, 0xee, 0x0d, 0x14, 0x09,
  0xfa, 0xfe, 0x05, 0x08, 0x1f, 0x0e, 0x03, 0x05, 0x01, 0x06, 0x00, 0x03,
  0xe3, 0xee, 0xff, 0xfd, 0x05, 0x0a, 0xff, 0xfa, 0x0c, 0xf4, 0xf7, 0xfa,
  0xf2, 0x12, 0xf4, 0xef, 0xfc, 0xf6, 0xfd, 0xed, 0xfb, 0xee, 0xf0, 0xf1,
  0xf4, 0x0b, 0x00, 0xfc, 0xf3, 0x01, 0x03, 0x05, 0xe9, 0x07, 0x0c, 0x09,
  0x03, 0x10, 0x05, 0x0c, 0xf5, 0x0e, 0xf6, 0xf7, 0x0b, 0x27, 0x01, 0x13,
  0x01, 0x0c, 0x12, 0x0b, 0xf5, 0xf0, 0xe9, 0x03, 0x0c, 0xfc, 0x17, 0x06,
  0x19, 0xdb, 0x00, 0x00, 0xf0, 0xf6, 0x01, 0x01, 0x0a, 0xf7, 0x01, 0x00,
  0x0e, 0xfd, 0xf0, 0xfa, 0xfa, 0xfd, 0xf8, 0x0d, 0x19, 0x03, 0x01, 0x03,
  0x0d, 0xdf, 0x01, 0xfb, 0xfe, 0x16, 0xf1, 0x13, 0xf6, 0x09, 0xfc, 0xf9,
  0xf3, 0xf9, 0x0a, 0xfa, 0xf7, 0xea, 0xf3, 0xfd, 0xff, 0x08, 0x10, 0xfc,
  0x0a, 0xd5, 0xf4, 0xfa, 0x14, 0xfe, 0x01, 0xf0, 0x03, 0xf9, 0x02, 0xfc,
  0xea, 0xfb, 0x04, 0xfe, 0x03, 0xf2, 0xfc, 0xfc, 0x0a, 0x0e, 0x02, 0x04,
  0x00, 0xde, 0x01, 0x02, 0xf3, 0xf9, 0x03, 0xf5, 0xf6, 0xf0, 0x00, 0x09,
  0xea, 0xf4, 0x00, 0xea, 0xfd, 0xe3, 0xf4, 0xf1, 0xee, 0xf7, 0xfc, 0xf3,
  0x07, 0x02, 0x0d, 0x02, 0xe5, 0xfc, 0xf7, 0xf7, 0xff, 0xed, 0x0e, 0xf3,
  0xfd, 0xfe, 0x0c, 0xed, 0xfe, 0xf8, 0xf2, 0xfa, 0xed, 0x02, 0xeb, 0xfe,
  0xf9, 0xf5, 0xf9, 0xf7, 0xf5, 0x06, 0x11, 0x0d, 0xff, 0xf7, 0xf4, 0x00,
  0xff, 0xff, 0xfc, 0x05, 0x00, 0x0f, 0xf4, 0x0c, 0xf4, 0xfa, 0x05, 0x09,
  0x10, 0x13, 0xf5, 0xf1, 0xf2, 0xf8, 0x0c, 0x07, 0xfe, 0xf4, 0x07, 0x05,
  0x04, 0xf7, 0xf6, 0x0b, 0x03, 0xdc, 0xf4, 0x00, 0x06, 0xf8, 0x03, 0xea,
  0x0a, 0xff, 0xf4, 0xfc, 0xe9, 0x0f, 0x0a, 0xea, 0xfa, 0xfd, 0xf4, 0x0f,
  0x26, 0xff, 0x0d, 0x06, 0x00, 0xe4, 0xff, 0x0f, 0x05, 0xf3, 0xfa, 0xeb,
  0x07, 0xf1, 0xeb, 0xfb, 0xfa, 0x01, 0xff, 0xf6, 0xfe, 0xe6, 0xf7, 0xff,
  0xe6, 0xee, 0xfe, 0xf5, 0x07, 0xd1, 0xeb, 0x0f, 0x05, 0x09, 0x02, 0xe6,
  0xf0, 0xec, 0xff, 0xf6, 0xf5, 0x0c, 0xf4, 0xf2, 0x01, 0xe5, 0xfa, 0xee,
  0xf7, 0x05, 0x05, 0xf4, 0xef, 0xd9, 0xfe, 0xf9, 0xf1, 0x04, 0x00, 0x00,
  0x0d, 0xef, 0xf5, 0xfc, 0xf1, 0xfd, 0xf1, 0xfa, 0xf8, 0xe1, 0xfa, 0xf7,
  0xf9, 0xfa, 0xeb, 0xf7, 0xf8, 0xd1, 0x00, 0xed, 0xf3, 0x12, 0x07, 0xff,
  0xf9, 0xda, 0xeb, 0xfa, 0xf5, 0x14, 0xf3, 0xfd, 0xfc, 0xdb, 0x09, 0x06,
  0xfd, 0xf9, 0xf3, 0xef, 0xec, 0xec, 0xee, 0x0b, 0x03, 0xfd, 0xf8, 0x02,
  0xa2, 0xfe, 0xff, 0xff, 0x04, 0x00, 0x00, 0x00, 0x0c, 0x00, 0x00, 0x00,
  0x01, 0xff, 0xff, 0xff, 0x98, 0x02, 0x00, 0x00, 0x67, 0xfe, 0xff, 0xff,
  0x24, 0xfc, 0xff, 0xff, 0x0f, 0x00, 0x00, 0x00, 0x54, 0x4f, 0x43, 0x4f,
  0x20, 0x43, 0x6f, 0x6e, 0x76, 0x65, 0x72, 0x74, 0x65, 0x64, 0x2e, 0x00,
  0x01, 0x00, 0x00, 0x00, 0x04, 0x00, 0x00, 0x00, 0x24, 0xfb, 0xff, 0xff,
  0x68, 0x01, 0x00, 0x00, 0x5c, 0x01, 0x00, 0x00, 0x50, 0x01, 0x00, 0x00,
  0x04, 0x00, 0x00, 0x00, 0x04, 0x00, 0x00, 0x00, 0xf4, 0x00, 0x00, 0x00,
  0x90, 0x00, 0x00, 0x00, 0x48, 0x00, 0x00, 0x00, 0x04, 0x00, 0x00, 0x00,
  0xce, 0xff, 0xff, 0xff, 0x00, 0x00, 0x00, 0x09, 0x03, 0x00, 0x00, 0x00,
  0x1c, 0x00, 0x00, 0x00, 0x10, 0x00, 0x00, 0x00, 0x04, 0x00, 0x00, 0x00,
  0x1a, 0xff, 0xff, 0xff, 0x00, 0x00, 0x80, 0x3f, 0x01, 0x00, 0x00, 0x00,
  0x09, 0x00, 0x00, 0x00, 0x01, 0x00, 0x00, 0x00, 0x06, 0x00, 0x00, 0x00,
  0x00, 0x00, 0x0e, 0x00, 0x18, 0x00, 0x08, 0x00, 0x0c, 0x00, 0x10, 0x00,
  0x07, 0x00, 0x14, 0x00, 0x0e, 0x00, 0x00, 0x00, 0x00, 0x00, 0x00, 0x08,
  0x01, 0x00, 0x00, 0x00, 0x18, 0x00, 0x00, 0x00, 0x0c, 0x00, 0x00, 0x00,
  0x04, 0x00, 0x00, 0x00, 0xc4, 0xfc, 0xff, 0xff, 0x01, 0x00, 0x00, 0x00,
  0x06, 0x00, 0x00, 0x00, 0x03, 0x00, 0x00, 0x00, 0x02, 0x00, 0x00, 0x00,
  0x07, 0x00, 0x00, 0x00, 0x01, 0x00, 0x00, 0x00, 0x00, 0x00, 0x0e, 0x00,
  0x16, 0x00, 0x00, 0x00, 0x08, 0x00, 0x0c, 0x00, 0x07, 0x00, 0x10, 0x00,
  0x0e, 0x00, 0x00, 0x00, 0x00, 0x00, 0x00, 0x02, 0x38, 0x00, 0x00, 0x00,
  0x2c, 0x00, 0x00, 0x00, 0x14, 0x00, 0x00, 0x00, 0x00, 0x00, 0x0e, 0x00,
  0x14, 0x00, 0x00, 0x00, 0x08, 0x00, 0x0c, 0x00, 0x10, 0x00, 0x07, 0x00,
  0x0e, 0x00, 0x00, 0x00, 0x00, 0x00, 0x00, 0x01, 0x02, 0x00, 0x00, 0x00,
  0x02, 0x00, 0x00, 0x00, 0x08, 0x00, 0x00, 0x00, 0x01, 0x00, 0x00, 0x00,
  0x02, 0x00, 0x00, 0x00, 0x03, 0x00, 0x00, 0x00, 0x04, 0x00, 0x00, 0x00,
  0x08, 0x00, 0x00, 0x00, 0x00, 0x00, 0x00, 0x00, 0x00, 0x00, 0x0e, 0x00,
  0x1a, 0x00, 0x08, 0x00, 0x0c, 0x00, 0x10, 0x00, 0x07, 0x00, 0x14, 0x00,
  0x0e, 0x00, 0x00, 0x00, 0x00, 0x00, 0x00, 0x11, 0x02, 0x00, 0x00, 0x00,
  0x38, 0x00, 0x00, 0x00, 0x2c, 0x00, 0x00, 0x00, 0x0c, 0x00, 0x00, 0x00,
  0x00, 0x00, 0x06, 0x00, 0x08, 0x00, 0x04, 0x00, 0x06, 0x00, 0x00, 0x00,
  0x04, 0x00, 0x00, 0x00, 0x04, 0x00, 0x00, 0x00, 0xff, 0xff, 0xff, 0xff,
  0x31, 0x00, 0x00, 0x00, 0x28, 0x00, 0x00, 0x00, 0x01, 0x00, 0x00, 0x00,
  0x01, 0x00, 0x00, 0x00, 0x04, 0x00, 0x00, 0x00, 0x02, 0x00, 0x00, 0x00,
  0x03, 0x00, 0x00, 0x00, 0x05, 0x00, 0x00, 0x00, 0x01, 0x00, 0x00, 0x00,
  0x09, 0x00, 0x00, 0x00, 0x01, 0x00, 0x00, 0x00, 0x03, 0x00, 0x00, 0x00,
  0x0a, 0x00, 0x00, 0x00, 0x34, 0x04, 0x00, 0x00, 0xcc, 0x03, 0x00, 0x00,
  0x4c, 0x03, 0x00, 0x00, 0xdc, 0x02, 0x00, 0x00, 0x60, 0x02, 0x00, 0x00,
  0x20, 0x02, 0x00, 0x00, 0xb0, 0x01, 0x00, 0x00, 0x44, 0x01, 0x00, 0x00,
  0x70, 0x00, 0x00, 0x00, 0x04, 0x00, 0x00, 0x00, 0x02, 0xfc, 0xff, 0xff,
  0x00, 0x00, 0x00, 0x09, 0x44, 0x00, 0x00, 0x00, 0x07, 0x00, 0x00, 0x00,
  0x28, 0x00, 0x00, 0x00, 0x04, 0x00, 0x00, 0x00, 0xf4, 0xfb, 0xff, 0xff,
  0x14, 0x00, 0x00, 0x00, 0x04, 0x00, 0x00, 0x00, 0x01, 0x00, 0x00, 0x00,
  0x80, 0xff, 0xff, 0xff, 0xff, 0xff, 0xff, 0xff, 0x01, 0x00, 0x00, 0x00,
  0x00, 0x00, 0x80, 0x3b, 0x0e, 0x00, 0x00, 0x00, 0x6c, 0x61, 0x62, 0x65,
  0x6c, 0x73, 0x5f, 0x73, 0x6f, 0x66, 0x74, 0x6d, 0x61, 0x78, 0x00, 0x00,
  0x02, 0x00, 0x00, 0x00, 0x01, 0x00, 0x00, 0x00, 0x03, 0x00, 0x00, 0x00,
  0x00, 0x00, 0x0e, 0x00, 0x1a, 0x00, 0x08, 0x00, 0x07, 0x00, 0x0c, 0x00,
  0x10, 0x00, 0x14, 0x00, 0x0e, 0x00, 0x00, 0x00, 0x00, 0x00, 0x00, 0x09,
  0xb4, 0x00, 0x00, 0x00, 0x08, 0x00, 0x00, 0x00, 0x94, 0x00, 0x00, 0x00,
  0x18, 0x00, 0x00, 0x00, 0x00, 0x00, 0x12, 0x00, 0x10, 0x00, 0x00, 0x00,
  0x00, 0x00, 0x04, 0x00, 0x08, 0x00, 0x00, 0x00, 0x00, 0x00, 0x0c, 0x00,
  0x12, 0x00, 0x00, 0x00, 0x50, 0x00, 0x00, 0x00, 0x08, 0x00, 0x00, 0x00,
  0x03, 0x00, 0x00, 0x00, 0x08, 0x00, 0x00, 0x00, 0x00, 0x00, 0x00, 0x00,
  0x00, 0x00, 0x00, 0x00, 0x00, 0x00, 0x00, 0x00, 0x00, 0x00, 0x00, 0x00,
  0x00, 0x00, 0x00, 0x00, 0x00, 0x00, 0x00, 0x00, 0x00, 0x00, 0x00, 0x00,
  0x00, 0x00, 0x00, 0x00, 0x00, 0x00, 0x00, 0x00, 0x00, 0x00, 0x00, 0x00,
  0x00, 0x00, 0x00, 0x00, 0x00, 0x00, 0x00, 0x00, 0x00, 0x00, 0x00, 0x00,
  0x00, 0x00, 0x00, 0x00, 0x00, 0x00, 0x00, 0x00, 0x00, 0x00, 0x00, 0x00,
  0x08, 0x00, 0x00, 0x00, 0x89, 0xfd, 0x11, 0x3b, 0x2d, 0x5f, 0xc6, 0x3a,
  0xb1, 0x19, 0x0c, 0x3b, 0x31, 0xc0, 0xb9, 0x39, 0xf8, 0x70, 0x25, 0x3b,
  0x54, 0xc8, 0x97, 0x39, 0x70, 0x48, 0x7b, 0x3a, 0x6e, 0x38, 0xc2, 0x39,
  0x12, 0x00, 0x00, 0x00, 0x66, 0x69, 0x72, 0x73, 0x74, 0x5f, 0x77, 0x65,
  0x69, 0x67, 0x68, 0x74, 0x73, 0x2f, 0x72, 0x65, 0x61, 0x64, 0x00, 0x00,
  0x04, 0x00, 0x00, 0x00, 0x01, 0x00, 0x00, 0x00, 0x0a, 0x00, 0x00, 0x00,
  0x08, 0x00, 0x00, 0x00, 0x08, 0x00, 0x00, 0x00, 0x3a, 0xfd, 0xff, 0xff,
  0x00, 0x00, 0x00, 0x09, 0x54, 0x00, 0x00, 0x00, 0x02, 0x00, 0x00, 0x00,
  0x28, 0x00, 0x00, 0x00, 0x04, 0x00, 0x00, 0x00, 0x2c, 0xfd, 0xff, 0xff,
  0x14, 0x00, 0x00, 0x00, 0x04, 0x00, 0x00, 0x00, 0x01, 0x00, 0x00, 0x00,
  0x00, 0x00, 0x00, 0x00, 0x00, 0x00, 0x00, 0x00, 0x01, 0x00, 0x00, 0x00,
  0xc7, 0x9f, 0x70, 0x3a, 0x1f, 0x00, 0x00, 0x00, 0x66, 0x69, 0x6e, 0x61,
  0x6c, 0x5f, 0x66, 0x63, 0x5f, 0x77, 0x65, 0x69, 0x67, 0x68, 0x74, 0x73,
  0x2f, 0x72, 0x65, 0x61, 0x64, 0x2f, 0x74, 0x72, 0x61, 0x6e, 0x73, 0x70,
  0x6f, 0x73, 0x65, 0x00, 0x02, 0x00, 0x00, 0x00, 0x03, 0x00, 0x00, 0x00,
  0xa0, 0x0f, 0x00, 0x00, 0xa2, 0xfd, 0xff, 0xff, 0x00, 0x00, 0x00, 0x09,
  0x58, 0x00, 0x00, 0x00, 0x04, 0x00, 0x00, 0x00, 0x44, 0x00, 0x00, 0x00,
  0x04, 0x00, 0x00, 0x00, 0x74, 0xfe, 0xff, 0xff, 0x30, 0x00, 0x00, 0x00,
  0x24, 0x00, 0x00, 0x00, 0x18, 0x00, 0x00, 0x00, 0x04, 0x00, 0x00, 0x00,
  0x01, 0x00, 0x00, 0x00, 0xef, 0xff, 0xff, 0xff, 0xff, 0xff, 0xff, 0xff,
  0x00, 0x00, 0x00, 0x00, 0x01, 0x00, 0x00, 0x00, 0xf6, 0x25, 0x82, 0x3e,
  0x01, 0x00, 0x00, 0x00, 0x07, 0x2a, 0x12, 0x42, 0x01, 0x00, 0x00, 0x00,
  0x31, 0x3b, 0xe2, 0xc1, 0x05, 0x00, 0x00, 0x00, 0x61, 0x64, 0x64, 0x5f,
  0x31, 0x00, 0x00, 0x00, 0x02, 0x00, 0x00, 0x00, 0x01, 0x00, 0x00, 0x00,
  0x03, 0x00, 0x00, 0x00, 0x0e, 0xfe, 0xff, 0xff, 0x00, 0x00, 0x00, 0x02,
  0x2c, 0x00, 0x00, 0x00, 0x06, 0x00, 0x00, 0x00, 0x10, 0x00, 0x00, 0x00,
  0x08, 0x00, 0x00, 0x00, 0x04, 0x00, 0x04, 0x00, 0x04, 0x00, 0x00, 0x00,
  0x0f, 0x00, 0x00, 0x00, 0x52, 0x65, 0x73, 0x68, 0x61, 0x70, 0x65, 0x5f,
  0x32, 0x2f, 0x73, 0x68, 0x61, 0x70, 0x65, 0x00, 0x01, 0x00, 0x00, 0x00,
  0x04, 0x00, 0x00, 0x00, 0x4a, 0xfe, 0xff, 0xff, 0x00, 0x00, 0x00, 0x09,
  0x5c, 0x00, 0x00, 0x00, 0x05, 0x00, 0x00, 0x00, 0x44, 0x00, 0x00, 0x00,
  0x04, 0x00, 0x00, 0x00, 0x1c, 0xff, 0xff, 0xff, 0x30, 0x00, 0x00, 0x00,
  0x24, 0x00, 0x00, 0x00, 0x18, 0x00, 0x00, 0x00, 0x04, 0x00, 0x00, 0x00,
  0x01, 0x00, 0x00, 0x00, 0x80, 0xff, 0xff, 0xff, 0xff, 0xff, 0xff, 0xff,
  0x00, 0x00, 0x00, 0x00, 0x01, 0x00, 0x00, 0x00, 0x41, 0x41, 0xd1, 0x3d,
  0x01, 0x00, 0x00, 0x00, 0x00, 0x70, 0xd0, 0x41, 0x01, 0x00, 0x00, 0x00,
  0x00, 0x00, 0x00, 0x00, 0x09, 0x00, 0x00, 0x00, 0x52, 0x65, 0x73, 0x68,
  0x61, 0x70, 0x65, 0x5f, 0x32, 0x00, 0x00, 0x00, 0x04, 0x00, 0x00, 0x00,
  0x01, 0x00, 0x00, 0x00, 0x31, 0x00, 0x00, 0x00, 0x28, 0x00, 0x00, 0x00,
  0x01, 0x00, 0x00, 0x00, 0xc2, 0xfe, 0xff, 0xff, 0x00, 0x00, 0x00, 0x09,
  0x58, 0x00, 0x00, 0x00, 0x0a, 0x00, 0x00, 0x00, 0x40, 0x00, 0x00, 0x00,
  0x04, 0x00, 0x00, 0x00, 0x94, 0xff, 0xff, 0xff, 0x2c, 0x00, 0x00, 0x00,
  0x20, 0x00, 0x00, 0x00, 0x14, 0x00, 0x00, 0x00, 0x04, 0x00, 0x00, 0x00,
  0x01, 0x00, 0x00, 0x00, 0x80, 0xff, 0xff, 0xff, 0xff, 0xff, 0xff, 0xff,
  0x01, 0x00, 0x00, 0x00, 0x41, 0x41, 0xd1, 0x3d, 0x01, 0x00, 0x00, 0x00,
  0x00, 0x70, 0xd0, 0x41, 0x01, 0x00, 0x00, 0x00, 0x00, 0x00, 0x00, 0x00,
  0x09, 0x00, 0x00, 0x00, 0x52, 0x65, 0x73, 0x68, 0x61, 0x70, 0x65, 0x5f,
  0x31, 0x00, 0x00, 0x00, 0x02, 0x00, 0x00, 0x00, 0x01, 0x00, 0x00, 0x00,
  0xa8, 0x07, 0x00, 0x00, 0x2e, 0xff, 0xff, 0xff, 0x00, 0x00, 0x00, 0x09,
  0x60, 0x00, 0x00, 0x00, 0x09, 0x00, 0x00, 0x00, 0x4c, 0x00, 0x00, 0x00,
  0x10, 0x00, 0x00, 0x00, 0x0c, 0x00, 0x14, 0x00, 0x04, 0x00, 0x08, 0x00,
  0x0c, 0x00, 0x10, 0x00, 0x0c, 0x00, 0x00, 0x00, 0x2c, 0x00, 0x00, 0x00,
  0x20, 0x00, 0x00, 0x00, 0x14, 0x00, 0x00, 0x00, 0x04, 0x00, 0x00, 0x00,
  0x01, 0x00, 0x00, 0x00, 0x80, 0xff, 0xff, 0xff, 0xff, 0xff, 0xff, 0xff,
  0x01, 0x00, 0x00, 0x00, 0xa5, 0x02, 0x18, 0x3e, 0x01, 0x00, 0x00, 0x00,
  0xa2, 0x6a, 0x17, 0x42, 0x01, 0x00, 0x00, 0x00, 0x00, 0x00, 0x00, 0x00,
  0x04, 0x00, 0x00, 0x00, 0x52, 0x65, 0x6c, 0x75, 0x00, 0x00, 0x00, 0x00,
  0x04, 0x00, 0x00, 0x00, 0x01, 0x00, 0x00, 0x00, 0x19, 0x00, 0x00, 0x00,
  0x14, 0x00, 0x00, 0x00, 0x08, 0x00, 0x00, 0x00, 0xaa, 0xff, 0xff, 0xff,
  0x00, 0x00, 0x00, 0x02, 0x44, 0x00, 0x00, 0x00, 0x01, 0x00, 0x00, 0x00,
  0x2c, 0x00, 0x00, 0x00, 0x04, 0x00, 0x00, 0x00, 0x9c, 0xff, 0xff, 0xff,
  0x18, 0x00, 0x00, 0x00, 0x04, 0x00, 0x00, 0x00, 0x01, 0x00, 0x00, 0x00,
  0x00, 0x00, 0x00, 0x00, 0x00, 0x00, 0x00, 0x00, 0x00, 0x00, 0x00, 0x00,
  0x01, 0x00, 0x00, 0x00, 0x5a, 0xe1, 0x0e, 0x39, 0x0b, 0x00, 0x00, 0x00,
  0x4d, 0x61, 0x74, 0x4d, 0x75, 0x6c, 0x5f, 0x62, 0x69, 0x61, 0x73, 0x00,
  0x01, 0x00, 0x00, 0x00, 0x03, 0x00, 0x00, 0x00, 0x00, 0x00, 0x0e, 0x00,
  0x18, 0x00, 0x08, 0x00, 0x07, 0x00, 0x0c, 0x00, 0x10, 0x00, 0x14, 0x00,
  0x0e, 0x00, 0x00, 0x00, 0x00, 0x00, 0x00, 0x02, 0xa0, 0x00, 0x00, 0x00,
  0x03, 0x00, 0x00, 0x00, 0x88, 0x00, 0x00, 0x00, 0x10, 0x00, 0x00, 0x00,
  0x0c, 0x00, 0x0c, 0x00, 0x00, 0x00, 0x00, 0x00, 0x04, 0x00, 0x08, 0x00,
  0x0c, 0x00, 0x00, 0x00, 0x4c, 0x00, 0x00, 0x00, 0x04, 0x00, 0x00, 0x00,
  0x08, 0x00, 0x00, 0x00, 0x00, 0x00, 0x00, 0x00, 0x00, 0x00, 0x00, 0x00,
  0x00, 0x00, 0x00, 0x00, 0x00, 0x00, 0x00, 0x00, 0x00, 0x00, 0x00, 0x00,
  0x00, 0x00, 0x00, 0x00, 0x00, 0x00, 0x00, 0x00, 0x00, 0x00, 0x00, 0x00,
  0x00, 0x00, 0x00, 0x00, 0x00, 0x00, 0x00, 0x00, 0x00, 0x00, 0x00, 0x00,
  0x00, 0x00, 0x00, 0x00, 0x00, 0x00, 0x00, 0x00, 0x00, 0x00, 0x00, 0x00,
  0x00, 0x00, 0x00, 0x00, 0x00, 0x00, 0x00, 0x00, 0x08, 0x00, 0x00, 0x00,
  0x67, 0xaa, 0x6e, 0x39, 0x44, 0x26, 0x22, 0x39, 0x5f, 0x09, 0x65, 0x39,
  0x41, 0xd5, 0x17, 0x38, 0x66, 0x3b, 0x87, 0x39, 0x7a, 0x22, 0xf8, 0x37,
  0x31, 0x66, 0xcd, 0x38, 0x93, 0xc1, 0x1e, 0x38, 0x0b, 0x00, 0x00, 0x00,
  0x43, 0x6f, 0x6e, 0x76, 0x32, 0x44, 0x5f, 0x62, 0x69, 0x61, 0x73, 0x00,
  0x01, 0x00, 0x00, 0x00, 0x08, 0x00, 0x00, 0x00, 0x04, 0x00, 0x00, 0x00,
  0x4c, 0x00, 0x00, 0x00, 0x30, 0x00, 0x00, 0x00, 0x1c, 0x00, 0x00, 0x00,
  0x04, 0x00, 0x00, 0x00, 0xe6, 0xff, 0xff, 0xff, 0x00, 0x00, 0x00, 0x19,
  0x02, 0x00, 0x00, 0x00, 0x00, 0x00, 0x06, 0x00, 0x06, 0x00, 0x05, 0x00,
  0x06, 0x00, 0x00, 0x00, 0x00, 0x16, 0x0a, 0x00, 0x0e, 0x00, 0x07, 0x00,
  0x00, 0x00, 0x08, 0x00, 0x0a, 0x00, 0x00, 0x00, 0x00, 0x00, 0x00, 0x09,
  0x04, 0x00, 0x00, 0x00, 0x00, 0x00, 0x0a, 0x00, 0x0c, 0x00, 0x07, 0x00,
  0x00, 0x00, 0x08, 0x00, 0x0a, 0x00, 0x00, 0x00, 0x00, 0x00, 0x00, 0x04,
  0x03, 0x00, 0x00, 0x00
};
unsigned int models_tiny_conv_silence_10_0_bgvol_0_1_model_tflite_len = 14704;
