unsigned char models_tiny_conv_silence_20_0_bgvol_0_model_tflite[] = {
  0x1c, 0x00, 0x00, 0x00, 0x54, 0x46, 0x4c, 0x33, 0x00, 0x00, 0x12, 0x00,
  0x1c, 0x00, 0x04, 0x00, 0x08, 0x00, 0x0c, 0x00, 0x10, 0x00, 0x14, 0x00,
  0x00, 0x00, 0x18, 0x00, 0x12, 0x00, 0x00, 0x00, 0x03, 0x00, 0x00, 0x00,
  0xf0, 0x38, 0x00, 0x00, 0x90, 0x32, 0x00, 0x00, 0x78, 0x32, 0x00, 0x00,
  0x3c, 0x00, 0x00, 0x00, 0x04, 0x00, 0x00, 0x00, 0x01, 0x00, 0x00, 0x00,
  0x0c, 0x00, 0x00, 0x00, 0x08, 0x00, 0x0c, 0x00, 0x04, 0x00, 0x08, 0x00,
  0x08, 0x00, 0x00, 0x00, 0x08, 0x00, 0x00, 0x00, 0x0b, 0x00, 0x00, 0x00,
  0x13, 0x00, 0x00, 0x00, 0x6d, 0x69, 0x6e, 0x5f, 0x72, 0x75, 0x6e, 0x74,
  0x69, 0x6d, 0x65, 0x5f, 0x76, 0x65, 0x72, 0x73, 0x69, 0x6f, 0x6e, 0x00,
  0x0c, 0x00, 0x00, 0x00, 0x30, 0x32, 0x00, 0x00, 0x14, 0x32, 0x00, 0x00,
  0x24, 0x03, 0x00, 0x00, 0xf4, 0x02, 0x00, 0x00, 0xec, 0x02, 0x00, 0x00,
  0xe4, 0x02, 0x00, 0x00, 0xc4, 0x02, 0x00, 0x00, 0xbc, 0x02, 0x00, 0x00,
  0x2c, 0x00, 0x00, 0x00, 0x24, 0x00, 0x00, 0x00, 0x1c, 0x00, 0x00, 0x00,
  0x04, 0x00, 0x00, 0x00, 0xba, 0xcc, 0xff, 0xff, 0x04, 0x00, 0x00, 0x00,
  0x05, 0x00, 0x00, 0x00, 0x31, 0x2e, 0x35, 0x2e, 0x30, 0x00, 0x00, 0x00,
  0x38, 0xca, 0xff, 0xff, 0x3c, 0xca, 0xff, 0xff, 0xd6, 0xcc, 0xff, 0xff,
  0x04, 0x00, 0x00, 0x00, 0x80, 0x02, 0x00, 0x00, 0xc9, 0xee, 0xe5, 0xf9,
  0x34, 0x03, 0x1c, 0xf6, 0xb3, 0xbf, 0x8b, 0x40, 0x18, 0xc1, 0x52, 0x2a,
  0xec, 0xde, 0xea, 0x2d, 0xf9, 0xcd, 0xdb, 0x81, 0xac, 0xa6, 0xc9, 0xe6,
  0x33, 0xb4, 0x1d, 0xe4, 0xb6, 0xdd, 0xc5, 0x09, 0x03, 0xed, 0xcf, 0xed,
  0xa8, 0xba, 0x81, 0xfd, 0xe8, 0xbd, 0xdc, 0x10, 0x0b, 0xeb, 0xdc, 0xbe,
  0xd9, 0xf3, 0x0b, 0x21, 0xf7, 0x99, 0xb0, 0xef, 0xff, 0xc1, 0x33, 0x18,
  0xed, 0x07, 0xcc, 0x5d, 0x09, 0xfd, 0x3b, 0x09, 0xd4, 0xa8, 0xf7, 0xf8,
  0x20, 0x94, 0x74, 0x41, 0x9d, 0xc5, 0xf3, 0xc2, 0xd4, 0xc0, 0xdc, 0x89,
  0xc6, 0xac, 0xe6, 0xfb, 0x2a, 0xad, 0x12, 0xb0, 0x25, 0xd7, 0xe0, 0x0c,
  0xe5, 0xdc, 0xad, 0xe1, 0xfb, 0xc7, 0xc5, 0x0a, 0xec, 0xbe, 0xd7, 0x23,
  0xd1, 0xdb, 0xb6, 0xe5, 0xbb, 0xd9, 0x0f, 0x26, 0xfc, 0x8f, 0x05, 0xd3,
  0xcd, 0xb0, 0x10, 0x1f, 0xf8, 0xe3, 0xbe, 0x63, 0xc2, 0xf1, 0x59, 0x2d,
  0xab, 0xac, 0x08, 0x0d, 0x0d, 0x8b, 0x60, 0x1d, 0x1e, 0xd3, 0x0b, 0xdf,
  0x97, 0xa9, 0xd1, 0xa6, 0x94, 0x9b, 0x19, 0xa8, 0x08, 0xae, 0x11, 0x8d,
  0x09, 0xd4, 0xbd, 0xd0, 0xa9, 0xc3, 0xbf, 0xfc, 0xb6, 0xb7, 0xda, 0x0c,
  0xc9, 0xc5, 0xd8, 0x2a, 0xfd, 0xe8, 0xd8, 0x21, 0xd9, 0xe5, 0x1c, 0x33,
  0xe8, 0x81, 0x9b, 0xec, 0xb0, 0xd3, 0x0b, 0x3d, 0xe0, 0xf1, 0xea, 0x03,
  0xcd, 0xd6, 0x4e, 0x50, 0xf8, 0xbb, 0xca, 0xdd, 0xed, 0x92, 0x37, 0xf3,
  0x17, 0xd9, 0x25, 0x18, 0x9d, 0xd0, 0xd4, 0x9c, 0xb1, 0xa2, 0xf2, 0x0d,
  0xf1, 0xa8, 0xe6, 0x82, 0x23, 0xd9, 0xb7, 0xcb, 0xba, 0xdc, 0xb6, 0x17,
  0x10, 0xce, 0xaa, 0x00, 0xb0, 0xd6, 0xfb, 0x35, 0x0a, 0xdc, 0xd0, 0x2d,
  0x17, 0xe9, 0x44, 0x55, 0xad, 0x91, 0xd3, 0xf5, 0xde, 0xe6, 0x36, 0x1c,
  0x07, 0xf3, 0xae, 0x8c, 0xd8, 0xd7, 0x5a, 0x79, 0x06, 0xa6, 0xa9, 0xa3,
  0xf3, 0xac, 0x42, 0x0b, 0x0d, 0xcb, 0xcd, 0x39, 0xbd, 0xa3, 0xeb, 0xb5,
  0xf5, 0xa9, 0xe7, 0x7f, 0x17, 0xaf, 0xc5, 0xb2, 0x04, 0xfa, 0xcd, 0x3d,
  0x10, 0xc6, 0xc1, 0x1a, 0xe3, 0xc1, 0x86, 0xcd, 0xb7, 0xc5, 0xdb, 0x11,
  0xd9, 0xe3, 0xac, 0x02, 0x25, 0xee, 0x58, 0x3b, 0xb4, 0x9a, 0xdf, 0x0a,
  0x26, 0xdd, 0x34, 0x0c, 0x9f, 0xee, 0x05, 0xb9, 0xf7, 0xc4, 0x31, 0x5e,
  0x9b, 0xa9, 0xed, 0x06, 0x2f, 0x99, 0x2a, 0x62, 0x2d, 0xa8, 0xf9, 0x2d,
  0xf3, 0xb7, 0xca, 0xb5, 0xe3, 0xa6, 0xc3, 0x0a, 0x4c, 0x84, 0xcf, 0xf0,
  0xaf, 0xe9, 0xb5, 0xd9, 0x4e, 0xcd, 0xa4, 0x04, 0xba, 0xc7, 0xb7, 0x20,
  0x04, 0xb9, 0xfa, 0x20, 0xd8, 0xcf, 0xfb, 0x21, 0x2d, 0xd5, 0x29, 0xfc,
  0xfc, 0x93, 0xd4, 0x00, 0x62, 0xce, 0x1f, 0xea, 0x17, 0xf0, 0x11, 0xe3,
  0xea, 0xd0, 0x33, 0x25, 0x2a, 0xb5, 0xc7, 0x11, 0x32, 0x97, 0x0b, 0x51,
  0xb2, 0xab, 0x30, 0x04, 0xf5, 0xbd, 0xd7, 0xc3, 0x46, 0xbf, 0x10, 0xf6,
  0x4d, 0x83, 0xcb, 0xf9, 0x19, 0xf1, 0xfd, 0xc2, 0x32, 0xc4, 0xcb, 0x18,
  0xd8, 0xc9, 0xa6, 0x43, 0x24, 0xb9, 0xe8, 0x22, 0xb7, 0xd9, 0xe9, 0x24,
  0x2e, 0xe5, 0x04, 0xd8, 0xd1, 0x98, 0xd9, 0x07, 0x63, 0xc7, 0x0a, 0xdb,
  0x17, 0xd6, 0xae, 0x3b, 0xd7, 0xc1, 0x60, 0x1a, 0x93, 0xb1, 0xed, 0x4c,
  0x19, 0x9f, 0xea, 0x37, 0xef, 0xa4, 0x05, 0xeb, 0xbd, 0xaa, 0xea, 0xbe,
  0xcc, 0xbb, 0x05, 0xc1, 0x21, 0xb7, 0xb6, 0xec, 0x41, 0xeb, 0xd9, 0xa9,
  0x1f, 0xcc, 0xdc, 0x06, 0x13, 0xa5, 0x88, 0x13, 0x1e, 0xcb, 0xc7, 0x1a,
  0xe1, 0xc7, 0xe2, 0x1a, 0x0b, 0xe3, 0x26, 0xcb, 0x08, 0xad, 0x02, 0x20,
  0x29, 0xb5, 0x09, 0xd1, 0x05, 0xd3, 0xd4, 0x0f, 0x93, 0xe1, 0x3c, 0xf4,
  0xcc, 0x99, 0x1a, 0x07, 0x38, 0xab, 0xd7, 0x1c, 0x4b, 0xa0, 0x22, 0x0f,
  0x81, 0xb0, 0xe2, 0xf7, 0xe5, 0xae, 0xb2, 0xf3, 0xf6, 0x9c, 0x81, 0xe8,
  0xb7, 0xd6, 0xc3, 0xb3, 0x11, 0xca, 0xb2, 0xf1, 0x1a, 0xb6, 0xf7, 0x2b,
  0x2f, 0xc6, 0x98, 0xd6, 0xda, 0xd6, 0xe6, 0x19, 0xee, 0xee, 0xfa, 0x1b,
  0x3d, 0x94, 0xef, 0xea, 0x00, 0xc5, 0xf2, 0xbb, 0xe3, 0xa7, 0xfa, 0xf0,
  0xa3, 0xc7, 0x3b, 0xd4, 0xe7, 0x8f, 0xf3, 0xe1, 0x3a, 0x86, 0xe7, 0xf6,
  0xf2, 0xa2, 0x09, 0xd7, 0xd7, 0xc0, 0xfc, 0x3a, 0x0f, 0xba, 0xd4, 0x0e,
  0xf7, 0x81, 0xb3, 0xf3, 0x2c, 0xbb, 0xb8, 0x23, 0x0e, 0xa0, 0xe6, 0xfc,
  0x81, 0xa9, 0xa3, 0x15, 0x20, 0xaa, 0xbc, 0xe1, 0x0a, 0xca, 0xf4, 0x17,
  0xf6, 0x05, 0x1a, 0x52, 0x8e, 0x8f, 0xd9, 0xd6, 0xe4, 0xa3, 0xff, 0xbb,
  0xcc, 0xcc, 0xff, 0xff, 0x66, 0xcf, 0xff, 0xff, 0x04, 0x00, 0x00, 0x00,
  0x10, 0x00, 0x00, 0x00, 0xff, 0xff, 0xff, 0xff, 0x31, 0x00, 0x00, 0x00,
  0x28, 0x00, 0x00, 0x00, 0x01, 0x00, 0x00, 0x00, 0xec, 0xcc, 0xff, 0xff,
  0xf0, 0xcc, 0xff, 0xff, 0x8a, 0xcf, 0xff, 0xff, 0x04, 0x00, 0x00, 0x00,
  0x20, 0x00, 0x00, 0x00, 0xdc, 0xff, 0xff, 0xff, 0x9e, 0xff, 0xff, 0xff,
  0xf4, 0xff, 0xff, 0xff, 0x8a, 0x02, 0x00, 0x00, 0x43, 0x07, 0x00, 0x00,
  0xd2, 0xff, 0xff, 0xff, 0xff, 0xff, 0xff, 0xff, 0x70, 0x05, 0x00, 0x00,
  0xb6, 0xcf, 0xff, 0xff, 0x04, 0x00, 0x00, 0x00, 0xe0, 0x2e, 0x00, 0x00,
  0x05, 0xe5, 0xf0, 0x32, 0x77, 0x0d, 0x11, 0x05, 0x01, 0xea, 0x11, 0x03,
  0x5c, 0x0d, 0x01, 0x29, 0x0b, 0xda, 0x0c, 0xfd, 0xec, 0x00, 0x3b, 0x39,
  0x02, 0xf6, 0xf7, 0x03, 0xdb, 0x04, 0x12, 0x37, 0xfd, 0xe2, 0x05, 0xf6,
  0xd7, 0x08, 0xff, 0x08, 0xfe, 0xe5, 0xfd, 0x03, 0xdb, 0xf6, 0xfd, 0x3f,
  0x04, 0xfa, 0xf9, 0x11, 0xe6, 0x0d, 0x07, 0x14, 0x03, 0xee, 0xff, 0xfa,
  0x05, 0x13, 0x0a, 0x0b, 0x12, 0xef, 0xf5, 0xfb, 0xdc, 0x1b, 0x01, 0x16,
  0x10, 0xe8, 0x12, 0x0c, 0xfb, 0x0d, 0xfe, 0xe1, 0xf3, 0xee, 0x15, 0x0a,
  0xec, 0x0a, 0x01, 0xd5, 0xfe, 0xd8, 0x05, 0xfc, 0xdb, 0x03, 0x01, 0x0b,
  0x05, 0xdd, 0x02, 0xee, 0x14, 0x0f, 0xff, 0x01, 0x0c, 0xea, 0x03, 0x23,
  0xf1, 0x01, 0x03, 0x20, 0x0c, 0xdd, 0x04, 0x11, 0x4e, 0x17, 0x0c, 0xb4,
  0x01, 0xfa, 0xf6, 0x17, 0x3c, 0xf9, 0x0b, 0x26, 0xfb, 0xf5, 0x15, 0x13,
  0x3e, 0x06, 0x09, 0xfe, 0x03, 0xd8, 0x0b, 0x1a, 0x31, 0x00, 0x11, 0x3a,
  0x07, 0xdc, 0xf4, 0x0f, 0xdc, 0xf4, 0xf6, 0x4f, 0xf9, 0xec, 0x11, 0xff,
  0x0d, 0x04, 0xfd, 0x2c, 0x04, 0xf1, 0x09, 0x03, 0x2f, 0x22, 0x0c, 0x06,
  0x13, 0xd3, 0x0e, 0xfc, 0x29, 0x12, 0x00, 0x37, 0x02, 0xcd, 0x06, 0xf7,
  0xd1, 0x0c, 0x68, 0x29, 0xf5, 0xd4, 0xfa, 0xea, 0x03, 0x05, 0x20, 0x47,
  0xfb, 0xd9, 0x12, 0x01, 0x15, 0x0b, 0x1d, 0x02, 0x0b, 0xdd, 0x01, 0x07,
  0x11, 0x21, 0x2a, 0x46, 0xf2, 0xde, 0x10, 0xfb, 0xdd, 0x00, 0x1e, 0x12,
  0xf3, 0xe3, 0xf9, 0x06, 0xf5, 0x12, 0x40, 0x05, 0x0a, 0xe2, 0x08, 0x1e,
  0x14, 0x14, 0x3d, 0x37, 0x12, 0xe4, 0x04, 0xf9, 0xec, 0x15, 0x1f, 0xce,
  0x01, 0xdc, 0xf9, 0xe9, 0xee, 0x16, 0x1d, 0xc1, 0xf2, 0xd2, 0xfb, 0x02,
  0xcd, 0x01, 0x19, 0x0e, 0x05, 0xda, 0x07, 0xf6, 0xe1, 0x04, 0x44, 0x36,
  0x00, 0xd6, 0x13, 0x28, 0x00, 0x09, 0x38, 0x6e, 0xfe, 0xe5, 0x0e, 0xfb,
  0x33, 0x0d, 0x26, 0xbf, 0x11, 0xe7, 0x01, 0x1d, 0x3b, 0x15, 0x27, 0x38,
  0x06, 0xd1, 0x02, 0xfe, 0x3c, 0x20, 0x38, 0x04, 0xfa, 0xe1, 0x0d, 0x00,
  0x1f, 0x0d, 0x38, 0x39, 0xee, 0xe5, 0x12, 0xeb, 0x00, 0x03, 0x12, 0x1e,
  0x07, 0xed, 0x09, 0x08, 0xfa, 0xf2, 0x0f, 0x2e, 0x04, 0xd9, 0x00, 0x2a,
  0x5b, 0x1f, 0x0c, 0x0f, 0x05, 0xd9, 0x03, 0x03, 0x34, 0x11, 0x49, 0x17,
  0x09, 0xc1, 0x07, 0x09, 0xd1, 0x19, 0x35, 0x3b, 0xf6, 0xd4, 0xfb, 0xfc,
  0xee, 0x15, 0x2c, 0x55, 0x04, 0xd8, 0xf9, 0xeb, 0x01, 0x1d, 0x00, 0xde,
  0x07, 0xba, 0x05, 0x10, 0xf8, 0x19, 0x0a, 0xf3, 0xfa, 0xbd, 0x11, 0x08,
  0xf1, 0x03, 0xfa, 0x03, 0xf8, 0xbf, 0x05, 0x1d, 0x0b, 0x0f, 0xee, 0xea,
  0x04, 0xd5, 0x04, 0xfb, 0x08, 0x0f, 0x20, 0x3c, 0x16, 0xce, 0xfd, 0x05,
  0xee, 0x15, 0xd7, 0xc2, 0x13, 0xcb, 0x02, 0xfe, 0xf6, 0x20, 0xda, 0xd0,
  0x05, 0xca, 0xfc, 0x0b, 0xcd, 0x11, 0x17, 0xf1, 0x07, 0xd8, 0x11, 0xf5,
  0xef, 0x1a, 0x0a, 0x1f, 0xf6, 0xc3, 0xf2, 0x13, 0xfc, 0x17, 0x35, 0x5b,
  0xf6, 0xc9, 0xfc, 0xe2, 0x09, 0x03, 0x25, 0xe2, 0x0d, 0xce, 0xfa, 0x14,
  0x17, 0x17, 0xfd, 0x17, 0xf6, 0xc9, 0x05, 0xfb, 0x2f, 0x16, 0x45, 0xfe,
  0xff, 0xc5, 0xfb, 0xfd, 0x19, 0xff, 0x1d, 0x2d, 0xf3, 0xd5, 0xfa, 0xfe,
  0xfa, 0x04, 0x21, 0x46, 0x0d, 0xeb, 0xf9, 0x0b, 0x04, 0x00, 0x32, 0x03,
  0x05, 0xdc, 0xee, 0x0b, 0x34, 0x0a, 0x23, 0x3b, 0xfe, 0xd9, 0x16, 0xf1,
  0x2f, 0x17, 0x61, 0x00, 0xfd, 0xdb, 0xfd, 0xea, 0x0b, 0x07, 0x2b, 0xea,
  0x01, 0xc6, 0x06, 0xfb, 0x02, 0x10, 0x2b, 0x1b, 0x01, 0xd3, 0x09, 0xd8,
  0x0e, 0x13, 0x0d, 0x0c, 0x02, 0xc4, 0xfa, 0x1b, 0x14, 0x09, 0xe1, 0xeb,
  0xfb, 0xd0, 0x16, 0x0f, 0x32, 0x17, 0xfc, 0x09, 0x06, 0xce, 0x15, 0x13,
  0x23, 0x1e, 0xd3, 0xe4, 0x15, 0xce, 0xf4, 0x00, 0x1a, 0x22, 0xfd, 0x22,
  0x0b, 0xd6, 0x12, 0x17, 0x02, 0x1f, 0xc9, 0xc8, 0x0d, 0xca, 0x02, 0xfe,
  0x11, 0x0a, 0xc9, 0xd8, 0x00, 0xda, 0x07, 0x20, 0x09, 0x10, 0x1b, 0x08,
  0x02, 0xbd, 0xf0, 0xe1, 0xf0, 0x12, 0xea, 0x1e, 0xf8, 0xcf, 0x06, 0xf5,
  0xec, 0x19, 0x3f, 0x5f, 0x01, 0xbb, 0x0b, 0xfd, 0xc9, 0x03, 0x0b, 0x0f,
  0x07, 0xd6, 0x05, 0x0b, 0xca, 0x0e, 0xf0, 0x17, 0xed, 0xce, 0x0f, 0x11,
  0xf2, 0x13, 0x22, 0x22, 0xfa, 0xcf, 0xfe, 0xfb, 0xdd, 0x14, 0xef, 0x46,
  0xed, 0xd9, 0x0e, 0xe7, 0x0a, 0x02, 0x29, 0x52, 0xff, 0xd8, 0x00, 0xee,
  0xe0, 0x04, 0x34, 0xfe, 0x10, 0xec, 0x00, 0x06, 0x1d, 0x0e, 0x2c, 0x2a,
  0x0f, 0xd5, 0x05, 0x0a, 0x12, 0x14, 0x47, 0x12, 0xff, 0xd3, 0x0d, 0x05,
  0x1e, 0x0c, 0x1b, 0xc7, 0xff, 0xce, 0x01, 0xd9, 0x08, 0x26, 0x06, 0xdf,
  0xf9, 0xd0, 0xef, 0xe7, 0x0e, 0x0c, 0x19, 0xfa, 0x09, 0xc6, 0x08, 0x23,
  0x23, 0x10, 0xfb, 0xcc, 0xf0, 0xc5, 0xfa, 0x08, 0x1a, 0x17, 0x24, 0xdb,
  0xfb, 0xc5, 0xf7, 0xf8, 0x23, 0x0e, 0xfb, 0xea, 0x0f, 0xd8, 0x10, 0xf2,
  0x23, 0x1b, 0xf4, 0xee, 0x10, 0xc2, 0xf4, 0x0d, 0xf0, 0x1a, 0xe0, 0xb4,
  0xf9, 0xbf, 0xf7, 0xe5, 0x1e, 0x00, 0xd9, 0xd0, 0x00, 0xd7, 0x02, 0x13,
  0xfe, 0x22, 0x0f, 0xea, 0x13, 0xd0, 0xf8, 0x10, 0x2b, 0x12, 0xe1, 0xd9,
  0x00, 0xc5, 0xfe, 0xfb, 0xdd, 0x23, 0x48, 0xff, 0xf2, 0xd8, 0x05, 0x0e,
  0xe9, 0x1a, 0x0d, 0xf7, 0xff, 0xbb, 0xf8, 0x1c, 0xe9, 0x12, 0x0e, 0xf1,
  0xf9, 0xce, 0xf2, 0x1a, 0xdf, 0x1d, 0x23, 0x0c, 0xfc, 0xd5, 0xee, 0x2d,
  0xe3, 0x1c, 0xe0, 0x05, 0x04, 0xd4, 0xfa, 0x09, 0x01, 0x1f, 0x12, 0x1f,
  0x11, 0xe4, 0x01, 0xee, 0xa1, 0x02, 0x41, 0xf8, 0x16, 0xe0, 0x07, 0x1a,
  0xfc, 0x10, 0x30, 0x31, 0x03, 0xe0, 0x06, 0xfc, 0xe4, 0x10, 0x39, 0x23,
  0x0c, 0xc9, 0xf7, 0xee, 0x2e, 0x09, 0x34, 0xb0, 0x12, 0xd7, 0x06, 0xd6,
  0x27, 0x09, 0x06, 0x05, 0x0c, 0xd9, 0x05, 0xdf, 0x03, 0x06, 0x1c, 0xef,
  0xfe, 0xcf, 0x06, 0xef, 0x2b, 0x00, 0xf6, 0xd4, 0x06, 0xc5, 0xff, 0xee,
  0x2c, 0x12, 0x2e, 0xed, 0x12, 0xc5, 0x07, 0xe4, 0x12, 0x1c, 0x0f, 0xd7,
  0xfc, 0xc8, 0x05, 0xf1, 0xd0, 0x0e, 0x16, 0xca, 0x01, 0xd6, 0x17, 0x0b,
  0xcd, 0x09, 0xdf, 0xa1, 0x09, 0xd1, 0x0c, 0xf7, 0x1b, 0x15, 0xf8, 0xdc,
  0x02, 0xd9, 0xfb, 0x2b, 0x1b, 0x1c, 0xdc, 0xe4, 0x01, 0xb9, 0x0c, 0x1c,
  0x17, 0xfe, 0xf4, 0xf7, 0x07, 0xd9, 0x17, 0x04, 0xd7, 0x06, 0x36, 0x04,
  0x02, 0xcd, 0xf8, 0xf9, 0xdd, 0x12, 0xfa, 0xe6, 0x09, 0xbb, 0xf4, 0x30,
  0x01, 0x15, 0x1f, 0xea, 0xff, 0xd4, 0x06, 0x14, 0x02, 0x1d, 0x1a, 0x00,
  0x07, 0xb9, 0xfb, 0x2d, 0x0b, 0x1d, 0xfc, 0xd5, 0x06, 0xc4, 0x04, 0x0a,
  0x1a, 0x01, 0x07, 0x34, 0x02, 0xdd, 0x06, 0xf9, 0xb7, 0x10, 0x4f, 0x02,
  0xfc, 0xe2, 0x00, 0xfa, 0x13, 0x20, 0x34, 0x2f, 0x01, 0xcc, 0x09, 0xe0,
  0xce, 0x17, 0x4e, 0x02, 0x05, 0xcb, 0x10, 0xdf, 0x1a, 0x06, 0x13, 0xd6,
  0x0b, 0xdf, 0x08, 0xdf, 0x2b, 0x1c, 0x1b, 0x0b, 0x0b, 0xdb, 0x04, 0xf4,
  0x09, 0x18, 0x1a, 0xf5, 0x0e, 0xcf, 0xff, 0x0a, 0x30, 0x12, 0xe5, 0xca,
  0x05, 0xcf, 0xfa, 0xd9, 0x1a, 0x03, 0x01, 0x08, 0x0c, 0xce, 0x06, 0xe2,
  0xf8, 0x14, 0xf2, 0x05, 0x0a, 0xdd, 0xff, 0xfe, 0xd5, 0x00, 0x4e, 0xca,
  0x07, 0xe0, 0x06, 0x28, 0x0d, 0x12, 0xd1, 0xa3, 0x0c, 0xcd, 0x10, 0xfa,
  0x49, 0x09, 0x14, 0xff, 0x0d, 0xc1, 0xfd, 0x07, 0x19, 0x0d, 0xf4, 0xf7,
  0xff, 0xc9, 0x17, 0x04, 0xf5, 0x1d, 0xda, 0x15, 0x05, 0xdc, 0x03, 0x09,
  0xfe, 0x06, 0x19, 0xf1, 0x08, 0xda, 0xfa, 0x04, 0xe2, 0xff, 0xfa, 0xda,
  0xfb, 0xdf, 0xfa, 0x2d, 0xf3, 0x1c, 0x18, 0x05, 0xf9, 0xd3, 0x0c, 0x1c,
  0x03, 0x0a, 0x13, 0xec, 0x11, 0xd5, 0x02, 0x23, 0x09, 0x09, 0x18, 0xf1,
  0x14, 0xd2, 0xfc, 0x05, 0x01, 0x11, 0x14, 0x24, 0xfd, 0xe4, 0xf1, 0x1c,
  0xf2, 0x0a, 0x38, 0x04, 0xf8, 0xe3, 0xf7, 0xfd, 0x18, 0x07, 0x31, 0x15,
  0x01, 0xdd, 0xff, 0xd1, 0xc5, 0x10, 0x1a, 0xed, 0xf7, 0xc5, 0xf7, 0xe3,
  0x31, 0x05, 0xf9, 0xfd, 0x05, 0xd6, 0x01, 0xc9, 0x24, 0x0f, 0x3d, 0x0b,
  0x05, 0xdf, 0xfe, 0x01, 0x16, 0x21, 0x01, 0x00, 0x03, 0xc8, 0x0c, 0xfa,
  0x09, 0x11, 0xde, 0xe4, 0x0e, 0xd0, 0xfc, 0xe3, 0x1d, 0x03, 0x15, 0xfb,
  0x13, 0xda, 0x01, 0xe0, 0xe5, 0x0b, 0xfc, 0x0e, 0x03, 0xd5, 0xfa, 0xe7,
  0xda, 0x11, 0x65, 0xc2, 0x03, 0xd3, 0x05, 0xf6, 0x14, 0x12, 0xd0, 0xc7,
  0xfb, 0xd0, 0xf8, 0xe7, 0x2b, 0x07, 0x02, 0xf9, 0x04, 0xd4, 0xfe, 0x14,
  0xf4, 0xfa, 0xec, 0xf4, 0xff, 0xc8, 0xfe, 0xfb, 0x11, 0x14, 0xce, 0x0f,
  0x0b, 0xce, 0xf4, 0xf4, 0x14, 0x09, 0x11, 0xfd, 0x07, 0xd7, 0x02, 0x1a,
  0x02, 0x0d, 0x05, 0x04, 0xf6, 0xd9, 0x08, 0x1d, 0x1f, 0x05, 0x07, 0xe0,
  0x01, 0xde, 0x03, 0x17, 0x0b, 0x0f, 0x17, 0x01, 0xfd, 0xcf, 0x00, 0x1d,
  0x17, 0x0b, 0x14, 0xec, 0xf8, 0xd3, 0xeb, 0x20, 0x12, 0x0d, 0xfb, 0xf6,
  0x03, 0xef, 0x09, 0x0c, 0x07, 0x07, 0x29, 0xf7, 0x08, 0xe2, 0xef, 0xe5,
  0x28, 0x14, 0x38, 0x1a, 0xf5, 0xd1, 0x0c, 0xe9, 0xde, 0x0d, 0x2c, 0x17,
  0x02, 0xe5, 0xfa, 0xe0, 0x3e, 0x03, 0xfd, 0xf6, 0x05, 0xde, 0x0a, 0xf0,
  0x00, 0x19, 0x3e, 0x00, 0xef, 0xf3, 0xfb, 0xf7, 0x22, 0x12, 0x26, 0xf0,
  0x03, 0xdc, 0x07, 0xee, 0x01, 0x0f, 0xfe, 0xee, 0xf9, 0xc7, 0xf5, 0xce,
  0x1d, 0x01, 0x08, 0xe5, 0x07, 0xda, 0xfb, 0xf1, 0xf8, 0x17, 0x08, 0x0f,
  0xfa, 0xc5, 0x08, 0xf6, 0xda, 0xfa, 0x25, 0xcf, 0xfb, 0xc8, 0x03, 0xed,
  0xfb, 0x1c, 0xeb, 0xc7, 0x06, 0xde, 0x0c, 0xfb, 0x23, 0x13, 0x0b, 0x0b,
  0xf4, 0xc9, 0x0a, 0x1f, 0xf6, 0x03, 0xd4, 0x02, 0x13, 0xc8, 0x0a, 0xf6,
  0x13, 0xf3, 0xde, 0xff, 0x06, 0xe9, 0xfd, 0xf1, 0xfe, 0x0e, 0x1c, 0x10,
  0xed, 0xd5, 0xff, 0xff, 0xef, 0x1a, 0x03, 0xe9, 0x09, 0xc7, 0xf7, 0x1a,
  0xf4, 0x15, 0x31, 0xf0, 0xff, 0xcf, 0xfb, 0x23, 0xf8, 0x09, 0xe3, 0x09,
  0xef, 0xd5, 0xfc, 0x2a, 0x18, 0x02, 0x12, 0xbb, 0x05, 0xc2, 0x14, 0x28,
  0x29, 0x07, 0xee, 0xf6, 0x11, 0xe6, 0x03, 0xf3, 0x36, 0x03, 0x32, 0xe1,
  0xf0, 0xef, 0x05, 0x13, 0x17, 0x14, 0x2a, 0x1c, 0xfa, 0xe8, 0x09, 0xec,
  0xbe, 0x12, 0x3e, 0x19, 0x16, 0xd7, 0xfc, 0xc2, 0x1a, 0x06, 0x0e, 0xf3,
  0xf9, 0xd9, 0x04, 0xe3, 0x12, 0x03, 0x1f, 0x0c, 0x0d, 0xda, 0x07, 0xe6,
  0x17, 0x21, 0xff, 0xfb, 0x0b, 0xd9, 0x04, 0xdd, 0x0b, 0x00, 0xf7, 0xee,
  0x07, 0xd9, 0xfd, 0xec, 0x28, 0x04, 0xf2, 0xff, 0x01, 0xe4, 0xf0, 0xe4,
  0xf2, 0x0d, 0x0b, 0xfb, 0xfd, 0xce, 0x08, 0xfd, 0xfc, 0x18, 0x18, 0xab,
  0xff, 0xe2, 0x0d, 0x03, 0xff, 0x21, 0xdf, 0xc5, 0x06, 0xd9, 0x09, 0xea,
  0x13, 0x0f, 0x20, 0x0b, 0xef, 0xdb, 0x00, 0xfe, 0x16, 0x07, 0xd3, 0xf0,
  0x04, 0xcd, 0x01, 0x0d, 0x26, 0x03, 0xfd, 0x10, 0x07, 0xe2, 0x04, 0xf8,
  0x26, 0xff, 0xfa, 0x16, 0x00, 0xdc, 0xfe, 0x1e, 0xe4, 0x11, 0x13, 0xf3,
  0xf1, 0xce, 0x0b, 0x0d, 0xd8, 0x16, 0x2f, 0xe7, 0x05, 0xce, 0xfb, 0x12,
  0xf9, 0x0c, 0xe4, 0x02, 0xee, 0xe2, 0x01, 0x36, 0xfa, 0xf3, 0xf8, 0xa5,
  0xfb, 0xcc, 0xf5, 0x29, 0x24, 0x11, 0xfd, 0xdc, 0xfd, 0xd2, 0x00, 0x04,
  0x0a, 0x01, 0x0d, 0xce, 0x09, 0xe5, 0xfa, 0x0a, 0x42, 0x02, 0x22, 0x24,
  0x06, 0xe8, 0x09, 0xd2, 0xd4, 0x07, 0x56, 0x12, 0xf3, 0xe1, 0xf6, 0xcf,
  0x2f, 0x00, 0x1a, 0x02, 0x03, 0xe7, 0xfb, 0xe1, 0x0d, 0x10, 0x14, 0x03,
  0xfb, 0xed, 0x16, 0xda, 0x18, 0x20, 0xe7, 0xfa, 0x02, 0xed, 0x07, 0xda,
  0x13, 0xfc, 0xe6, 0xd9, 0x04, 0xe3, 0x0d, 0xe9, 0xe9, 0x0a, 0x05, 0xf8,
  0xff, 0xd1, 0xf4, 0xe8, 0xe0, 0x16, 0x07, 0x0f, 0x07, 0xd9, 0x09, 0xfa,
  0x0a, 0x0c, 0x19, 0xc6, 0xff, 0xda, 0x08, 0x04, 0x25, 0x11, 0xdc, 0xe8,
  0xf9, 0xd5, 0x0e, 0xfd, 0xed, 0x12, 0x1a, 0x03, 0x0b, 0xd0, 0x09, 0xeb,
  0xfb, 0x03, 0xfb, 0x08, 0xfd, 0xd5, 0xec, 0x08, 0x0a, 0x04, 0x05, 0x07,
  0x0f, 0xdb, 0xfd, 0xfc, 0x1e, 0x0c, 0xf8, 0x1b, 0x0b, 0xdc, 0xff, 0x1e,
  0xe7, 0xfb, 0x0c, 0x25, 0xfd, 0xce, 0x08, 0xfd, 0xf5, 0x01, 0x27, 0xd3,
  0xfc, 0xc8, 0xf8, 0x1b, 0x10, 0x19, 0xf1, 0xf6, 0xf6, 0xd8, 0x02, 0x25,
  0xee, 0x01, 0xea, 0xce, 0xfb, 0xcc, 0xed, 0x26, 0x42, 0xfd, 0x1b, 0xe2,
  0xff, 0xec, 0x0d, 0xfd, 0xdf, 0xfd, 0x0d, 0xb5, 0xef, 0xf8, 0x0d, 0x02,
  0x37, 0x1c, 0x07, 0x2d, 0x13, 0xe8, 0x13, 0xdc, 0xd4, 0x02, 0x59, 0xfd,
  0x0e, 0xea, 0xf6, 0xcc, 0x0e, 0x0d, 0x03, 0xe4, 0x06, 0xd2, 0xf8, 0xe2,
  0xf1, 0x06, 0x1e, 0xfe, 0xf2, 0xfe, 0xf6, 0xc6, 0x0f, 0x0d, 0xeb, 0xea,
  0xfc, 0xeb, 0x09, 0x04, 0x1d, 0xff, 0xfd, 0xe2, 0xf7, 0xed, 0x02, 0xed,
  0xe0, 0xfa, 0x02, 0xfc, 0xfd, 0xdb, 0xf2, 0xd9, 0xf6, 0x16, 0xf8, 0x20,
  0x02, 0xd6, 0x00, 0x15, 0x2f, 0x0b, 0x25, 0xc2, 0xfd, 0xdd, 0xf8, 0xfa,
  0x17, 0x04, 0xdd, 0x05, 0x06, 0xdd, 0x15, 0xfc, 0xee, 0x0e, 0x34, 0x10,
  0x08, 0xdc, 0xfb, 0xfc, 0x14, 0x01, 0xff, 0xf3, 0xfe, 0xcf, 0x07, 0x10,
  0xf8, 0x05, 0xdf, 0x01, 0xf7, 0xdd, 0xf7, 0x02, 0x08, 0xfe, 0xd7, 0x17,
  0x02, 0xe7, 0x0b, 0x11, 0xe4, 0xfd, 0x0b, 0x20, 0xef, 0xd2, 0x04, 0x02,
  0x0a, 0x0e, 0xf9, 0xe0, 0x05, 0xda, 0x06, 0x22, 0x25, 0x04, 0x09, 0x01,
  0x14, 0xda, 0xf8, 0x29, 0xdf, 0x01, 0xc8, 0xf4, 0xf5, 0xd9, 0x02, 0x28,
  0x42, 0xfc, 0x15, 0xea, 0xf0, 0xe2, 0x07, 0x01, 0xf3, 0x02, 0x3b, 0xc2,
  0xf1, 0xf5, 0xf5, 0xea, 0x4a, 0x18, 0x05, 0x3e, 0x07, 0xd7, 0xfe, 0xba,
  0xe6, 0x0a, 0x70, 0xf6, 0xfb, 0xd1, 0x06, 0xbc, 0xee, 0xff, 0x10, 0xf3,
  0x03, 0xe3, 0x05, 0xdc, 0x08, 0x13, 0x2c, 0xe3, 0x03, 0xe0, 0x08, 0xdb,
  0xf5, 0x10, 0xf9, 0xff, 0x0c, 0xee, 0xef, 0xf6, 0x09, 0xfc, 0xfc, 0xf0,
  0xfd, 0xda, 0xfb, 0x0a, 0xd1, 0x19, 0xf4, 0x00, 0xf2, 0xec, 0xfb, 0xdd,
  0xfe, 0x0d, 0x0b, 0xfe, 0xff, 0xdf, 0x04, 0x1c, 0x19, 0x1f, 0x0c, 0xd0,
  0x09, 0xf0, 0x0a, 0xf5, 0x1a, 0x06, 0xcf, 0xef, 0x16, 0xc8, 0x0e, 0xee,
  0xfb, 0xff, 0x2f, 0x0e, 0xf6, 0xdc, 0xfe, 0xfd, 0x0a, 0x00, 0x0a, 0xed,
  0xff, 0xcf, 0x0a, 0x16, 0xe2, 0xfe, 0xe4, 0xe8, 0xf5, 0xdb, 0x03, 0x0a,
  0x0c, 0x0e, 0xd6, 0x28, 0xf6, 0xd4, 0x06, 0x13, 0xcf, 0x01, 0x2c, 0x1f,
  0x0c, 0xc9, 0xfe, 0xfe, 0x04, 0x05, 0x01, 0xe2, 0xfa, 0xda, 0x02, 0x32,
  0x28, 0x0a, 0xfa, 0xf8, 0xef, 0xdc, 0xf6, 0x2b, 0xc5, 0x05, 0xd8, 0xe3,
  0x02, 0xe0, 0x02, 0x16, 0x31, 0xfa, 0x10, 0xfd, 0x0b, 0xdc, 0x02, 0x0b,
  0x0d, 0xf1, 0x38, 0x97, 0xee, 0xe4, 0xfe, 0x00, 0x34, 0x13, 0xf3, 0x31,
  0xfa, 0xe8, 0xfd, 0xb0, 0x04, 0x07, 0x5e, 0x0c, 0x08, 0xcc, 0xf0, 0xa4,
  0xdb, 0x0f, 0x04, 0xff, 0x0e, 0xf5, 0xf6, 0xc6, 0x05, 0xfd, 0x28, 0xce,
  0x09, 0xe5, 0x07, 0xe4, 0x0e, 0x15, 0xff, 0x00, 0xf4, 0xdb, 0x05, 0xf8,
  0x06, 0x0e, 0x05, 0x02, 0xfd, 0xda, 0xff, 0xeb, 0xc6, 0x02, 0x26, 0xfb,
  0xf2, 0xe5, 0x14, 0xdf, 0x0d, 0xfe, 0xed, 0xf4, 0xf3, 0xe3, 0x02, 0x09,
  0x1c, 0x0f, 0x11, 0xee, 0x0b, 0xf0, 0x07, 0xf2, 0x0a, 0x12, 0xc3, 0x14,
  0xf3, 0xde, 0xf8, 0x1a, 0xec, 0xf9, 0x2c, 0x00, 0xfe, 0xf6, 0x08, 0x01,
  0x1a, 0x0b, 0xf7, 0x03, 0xf8, 0xd5, 0x03, 0x19, 0xfe, 0xf9, 0x20, 0x00,
  0x10, 0xf5, 0x04, 0x10, 0x15, 0x20, 0xda, 0x0a, 0x0a, 0xe9, 0x03, 0x19,
  0xc9, 0xf8, 0x0f, 0x03, 0x03, 0xe2, 0xf9, 0x09, 0x02, 0x00, 0xe2, 0xc1,
  0xf0, 0xd5, 0x08, 0x3d, 0x1a, 0x13, 0xf0, 0xf4, 0xfa, 0xe7, 0x08, 0x2b,
  0xc6, 0x0f, 0xe1, 0xe9, 0x01, 0xdc, 0x01, 0x1c, 0x1a, 0xf6, 0xf7, 0xed,
  0x10, 0xfd, 0x05, 0x04, 0x18, 0x10, 0x31, 0xbe, 0x01, 0xeb, 0x02, 0xfb,
  0x35, 0xfd, 0x07, 0x1b, 0xf7, 0xf5, 0x09, 0xb4, 0xf8, 0x0e, 0x32, 0x10,
  0xf4, 0xe3, 0xfe, 0xc0, 0xf5, 0xfb, 0x17, 0xe2, 0xfb, 0xe3, 0x12, 0xc5,
  0x01, 0x04, 0x2d, 0xe2, 0xfe, 0xe7, 0xff, 0xe3, 0xf8, 0x03, 0xfc, 0xee,
  0x01, 0xe9, 0xfc, 0xf9, 0xf2, 0x15, 0xe6, 0x0d, 0x03, 0xee, 0xfe, 0xe5,
  0xdb, 0x02, 0x09, 0xf0, 0x00, 0xf4, 0xf7, 0xf2, 0x1b, 0x01, 0xfb, 0x0c,
  0x04, 0xf0, 0xec, 0x0b, 0x15, 0x06, 0xef, 0xf9, 0x03, 0xee, 0xf7, 0x12,
  0x03, 0x0f, 0xd1, 0x14, 0x08, 0xd4, 0x08, 0x21, 0xf2, 0x06, 0x14, 0x21,
  0xf1, 0xe1, 0x01, 0x04, 0x0c, 0x0a, 0xe8, 0xfa, 0x06, 0xdf, 0x0a, 0x23,
  0x00, 0x09, 0x19, 0x12, 0xfa, 0xe2, 0xec, 0x0a, 0x04, 0x03, 0xf1, 0x05,
  0x00, 0xea, 0x11, 0x1b, 0xd1, 0x03, 0xea, 0xf7, 0x06, 0xf2, 0x04, 0x1d,
  0x07, 0x00, 0xde, 0xed, 0x0e, 0xd3, 0xff, 0x3a, 0x03, 0x10, 0xf2, 0x0b,
  0xfe, 0xf3, 0xef, 0x14, 0xbc, 0x17, 0x0f, 0x14, 0xfd, 0xf5, 0x0b, 0x09,
  0x05, 0xf3, 0xef, 0xe0, 0xfd, 0xda, 0x01, 0x03, 0xf3, 0x0a, 0x27, 0xd6,
  0xfd, 0xdb, 0x0a, 0xf5, 0x1b, 0x0e, 0x1d, 0x05, 0xff, 0xf2, 0x06, 0x95,
  0xf9, 0x02, 0x23, 0x19, 0x08, 0xeb, 0xfb, 0xb4, 0xf6, 0x10, 0x02, 0xf0,
  0xfd, 0xd5, 0xff, 0xc8, 0x04, 0x11, 0x43, 0xee, 0x01, 0xf9, 0xec, 0xd4,
  0x0f, 0x0b, 0xe7, 0xe1, 0x02, 0xe8, 0x0c, 0xf7, 0xf5, 0x07, 0x11, 0x0c,
  0x09, 0xe1, 0xfd, 0xd4, 0xc9, 0x01, 0xed, 0xff, 0x0b, 0xfd, 0xff, 0xea,
  0x1f, 0x09, 0x19, 0x00, 0x14, 0xee, 0x03, 0x01, 0x1a, 0x03, 0xfb, 0x16,
  0xff, 0xf1, 0xee, 0xef, 0x0a, 0xfe, 0xd0, 0x04, 0x0b, 0xe7, 0x08, 0x13,
  0xf1, 0x08, 0x23, 0x0c, 0x0a, 0xe7, 0xf5, 0xee, 0xff, 0x0a, 0x06, 0x07,
  0xf6, 0xe3, 0x12, 0x22, 0xe6, 0x01, 0x2e, 0xf9, 0x15, 0xe3, 0xfe, 0x0f,
  0xfb, 0x05, 0xea, 0x07, 0x0a, 0xe0, 0xfd, 0x1c, 0xe9, 0x01, 0xe3, 0xf3,
  0xfa, 0xd7, 0x09, 0x20, 0x02, 0x10, 0x01, 0xfd, 0xfc, 0xe2, 0xf4, 0x43,
  0x04, 0x17, 0xe2, 0xf8, 0x0a, 0xd8, 0xfc, 0x49, 0xab, 0x0d, 0x1e, 0x08,
  0x15, 0xe8, 0xf4, 0x01, 0x08, 0x06, 0xee, 0xf2, 0x09, 0xee, 0x0a, 0x0b,
  0xfb, 0xfe, 0x16, 0xe7, 0xfd, 0xee, 0xf8, 0xed, 0x08, 0x0b, 0x06, 0x0c,
  0x09, 0xe7, 0xed, 0xbc, 0xeb, 0x0d, 0x46, 0x24, 0xf7, 0xde, 0x02, 0xc5,
  0x04, 0x02, 0xf0, 0xfe, 0x0e, 0xe9, 0x01, 0xc4, 0x0b, 0x05, 0x40, 0xe4,
  0x03, 0xf5, 0x06, 0xec, 0x25, 0x0e, 0xef, 0xea, 0xf1, 0xe7, 0x00, 0xf0,
  0xf1, 0xfd, 0x19, 0xfc, 0xff, 0xe2, 0x07, 0xc9, 0xb8, 0x1b, 0x0d, 0x0e,
  0x03, 0xfe, 0x02, 0x0d, 0x17, 0x13, 0x0c, 0xfb, 0x01, 0xf0, 0xed, 0xf7,
  0x29, 0x14, 0x08, 0xea, 0xf2, 0xe9, 0xff, 0xf4, 0xf4, 0xfa, 0xe4, 0x01,
  0xf8, 0xee, 0x07, 0xfc, 0xdc, 0xfa, 0x07, 0x11, 0xfb, 0xe1, 0x01, 0xf9,
  0x1d, 0xf2, 0x00, 0x00, 0xfc, 0xe9, 0x09, 0x24, 0xdf, 0x0b, 0x06, 0xed,
  0xf7, 0xdd, 0x00, 0x1b, 0x06, 0x0d, 0xfe, 0x0f, 0x0c, 0xdd, 0xfe, 0x1b,
  0xe2, 0x04, 0xe8, 0x15, 0x0c, 0xe9, 0xff, 0x3e, 0xfc, 0x1a, 0xf1, 0xef,
  0x04, 0xe1, 0xfb, 0x27, 0xf5, 0xfd, 0xf0, 0x12, 0xfd, 0xea, 0xf9, 0x3e,
  0xc0, 0x05, 0x3c, 0x01, 0xfd, 0xea, 0xfc, 0xff, 0xfa, 0x07, 0x0c, 0xf6,
  0x04, 0xe6, 0x00, 0x10, 0xf2, 0xfc, 0xff, 0xe2, 0xed, 0xe7, 0x06, 0xe3,
  0xe4, 0x17, 0x02, 0xe3, 0xee, 0xdd, 0x02, 0xa9, 0xf0, 0x0a, 0x35, 0x34,
  0xf8, 0xd9, 0x09, 0xbc, 0x08, 0xf9, 0xd2, 0x16, 0x00, 0xed, 0x01, 0xc1,
  0x19, 0xff, 0x35, 0xe2, 0xf7, 0xe8, 0xfd, 0xd6, 0x24, 0xfb, 0x0e, 0xfa,
  0xf5, 0xf1, 0x0d, 0xf4, 0x06, 0x07, 0x17, 0x08, 0x00, 0xe8, 0x00, 0xec,
  0xca, 0x15, 0xdb, 0xf7, 0xf6, 0xfa, 0x03, 0x16, 0x1f, 0x10, 0x1b, 0xdb,
  0x06, 0xf5, 0x0e, 0xe9, 0x0c, 0x19, 0x24, 0xe7, 0xee, 0xf4, 0x00, 0xe7,
  0xe5, 0x05, 0xf2, 0xef, 0xff, 0xf6, 0x0e, 0xec, 0xf7, 0x06, 0xea, 0xe0,
  0xfa, 0xf3, 0x0d, 0x00, 0x08, 0x03, 0xdb, 0x07, 0x07, 0xea, 0x04, 0x0a,
  0xde, 0x0b, 0xfc, 0xf8, 0xfd, 0xda, 0x03, 0x2b, 0xf4, 0x16, 0xf0, 0x13,
  0x01, 0xea, 0xf9, 0x0d, 0xe5, 0x0e, 0xe6, 0x1a, 0x07, 0xde, 0x02, 0x49,
  0xf2, 0x11, 0xda, 0xf5, 0x06, 0xda, 0xf5, 0x23, 0x03, 0x12, 0xfc, 0x30,
  0x0e, 0xef, 0x05, 0x43, 0xdb, 0xf9, 0x21, 0x23, 0x09, 0xf2, 0x12, 0x0f,
  0xe9, 0x0a, 0x22, 0xf0, 0xfe, 0xe9, 0xf5, 0x13, 0xe5, 0x06, 0xfd, 0xf0,
  0x07, 0xf8, 0x07, 0xe0, 0xf5, 0x07, 0x12, 0xd4, 0x0d, 0xea, 0x0d, 0xce,
  0xcb, 0x0a, 0x1a, 0x18, 0xef, 0xea, 0x01, 0xc8, 0x15, 0x15, 0xec, 0x10,
  0x15, 0xe9, 0x08, 0xbb, 0x17, 0xfd, 0x2c, 0x0a, 0xef, 0x04, 0xfe, 0xd7,
  0x07, 0x18, 0x0c, 0xd2, 0x03, 0xe4, 0xfb, 0xe8, 0x23, 0x09, 0x06, 0x2c,
  0xf2, 0xf5, 0xff, 0xec, 0xd2, 0x17, 0xe5, 0xeb, 0xf1, 0xe6, 0x12, 0x0c,
  0x32, 0x14, 0x14, 0xd0, 0x00, 0xeb, 0x0d, 0xe6, 0xfd, 0x05, 0x04, 0xd5,
  0x0d, 0xfe, 0xfc, 0xd2, 0xd3, 0x16, 0x02, 0xe9, 0xfe, 0xf7, 0x07, 0xf2,
  0xe8, 0xfa, 0xc7, 0xfa, 0x09, 0xf4, 0x03, 0x0f, 0x00, 0x01, 0xf6, 0xf5,
  0x03, 0xe5, 0x06, 0xf2, 0xdb, 0xfd, 0x27, 0x0c, 0x10, 0xdf, 0x09, 0x36,
  0xe5, 0x07, 0xf1, 0x16, 0xf0, 0xd4, 0x06, 0x14, 0xe4, 0x08, 0xe5, 0x30,
  0xf7, 0xe2, 0x04, 0x65, 0xe7, 0x0d, 0xf1, 0x23, 0x16, 0xe7, 0xf2, 0x38,
  0x17, 0x0e, 0xf5, 0x2e, 0x04, 0xe6, 0x02, 0x4a, 0xc7, 0x0c, 0x19, 0x36,
  0xf9, 0xf0, 0x0f, 0x2a, 0xd2, 0x0e, 0x19, 0x13, 0x08, 0x03, 0xfe, 0xfb,
  0xfd, 0xf1, 0xd5, 0xf9, 0xf1, 0xfa, 0x05, 0xf9, 0xea, 0x00, 0x05, 0x00,
  0x08, 0xed, 0xed, 0xbe, 0xee, 0xff, 0x0d, 0xe6, 0x06, 0xe8, 0xfe, 0xd0,
  0x20, 0x15, 0x0b, 0x25, 0xfa, 0xfc, 0x01, 0xb7, 0x09, 0x14, 0x24, 0xf3,
  0x00, 0xf4, 0x04, 0xcc, 0x0a, 0x01, 0x17, 0xd0, 0xf2, 0xdf, 0xf7, 0xfe,
  0x25, 0x0e, 0x08, 0x16, 0xfc, 0xf8, 0xf8, 0xdc, 0xc5, 0x0f, 0xf6, 0x0a,
  0xf9, 0xe9, 0x02, 0x03, 0x2b, 0x05, 0x1c, 0xcc, 0x05, 0xe5, 0xf7, 0xec,
  0x1d, 0x14, 0x13, 0xdb, 0x05, 0xf7, 0x0d, 0xca, 0xd8, 0x14, 0xea, 0xd1,
  0xfc, 0xf8, 0xfa, 0xf6, 0xf6, 0x01, 0x0b, 0xf3, 0xfa, 0xf1, 0xff, 0x14,
  0x0e, 0x08, 0x0f, 0xfe, 0xf6, 0xf3, 0xfd, 0xee, 0xda, 0x04, 0x0e, 0xf0,
  0x07, 0xec, 0x0b, 0x2d, 0xf4, 0x02, 0xd9, 0x1b, 0xf0, 0xe4, 0xfd, 0x10,
  0xf7, 0x08, 0xd0, 0x07, 0x10, 0xf0, 0xfe, 0x33, 0xba, 0x01, 0xd4, 0x23,
  0x03, 0xee, 0xfb, 0x19, 0x0d, 0xf8, 0xdd, 0x31, 0x0e, 0xdf, 0x02, 0x47,
  0x96, 0x0f, 0xfa, 0x27, 0xfc, 0xe8, 0xfa, 0x1d, 0xe3, 0x02, 0x1b, 0x1b,
  0xf5, 0xee, 0xf9, 0xf4, 0x06, 0x09, 0xe8, 0x0d, 0xff, 0xf4, 0xfc, 0xf5,
  0xea, 0x04, 0x08, 0x00, 0xf3, 0xed, 0xff, 0xb1, 0xfa, 0x0a, 0x32, 0x0b,
  0x04, 0xf5, 0x09, 0xbc, 0x17, 0x0a, 0x06, 0xfb, 0xfd, 0x09, 0xf0, 0xc8,
  0xf4, 0x12, 0x0a, 0xe5, 0x04, 0xed, 0x05, 0xe8, 0x23, 0x11, 0x21, 0xdf,
  0x05, 0xda, 0x0f, 0xe8, 0x08, 0x05, 0x17, 0x0a, 0xff, 0x02, 0x00, 0xe1,
  0xe3, 0x05, 0xea, 0x01, 0x0a, 0xe7, 0xfe, 0x1a, 0x0d, 0x06, 0x29, 0xee,
  0x16, 0xfd, 0xfa, 0xfb, 0x16, 0x15, 0x42, 0xe8, 0xf2, 0xfa, 0x02, 0xea,
  0xe2, 0x0e, 0x10, 0xce, 0xfa, 0xfa, 0xf2, 0x0e, 0x1d, 0x17, 0xf6, 0xfe,
  0x03, 0xe4, 0x02, 0x0b, 0x0c, 0xfe, 0xfc, 0x08, 0x05, 0xfb, 0x03, 0xf0,
  0xe3, 0xfe, 0x04, 0xef, 0x00, 0xf3, 0x05, 0x22, 0xf9, 0x0a, 0xe9, 0x17,
  0xfb, 0xe9, 0x04, 0x28, 0x05, 0xf8, 0xfa, 0xfd, 0x0a, 0xe7, 0xf0, 0x3d,
  0xe6, 0x04, 0xf2, 0x26, 0xff, 0x05, 0x13, 0x09, 0x08, 0x0a, 0xe4, 0x2c,
  0xf7, 0xfe, 0x03, 0x64, 0xac, 0x03, 0x31, 0x2c, 0xf9, 0xf1, 0xfd, 0x20,
  0xdd, 0x16, 0x1c, 0x0c, 0xfc, 0xf4, 0x05, 0xdf, 0xdf, 0x00, 0x09, 0x07,
  0x06, 0xf1, 0xf6, 0xe7, 0xe3, 0xfc, 0x15, 0xe7, 0xf9, 0xea, 0xf7, 0xa0,
  0xdd, 0xf6, 0x22, 0x08, 0x04, 0xf6, 0xfa, 0xaa, 0x11, 0x09, 0xef, 0x05,
  0xf7, 0xff, 0xf7, 0xc6, 0xfd, 0xf4, 0x16, 0xd8, 0x14, 0xd5, 0xfd, 0xe6,
  0x0e, 0xf2, 0xfc, 0xdc, 0x04, 0xf0, 0x03, 0xe1, 0x19, 0x03, 0xfb, 0xf9,
  0xfa, 0xf7, 0x00, 0xe3, 0xe2, 0x02, 0x02, 0xf2, 0x0e, 0xe2, 0xfc, 0xf2,
  0xfa, 0xf7, 0x13, 0x08, 0x06, 0xed, 0xfe, 0xf2, 0x16, 0x05, 0x36, 0xf3,
  0x08, 0xf8, 0x0b, 0xda, 0xf3, 0x1d, 0x07, 0xf5, 0xff, 0xec, 0x04, 0x07,
  0x16, 0x15, 0xfa, 0x0c, 0x10, 0xf7, 0xf1, 0x05, 0x01, 0x0b, 0xdb, 0xef,
  0xfd, 0xe4, 0xff, 0x02, 0xe1, 0x07, 0x06, 0xfb, 0x04, 0xef, 0xf5, 0x0b,
  0xd3, 0xfe, 0xc6, 0x17, 0x06, 0xe9, 0xfb, 0x1a, 0x01, 0x03, 0x0a, 0x10,
  0x0f, 0xfc, 0xf6, 0x33, 0xd3, 0x00, 0xd7, 0x40, 0x09, 0x0b, 0xf9, 0xee,
  0x14, 0x03, 0xf2, 0x28, 0x10, 0xf9, 0xfb, 0x53, 0xb1, 0xf4, 0x0c, 0x1f,
  0x08, 0xf7, 0xfa, 0x2e, 0xdd, 0x03, 0x2a, 0x18, 0x06, 0xfa, 0xfc, 0xfc,
  0xc9, 0x0d, 0x21, 0x37, 0xf4, 0xfe, 0x0e, 0xe5, 0xf3, 0x07, 0x06, 0xfa,
  0xf5, 0xdc, 0xfe, 0xa8, 0xf4, 0x06, 0x16, 0xec, 0x03, 0xe4, 0xf8, 0xaa,
  0x0f, 0x04, 0x01, 0x11, 0x0d, 0xfc, 0xf8, 0xde, 0xfe, 0x13, 0x0f, 0xca,
  0x12, 0xf4, 0x08, 0xe7, 0x0e, 0x04, 0x07, 0xaf, 0x0a, 0xf3, 0x00, 0xf6,
  0x06, 0x16, 0x19, 0x01, 0xf7, 0x07, 0x0b, 0xcd, 0xff, 0x00, 0x23, 0xed,
  0x0f, 0xe4, 0xf9, 0xe4, 0xec, 0xf8, 0xfa, 0xe7, 0xfb, 0xf6, 0xeb, 0xfa,
  0x26, 0x0e, 0x4e, 0xe8, 0xfb, 0xf4, 0x0f, 0xd5, 0x05, 0x08, 0xf6, 0xf9,
  0xf2, 0x0f, 0xf9, 0x06, 0xfc, 0x02, 0x0a, 0x2a, 0xfe, 0x0e, 0x05, 0xfa,
  0xe1, 0x0c, 0xf6, 0x18, 0x07, 0x02, 0xf6, 0x06, 0xfc, 0x0c, 0x0f, 0x1f,
  0xf5, 0xfa, 0xf9, 0x04, 0xea, 0x15, 0xd2, 0x34, 0xfb, 0xf8, 0xfb, 0x17,
  0xef, 0x1a, 0xf7, 0x1a, 0xfb, 0x05, 0xfb, 0x22, 0xe6, 0x08, 0xe4, 0x2b,
  0x02, 0xf7, 0x06, 0xf1, 0x09, 0x15, 0xf8, 0xfd, 0x0e, 0xfd, 0x09, 0x5a,
  0x95, 0x09, 0x17, 0x23, 0x07, 0x00, 0xf4, 0x26, 0xe7, 0xfd, 0x26, 0x18,
  0x10, 0xfa, 0x00, 0xe4, 0xcc, 0xf5, 0x0a, 0x32, 0xf9, 0xfc, 0x03, 0xcf,
  0xd2, 0xf3, 0x0a, 0xf3, 0xf0, 0xdd, 0x0b, 0xa9, 0x03, 0x07, 0xec, 0x00,
  0xfe, 0xe4, 0x0e, 0xb7, 0x26, 0x03, 0x19, 0xe9, 0x11, 0xf7, 0xf3, 0xd8,
  0xfd, 0xfa, 0x11, 0xdf, 0x04, 0xe5, 0xf5, 0xdd, 0x12, 0x09, 0x08, 0xc6,
  0x02, 0x0b, 0xff, 0xf4, 0x16, 0xfe, 0xf3, 0x03, 0x01, 0x06, 0x0d, 0xd4,
  0x16, 0x0d, 0x0b, 0xfa, 0xfd, 0xee, 0x0f, 0xf3, 0xf4, 0xf6, 0x04, 0xed,
  0xfc, 0xf9, 0x01, 0x00, 0x1c, 0x11, 0x2b, 0xee, 0x03, 0x0d, 0xf5, 0xd6,
  0xfb, 0x10, 0x1f, 0x00, 0x14, 0xfb, 0x0a, 0xe5, 0xf3, 0xfb, 0x20, 0x05,
  0x05, 0x0f, 0x15, 0x0c, 0xc3, 0x0c, 0x11, 0x07, 0xf8, 0xed, 0x06, 0x1c,
  0x1c, 0x06, 0xde, 0x00, 0xfe, 0xfd, 0x09, 0xed, 0xce, 0x02, 0xc4, 0x44,
  0xfc, 0x04, 0x06, 0x16, 0xe4, 0x0b, 0x09, 0x0e, 0xfb, 0xea, 0xfe, 0x0f,
  0xe2, 0xfc, 0x0c, 0x4d, 0xfb, 0xfe, 0xfa, 0xf5, 0xe6, 0x0b, 0xf2, 0x34,
  0x0a, 0xf8, 0xf8, 0x3f, 0xab, 0x0f, 0x0a, 0x26, 0x0f, 0x00, 0xfb, 0x0f,
  0xf1, 0x0e, 0xcb, 0x1c, 0xf9, 0x07, 0xf4, 0x1b, 0xa7, 0xfb, 0xc7, 0x15,
  0xfb, 0x03, 0xfb, 0xcf, 0xdc, 0x03, 0xdd, 0x0b, 0x0a, 0xde, 0x0b, 0xcf,
  0x03, 0x0c, 0x08, 0x0b, 0x10, 0xf6, 0xf4, 0xbb, 0x11, 0x04, 0x11, 0xe3,
  0xfa, 0xf6, 0x08, 0xd4, 0xfa, 0x07, 0x10, 0x9d, 0x00, 0xe5, 0x09, 0xc3,
  0x0d, 0x0b, 0x4b, 0xb8, 0x0e, 0xf6, 0xee, 0xdf, 0xfa, 0xf8, 0x24, 0xf0,
  0x07, 0xf9, 0x0a, 0xdc, 0xee, 0x02, 0x22, 0xf7, 0xfe, 0xef, 0xf1, 0xec,
  0xe2, 0xf6, 0x2c, 0xe2, 0x05, 0x11, 0xee, 0x26, 0xf6, 0x0a, 0x30, 0xd6,
  0xfe, 0xf8, 0xf2, 0xe0, 0xfe, 0x09, 0x35, 0xd9, 0xfe, 0x09, 0x0c, 0xec,
  0xd3, 0x04, 0x58, 0x0c, 0xf8, 0x04, 0x02, 0xeb, 0xe3, 0x18, 0x13, 0x01,
  0x08, 0xf6, 0xf1, 0x23, 0xe4, 0x04, 0xff, 0x3c, 0x06, 0x02, 0x07, 0xfb,
  0xe2, 0x11, 0xe4, 0x49, 0x0f, 0xfd, 0x0d, 0x1d, 0x0f, 0x19, 0x04, 0x26,
  0xf8, 0xfb, 0x01, 0xe5, 0x0c, 0x07, 0x30, 0x0d, 0x0e, 0x00, 0x0b, 0xef,
  0x05, 0x0d, 0x36, 0x57, 0xfc, 0xf9, 0x08, 0x21, 0xfb, 0xfd, 0x49, 0x04,
  0x07, 0x01, 0x04, 0x21, 0xe0, 0x0a, 0x13, 0x20, 0xf7, 0x00, 0xf8, 0x06,
  0xfc, 0x0b, 0xe4, 0x1d, 0x0e, 0x20, 0xf7, 0xdc, 0xaa, 0xfa, 0xfc, 0x08,
  0xfa, 0x13, 0x03, 0xea, 0xc2, 0x03, 0xfd, 0xd2, 0xf0, 0x21, 0xff, 0x09,
  0x22, 0xff, 0xc2, 0xbb, 0xfe, 0x0c, 0xf2, 0xf6, 0x30, 0xfb, 0xf4, 0xd5,
  0xf0, 0x13, 0x0b, 0xfe, 0x3c, 0xf1, 0xfb, 0x05, 0x0d, 0x12, 0x05, 0xf7,
  0x20, 0xe7, 0xf9, 0xe6, 0x0c, 0x1c, 0x03, 0xf0, 0x19, 0xee, 0xe7, 0xdf,
  0x10, 0x26, 0x06, 0xfe, 0x0b, 0xec, 0xf6, 0xed, 0xfc, 0x20, 0xfb, 0x0c,
  0x29, 0x07, 0x00, 0xf2, 0xfc, 0x22, 0xf1, 0xef, 0x16, 0xf7, 0xec, 0x2f,
  0x00, 0x22, 0x09, 0xed, 0x1d, 0xfd, 0x06, 0x30, 0x14, 0x18, 0xef, 0xff,
  0x3c, 0x00, 0xef, 0xf8, 0xf8, 0x0e, 0x0c, 0xf9, 0x00, 0xfa, 0xf6, 0x0d,
  0x0d, 0x03, 0x05, 0xd2, 0x02, 0xf7, 0xf9, 0xe0, 0xfe, 0x16, 0x13, 0xf7,
  0xbb, 0xf5, 0x00, 0x43, 0xfe, 0x10, 0xee, 0xf4, 0xc0, 0xe2, 0x03, 0xd8,
  0x06, 0x19, 0xfc, 0xe8, 0xe3, 0xfa, 0xed, 0x1f, 0x07, 0x0a, 0x0f, 0xfe,
  0xf4, 0xfd, 0x00, 0xd6, 0xf4, 0x19, 0x0b, 0xe0, 0x29, 0xf9, 0xf0, 0xa4,
  0x0f, 0x12, 0x07, 0xfb, 0xf5, 0xf5, 0xf2, 0xe8, 0xf6, 0x0a, 0x06, 0x10,
  0xd0, 0xfc, 0x0d, 0xf6, 0x01, 0x0b, 0xf8, 0x05, 0xd7, 0x03, 0xf9, 0xdf,
  0xf3, 0x1a, 0xf7, 0x0f, 0x4b, 0xf0, 0x93, 0xde, 0xf6, 0x20, 0x04, 0x0d,
  0x03, 0xeb, 0xeb, 0xcc, 0xfc, 0x1b, 0xf7, 0x1b, 0xfe, 0x05, 0xe3, 0x05,
  0x0d, 0x1e, 0x11, 0x04, 0xf1, 0xfe, 0xe4, 0xcc, 0xfb, 0x26, 0x14, 0xfa,
  0x28, 0xf1, 0xe7, 0xfb, 0xfb, 0x2d, 0x14, 0xf9, 0x23, 0xf7, 0xca, 0xfa,
  0x0f, 0x27, 0x0e, 0x00, 0xf7, 0xf6, 0xb8, 0xde, 0x00, 0x2e, 0xfb, 0x0b,
  0x02, 0xe7, 0xe5, 0x49, 0xf2, 0x24, 0xee, 0xff, 0x16, 0xf9, 0xe4, 0x36,
  0x0d, 0x2c, 0xfb, 0xfa, 0x47, 0x04, 0xe2, 0x02, 0xf6, 0x19, 0x08, 0x23,
  0x0d, 0xe7, 0xc6, 0xc8, 0x04, 0x26, 0x11, 0xea, 0x04, 0xf6, 0xbe, 0xb3,
  0x05, 0x1e, 0xf4, 0x0b, 0xe7, 0xea, 0xe0, 0x54, 0x0c, 0x08, 0x14, 0xe8,
  0xcc, 0xe5, 0xd7, 0xd2, 0x0a, 0x1e, 0x08, 0xef, 0xbd, 0xfc, 0xd3, 0x18,
  0x09, 0x28, 0x08, 0x08, 0xea, 0xff, 0xce, 0xef, 0x06, 0x1e, 0x02, 0xf5,
  0x16, 0xe9, 0xef, 0xd6, 0x12, 0x14, 0x13, 0xfd, 0x1e, 0x03, 0x00, 0xfb,
  0x06, 0x14, 0x0f, 0xdf, 0x9d, 0xf8, 0xf6, 0xf5, 0x09, 0x19, 0xf2, 0x11,
  0xc7, 0xfa, 0xbd, 0xf9, 0x0d, 0x22, 0xfc, 0x14, 0x38, 0xfb, 0xe0, 0xd7,
  0x0a, 0x2a, 0xf7, 0xfd, 0x17, 0xfd, 0xe1, 0xd8, 0x05, 0x36, 0x0b, 0x15,
  0xf3, 0xec, 0x15, 0x2b, 0x0b, 0x27, 0xf2, 0xf7, 0xfd, 0xf1, 0xf7, 0x07,
  0x05, 0x37, 0x06, 0x06, 0xff, 0xd9, 0x29, 0x1c, 0x01, 0x32, 0xf6, 0x02,
  0xfe, 0xf5, 0x20, 0x17, 0x07, 0x13, 0x00, 0x09, 0xfa, 0xe2, 0xeb, 0xc2,
  0x02, 0x28, 0x07, 0x0b, 0x05, 0xe0, 0x22, 0x4a, 0xfa, 0x25, 0xfb, 0x0d,
  0x09, 0xe4, 0x3a, 0x28, 0x08, 0x1f, 0x13, 0xf6, 0x26, 0xe2, 0xf2, 0x15,
  0x10, 0x25, 0x0c, 0xfd, 0x2b, 0xe3, 0xe8, 0xde, 0xfc, 0x2b, 0x02, 0xf6,
  0x02, 0xf5, 0xcc, 0xc0, 0xfc, 0x2e, 0xf6, 0x0c, 0x03, 0xfb, 0xde, 0x2b,
  0xf1, 0x21, 0xfb, 0xf9, 0xdd, 0xe9, 0x08, 0xf1, 0x0f, 0x1c, 0xfb, 0x04,
  0xf4, 0xe8, 0xdd, 0x04, 0xfc, 0x19, 0xfe, 0xf6, 0xf4, 0xe4, 0xe8, 0xdb,
  0x0d, 0x35, 0x02, 0x0a, 0xf6, 0xf8, 0xdd, 0xab, 0x08, 0x1b, 0x06, 0xee,
  0x0d, 0x10, 0xcd, 0xe1, 0x07, 0x05, 0xfd, 0xda, 0xe6, 0xf0, 0x02, 0xda,
  0xf2, 0x1d, 0xf8, 0x10, 0xd7, 0xe8, 0xbf, 0x06, 0xfb, 0x1b, 0xf2, 0x05,
  0x05, 0xdb, 0xec, 0x1f, 0xfd, 0x2c, 0xf8, 0xfb, 0x1f, 0xee, 0xf6, 0x05,
  0x00, 0x24, 0x04, 0x2a, 0xf2, 0xf8, 0xfc, 0x03, 0x00, 0x2e, 0xfe, 0xf8,
  0xee, 0xe2, 0x23, 0x22, 0x05, 0x32, 0x00, 0xfd, 0xe5, 0xf7, 0xfe, 0x12,
  0x08, 0x2a, 0xfd, 0xfd, 0xdb, 0xe3, 0x25, 0x22, 0x01, 0x1a, 0xff, 0x01,
  0xf1, 0xfa, 0x0d, 0xf1, 0x08, 0x25, 0xf6, 0x04, 0xff, 0xe0, 0x39, 0x54,
  0x06, 0x21, 0x05, 0x0c, 0xf4, 0xe8, 0x46, 0x37, 0xf2, 0x11, 0x14, 0xe7,
  0xf2, 0xfb, 0xf8, 0x1a, 0xfd, 0x24, 0x09, 0x0a, 0xf6, 0xe2, 0x27, 0xe3,
  0xfc, 0x21, 0x0c, 0x09, 0x25, 0xdb, 0xc8, 0xb3, 0x0c, 0x15, 0x07, 0xf1,
  0x2f, 0xe3, 0xf9, 0x09, 0x06, 0x1f, 0x09, 0xf6, 0x3d, 0xf2, 0x26, 0x01,
  0x02, 0x28, 0x01, 0xee, 0x38, 0xe5, 0xda, 0xe9, 0x0c, 0x17, 0x04, 0xe3,
  0x1e, 0xf9, 0x1b, 0xc5, 0x09, 0x23, 0x08, 0x08, 0x06, 0xe8, 0xe2, 0xbb,
  0xfd, 0x15, 0x0f, 0x00, 0x24, 0xf9, 0xbb, 0x01, 0x0b, 0x25, 0x07, 0xf1,
  0xe6, 0xe8, 0xf3, 0xe8, 0x07, 0x15, 0x02, 0xf6, 0xf7, 0xe9, 0xc1, 0xe1,
  0xf9, 0x26, 0xfe, 0x0c, 0xe9, 0xf2, 0xe9, 0x4a, 0x04, 0x1d, 0xfb, 0x1f,
  0xfb, 0xfe, 0x0f, 0x28, 0x11, 0x21, 0x05, 0x15, 0xfe, 0xe5, 0xe7, 0x04,
  0x0e, 0x2b, 0xf0, 0xe1, 0xf2, 0xe9, 0x18, 0x31, 0xfc, 0x11, 0xfc, 0x0a,
  0xf5, 0xfe, 0xfc, 0x24, 0x03, 0x28, 0x01, 0xf5, 0xe9, 0xf2, 0x17, 0x2e,
  0x11, 0x1c, 0x08, 0x1a, 0xe3, 0xf1, 0x05, 0x20, 0xf9, 0x1e, 0x06, 0xf6,
  0x08, 0xf2, 0x32, 0x5a, 0xf6, 0x2d, 0x05, 0xf8, 0xdd, 0xfa, 0x35, 0x4f,
  0x05, 0x2b, 0xf7, 0xf1, 0x0e, 0xed, 0xf3, 0x1f, 0xfb, 0x33, 0x0e, 0x0b,
  0xe9, 0xf6, 0x1f, 0x0e, 0x08, 0x33, 0x0f, 0x0f, 0x10, 0xe4, 0xc0, 0x1b,
  0x07, 0x1a, 0x14, 0xfa, 0x1b, 0xe4, 0x00, 0x1d, 0x08, 0x1e, 0xfe, 0xf1,
  0x26, 0xee, 0xed, 0x1d, 0x06, 0x29, 0x09, 0x06, 0x3a, 0xfc, 0xda, 0x02,
  0x0a, 0x22, 0xfe, 0xd4, 0x32, 0xe4, 0x29, 0x0e, 0xf1, 0x2c, 0x0d, 0xf0,
  0xf7, 0xe9, 0xf7, 0xdc, 0xfd, 0x16, 0x06, 0x0d, 0x59, 0xfd, 0xb6, 0x0e,
  0x0a, 0x04, 0x09, 0xf8, 0x10, 0xe5, 0xd3, 0xe2, 0xf4, 0x1f, 0xef, 0x06,
  0x2b, 0xe3, 0xbd, 0xe2, 0x08, 0x14, 0xf5, 0x15, 0xea, 0xec, 0xd4, 0x3a,
  0x10, 0x12, 0xef, 0x32, 0xf6, 0xef, 0x0f, 0x16, 0xf3, 0x17, 0xf3, 0x1c,
  0xfa, 0xf1, 0xf3, 0x1b, 0x16, 0x18, 0xfd, 0xff, 0xd0, 0xf3, 0x06, 0x0c,
  0xf0, 0x25, 0x02, 0x1c, 0xd3, 0xeb, 0xf3, 0x1d, 0x10, 0x24, 0x03, 0x19,
  0x04, 0xf5, 0xfc, 0x29, 0x17, 0x17, 0x08, 0x0f, 0x3e, 0xdd, 0xf0, 0x22,
  0xf6, 0x10, 0xf6, 0xfc, 0x2a, 0x03, 0x3b, 0x5f, 0xf7, 0x2f, 0xfe, 0xf8,
  0xe6, 0xe9, 0x07, 0x27, 0xf1, 0x22, 0xfc, 0xe2, 0x0a, 0xee, 0x1f, 0x36,
  0x01, 0x23, 0xf9, 0xf6, 0xee, 0xf0, 0x15, 0x0c, 0x06, 0x27, 0x0b, 0x12,
  0x35, 0xe3, 0xda, 0x0a, 0xf4, 0x27, 0x0e, 0xfa, 0x1b, 0xdd, 0x1c, 0x21,
  0x0c, 0x2b, 0x10, 0xbd, 0x09, 0xfa, 0xf1, 0x18, 0xfd, 0x0d, 0xff, 0xea,
  0x05, 0xf8, 0xec, 0x0d, 0x11, 0x19, 0x0a, 0xd1, 0x01, 0xf2, 0x1a, 0x33,
  0xfd, 0x25, 0x03, 0xdb, 0xe7, 0xed, 0xfe, 0xd3, 0x05, 0x02, 0x04, 0xfa,
  0x56, 0x02, 0xc2, 0xfd, 0x16, 0x12, 0xf8, 0x03, 0xee, 0xff, 0xc9, 0xd2,
  0x03, 0x13, 0x03, 0x25, 0x24, 0xf6, 0xba, 0x0b, 0x10, 0x15, 0x07, 0x20,
  0xfb, 0xe5, 0xd7, 0x24, 0xef, 0x12, 0x04, 0x2e, 0xec, 0xf2, 0x04, 0x12,
  0x0b, 0x27, 0x09, 0x09, 0x0c, 0x04, 0xf9, 0x10, 0xee, 0x12, 0xfd, 0x01,
  0xe5, 0xf1, 0x1f, 0x13, 0xf4, 0x1c, 0x03, 0x2a, 0xe9, 0xee, 0x0c, 0xff,
  0x00, 0x19, 0x13, 0x09, 0x28, 0xe9, 0x14, 0x18, 0x03, 0x18, 0x15, 0x22,
  0x20, 0xe9, 0xcb, 0x3e, 0x05, 0x14, 0xf5, 0xec, 0x02, 0xf8, 0x2f, 0x74,
  0x01, 0x25, 0x06, 0x0c, 0xc3, 0xe8, 0xde, 0x1a, 0x07, 0x16, 0x07, 0xfd,
  0xfb, 0xf0, 0x10, 0x14, 0x0d, 0x25, 0x0b, 0x1b, 0x07, 0xe8, 0x1b, 0xe5,
  0xfc, 0x15, 0x16, 0xfa, 0x1b, 0xf2, 0xde, 0x06, 0x09, 0x14, 0xf5, 0xf2,
  0x1e, 0xfa, 0x09, 0x1f, 0x05, 0x1c, 0x03, 0xdf, 0x02, 0xe5, 0xfa, 0xf6,
  0x0d, 0x17, 0xfb, 0xdb, 0x16, 0xf5, 0xf8, 0x2f, 0xf4, 0x28, 0xfe, 0xd6,
  0x04, 0xec, 0xdb, 0x28, 0x04, 0x1e, 0x02, 0xf9, 0xfa, 0xe2, 0xf7, 0xf8,
  0x0e, 0x18, 0xfd, 0xf6, 0x25, 0x07, 0xc5, 0xf8, 0x06, 0x20, 0x10, 0x05,
  0xf3, 0x09, 0xd6, 0x06, 0x0d, 0x1c, 0xf2, 0x38, 0x45, 0xf4, 0xd1, 0x0e,
  0x10, 0x1c, 0x0a, 0x1e, 0xd8, 0xed, 0x07, 0x09, 0xf4, 0x09, 0x0a, 0x22,
  0xe9, 0xe5, 0xcd, 0xf9, 0xfd, 0x27, 0xfc, 0x13, 0xed, 0xed, 0xfd, 0x1a,
  0x02, 0x1f, 0xfa, 0x0c, 0xfe, 0xe8, 0x01, 0x16, 0xfd, 0x16, 0x0d, 0x18,
  0xf1, 0xe9, 0xf0, 0x0e, 0xfa, 0x12, 0xfb, 0x26, 0x30, 0xe3, 0x1d, 0x00,
  0xfb, 0x0a, 0xed, 0x21, 0x29, 0xe5, 0xa2, 0x37, 0xfd, 0x13, 0x0a, 0xfa,
  0xfe, 0xe4, 0x2f, 0x35, 0x05, 0x0d, 0x0a, 0x09, 0xe1, 0xfc, 0x12, 0x22,
  0xf5, 0x17, 0xfd, 0xf5, 0x15, 0xed, 0x1d, 0x2e, 0x05, 0x2d, 0xf4, 0x04,
  0xe5, 0xef, 0x2c, 0xee, 0xf9, 0x1e, 0x07, 0x00, 0xfd, 0xe8, 0xea, 0x0b,
  0x13, 0x03, 0x01, 0xe3, 0x1a, 0xe2, 0x00, 0x2c, 0xfd, 0x16, 0x02, 0xe9,
  0xf5, 0xf7, 0xf8, 0x1d, 0xf9, 0x21, 0xfc, 0xe6, 0xfe, 0xe9, 0xfe, 0x1a,
  0x03, 0x0b, 0xf0, 0xcb, 0xfe, 0x00, 0xd4, 0x17, 0x00, 0x28, 0x13, 0xe6,
  0xe9, 0xfc, 0x01, 0x0a, 0xfb, 0x14, 0x0a, 0xea, 0xfc, 0x05, 0xbe, 0x0e,
  0x00, 0x17, 0xfa, 0x01, 0xd7, 0xe1, 0xde, 0xf3, 0xfb, 0x15, 0xfa, 0x15,
  0x2b, 0x04, 0xca, 0xf0, 0x01, 0x1c, 0x01, 0x27, 0xe3, 0xf7, 0x05, 0x0b,
  0xfb, 0x12, 0xf4, 0x15, 0xfe, 0xf8, 0xdd, 0xee, 0xf5, 0x2b, 0xff, 0xf8,
  0xed, 0x02, 0xdd, 0x13, 0x00, 0x1b, 0x0c, 0x01, 0x0e, 0xdf, 0xea, 0xe9,
  0xfb, 0x0a, 0xfc, 0x15, 0xe0, 0xde, 0x07, 0x0c, 0x0a, 0x03, 0x04, 0x12,
  0x10, 0xf8, 0x0b, 0x01, 0x01, 0x15, 0x08, 0x1a, 0x12, 0xfc, 0xcf, 0x3d,
  0xfa, 0x0e, 0x02, 0x11, 0x09, 0xfe, 0x3a, 0x44, 0x00, 0x1b, 0x0b, 0x11,
  0xe6, 0xee, 0x02, 0x04, 0x04, 0x1b, 0xfb, 0xf6, 0x0b, 0xf4, 0x2d, 0x0d,
  0x09, 0x1b, 0xef, 0xf9, 0xdd, 0xf6, 0x2e, 0xfd, 0x05, 0x1f, 0x03, 0xf4,
  0x0c, 0xf3, 0x04, 0x05, 0x00, 0x28, 0xf4, 0xef, 0x0c, 0xe1, 0xf0, 0x16,
  0xf8, 0x10, 0x0f, 0xd5, 0x14, 0xed, 0xe5, 0x11, 0x07, 0x1b, 0xf8, 0xe3,
  0x08, 0xea, 0x09, 0x16, 0xf8, 0x0f, 0x10, 0xdc, 0x02, 0xf3, 0x13, 0x43,
  0x04, 0x0c, 0xfe, 0xdb, 0xf7, 0xe5, 0xf9, 0x1b, 0x0d, 0x14, 0x07, 0xe6,
  0xe5, 0x02, 0xd4, 0x17, 0x05, 0x09, 0xef, 0xfb, 0xe0, 0xfe, 0xd9, 0x00,
  0xf6, 0x13, 0x00, 0x27, 0x30, 0xfc, 0xc6, 0xe0, 0xfe, 0x1b, 0xfa, 0x3f,
  0xdd, 0xfc, 0xfa, 0xff, 0x03, 0x06, 0x0d, 0x17, 0x05, 0x02, 0xe9, 0xf7,
  0x17, 0x11, 0x01, 0x24, 0xee, 0x0c, 0x0f, 0x16, 0xfd, 0x2e, 0xf2, 0x0e,
  0x0e, 0xf0, 0xe9, 0xf2, 0x05, 0x10, 0x13, 0x17, 0xee, 0xf5, 0x01, 0xeb,
  0x06, 0x18, 0x09, 0x04, 0x28, 0x04, 0xf2, 0x19, 0xf4, 0xfc, 0x07, 0x00,
  0x0c, 0xe6, 0xf9, 0x41, 0x03, 0x0a, 0x0f, 0x14, 0xfb, 0xf6, 0x3f, 0x35,
  0x0c, 0x22, 0x03, 0x05, 0xff, 0xf4, 0xf9, 0x10, 0x13, 0x10, 0x17, 0x1a,
  0x04, 0x07, 0x20, 0x02, 0x0c, 0x24, 0xfa, 0xf3, 0xdf, 0xed, 0x05, 0xf6,
  0x02, 0x17, 0xf6, 0xfc, 0xfb, 0xec, 0x0d, 0x0e, 0x04, 0x0a, 0x01, 0xfb,
  0x1e, 0xdd, 0xdc, 0x0c, 0x06, 0x12, 0x02, 0xfc, 0x26, 0xfd, 0xdc, 0x32,
  0xef, 0x19, 0xfd, 0xf3, 0x14, 0xe6, 0x1b, 0x08, 0xfc, 0x14, 0x00, 0xd3,
  0x09, 0xe6, 0x04, 0x4d, 0xf5, 0x0c, 0x02, 0xd8, 0xe5, 0xf4, 0x17, 0x10,
  0x09, 0x1f, 0x13, 0xf5, 0xf7, 0xf0, 0xf5, 0x2b, 0x02, 0x19, 0x01, 0x0e,
  0xc3, 0xe9, 0xe7, 0xee, 0x08, 0x21, 0x09, 0x2b, 0x3c, 0xf4, 0xae, 0xeb,
  0x02, 0x08, 0x05, 0x33, 0xe3, 0xf1, 0xf5, 0x05, 0x08, 0x05, 0xf8, 0x1c,
  0xf9, 0xf4, 0xfc, 0x1b, 0x00, 0x08, 0x0d, 0x1b, 0xea, 0xfc, 0x19, 0x15,
  0x04, 0x18, 0x09, 0x09, 0xf5, 0xf2, 0x07, 0x19, 0x01, 0x14, 0xf6, 0x25,
  0x0d, 0xf5, 0x0d, 0xee, 0x02, 0x0f, 0x16, 0x0d, 0x21, 0xe9, 0x11, 0xfb,
  0xf3, 0x18, 0x0a, 0x03, 0xf5, 0xf6, 0xea, 0x38, 0x03, 0x06, 0x01, 0x0c,
  0xf6, 0xde, 0x2a, 0x20, 0x04, 0x03, 0xed, 0x08, 0x04, 0xf1, 0xe2, 0xe9,
  0x00, 0x17, 0xfb, 0x15, 0x06, 0xe4, 0x04, 0x11, 0xfc, 0xff, 0xf4, 0xf4,
  0xd1, 0xdd, 0x08, 0xdb, 0x0d, 0x19, 0x03, 0x0d, 0xf8, 0xeb, 0x16, 0x02,
  0x0b, 0x23, 0xf1, 0xe5, 0x21, 0xf0, 0xda, 0xe6, 0x0d, 0xfc, 0xf8, 0x0b,
  0x1d, 0xee, 0xd0, 0x27, 0xfa, 0x16, 0xf9, 0xd6, 0xf3, 0xf3, 0x0e, 0x17,
  0x13, 0x0f, 0xf8, 0xc9, 0x17, 0xe5, 0x1c, 0x1f, 0xfd, 0xfe, 0x00, 0xd3,
  0xcb, 0xfc, 0xe8, 0x10, 0xfa, 0x1b, 0x09, 0x08, 0x20, 0xfe, 0xef, 0x3f,
  0xfe, 0x12, 0x05, 0xf3, 0xcb, 0xf8, 0x0a, 0xcd, 0xf4, 0x00, 0x0a, 0x32,
  0x11, 0xf2, 0xa0, 0x05, 0x01, 0x1d, 0xfb, 0x26, 0xf6, 0xfe, 0xf4, 0x0e,
  0xff, 0x14, 0xf1, 0x32, 0x0d, 0xf3, 0xe5, 0x15, 0x00, 0x08, 0x08, 0x23,
  0xfb, 0x00, 0x1e, 0x38, 0x0f, 0x1f, 0x13, 0x18, 0xfe, 0xf2, 0xdd, 0x13,
  0x16, 0x0f, 0xf3, 0x0f, 0x1f, 0xed, 0x00, 0xfd, 0x01, 0x0b, 0x07, 0x16,
  0x05, 0xf6, 0x08, 0xf6, 0xfb, 0xfe, 0x10, 0x02, 0xd6, 0xf1, 0xfc, 0x3b,
  0xf6, 0x02, 0xfc, 0x09, 0x00, 0xeb, 0x18, 0xfa, 0x01, 0x07, 0x00, 0x05,
  0x2b, 0xe5, 0xca, 0x01, 0x13, 0x03, 0xfc, 0x02, 0xef, 0xe4, 0xfc, 0x06,
  0xfc, 0x0f, 0x0c, 0xf4, 0xe3, 0xf2, 0x17, 0x17, 0x09, 0x0a, 0x01, 0xfc,
  0x0b, 0xf5, 0x2a, 0xfd, 0xfa, 0x01, 0x0d, 0xff, 0x2c, 0xea, 0xe6, 0xf0,
  0xfb, 0x06, 0x09, 0xf9, 0x15, 0xe7, 0xff, 0x27, 0xec, 0x18, 0xfe, 0xce,
  0xed, 0xe4, 0x06, 0x1c, 0x03, 0x0d, 0xf8, 0xd2, 0x26, 0xf3, 0x3a, 0x09,
  0xfb, 0x0b, 0xf7, 0xd6, 0xcd, 0xf5, 0xed, 0x20, 0x03, 0x05, 0x13, 0x07,
  0x0c, 0x0b, 0xc3, 0x58, 0x04, 0x04, 0xf4, 0xfe, 0xc9, 0xe0, 0x00, 0xc2,
  0xf5, 0x1e, 0x08, 0x48, 0x19, 0xef, 0x8f, 0x01, 0x04, 0x16, 0xf1, 0x38,
  0x07, 0xe9, 0xf5, 0x0c, 0x01, 0x0e, 0x08, 0x36, 0x05, 0xf7, 0xe9, 0x26,
  0xef, 0x14, 0xf2, 0x35, 0x0b, 0xf9, 0x1d, 0x29, 0xfc, 0x14, 0x12, 0x06,
  0xee, 0xf3, 0x04, 0xf1, 0x05, 0x0d, 0xfb, 0x04, 0x27, 0xe5, 0x02, 0xf9,
  0xfc, 0x1c, 0x05, 0x29, 0x01, 0xfc, 0x0b, 0x13, 0xf4, 0x06, 0xf8, 0xf4,
  0xe5, 0xfe, 0xf2, 0x4e, 0x02, 0x12, 0x07, 0x03, 0x0b, 0x02, 0x27, 0xfc,
  0xf8, 0xfb, 0x05, 0xf2, 0x19, 0xfb, 0xc9, 0x05, 0x09, 0x0d, 0x04, 0x10,
  0x06, 0xdd, 0xe7, 0x18, 0x14, 0x19, 0x04, 0xfc, 0xf8, 0xe3, 0x18, 0xfd,
  0x11, 0x10, 0xf8, 0xf0, 0xfb, 0xfe, 0x2f, 0xd8, 0xff, 0x18, 0xf7, 0x06,
  0x24, 0xe6, 0xc8, 0xec, 0xf5, 0x0a, 0x02, 0xe5, 0x0f, 0xef, 0x17, 0x30,
  0x01, 0x16, 0x05, 0xd5, 0xf2, 0xef, 0x13, 0x09, 0x02, 0xfb, 0xee, 0xd1,
  0x2b, 0xf6, 0x25, 0x27, 0xfe, 0x0d, 0xf8, 0xeb, 0xee, 0x03, 0xf9, 0x14,
  0xf2, 0x0e, 0x07, 0x01, 0xeb, 0xed, 0xc8, 0x50, 0x0b, 0x0a, 0x00, 0x00,
  0xd1, 0xf9, 0x0f, 0xc1, 0x07, 0x0a, 0x0a, 0x49, 0x13, 0xfa, 0x9e, 0x0a,
  0xfe, 0x0d, 0xf9, 0x3e, 0x1a, 0xfa, 0xea, 0x0b, 0x07, 0x0c, 0x0d, 0x4b,
  0xfa, 0x00, 0xe3, 0x39, 0x11, 0x15, 0x15, 0x1f, 0x18, 0xff, 0x03, 0x24,
  0x01, 0x10, 0x09, 0xf5, 0x0c, 0xed, 0xea, 0xf4, 0xfd, 0x00, 0x09, 0x01,
  0x17, 0xfb, 0xda, 0xea, 0x0b, 0x18, 0xfc, 0x14, 0xe5, 0x06, 0x1e, 0x1e,
  0x03, 0x14, 0xfe, 0xe9, 0xf2, 0xf4, 0x08, 0x37, 0x10, 0x19, 0x06, 0x03,
  0x03, 0xe8, 0x1a, 0xf4, 0xf6, 0xfd, 0x14, 0xf2, 0x16, 0xee, 0xce, 0xfc,
  0xee, 0x15, 0xf9, 0x08, 0x02, 0xe4, 0xfc, 0xf7, 0xfc, 0x0d, 0x01, 0xf7,
  0xf5, 0xee, 0x00, 0x05, 0x02, 0x10, 0x07, 0xec, 0xea, 0xf1, 0x30, 0xf2,
  0x14, 0x07, 0xfc, 0xef, 0x45, 0xe3, 0xe2, 0xfc, 0x0d, 0x0b, 0xfa, 0xee,
  0x0c, 0xee, 0x17, 0x43, 0x02, 0x11, 0x00, 0xc8, 0xeb, 0xf4, 0x0f, 0x09,
  0xff, 0x11, 0x05, 0xe4, 0x3c, 0xeb, 0x17, 0x0d, 0xff, 0xfc, 0x00, 0xef,
  0x07, 0xf4, 0xf4, 0x18, 0xfc, 0x06, 0x08, 0x05, 0xf4, 0x0f, 0xd8, 0x44,
  0x01, 0xfa, 0xf5, 0x20, 0xed, 0xfb, 0x00, 0x00, 0xef, 0x0e, 0xfa, 0x59,
  0xff, 0xf5, 0xd2, 0xf7, 0x11, 0xf5, 0xfa, 0x32, 0x24, 0x05, 0xe8, 0x0e,
  0x0c, 0x01, 0xf8, 0x39, 0x07, 0xf4, 0xd4, 0x40, 0x0a, 0x13, 0x11, 0x2f,
  0x08, 0xfb, 0x12, 0x23, 0x03, 0x06, 0x00, 0x0d, 0x1e, 0xf4, 0xec, 0xe1,
  0xef, 0x0f, 0x03, 0x1c, 0x2c, 0xfb, 0xe9, 0xf5, 0xf5, 0x0a, 0xfe, 0x1b,
  0xe8, 0xfa, 0x0f, 0x0b, 0x06, 0x08, 0x05, 0xfa, 0x04, 0x05, 0x11, 0x0f,
  0xed, 0x14, 0x08, 0x04, 0x0a, 0xef, 0x0c, 0xef, 0x01, 0x0a, 0xff, 0x04,
  0x30, 0xf3, 0xfb, 0xd9, 0x05, 0xff, 0x08, 0x04, 0xfc, 0xf5, 0x00, 0x19,
  0xfc, 0xf5, 0xf8, 0xdd, 0x0c, 0x02, 0xec, 0xeb, 0x05, 0x0a, 0x10, 0xdb,
  0xf6, 0xf0, 0x09, 0x05, 0x01, 0x11, 0xfa, 0xec, 0x1f, 0xf5, 0x0e, 0xe3,
  0x07, 0x09, 0x02, 0xe1, 0xfe, 0x00, 0x26, 0x1a, 0xfd, 0x10, 0x06, 0xc6,
  0xe6, 0xf1, 0x07, 0x12, 0xf8, 0x01, 0x0e, 0xd2, 0x39, 0xe6, 0xfc, 0xf7,
  0xee, 0xfd, 0xf9, 0xfb, 0xf6, 0xf3, 0x06, 0x09, 0xf3, 0x09, 0xf7, 0x0f,
  0x1c, 0x04, 0xe5, 0x38, 0xfe, 0x1d, 0xf4, 0x27, 0xe4, 0xf8, 0xfc, 0x06,
  0x07, 0x0d, 0xfc, 0x55, 0xfe, 0xf3, 0xda, 0xdd, 0x08, 0x0a, 0x02, 0x3b,
  0x01, 0xf8, 0xf7, 0x05, 0xec, 0x00, 0x00, 0x3d, 0x12, 0xef, 0xd2, 0x2e,
  0xf8, 0x1f, 0xf5, 0x2a, 0xfb, 0xf1, 0x0f, 0x3d, 0x06, 0xf6, 0x06, 0x0d,
  0x1c, 0xfb, 0xe4, 0xfb, 0x00, 0x07, 0xfe, 0x3a, 0x3d, 0xe8, 0x19, 0xe6,
  0x0f, 0x17, 0xf6, 0x04, 0xdf, 0x00, 0xfe, 0x1c, 0x08, 0x10, 0x03, 0xf7,
  0xe6, 0xf4, 0x0c, 0x04, 0x0d, 0x17, 0x0c, 0x13, 0xf9, 0xef, 0x10, 0xdd,
  0x03, 0x1a, 0x04, 0x00, 0x2c, 0xec, 0xef, 0xd8, 0xf3, 0x02, 0x03, 0x06,
  0xf5, 0x04, 0xe9, 0x08, 0x0b, 0xf9, 0x05, 0xd5, 0x06, 0xe9, 0xf1, 0xf7,
  0x03, 0xf9, 0xf7, 0xe8, 0x13, 0xef, 0x08, 0x13, 0x02, 0x0d, 0xfb, 0xea,
  0x1e, 0x03, 0x36, 0xfa, 0x05, 0x06, 0x03, 0xd9, 0x09, 0xee, 0x04, 0x19,
  0xf7, 0x03, 0xf7, 0xd4, 0x0c, 0xf0, 0x1a, 0x01, 0x05, 0x0b, 0xf3, 0xbe,
  0x4c, 0xfd, 0xe1, 0xf9, 0xfa, 0x00, 0x01, 0xfe, 0x0e, 0xf5, 0x11, 0x17,
  0x08, 0x09, 0x08, 0x01, 0x09, 0x0c, 0xf4, 0x30, 0x0f, 0xfe, 0x06, 0x19,
  0x14, 0xee, 0xf9, 0xfa, 0x12, 0xfa, 0xff, 0x55, 0x20, 0x01, 0xbf, 0xe2,
  0xed, 0x16, 0xfe, 0x21, 0x04, 0x07, 0x21, 0x06, 0xf4, 0x03, 0x04, 0x5d,
  0x13, 0xfb, 0xc7, 0x2a, 0x04, 0x0f, 0xf7, 0x22, 0xc6, 0xf1, 0x16, 0x1c,
  0xff, 0x18, 0x07, 0x04, 0x11, 0xf7, 0xdc, 0x0a, 0xfa, 0x02, 0xf7, 0x2c,
  0x3e, 0xf5, 0x19, 0xfb, 0x08, 0x0d, 0x06, 0xf6, 0xe3, 0xf5, 0xed, 0x1b,
  0xf7, 0x16, 0xfc, 0xfb, 0xf6, 0x05, 0x00, 0x15, 0x01, 0x18, 0xfa, 0x07,
  0x04, 0xed, 0xf8, 0xe3, 0xfd, 0x01, 0x03, 0x0c, 0x2a, 0x00, 0xe2, 0xe1,
  0xfe, 0x09, 0x06, 0xff, 0xfb, 0xf7, 0xfb, 0xfc, 0xfe, 0xfc, 0x07, 0xd3,
  0x1c, 0xef, 0xff, 0x22, 0xfc, 0x19, 0x11, 0xdb, 0xf8, 0x09, 0x13, 0xee,
  0x09, 0x04, 0x0b, 0xef, 0x1d, 0xf4, 0x24, 0xe2, 0xfb, 0x05, 0xff, 0xd1,
  0x02, 0xeb, 0x04, 0x15, 0xfc, 0x05, 0xfd, 0xc8, 0x0b, 0xf8, 0x19, 0xe0,
  0xf8, 0x08, 0xff, 0xbb, 0x4a, 0xee, 0xd8, 0xee, 0xff, 0xfe, 0x02, 0x02,
  0x1a, 0x00, 0x08, 0x18, 0xef, 0x0d, 0x04, 0xfc, 0x1f, 0x05, 0x02, 0x0b,
  0xfe, 0x05, 0xf6, 0x23, 0x0f, 0xf0, 0xe9, 0x18, 0xf0, 0x06, 0xf7, 0x53,
  0x09, 0xf3, 0xca, 0xd5, 0xff, 0x0f, 0x03, 0x2d, 0x00, 0xf7, 0x3c, 0x05,
  0xfb, 0x16, 0x05, 0x5d, 0x01, 0xfa, 0xdc, 0x36, 0xf8, 0x20, 0x0e, 0x1b,
  0xe8, 0xf9, 0xe4, 0x1a, 0xfb, 0x0b, 0xf6, 0x07, 0x0c, 0xfa, 0xea, 0x1d,
  0x09, 0x15, 0x05, 0x15, 0x39, 0xef, 0x0a, 0x1b, 0x09, 0x09, 0x0e, 0xf5,
  0xec, 0xf8, 0xf8, 0x22, 0xfd, 0x09, 0x15, 0x04, 0x14, 0x00, 0x01, 0x15,
  0x13, 0x13, 0xfd, 0x10, 0x0e, 0xf3, 0x0c, 0x02, 0x07, 0x13, 0xfa, 0x0d,
  0x00, 0x00, 0xed, 0xf5, 0xf0, 0xfb, 0x00, 0xf9, 0xfe, 0xf5, 0x1e, 0xe3,
  0x15, 0x00, 0xfe, 0xec, 0x35, 0xfb, 0x13, 0x14, 0x06, 0x04, 0xf4, 0xc9,
  0x13, 0x0b, 0x1d, 0x0a, 0xfc, 0x03, 0xf7, 0xe5, 0x15, 0xf7, 0x28, 0xe8,
  0xfd, 0x11, 0x09, 0xcc, 0x26, 0xec, 0x0b, 0x06, 0xff, 0x08, 0x0b, 0xe6,
  0x0b, 0xf2, 0xf5, 0xb4, 0x01, 0xf5, 0xfd, 0xbf, 0x20, 0xee, 0xf9, 0xe2,
  0x05, 0xfd, 0x0b, 0xf7, 0x1e, 0xfb, 0xe4, 0x0d, 0xf1, 0x11, 0x11, 0xfa,
  0x1d, 0x03, 0xf4, 0x0a, 0xf1, 0x12, 0x06, 0x1e, 0xf7, 0xf1, 0xdf, 0x21,
  0x10, 0x10, 0x02, 0x3e, 0x1e, 0xee, 0xf6, 0xd7, 0xfb, 0x13, 0xf8, 0x40,
  0xf1, 0xef, 0x0e, 0xeb, 0xf3, 0x05, 0x06, 0x45, 0xfa, 0xf7, 0xda, 0x0a,
  0x08, 0x0f, 0x0c, 0x28, 0xf1, 0xf7, 0xd4, 0x23, 0xec, 0x13, 0x0a, 0x06,
  0xe2, 0xed, 0xe8, 0xe7, 0x04, 0x1c, 0x06, 0x12, 0x48, 0xfe, 0x19, 0x0d,
  0x03, 0x00, 0x05, 0xee, 0xd9, 0x05, 0xed, 0x2c, 0x11, 0x00, 0x06, 0x0b,
  0xf5, 0x00, 0x17, 0x27, 0xf7, 0x0f, 0x0f, 0x26, 0x0c, 0x0c, 0xe8, 0xf2,
  0xff, 0x18, 0xfd, 0x0d, 0x1b, 0xe8, 0x08, 0xf3, 0x01, 0x14, 0x03, 0x01,
  0xfe, 0xf2, 0x16, 0x01, 0xfb, 0x0a, 0x04, 0xf7, 0x1e, 0xeb, 0xe9, 0xff,
  0xfc, 0x15, 0x00, 0xe7, 0x13, 0xe6, 0x09, 0xdf, 0x07, 0x0b, 0x0b, 0xee,
  0x05, 0xeb, 0x1f, 0xe4, 0xfc, 0x07, 0xf5, 0xb6, 0x39, 0x09, 0x25, 0xdb,
  0xfb, 0x15, 0xf7, 0xe3, 0xff, 0xea, 0xf7, 0xdb, 0xf1, 0x04, 0xfc, 0xd1,
  0x41, 0xf8, 0xf2, 0xdc, 0x0b, 0x0c, 0x0f, 0xf0, 0x33, 0x08, 0xee, 0xff,
  0xf3, 0x06, 0x12, 0x0b, 0x06, 0xf6, 0x25, 0x0d, 0xff, 0x17, 0x0c, 0x23,
  0xfb, 0x07, 0xf3, 0x0e, 0x03, 0xfe, 0x09, 0x52, 0x15, 0xf0, 0xdc, 0x12,
  0xfc, 0x0b, 0x10, 0x3c, 0xe1, 0x03, 0x14, 0x0b, 0x13, 0x04, 0x03, 0x35,
  0xf8, 0xfe, 0xd9, 0x0f, 0x08, 0x12, 0xff, 0x2f, 0xea, 0xef, 0xc8, 0x1b,
  0x01, 0x04, 0x01, 0x14, 0xfb, 0xf1, 0x00, 0x08, 0xf4, 0x13, 0xf4, 0x21,
  0x23, 0xf4, 0x05, 0x0a, 0xf4, 0x07, 0xfc, 0xef, 0xee, 0x06, 0xdc, 0x37,
  0x06, 0x01, 0x0a, 0x16, 0xd2, 0xff, 0xe1, 0x24, 0x05, 0x13, 0x04, 0x1c,
  0x32, 0xea, 0xea, 0x22, 0x00, 0x0d, 0xef, 0x1c, 0x08, 0xe0, 0x03, 0xf4,
  0xf4, 0xfa, 0x07, 0xed, 0xe6, 0xff, 0xf4, 0xfb, 0x06, 0x19, 0xee, 0x22,
  0x38, 0xfc, 0xfd, 0x1d, 0x01, 0xfe, 0x07, 0xc8, 0x05, 0xf7, 0x19, 0xf4,
  0x05, 0xfc, 0x0c, 0xe5, 0x16, 0xf3, 0x41, 0xf3, 0xf9, 0x16, 0x13, 0xb5,
  0x3b, 0x01, 0x21, 0xe4, 0x10, 0xf7, 0xf3, 0xd5, 0x12, 0xf3, 0x1c, 0xc7,
  0xf0, 0x0d, 0xf9, 0xae, 0x6e, 0xfc, 0xea, 0xda, 0xfd, 0x01, 0xf1, 0xd9,
  0x2b, 0xf4, 0xeb, 0xf9, 0x03, 0x09, 0xf7, 0x15, 0x03, 0xef, 0x1d, 0x04,
  0x0d, 0x08, 0xf9, 0x03, 0x29, 0xf0, 0xf4, 0x0b, 0xff, 0x07, 0xf8, 0x51,
  0x14, 0x03, 0xca, 0x13, 0x03, 0x03, 0xfe, 0x31, 0xdc, 0xff, 0x07, 0x24,
  0x00, 0x02, 0x06, 0x2e, 0x0e, 0x01, 0xd1, 0x16, 0xfd, 0xfc, 0x08, 0x23,
  0xf5, 0xf4, 0xca, 0x32, 0x01, 0x07, 0xfc, 0x1d, 0xea, 0xf8, 0xef, 0x00,
  0xfd, 0x0b, 0xf4, 0x0d, 0x22, 0xe7, 0x00, 0x15, 0x01, 0x0f, 0x16, 0xf5,
  0xfc, 0xee, 0xe4, 0x12, 0x01, 0x07, 0x07, 0x24, 0xd9, 0xf4, 0xe1, 0x2e,
  0xf1, 0x07, 0x03, 0x1b, 0x20, 0xef, 0xe5, 0x12, 0x02, 0x0c, 0xf6, 0x01,
  0xfe, 0x01, 0x07, 0x0c, 0x01, 0xff, 0x16, 0xe2, 0x0b, 0xf3, 0x13, 0x00,
  0xfa, 0x0d, 0xfc, 0x03, 0x27, 0x04, 0xfc, 0x2d, 0x11, 0x0c, 0x01, 0xf3,
  0x20, 0x09, 0x12, 0xfd, 0xf2, 0x0d, 0x08, 0xe2, 0x0e, 0xf7, 0x1f, 0x09,
  0xf1, 0x0b, 0x04, 0xb6, 0x35, 0xef, 0x0a, 0xe6, 0x02, 0x18, 0xfd, 0xf3,
  0x02, 0xed, 0x1a, 0xb2, 0x09, 0x02, 0x08, 0xb0, 0x66, 0xeb, 0xd1, 0xe2,
  0x06, 0x01, 0x04, 0xe2, 0x2d, 0x01, 0xce, 0xf4, 0x0c, 0x0c, 0x04, 0x15,
  0x13, 0x03, 0xe7, 0xfa, 0xf4, 0x01, 0xfe, 0x16, 0x0e, 0xe4, 0xdd, 0x1a,
  0xfb, 0x01, 0x03, 0x58, 0x0a, 0xfa, 0xe9, 0xf6, 0xfb, 0x07, 0x0c, 0x55,
  0xfb, 0xfa, 0xf2, 0x13, 0x05, 0x1a, 0x0d, 0x38, 0xec, 0x02, 0xd2, 0x2e,
  0x0e, 0x07, 0xee, 0x2d, 0xe0, 0xf1, 0xfc, 0x1a, 0xf5, 0x01, 0xf0, 0x25,
  0xed, 0xf4, 0x0d, 0x18, 0x05, 0x0a, 0x06, 0x08, 0x26, 0xfe, 0x0d, 0x03,
  0x0a, 0xf7, 0x04, 0x0a, 0x0b, 0xf8, 0x13, 0x0e, 0x04, 0x0b, 0x00, 0x14,
  0xe7, 0x00, 0xf2, 0x29, 0xf1, 0xfa, 0xfc, 0x12, 0x12, 0xfa, 0xf6, 0x14,
  0xfb, 0x0f, 0xfa, 0x0e, 0x0d, 0xf8, 0xf3, 0xf7, 0x0b, 0x10, 0x0a, 0x16,
  0x0d, 0xf7, 0x21, 0x02, 0xf6, 0x0f, 0xfc, 0xfe, 0x24, 0xf3, 0x0e, 0x12,
  0x05, 0x02, 0xfc, 0xfe, 0x2a, 0xf6, 0x24, 0xf2, 0xfe, 0x09, 0xee, 0xec,
  0x15, 0xf8, 0x01, 0x03, 0x0b, 0x11, 0x0d, 0xc6, 0x39, 0xf1, 0x0d, 0xd7,
  0xff, 0x1a, 0x0a, 0x09, 0xf6, 0xf5, 0x04, 0xcd, 0x04, 0x06, 0x0d, 0x9d,
  0x5b, 0xf9, 0x00, 0xe9, 0xfb, 0x0f, 0xf5, 0xcb, 0x3f, 0xf8, 0xdb, 0xf5,
  0xff, 0x08, 0xf8, 0x04, 0x2d, 0x06, 0xee, 0xda, 0x07, 0xfd, 0xfd, 0x1b,
  0x0c, 0xe1, 0x01, 0xf5, 0xff, 0xfd, 0x04, 0x40, 0x05, 0xfc, 0xee, 0x1c,
  0x07, 0x07, 0x03, 0x64, 0xe5, 0x05, 0xf0, 0x02, 0x04, 0xf7, 0x0b, 0x37,
  0x14, 0x03, 0xea, 0x38, 0xfa, 0x00, 0x02, 0x3f, 0xfd, 0x00, 0xec, 0x2a,
  0x0e, 0x04, 0xf9, 0x1d, 0xf1, 0x03, 0x04, 0x13, 0x14, 0x23, 0xf8, 0x28,
  0x02, 0xf4, 0xec, 0x1c, 0x07, 0xf8, 0x0e, 0x15, 0x22, 0xfa, 0x25, 0x08,
  0x00, 0x0f, 0xf9, 0x2b, 0xe9, 0x01, 0xdc, 0x34, 0xfe, 0x0a, 0x11, 0x28,
  0x17, 0xfd, 0xf7, 0x0c, 0xfd, 0x21, 0x14, 0x08, 0x07, 0x08, 0xdf, 0xe8,
  0x10, 0x0e, 0x04, 0xf5, 0x23, 0x02, 0xfa, 0xd8, 0x05, 0x12, 0xf5, 0xec,
  0x10, 0xee, 0xf5, 0x14, 0x01, 0x0c, 0xf2, 0x04, 0x1c, 0xff, 0x17, 0xd2,
  0x08, 0x17, 0xff, 0xed, 0x08, 0xfc, 0xff, 0x12, 0xfb, 0x03, 0x03, 0xdd,
  0x2b, 0xf8, 0x12, 0xd6, 0x0e, 0x17, 0x02, 0x0b, 0xfd, 0xf5, 0xf2, 0xff,
  0xf4, 0x07, 0x0e, 0xb5, 0x7f, 0xfd, 0xe1, 0xf0, 0xf8, 0x01, 0x10, 0xcc,
  0x21, 0xf7, 0xe8, 0x03, 0x05, 0x07, 0x0a, 0x29, 0x2c, 0x0c, 0xf8, 0xd1,
  0xf8, 0xf9, 0xec, 0x2d, 0x2e, 0xf1, 0x0a, 0x0a, 0xff, 0xf1, 0x01, 0x4f,
  0x01, 0x0a, 0x2c, 0x17, 0x03, 0xfe, 0x08, 0x44, 0xe1, 0x07, 0x01, 0x2d,
  0x00, 0x09, 0xf0, 0x14, 0x07, 0xfa, 0xdc, 0x22, 0x00, 0xfa, 0x07, 0x2a,
  0xf8, 0x0a, 0xee, 0x1f, 0xf9, 0x10, 0x0c, 0x01, 0xed, 0xeb, 0x22, 0x08,
  0x05, 0x0c, 0x00, 0x29, 0x03, 0xf0, 0xe6, 0x0e, 0x08, 0xf8, 0xf4, 0x0b,
  0x17, 0x04, 0x0b, 0x0f, 0x04, 0x0e, 0x0a, 0x10, 0xcc, 0x05, 0xe7, 0x23,
  0xf6, 0x1b, 0xf9, 0x2e, 0xf4, 0x00, 0x03, 0x0a, 0x04, 0x19, 0x02, 0x17,
  0xfe, 0xfe, 0xf3, 0x0d, 0xfc, 0x15, 0xfe, 0xfc, 0x3c, 0x04, 0xf1, 0xf9,
  0x00, 0x04, 0x00, 0xde, 0xf1, 0xfe, 0x20, 0x0f, 0x0f, 0xf8, 0x04, 0x0f,
  0x46, 0xf2, 0x36, 0xcc, 0x0a, 0x08, 0x00, 0xe8, 0x15, 0xf8, 0x16, 0x17,
  0x00, 0x04, 0x0f, 0xf6, 0x2b, 0x00, 0x07, 0xe4, 0xfc, 0x06, 0xf5, 0xfb,
  0x28, 0x00, 0x18, 0xee, 0xfe, 0x0c, 0xf5, 0xc1, 0x5b, 0x06, 0xf8, 0xd9,
  0x08, 0x15, 0x14, 0xeb, 0x1c, 0x08, 0x38, 0xeb, 0x10, 0x07, 0x09, 0xfb,
  0x5a, 0x04, 0x31, 0xe9, 0xf0, 0x02, 0xf9, 0x2a, 0x1a, 0xf0, 0x19, 0xe8,
  0x00, 0xf5, 0x00, 0x35, 0x08, 0xf8, 0x0b, 0x02, 0xfc, 0x14, 0xf8, 0x50,
  0x00, 0xee, 0xf7, 0x23, 0x13, 0x08, 0xf6, 0x1b, 0x17, 0xff, 0xdb, 0x67,
  0xfb, 0xfd, 0x06, 0x1a, 0x10, 0xf5, 0xb0, 0x42, 0x0a, 0x0f, 0x07, 0x1c,
  0xfc, 0xf0, 0xfe, 0x21, 0xf9, 0x11, 0xf0, 0x14, 0x15, 0xfe, 0xd2, 0x14,
  0x08, 0x04, 0x14, 0x12, 0x12, 0xf6, 0x02, 0x2f, 0xfd, 0xff, 0x00, 0xd8,
  0xfd, 0x01, 0xf1, 0x5c, 0x01, 0x10, 0x08, 0x24, 0x1a, 0x04, 0xdd, 0x4a,
  0xff, 0x01, 0xfc, 0x2e, 0x20, 0x01, 0x9b, 0x03, 0xf7, 0xfc, 0xfe, 0x01,
  0x27, 0xf5, 0x01, 0x15, 0x04, 0xf6, 0x08, 0xe4, 0x1c, 0xfc, 0x12, 0xd9,
  0x02, 0x05, 0x12, 0x0d, 0x3b, 0xfb, 0x2c, 0xcf, 0x07, 0x00, 0xf3, 0xec,
  0xfc, 0xfc, 0x0c, 0xd2, 0x14, 0x03, 0x0b, 0x1a, 0xf0, 0x05, 0xe5, 0xf5,
  0xfe, 0x12, 0xf5, 0x1a, 0x02, 0x0b, 0xe3, 0xbd, 0xf3, 0xff, 0x14, 0xd8,
  0x18, 0x00, 0xd3, 0xff, 0x09, 0x19, 0x15, 0xfd, 0x22, 0xf6, 0xe8, 0xe4,
  0xeb, 0x0f, 0x02, 0x0e, 0x09, 0x10, 0x2a, 0xf6, 0xfe, 0x18, 0xfb, 0x07,
  0x04, 0x05, 0xf5, 0xfa, 0x00, 0x0c, 0xf7, 0x03, 0x02, 0xf1, 0x03, 0xf1,
  0xfb, 0x0f, 0xfd, 0xfe, 0xfd, 0x0f, 0xef, 0xee, 0xff, 0xfa, 0x07, 0x00,
  0xf6, 0x03, 0x0a, 0xfb, 0x02, 0x0c, 0xf5, 0xfe, 0xeb, 0x14, 0xf6, 0xef,
  0x0a, 0xf8, 0xfc, 0xf5, 0xf9, 0x09, 0x0d, 0xf5, 0xf4, 0x09, 0xfc, 0xfa,
  0xdf, 0xee, 0x00, 0x08, 0xec, 0x07, 0xfd, 0xf1, 0xe7, 0x01, 0xfb, 0xe7,
  0xf5, 0x09, 0xf2, 0xef, 0xed, 0xf6, 0xff, 0xf8, 0x00, 0x0d, 0xfa, 0x06,
  0xf1, 0x01, 0xf4, 0x02, 0x05, 0xf8, 0xf3, 0xf0, 0xf2, 0x0f, 0xef, 0xf6,
  0xfc, 0xfd, 0xfe, 0xfc, 0xf2, 0x01, 0x08, 0x04, 0xec, 0x03, 0x02, 0x10,
  0xf5, 0x02, 0xff, 0x0d, 0x00, 0xfe, 0xf1, 0xfd, 0xe3, 0xfe, 0x08, 0xfa,
  0xfe, 0x03, 0x01, 0xfa, 0xed, 0xfd, 0x05, 0xfd, 0xfa, 0x02, 0xff, 0xfc,
  0xf3, 0x0e, 0xfd, 0xff, 0x08, 0x0b, 0xf9, 0x06, 0xe6, 0xf4, 0x06, 0xf7,
  0x0a, 0xf8, 0xf7, 0xfe, 0xe4, 0x06, 0x06, 0x07, 0xfb, 0xfc, 0x02, 0xfa,
  0xf4, 0x00, 0xfb, 0x02, 0xf6, 0xee, 0xf9, 0xfd, 0xfd, 0xf7, 0x08, 0x07,
  0x02, 0x02, 0x01, 0xf6, 0xed, 0xf1, 0x0c, 0xfa, 0xfe, 0xfa, 0xed, 0x01,
  0x02, 0x07, 0xfb, 0xfd, 0xe8, 0x01, 0xfc, 0xfd, 0xf5, 0xf5, 0xee, 0x00,
  0xfc, 0x0f, 0xf3, 0xf9, 0xea, 0x07, 0x01, 0xf4, 0x05, 0xff, 0x0d, 0xf4,
  0xe7, 0xfd, 0xef, 0xf6, 0xf3, 0x12, 0x00, 0xf3, 0xfb, 0xfa, 0x04, 0xe7,
  0xf6, 0x11, 0xfe, 0xfb, 0xf1, 0xf4, 0x09, 0xf3, 0x0a, 0xf8, 0x08, 0x0c,
  0xeb, 0xf3, 0xfb, 0xf4, 0xf6, 0x0a, 0x05, 0x06, 0xe7, 0x11, 0xfc, 0xf2,
  0xf7, 0x0a, 0xf0, 0x04, 0xe1, 0x06, 0xfa, 0xfd, 0x00, 0x19, 0x0c, 0x11,
  0x02, 0xfc, 0xf5, 0xea, 0x0b, 0x09, 0xf5, 0x00, 0xfd, 0x0b, 0xf9, 0xef,
  0xf6, 0x0b, 0xff, 0x02, 0xf3, 0x09, 0x01, 0x0b, 0xf0, 0x0a, 0x00, 0xf3,
  0xff, 0xed, 0x03, 0xfe, 0xf0, 0x08, 0x00, 0x0e, 0x01, 0x04, 0x09, 0xe3,
  0xfa, 0x08, 0xfe, 0xf3, 0xe6, 0xfd, 0x0b, 0xf9, 0xe7, 0x08, 0xe8, 0xf4,
  0x03, 0xf2, 0xf3, 0xfd, 0xeb, 0x19, 0xf0, 0x11, 0xed, 0x14, 0x04, 0xe1,
  0x04, 0xff, 0x0a, 0x00, 0xf7, 0xf9, 0x05, 0xef, 0xf4, 0x08, 0x00, 0xff,
  0xe8, 0xf2, 0x00, 0xee, 0x0a, 0x04, 0xfe, 0xeb, 0xe6, 0xe8, 0xff, 0xf8,
  0xf4, 0xf8, 0xf5, 0x04, 0xf8, 0xf6, 0x0d, 0xf4, 0xfc, 0x11, 0x04, 0x01,
  0xf9, 0x0b, 0xf6, 0xed, 0xed, 0x09, 0x04, 0x02, 0xf5, 0x03, 0xe2, 0xf0,
  0xf9, 0x09, 0xfa, 0xf5, 0x04, 0x10, 0x03, 0xf0, 0xff, 0x0c, 0xfb, 0xf4,
  0xfa, 0xf9, 0xfc, 0xee, 0xf7, 0x11, 0xf2, 0xf6, 0x08, 0x00, 0xf9, 0xe9,
  0xff, 0x08, 0x0b, 0x0b, 0x03, 0xfe, 0x06, 0xf8, 0xf0, 0x02, 0xf4, 0x02,
  0xfd, 0xf8, 0xea, 0x05, 0xfb, 0x14, 0x00, 0x01, 0x06, 0xfc, 0xf9, 0xf5,
  0xfa, 0x14, 0x07, 0xea, 0xf5, 0xf0, 0x02, 0xfd, 0xf7, 0x08, 0xfb, 0x05,
  0x0a, 0x0e, 0xfa, 0xed, 0xf3, 0x06, 0x07, 0xf9, 0x08, 0xfb, 0xf2, 0xf5,
  0xfc, 0x09, 0x00, 0x08, 0xfb, 0xfb, 0xee, 0xec, 0xff, 0xfd, 0xfd, 0x06,
  0xf9, 0xfc, 0xfa, 0xf8, 0x08, 0x0b, 0xf3, 0xec, 0xf8, 0x0c, 0xfb, 0xf9,
  0xea, 0x1e, 0xee, 0x11, 0xfe, 0x0a, 0x02, 0xf3, 0x00, 0x13, 0x02, 0xf3,
  0x00, 0xfb, 0xf3, 0xfe, 0xff, 0x0e, 0x03, 0xf9, 0xf7, 0xf7, 0x01, 0xf9,
  0x04, 0xff, 0xfa, 0xec, 0xfc, 0x00, 0xf3, 0x06, 0x08, 0x15, 0x02, 0x04,
  0xf6, 0xf0, 0x05, 0xf8, 0xfd, 0xfd, 0xfc, 0xff, 0x05, 0xff, 0xf9, 0x0f,
  0x0c, 0x1a, 0x07, 0xea, 0xed, 0x07, 0xfb, 0x03, 0xf7, 0x1c, 0xf1, 0xfa,
  0xf3, 0x04, 0xfd, 0x00, 0x00, 0x1c, 0x0a, 0x08, 0xf3, 0xf8, 0xf5, 0xee,
  0xea, 0x21, 0xfb, 0xe9, 0xf3, 0x11, 0xf5, 0xf8, 0xfa, 0x0a, 0xef, 0xff,
  0xf6, 0xf5, 0xf7, 0xfa, 0xf6, 0x0f, 0x03, 0x05, 0x09, 0xfb, 0xf3, 0x00,
  0xed, 0x29, 0xf9, 0xfc, 0xf7, 0x12, 0xf0, 0xfc, 0xed, 0x0c, 0x02, 0x0d,
  0xec, 0x03, 0xf5, 0xf9, 0x00, 0x17, 0x0c, 0xfd, 0xe7, 0x06, 0xf2, 0xf7,
  0xfc, 0x12, 0xef, 0x0a, 0xfc, 0x0b, 0xef, 0xfa, 0xf9, 0x1f, 0x01, 0xf0,
  0xf6, 0x0c, 0xf3, 0xfe, 0xfd, 0x0f, 0x02, 0x0c, 0xf6, 0x02, 0xea, 0xe9,
  0xf1, 0x0f, 0xf2, 0xf7, 0xfc, 0x03, 0xe4, 0xf8, 0x05, 0x12, 0xfc, 0x06,
  0xe0, 0x01, 0xff, 0x00, 0xf7, 0x01, 0xfe, 0xf9, 0x00, 0xfa, 0xf3, 0xf9,
  0xfe, 0x0e, 0xf6, 0xf6, 0xf7, 0xf3, 0xef, 0xfe, 0xf4, 0x0e, 0xf1, 0xfc,
  0xf4, 0x14, 0xfa, 0x0b, 0x07, 0x0b, 0xff, 0x07, 0xf1, 0xf1, 0x0d, 0x02,
  0xfe, 0xf9, 0x0e, 0xf2, 0xf7, 0x06, 0xf4, 0x01, 0xf2, 0x0a, 0xf4, 0xf3,
  0x00, 0x02, 0x05, 0x01, 0x06, 0x13, 0x05, 0x01, 0xfd, 0x12, 0xf8, 0xf5,
  0x0c, 0x06, 0xeb, 0xfe, 0xfa, 0x08, 0x05, 0xed, 0x0b, 0x15, 0xf2, 0xfd,
  0xf0, 0xfe, 0x07, 0xe9, 0x0a, 0x0d, 0x06, 0x06, 0xf3, 0x05, 0xf9, 0x08,
  0xf1, 0x19, 0xf7, 0x04, 0xf1, 0xf6, 0xfe, 0x08, 0x06, 0x22, 0x08, 0xf7,
  0xfd, 0xf8, 0xe8, 0xf2, 0x00, 0x17, 0xff, 0x00, 0xf7, 0x06, 0xf6, 0x06,
  0xea, 0x14, 0x07, 0xfb, 0xe5, 0xfd, 0xf6, 0xec, 0xed, 0x15, 0xeb, 0xf4,
  0xf5, 0x12, 0xf2, 0xe6, 0xef, 0x1c, 0xfd, 0xf5, 0x02, 0x05, 0xf1, 0xfa,
  0xf2, 0x1e, 0x04, 0xf6, 0xf3, 0x08, 0xf9, 0xfa, 0xf1, 0x10, 0x0b, 0xfa,
  0xe8, 0x06, 0xf3, 0xfc, 0xed, 0x03, 0xf2, 0x0e, 0x06, 0xf4, 0xfa, 0xec,
  0xfc, 0x1d, 0xef, 0xfa, 0xf4, 0x0a, 0xee, 0xf7, 0xfe, 0x07, 0xfb, 0xfa,
  0xf5, 0xf6, 0xeb, 0xf8, 0xeb, 0x1c, 0xfd, 0xfa, 0xf4, 0xfb, 0xf2, 0xf7,
  0x08, 0x0c, 0x04, 0xf8, 0xf6, 0xfe, 0x06, 0x0c, 0xfe, 0x19, 0xfe, 0xfd,
  0xf9, 0x05, 0x03, 0xf9, 0xf6, 0xf5, 0x0c, 0x05, 0xf9, 0xed, 0xfb, 0xea,
  0x0e, 0x07, 0xf9, 0xee, 0xed, 0x01, 0xef, 0xf6, 0xff, 0x18, 0x0c, 0xf1,
  0xfc, 0xf7, 0x06, 0xff, 0x0f, 0x0d, 0xf6, 0x00, 0xf4, 0x01, 0xf7, 0xed,
  0xee, 0x10, 0xfa, 0x09, 0xf6, 0x14, 0x04, 0x05, 0x06, 0x15, 0x07, 0xed,
  0x04, 0x0b, 0xf4, 0x0c, 0x02, 0x25, 0x06, 0x09, 0x03, 0x1a, 0xe9, 0xf5,
  0xfe, 0x18, 0xf5, 0x01, 0xe5, 0x09, 0xe5, 0xf8, 0xf6, 0x16, 0xf7, 0xf0,
  0xf4, 0x10, 0xf5, 0x08, 0x02, 0x16, 0xfc, 0xf2, 0x05, 0x09, 0xeb, 0xf3,
  0xf9, 0x22, 0x0c, 0xf6, 0xff, 0x00, 0xf2, 0xfb, 0xff, 0x18, 0x00, 0xee,
  0xe6, 0xf5, 0x00, 0xf3, 0x0f, 0x1e, 0xf3, 0x03, 0xfa, 0xf9, 0x12, 0x15,
  0x10, 0x1f, 0xf2, 0xfa, 0xf3, 0x06, 0xf2, 0xf1, 0x06, 0x19, 0x11, 0xf1,
  0xfc, 0x07, 0xfe, 0xfa, 0xf2, 0x12, 0xed, 0xec, 0x05, 0xfa, 0xf3, 0x0c,
  0x03, 0x18, 0xf0, 0x0c, 0xef, 0x05, 0xed, 0xef, 0x02, 0x14, 0x09, 0x0a,
  0xf0, 0x07, 0xe9, 0xf0, 0x08, 0x16, 0xf7, 0xf8, 0xf6, 0x00, 0x06, 0xf6,
  0x0c, 0x15, 0xf6, 0xfa, 0xe7, 0x11, 0xff, 0xfc, 0xee, 0x01, 0x05, 0xf6,
  0xfc, 0x01, 0xff, 0xfe, 0xf5, 0x01, 0xee, 0xe7, 0xfb, 0x01, 0xf6, 0xf9,
  0xf5, 0x1e, 0x0b, 0xfe, 0xfa, 0x03, 0xf3, 0xf0, 0x0e, 0x1a, 0xf9, 0xf4,
  0xfd, 0x02, 0xf1, 0xed, 0xf1, 0x1f, 0x05, 0x0a, 0x02, 0x0b, 0xf8, 0xf5,
  0xf1, 0x19, 0xeb, 0x08, 0xe8, 0x0c, 0x07, 0x08, 0x02, 0x0d, 0xf8, 0xf4,
  0xf0, 0x0f, 0xe9, 0xf0, 0x0a, 0x1e, 0xfb, 0xfd, 0xeb, 0x0f, 0xfb, 0xf1,
  0xef, 0x30, 0x0f, 0xfa, 0x02, 0x0a, 0x00, 0x0b, 0x0b, 0x24, 0xfe, 0x0b,
  0xef, 0x0d, 0xe7, 0xf3, 0x03, 0x18, 0x0a, 0xfa, 0xf3, 0xfd, 0xf1, 0x02,
  0xf8, 0x24, 0xf2, 0xf7, 0x03, 0x0b, 0xff, 0x00, 0xff, 0x12, 0x00, 0x00,
  0x02, 0xff, 0xf5, 0x03, 0xf8, 0x27, 0x0a, 0x04, 0xf3, 0x01, 0xf3, 0xf5,
  0xf1, 0x26, 0xee, 0xf8, 0xf5, 0xfe, 0x04, 0x0c, 0xfa, 0x16, 0xfe, 0x0a,
  0xee, 0xf1, 0xf2, 0x06, 0xfd, 0x1d, 0x01, 0x14, 0x03, 0xf7, 0xf6, 0xfa,
  0x09, 0x11, 0xf9, 0x05, 0xff, 0x03, 0x0c, 0xfb, 0x04, 0x1c, 0x01, 0xf2,
  0xfa, 0xfc, 0xed, 0x05, 0xee, 0xfe, 0x09, 0x02, 0xf4, 0xf6, 0x03, 0xf2,
  0xf6, 0x0c, 0x07, 0xf8, 0xfe, 0xf8, 0xfc, 0x07, 0xf8, 0xfb, 0xeb, 0x0d,
  0xf6, 0xf6, 0xf3, 0xeb, 0xfa, 0x18, 0xf4, 0xfb, 0x00, 0x1b, 0x04, 0xf9,
  0x04, 0x24, 0x10, 0x01, 0xf2, 0xfb, 0xe8, 0xfb, 0xfc, 0x04, 0xfc, 0xf4,
  0xef, 0x14, 0xef, 0xf5, 0x00, 0x1c, 0x08, 0xf4, 0xfd, 0x0f, 0x08, 0x25,
  0xe9, 0x0e, 0x01, 0xf8, 0xeb, 0x01, 0xf6, 0xf0, 0x10, 0x1c, 0xfc, 0xf1,
  0xfa, 0x0d, 0xfb, 0x01, 0x02, 0x1a, 0x07, 0xfb, 0xef, 0x0b, 0xf6, 0xf4,
  0x00, 0x1e, 0xff, 0xff, 0x04, 0x06, 0xfb, 0xf7, 0xf4, 0x11, 0xfb, 0x08,
  0xe5, 0x06, 0x01, 0x0c, 0xf5, 0x13, 0xf3, 0x05, 0xec, 0xfa, 0xf1, 0xf3,
  0xff, 0x28, 0xf0, 0x00, 0x13, 0x02, 0xfc, 0x15, 0xf0, 0x0b, 0x05, 0xf3,
  0x00, 0x01, 0xfa, 0xff, 0x0c, 0x13, 0x0c, 0xfd, 0xf7, 0x01, 0xfe, 0xfd,
  0xfa, 0x14, 0xf9, 0xfd, 0xef, 0x0d, 0xec, 0x03, 0x09, 0x21, 0x0f, 0x0c,
  0xf8, 0x06, 0xf1, 0xfa, 0xee, 0x27, 0xec, 0x00, 0xf9, 0x08, 0xfb, 0xf6,
  0xfb, 0x26, 0x06, 0x06, 0xec, 0x0f, 0x09, 0x0f, 0xeb, 0x04, 0xf3, 0x01,
  0xe6, 0x03, 0xfd, 0x05, 0xfc, 0x0c, 0xfd, 0x02, 0xef, 0xfd, 0xfa, 0xf3,
  0x01, 0x0a, 0xf6, 0xff, 0x01, 0xef, 0xfc, 0xfa, 0xfb, 0x0c, 0xfa, 0x0b,
  0xf7, 0x18, 0x03, 0x08, 0x0b, 0x0b, 0x0b, 0xf5, 0xf9, 0xfd, 0xef, 0xe4,
  0x04, 0x11, 0xf5, 0x0d, 0xe9, 0x0e, 0xf9, 0xe7, 0xfb, 0x1d, 0x04, 0x07,
  0xe5, 0x0e, 0x07, 0x13, 0x02, 0x22, 0x09, 0xff, 0xfe, 0x0f, 0xf7, 0x0a,
  0xfa, 0x0c, 0x02, 0x01, 0x03, 0x04, 0xf3, 0xfd, 0xfb, 0x1c, 0xf7, 0xf9,
  0xf7, 0x06, 0xfb, 0xfb, 0x00, 0x0f, 0xe7, 0x07, 0xee, 0xed, 0xee, 0xdd,
  0xeb, 0x20, 0xf1, 0x10, 0xea, 0xeb, 0xfb, 0xec, 0xf2, 0x0e, 0xfb, 0xef,
  0x06, 0xf2, 0xf4, 0xfe, 0x08, 0x19, 0x08, 0x03, 0x07, 0x06, 0xf7, 0x15,
  0xfd, 0x13, 0x00, 0xf8, 0xfd, 0x0b, 0x01, 0xfb, 0xef, 0x1d, 0xf6, 0xfd,
  0xe8, 0x0e, 0x08, 0xf1, 0x03, 0x1b, 0xf7, 0xed, 0xf6, 0x07, 0x04, 0xf5,
  0xf6, 0x21, 0xfc, 0xf3, 0x07, 0xf8, 0xf5, 0xed, 0xf7, 0x20, 0x07, 0x0a,
  0x0d, 0x0f, 0xe4, 0x09, 0xfc, 0x2f, 0x08, 0xfc, 0xe3, 0x00, 0xf5, 0x0c,
  0x0f, 0x15, 0xfe, 0x0b, 0xf8, 0xf6, 0xef, 0xec, 0x13, 0x1a, 0x02, 0x0d,
  0x01, 0xea, 0xfc, 0xfe, 0x0d, 0x19, 0x0b, 0xfd, 0xf6, 0xfc, 0x0e, 0xfa,
  0x00, 0x0c, 0xf8, 0x08, 0xff, 0x08, 0xf7, 0x08, 0xf6, 0x1b, 0xee, 0xfc,
  0xee, 0x07, 0xf5, 0xe4, 0xff, 0x0a, 0x01, 0x03, 0x01, 0xf5, 0xf0, 0xe8,
  0xfd, 0x14, 0x06, 0x06, 0xf7, 0x09, 0x0d, 0x15, 0xfa, 0x03, 0xfa, 0x07,
  0x04, 0xfd, 0xf0, 0x10, 0xfd, 0x01, 0xfc, 0xfd, 0xfa, 0x0b, 0xf2, 0xfc,
  0xf8, 0x17, 0x03, 0xf6, 0x02, 0x13, 0xfd, 0x03, 0x00, 0x0e, 0x11, 0xf7,
  0xe6, 0x02, 0xfb, 0xf9, 0xf5, 0x14, 0xfe, 0x07, 0x00, 0xf9, 0xea, 0xe6,
  0x0b, 0x16, 0xf2, 0x0b, 0xf5, 0x06, 0x06, 0xfa, 0xf4, 0x13, 0x0f, 0x05,
  0x09, 0xf6, 0xfa, 0x18, 0xfd, 0x0f, 0xfa, 0xfb, 0xfa, 0x07, 0xfb, 0xfb,
  0xf6, 0x15, 0x03, 0xff, 0xf5, 0x10, 0xff, 0x09, 0x00, 0x1c, 0x00, 0xf7,
  0xe5, 0x10, 0x01, 0x00, 0x03, 0x23, 0xe8, 0x04, 0xff, 0x0f, 0xec, 0x0c,
  0x0a, 0x1a, 0xf1, 0xf5, 0xf7, 0x0e, 0xfb, 0x11, 0x02, 0x31, 0xf4, 0xfa,
  0xe3, 0xfc, 0x07, 0xfe, 0x00, 0x14, 0x0a, 0xfe, 0xf3, 0xf7, 0xfc, 0xeb,
  0xff, 0x08, 0x03, 0xf6, 0xfe, 0xf6, 0xef, 0xf6, 0xfb, 0x02, 0xf2, 0x0a,
  0xf6, 0xf4, 0xee, 0xe5, 0xfd, 0x06, 0xfd, 0x02, 0xf1, 0x04, 0xe8, 0x02,
  0x0b, 0x22, 0x0a, 0x06, 0xe8, 0x05, 0xf0, 0xe7, 0xf5, 0xf8, 0xfc, 0x09,
  0xf4, 0xf0, 0xf4, 0xdc, 0x0a, 0x05, 0xfa, 0x16, 0xf2, 0x08, 0x23, 0x09,
  0xfc, 0x19, 0xfe, 0xf9, 0xe5, 0x03, 0xfb, 0x19, 0xf9, 0x11, 0x02, 0x0e,
  0xf9, 0xfa, 0xf3, 0xfd, 0xfe, 0x26, 0xf3, 0x09, 0xec, 0x06, 0xee, 0xf4,
  0x10, 0x16, 0xf9, 0xf1, 0xed, 0x0b, 0x02, 0xe9, 0xf8, 0x0b, 0xf4, 0x09,
  0xe9, 0xfe, 0xf1, 0x06, 0xe9, 0x2c, 0xf5, 0x01, 0xf9, 0x12, 0xfa, 0xf6,
  0xee, 0x07, 0xee, 0x01, 0xfe, 0x04, 0x03, 0xfa, 0x11, 0x1c, 0x06, 0x15,
  0x05, 0x0f, 0xf9, 0xfb, 0x01, 0x09, 0x02, 0xff, 0xff, 0x17, 0xf5, 0xf3,
  0x0a, 0x1f, 0x08, 0xfd, 0xfe, 0x06, 0xf6, 0xe9, 0x09, 0x0f, 0xf3, 0xf8,
  0x09, 0x00, 0xf6, 0xfb, 0x09, 0x26, 0x01, 0x00, 0xe9, 0x07, 0xfd, 0xfc,
  0xfd, 0x28, 0xfb, 0xf6, 0x03, 0x19, 0xf7, 0xfe, 0xed, 0x10, 0x01, 0xf8,
  0xfd, 0x00, 0xfd, 0xfe, 0x0a, 0x06, 0xf7, 0xf9, 0x00, 0x09, 0x0d, 0x04,
  0x0b, 0xfa, 0x03, 0x06, 0x04, 0x0b, 0xff, 0xfc, 0x08, 0x16, 0xf5, 0x00,
  0x00, 0x05, 0xf8, 0x0d, 0xf9, 0x1c, 0x0b, 0xff, 0x06, 0xf7, 0xe4, 0x01,
  0x0e, 0xff, 0x02, 0x07, 0xee, 0xf5, 0xf7, 0xea, 0x00, 0xfd, 0xf4, 0x06,
  0xf3, 0x00, 0x27, 0x0f, 0xf5, 0x0a, 0xe9, 0xff, 0xfb, 0x18, 0xf7, 0x10,
  0x08, 0x0b, 0xfb, 0xf8, 0x10, 0x06, 0xe6, 0xf7, 0x04, 0x0f, 0xfc, 0xf5,
  0xe2, 0xf8, 0xea, 0xe7, 0xf8, 0xfe, 0xfd, 0xfa, 0xf5, 0x18, 0x0b, 0xf6,
  0x11, 0x17, 0xff, 0x01, 0x00, 0x09, 0xfa, 0xf7, 0x01, 0x1f, 0xf6, 0xf0,
  0x01, 0x0a, 0x04, 0x08, 0xef, 0x10, 0xe8, 0x05, 0x19, 0x08, 0x02, 0x10,
  0xfe, 0x08, 0xf0, 0x11, 0xfc, 0xfe, 0xf9, 0xfc, 0xf3, 0x23, 0xfe, 0x03,
  0xf2, 0x0f, 0x08, 0x08, 0xfd, 0x0c, 0x09, 0xfe, 0xdf, 0x05, 0xf9, 0xfb,
  0x0c, 0x10, 0xfc, 0x04, 0xfb, 0xfe, 0x0c, 0xe7, 0xee, 0x1e, 0x12, 0xff,
  0x00, 0x11, 0xfb, 0x02, 0x00, 0x16, 0xf7, 0x08, 0xed, 0x0f, 0x0d, 0xf2,
  0x10, 0x17, 0xfe, 0x04, 0xf7, 0xfe, 0x09, 0xee, 0xeb, 0x21, 0x00, 0x01,
  0xf8, 0x0b, 0xfc, 0xfc, 0x00, 0x15, 0xf4, 0xfd, 0x08, 0xf9, 0x07, 0xf5,
  0xf2, 0x0e, 0xf7, 0xfd, 0xf6, 0x02, 0xf8, 0x00, 0x01, 0x0c, 0x03, 0xfc,
  0x06, 0x03, 0xf4, 0xee, 0x08, 0x06, 0xf6, 0xfe, 0xfe, 0xf2, 0xf3, 0xde,
  0x02, 0x00, 0xf8, 0x0a, 0xfe, 0x05, 0x1f, 0x1e, 0x11, 0x12, 0xfd, 0x0c,
  0x0c, 0x03, 0xed, 0x15, 0x07, 0x03, 0x0a, 0x07, 0x08, 0x00, 0xf3, 0xf3,
  0xec, 0x29, 0xf9, 0xef, 0x01, 0xff, 0xf7, 0xed, 0x05, 0x02, 0xed, 0x01,
  0xf5, 0x09, 0x0f, 0xf6, 0x07, 0x1f, 0x0f, 0xfb, 0xeb, 0x12, 0xf3, 0x05,
  0xf9, 0x25, 0x02, 0xf5, 0xec, 0x13, 0xfa, 0x06, 0x02, 0x26, 0xf5, 0xf1,
  0xfd, 0xf6, 0xf2, 0xf8, 0xf8, 0x19, 0x03, 0x0f, 0xfa, 0x07, 0xf9, 0xf0,
  0x00, 0x0d, 0xfc, 0xf3, 0xe5, 0x03, 0x08, 0x14, 0xeb, 0x1f, 0xf3, 0x08,
  0xf0, 0x0c, 0xed, 0xee, 0x04, 0x1e, 0xf4, 0x0c, 0xf8, 0x0b, 0x08, 0xf9,
  0xfd, 0x0f, 0x07, 0xf3, 0x07, 0xfa, 0xf8, 0x0f, 0x02, 0x2f, 0xfb, 0x05,
  0xf3, 0x02, 0x0d, 0x09, 0xea, 0x21, 0xe9, 0x08, 0x09, 0xfb, 0xf9, 0xfb,
  0xf5, 0x0d, 0x0e, 0x04, 0x0a, 0x0c, 0xea, 0xf0, 0xf3, 0x04, 0xfa, 0x0f,
  0x12, 0xfe, 0xf9, 0x06, 0xfe, 0x1b, 0xf3, 0xf4, 0xfa, 0x0d, 0x08, 0x12,
  0xfb, 0x0d, 0xfd, 0xf9, 0x08, 0xfb, 0xf3, 0xfa, 0xf6, 0x1a, 0x0f, 0xfe,
  0xfc, 0x00, 0xe9, 0xef, 0xfe, 0x0c, 0xea, 0x0f, 0xf6, 0x08, 0x24, 0x0d,
  0xf9, 0x12, 0x02, 0x02, 0xf4, 0x18, 0xf5, 0x24, 0x01, 0xf6, 0xf1, 0x02,
  0xfa, 0x0a, 0xe5, 0xfa, 0x0e, 0x12, 0xfd, 0x13, 0xf2, 0x00, 0xec, 0xef,
  0xf4, 0x0b, 0xf5, 0xfe, 0xfb, 0x05, 0x0b, 0x10, 0xf6, 0x1e, 0xfa, 0x08,
  0xf9, 0x0e, 0xf7, 0xff, 0x02, 0x20, 0xf7, 0xe6, 0xf7, 0x15, 0xed, 0xe9,
  0x0d, 0x31, 0xf9, 0xf5, 0x16, 0xf4, 0x03, 0xfa, 0x11, 0x00, 0xf6, 0x11,
  0x02, 0xfb, 0x05, 0xe6, 0x02, 0x05, 0xfc, 0x00, 0xfb, 0x11, 0x01, 0x15,
  0xfa, 0x2e, 0x09, 0x04, 0xf8, 0x1a, 0xfc, 0xf7, 0x0c, 0x19, 0xfb, 0xf7,
  0xf3, 0x04, 0x02, 0xe3, 0xfc, 0x26, 0xfd, 0x0a, 0x0a, 0x0a, 0xee, 0xfd,
  0xf4, 0x19, 0xfc, 0xfe, 0x00, 0x0b, 0xf4, 0x05, 0x05, 0x14, 0xf6, 0x01,
  0xf0, 0x00, 0xff, 0x01, 0xff, 0xfe, 0x07, 0xf5, 0xf0, 0x0e, 0x02, 0xff,
  0x06, 0x06, 0xf5, 0x0e, 0xf6, 0x0c, 0xf8, 0xf8, 0x06, 0x22, 0xf0, 0x02,
  0x0e, 0x0c, 0x00, 0xf6, 0xf2, 0x0f, 0x09, 0xf8, 0x07, 0xfe, 0x00, 0xf3,
  0x00, 0xf2, 0xf8, 0xfe, 0x04, 0xf0, 0x04, 0xfc, 0xf9, 0x00, 0xf4, 0xf2,
  0xf0, 0x07, 0x21, 0x10, 0xfe, 0x0a, 0xf9, 0xf7, 0x04, 0x07, 0xf0, 0x18,
  0x04, 0xfd, 0x06, 0x08, 0xfa, 0x08, 0xf8, 0xf9, 0xff, 0x0e, 0x06, 0x0b,
  0xed, 0xf3, 0xec, 0xf0, 0xfc, 0x1b, 0x06, 0x02, 0xee, 0xf4, 0x0d, 0xf1,
  0x02, 0x1a, 0xf6, 0x02, 0xf4, 0x0f, 0x08, 0x16, 0xea, 0x20, 0xfb, 0x16,
  0xed, 0x02, 0xff, 0x09, 0x03, 0x28, 0x07, 0x10, 0xfe, 0x10, 0xe3, 0xff,
  0xf9, 0xff, 0xf1, 0x04, 0xfe, 0x07, 0x01, 0xf3, 0x0b, 0x1a, 0x12, 0x01,
  0x0b, 0x10, 0x04, 0x0a, 0xf7, 0x1a, 0x00, 0x04, 0xf0, 0x01, 0xeb, 0x08,
  0x0b, 0x1c, 0xfe, 0x03, 0x09, 0xf1, 0x09, 0x02, 0xfa, 0x12, 0x00, 0x0d,
  0xee, 0x0b, 0xfb, 0x07, 0xf5, 0x0f, 0x0b, 0x0c, 0xfa, 0x10, 0x01, 0x03,
  0x07, 0x04, 0x06, 0xf6, 0xf6, 0xfc, 0xfb, 0xed, 0xfb, 0x0b, 0x02, 0xff,
  0xf6, 0x13, 0x08, 0xfb, 0x0b, 0x11, 0x01, 0xff, 0x06, 0x07, 0xff, 0x04,
  0xfb, 0x14, 0xf3, 0x07, 0x00, 0x0f, 0xf5, 0xf3, 0xf8, 0x0c, 0x0d, 0x01,
  0xeb, 0xf8, 0xf7, 0xed, 0x0c, 0x01, 0x04, 0xfe, 0x00, 0xeb, 0xfa, 0xee,
  0xf4, 0x1d, 0x00, 0xf7, 0xf5, 0xff, 0x0b, 0xf8, 0xf3, 0x0d, 0xf1, 0x00,
  0x00, 0x02, 0x07, 0xfd, 0xf6, 0x0c, 0xfb, 0xf7, 0xf2, 0x06, 0xeb, 0xfe,
  0x0a, 0x12, 0x03, 0x0a, 0xf8, 0xef, 0xec, 0x01, 0x0b, 0xf4, 0xfb, 0xf5,
  0x0c, 0x06, 0x1e, 0xfa, 0xf3, 0x08, 0xf2, 0x0b, 0x0c, 0x15, 0x02, 0xff,
  0xf7, 0xfd, 0x0b, 0x09, 0x09, 0xf4, 0xfc, 0xe5, 0xfd, 0x22, 0xf2, 0xff,
  0xf2, 0x00, 0xf8, 0x00, 0xee, 0x08, 0xf5, 0x0e, 0x0d, 0x09, 0xfd, 0xe7,
  0x0b, 0x19, 0x06, 0xfb, 0xee, 0x19, 0x0e, 0x16, 0x05, 0x18, 0x00, 0xf0,
  0xff, 0x15, 0x02, 0xf1, 0xf4, 0x19, 0xff, 0x07, 0x01, 0xfd, 0x02, 0xef,
  0xfe, 0x16, 0xf3, 0xfe, 0xf5, 0x19, 0xfa, 0xf0, 0x0b, 0x15, 0x0d, 0x13,
  0xff, 0xfe, 0xef, 0xfc, 0x02, 0x1c, 0x04, 0x03, 0x03, 0xfb, 0x02, 0x00,
  0xfc, 0xf8, 0xfe, 0xf4, 0xe3, 0x02, 0x0a, 0xf9, 0x05, 0x09, 0xf7, 0x02,
  0xf8, 0x14, 0xf4, 0x0f, 0xf2, 0x1e, 0xff, 0xff, 0xec, 0x13, 0xfa, 0xf8,
  0xfa, 0x18, 0xff, 0xff, 0xe4, 0x0a, 0xe7, 0xe6, 0xfe, 0xfe, 0xfd, 0xfc,
  0xf7, 0xfa, 0xff, 0x00, 0xfd, 0x16, 0x04, 0xf3, 0x02, 0x07, 0x01, 0x08,
  0x02, 0x0b, 0x0b, 0x05, 0x15, 0xff, 0xf8, 0x00, 0x00, 0x09, 0xf1, 0xff,
  0x03, 0xfd, 0xf8, 0x00, 0xf7, 0x0d, 0x04, 0xfa, 0xf6, 0xf2, 0xfa, 0xeb,
  0xf5, 0x01, 0x06, 0x15, 0x00, 0xfc, 0x1e, 0x0b, 0xf4, 0xef, 0xf2, 0x01,
  0xff, 0x07, 0x07, 0x15, 0x06, 0x0b, 0xfd, 0x09, 0xf4, 0x0b, 0x0d, 0x00,
  0xfc, 0x20, 0xf9, 0xfd, 0x0b, 0xf7, 0xe9, 0xe5, 0x02, 0x06, 0x0e, 0x00,
  0xf9, 0x02, 0x03, 0xfa, 0x07, 0x24, 0x00, 0xff, 0xf7, 0x0d, 0xfb, 0x17,
  0x06, 0x14, 0x04, 0x0b, 0x00, 0xfc, 0xff, 0xf7, 0xfe, 0x29, 0x0a, 0xff,
  0xfc, 0x08, 0xf1, 0x05, 0xfd, 0x0d, 0x0b, 0x07, 0xfb, 0x0a, 0x03, 0xfd,
  0xfe, 0x1c, 0x06, 0x10, 0xe3, 0x06, 0x02, 0xfa, 0x0b, 0x10, 0x0a, 0xfe,
  0xf8, 0x0b, 0x07, 0x00, 0xfa, 0xf7, 0xfa, 0x0e, 0x04, 0xf8, 0x09, 0xf5,
  0x00, 0xfd, 0x0c, 0x11, 0x09, 0x09, 0xfb, 0xfa, 0xfa, 0x1d, 0xfd, 0x0d,
  0xea, 0xf3, 0xfc, 0xf4, 0xfa, 0x16, 0xf1, 0x05, 0x0a, 0xf3, 0xee, 0xed,
  0xf5, 0x0f, 0x00, 0x09, 0xea, 0xfa, 0xf8, 0x04, 0xfd, 0x12, 0xff, 0x01,
  0xf4, 0x00, 0x04, 0xfe, 0xfd, 0x00, 0xff, 0x10, 0x00, 0x0e, 0xee, 0x0d,
  0xf6, 0x0d, 0xec, 0x01, 0x02, 0xff, 0xe9, 0xf5, 0x05, 0x0d, 0xf2, 0xfb,
  0xf5, 0xef, 0x0b, 0xed, 0x03, 0xfa, 0x05, 0x09, 0xf7, 0xff, 0x12, 0xfc,
  0x10, 0xf8, 0x00, 0x05, 0xfe, 0x0c, 0x18, 0x1c, 0x01, 0xf9, 0xf1, 0x0b,
  0x01, 0x15, 0x04, 0x07, 0xf0, 0x0b, 0x09, 0xef, 0xfb, 0x15, 0xe8, 0xfc,
  0xf1, 0x1d, 0xf6, 0xfb, 0x0e, 0x05, 0xff, 0xf3, 0x0e, 0x1d, 0xf9, 0xf5,
  0xff, 0x08, 0xfe, 0x02, 0xfa, 0x15, 0xfe, 0x09, 0xea, 0x05, 0x02, 0x0c,
  0x05, 0x2c, 0x02, 0xff, 0xf1, 0x11, 0xfc, 0x08, 0x0b, 0x11, 0x04, 0xff,
  0xff, 0x05, 0xf8, 0x01, 0xfd, 0x29, 0x05, 0x11, 0xf4, 0x04, 0xef, 0xf9,
  0x04, 0x1a, 0x02, 0x05, 0x05, 0xed, 0x0d, 0x0c, 0xf9, 0x0f, 0x08, 0xfc,
  0x0e, 0xf7, 0xef, 0xfd, 0x06, 0xfc, 0xf4, 0x0b, 0x17, 0x17, 0xfc, 0xec,
  0x0b, 0x0e, 0x07, 0x14, 0xf8, 0xfd, 0xff, 0xe1, 0xfb, 0x0c, 0x07, 0xfd,
  0xf5, 0xf2, 0xf7, 0xec, 0x05, 0x18, 0xee, 0x00, 0xfe, 0x00, 0x08, 0x01,
  0x08, 0x11, 0xea, 0xf7, 0xf8, 0x0f, 0x0f, 0xf5, 0xff, 0x08, 0xf5, 0x0f,
  0x00, 0x08, 0xfb, 0x08, 0x12, 0x1e, 0xee, 0x10, 0xe7, 0x06, 0xf0, 0xe5,
  0x07, 0xfc, 0xf2, 0x0c, 0xe4, 0xed, 0xfb, 0xe9, 0x08, 0xf8, 0xf2, 0x17,
  0xfe, 0xe7, 0x1a, 0x09, 0xfa, 0x0f, 0x0c, 0x03, 0xfb, 0x16, 0x15, 0x18,
  0x02, 0x03, 0x0a, 0x04, 0xed, 0xfe, 0x00, 0x0c, 0x04, 0x11, 0x04, 0x04,
  0xe9, 0x14, 0xfd, 0xf2, 0xf5, 0x19, 0xf3, 0xf2, 0xf6, 0x04, 0x08, 0xf7,
  0xfe, 0x25, 0x0a, 0x0b, 0x07, 0x16, 0xf6, 0xef, 0x01, 0x10, 0xfd, 0x0d,
  0xe7, 0x0a, 0x0d, 0x09, 0x04, 0x24, 0xff, 0xf6, 0xfc, 0x14, 0x0f, 0x02,
  0xf0, 0x17, 0x03, 0x12, 0xfb, 0x05, 0x09, 0xea, 0xf9, 0x16, 0xf1, 0x04,
  0xf1, 0x06, 0x05, 0xeb, 0x04, 0x13, 0x09, 0x06, 0xea, 0x04, 0xfa, 0xef,
  0x01, 0x06, 0x06, 0xf8, 0x11, 0xf5, 0x0d, 0x04, 0x07, 0x10, 0xfb, 0x10,
  0x01, 0x0a, 0x03, 0x07, 0x10, 0x0e, 0x07, 0xf8, 0xf0, 0xf2, 0xf9, 0xee,
  0x01, 0xf8, 0xf8, 0xff, 0xf2, 0xf9, 0x03, 0xf3, 0xee, 0xfd, 0xfe, 0xfe,
  0xed, 0x14, 0x02, 0x04, 0xf8, 0x13, 0x06, 0xf5, 0xf6, 0x11, 0xea, 0xf1,
  0xfa, 0xf6, 0x06, 0xfb, 0xfd, 0x0a, 0x0e, 0xea, 0xed, 0x10, 0xfa, 0x12,
  0x05, 0xfa, 0xfa, 0xf2, 0x04, 0xff, 0x00, 0x04, 0xef, 0x05, 0xfa, 0xf9,
  0xf4, 0x04, 0x09, 0x14, 0xf7, 0xfb, 0x22, 0x1c, 0xee, 0x01, 0x00, 0x09,
  0xed, 0x09, 0x16, 0x19, 0xec, 0x07, 0x09, 0x01, 0xfd, 0x14, 0xfd, 0x04,
  0xf6, 0x08, 0xf8, 0xfc, 0xf0, 0x0f, 0x04, 0xdf, 0xed, 0x15, 0x05, 0xff,
  0xe9, 0x0c, 0xf7, 0x01, 0x02, 0x13, 0x0d, 0xf9, 0xfc, 0x01, 0x08, 0x09,
  0xeb, 0x03, 0xf5, 0xed, 0xea, 0xf5, 0x05, 0x0a, 0xf5, 0x21, 0x04, 0x08,
  0x03, 0xf9, 0x06, 0x01, 0x02, 0x01, 0xf7, 0x07, 0xed, 0x00, 0x0c, 0xf2,
  0x03, 0x07, 0x0b, 0xf3, 0xf0, 0x03, 0xff, 0xfc, 0x05, 0x06, 0xfb, 0x11,
  0xf7, 0xff, 0x11, 0xf0, 0xf6, 0x0a, 0x11, 0xf0, 0x09, 0xf5, 0x0a, 0x02,
  0x11, 0x01, 0x11, 0xfd, 0x09, 0x06, 0x04, 0x0e, 0xf3, 0x17, 0xfb, 0x06,
  0xf4, 0x05, 0xf0, 0xf0, 0xec, 0x10, 0x08, 0x04, 0xfd, 0x04, 0x02, 0x01,
  0xee, 0x0c, 0x0b, 0xfa, 0xf3, 0x10, 0x03, 0x14, 0xfc, 0x1e, 0x07, 0x09,
  0xf2, 0xfd, 0xed, 0xf5, 0xfc, 0xf3, 0x07, 0x01, 0x00, 0x09, 0x0d, 0xe8,
  0xfc, 0x21, 0x08, 0x0b, 0xf8, 0x12, 0xf2, 0xf3, 0x06, 0x08, 0x0e, 0xf5,
  0xf5, 0xe9, 0xec, 0xed, 0x0a, 0xff, 0xff, 0x01, 0x0f, 0xf1, 0x01, 0x12,
  0x01, 0xff, 0xf4, 0xf8, 0x00, 0xff, 0x0e, 0xfd, 0x02, 0x12, 0xf0, 0xfc,
  0xfb, 0xfb, 0xff, 0x07, 0xf4, 0xfb, 0xf6, 0x0c, 0x00, 0x04, 0xfc, 0xeb,
  0x03, 0x20, 0xf6, 0xfd, 0xec, 0xfc, 0x12, 0x0c, 0x04, 0x12, 0xfa, 0xf8,
  0x00, 0x0a, 0xfd, 0xec, 0xf9, 0x0c, 0xfe, 0x13, 0xfb, 0xfc, 0xf9, 0xf4,
  0xf5, 0x12, 0x0d, 0x03, 0xf7, 0x0d, 0xfa, 0x12, 0x12, 0x0f, 0x01, 0x0c,
  0xe9, 0xfd, 0x07, 0xee, 0xf4, 0x09, 0x02, 0xf7, 0x0a, 0x0a, 0x01, 0xf8,
  0xfd, 0xf7, 0xf8, 0x06, 0xf4, 0x02, 0xeb, 0xf6, 0x02, 0x0e, 0xfc, 0xfb,
  0x02, 0x11, 0xed, 0x05, 0x01, 0x25, 0x09, 0x07, 0x06, 0xf7, 0xfb, 0x03,
  0xfd, 0x14, 0x0c, 0xfd, 0xeb, 0xef, 0x03, 0xe8, 0x04, 0xf5, 0xf3, 0x07,
  0xfb, 0x06, 0x16, 0x06, 0x06, 0x0d, 0xfc, 0xfd, 0xfe, 0x11, 0x0c, 0x10,
  0x03, 0x00, 0x11, 0xf3, 0xea, 0xfc, 0xe7, 0xea, 0xf8, 0xf0, 0x0c, 0xf0,
  0xfe, 0x0a, 0x08, 0x08, 0x11, 0x10, 0x06, 0x03, 0xfc, 0xfe, 0xfe, 0xfb,
  0xfc, 0xfc, 0x07, 0x00, 0xec, 0x07, 0xfa, 0xec, 0xf1, 0x0c, 0x04, 0xf3,
  0xf8, 0xed, 0x0d, 0x09, 0xf8, 0xe5, 0x00, 0xff, 0xf2, 0xff, 0x13, 0x09,
  0xff, 0xf4, 0xfb, 0x08, 0xfb, 0x05, 0x03, 0x00, 0xef, 0xef, 0xf1, 0x03,
  0xfc, 0x06, 0x07, 0xe8, 0x06, 0x04, 0x03, 0xec, 0xfb, 0x0b, 0x07, 0xf9,
  0x0a, 0xf5, 0xf9, 0xfe, 0xf8, 0x00, 0xf1, 0xe8, 0x06, 0xfe, 0x09, 0xf8,
  0x04, 0x08, 0x10, 0xed, 0xf9, 0xed, 0xf7, 0xf8, 0xf6, 0xff, 0x11, 0xfe,
  0x00, 0x04, 0x05, 0xf8, 0xf1, 0x0b, 0x0b, 0xfd, 0x04, 0xec, 0x05, 0x05,
  0xed, 0x0d, 0x09, 0xf6, 0x0b, 0xee, 0x04, 0x09, 0xeb, 0xeb, 0xe9, 0xf6,
  0x07, 0x0d, 0x00, 0x05, 0x12, 0x17, 0xfd, 0x04, 0x06, 0x0e, 0x0b, 0xf9,
  0xfe, 0xfc, 0xe9, 0x0b, 0xfd, 0x17, 0xfd, 0xf9, 0xed, 0xfd, 0xfc, 0xfa,
  0xec, 0x11, 0x03, 0x18, 0xfb, 0xf5, 0x0a, 0x03, 0xfb, 0x00, 0xf2, 0x09,
  0xf9, 0xfb, 0x18, 0x08, 0x10, 0x0c, 0xf3, 0x0d, 0xfb, 0xfd, 0xfa, 0xef,
  0x0b, 0xf2, 0x00, 0xf6, 0xfb, 0xf3, 0x15, 0x00, 0xf3, 0x10, 0xf7, 0xf6,
  0xf8, 0x06, 0xf6, 0x0c, 0xfb, 0xed, 0x06, 0x09, 0xef, 0xfc, 0xf6, 0xfb,
  0x0d, 0x0b, 0xfb, 0x05, 0xff, 0xf0, 0x06, 0xef, 0xf6, 0xfb, 0x06, 0x05,
  0x06, 0x05, 0x07, 0xf8, 0xeb, 0xe2, 0x05, 0xf2, 0xf6, 0xf7, 0x02, 0xfc,
  0x08, 0xfa, 0x02, 0xf2, 0x02, 0xf3, 0x00, 0xe3, 0x09, 0xf6, 0xf0, 0x04,
  0xf4, 0x01, 0x17, 0x05, 0xf9, 0x01, 0x0f, 0xfa, 0x0c, 0xe7, 0x01, 0xe7,
  0x05, 0x03, 0xf7, 0x06, 0xfb, 0xf4, 0x1c, 0xf9, 0xfb, 0xec, 0xff, 0xf4,
  0xfe, 0xff, 0x1e, 0xfa, 0x07, 0xfb, 0xfb, 0x0f, 0xff, 0xf6, 0x04, 0xf6,
  0xf0, 0xf0, 0xef, 0x10, 0xf1, 0xf3, 0xfb, 0xff, 0x0b, 0x00, 0x04, 0x0d,
  0x04, 0x01, 0x00, 0x04, 0xf1, 0x15, 0xfb, 0x05, 0x03, 0x07, 0xf8, 0x19,
  0xff, 0x11, 0x0d, 0xf5, 0x07, 0x00, 0xec, 0x13, 0x09, 0x01, 0xfc, 0x04,
  0xf8, 0xf5, 0x09, 0xef, 0x03, 0x0c, 0xf5, 0xf5, 0x06, 0xfb, 0x12, 0x08,
  0xfc, 0x17, 0xed, 0x01, 0xf8, 0x02, 0x03, 0x0f, 0x00, 0x08, 0x0f, 0xf3,
  0x07, 0xfc, 0xe3, 0xe5, 0xf0, 0xfe, 0xee, 0x02, 0x01, 0xf7, 0x19, 0xf4,
  0xf2, 0x1b, 0xf5, 0xfc, 0x04, 0x12, 0xec, 0xf9, 0x06, 0xf8, 0x14, 0x08,
  0xf1, 0xf7, 0xe2, 0xde, 0x04, 0xf8, 0x09, 0xf9, 0xf2, 0xf0, 0x05, 0x00,
  0x04, 0xe7, 0xee, 0x02, 0x04, 0x0d, 0x05, 0x00, 0xf4, 0xe2, 0x01, 0xfb,
  0xfa, 0xf8, 0x08, 0xee, 0x07, 0xff, 0xfd, 0xf4, 0xf7, 0x04, 0xf4, 0xda,
  0x03, 0xf6, 0xf4, 0x05, 0xff, 0x02, 0xf1, 0xe3, 0xfc, 0xf6, 0xf5, 0x0f,
  0xec, 0x00, 0xff, 0xdb, 0xf3, 0x08, 0x00, 0xfe, 0xf7, 0x04, 0xf4, 0xed,
  0xfe, 0x05, 0x09, 0x13, 0x09, 0x00, 0xf0, 0xe8, 0x0d, 0xfa, 0xfa, 0xef,
  0x00, 0xfd, 0x02, 0xe2, 0x01, 0x03, 0xf1, 0x12, 0xef, 0x04, 0xfa, 0x06,
  0x03, 0xf6, 0xf7, 0x00, 0xfc, 0xf4, 0x07, 0x0d, 0x06, 0x09, 0x06, 0x15,
  0xf6, 0x17, 0xf9, 0x0c, 0x00, 0x04, 0xfc, 0xef, 0xe9, 0x05, 0xe7, 0x06,
  0xf7, 0x01, 0x13, 0x01, 0xf7, 0xeb, 0xff, 0xec, 0x0a, 0x0c, 0xfb, 0xf0,
  0xf1, 0x05, 0x13, 0x0a, 0xf9, 0xf1, 0x05, 0xfd, 0xf6, 0x0c, 0x00, 0x12,
  0x08, 0xfd, 0xfd, 0x01, 0x05, 0xf4, 0xe9, 0xff, 0xfe, 0x03, 0x06, 0x0a,
  0x01, 0x01, 0x16, 0xfa, 0x12, 0x01, 0x08, 0x00, 0x09, 0xfc, 0x04, 0x00,
  0x06, 0xfc, 0x02, 0x03, 0xe9, 0x09, 0xdf, 0xe9, 0xfc, 0xf9, 0x08, 0x02,
  0xf5, 0xf7, 0x09, 0x01, 0xef, 0x00, 0x0d, 0x02, 0xff, 0xee, 0xf9, 0xfc,
  0x05, 0xf3, 0xec, 0x09, 0x02, 0xfd, 0xed, 0xf2, 0xf4, 0x05, 0xff, 0xf6,
  0xee, 0xfa, 0xe6, 0xf7, 0x12, 0xfc, 0x02, 0xf3, 0xee, 0xe8, 0xf6, 0xf4,
  0x12, 0xfd, 0x02, 0x03, 0xf3, 0xef, 0xe6, 0xf7, 0xf3, 0x00, 0xfd, 0x0f,
  0xf9, 0xef, 0xff, 0xfa, 0xfa, 0xfe, 0xfb, 0x10, 0x03, 0xe8, 0xfb, 0xf1,
  0x10, 0xf6, 0xf8, 0xf3, 0xf2, 0xfb, 0xfb, 0xe9, 0x10, 0xf0, 0x06, 0xf8,
  0xfc, 0xee, 0xf9, 0xfc, 0x06, 0xef, 0xf0, 0x0b, 0xfc, 0xfb, 0x0e, 0x02,
  0xa2, 0xfe, 0xff, 0xff, 0x04, 0x00, 0x00, 0x00, 0x0c, 0x00, 0x00, 0x00,
  0x1b, 0xff, 0xff, 0xff, 0x77, 0x02, 0x00, 0x00, 0x6e, 0xfe, 0xff, 0xff,
  0x24, 0xfc, 0xff, 0xff, 0x0f, 0x00, 0x00, 0x00, 0x54, 0x4f, 0x43, 0x4f,
  0x20, 0x43, 0x6f, 0x6e, 0x76, 0x65, 0x72, 0x74, 0x65, 0x64, 0x2e, 0x00,
  0x01, 0x00, 0x00, 0x00, 0x04, 0x00, 0x00, 0x00, 0x24, 0xfb, 0xff, 0xff,
  0x68, 0x01, 0x00, 0x00, 0x5c, 0x01, 0x00, 0x00, 0x50, 0x01, 0x00, 0x00,
  0x04, 0x00, 0x00, 0x00, 0x04, 0x00, 0x00, 0x00, 0xf4, 0x00, 0x00, 0x00,
  0x90, 0x00, 0x00, 0x00, 0x48, 0x00, 0x00, 0x00, 0x04, 0x00, 0x00, 0x00,
  0xce, 0xff, 0xff, 0xff, 0x00, 0x00, 0x00, 0x09, 0x03, 0x00, 0x00, 0x00,
  0x1c, 0x00, 0x00, 0x00, 0x10, 0x00, 0x00, 0x00, 0x04, 0x00, 0x00, 0x00,
  0x1a, 0xff, 0xff, 0xff, 0x00, 0x00, 0x80, 0x3f, 0x01, 0x00, 0x00, 0x00,
  0x09, 0x00, 0x00, 0x00, 0x01, 0x00, 0x00, 0x00, 0x06, 0x00, 0x00, 0x00,
  0x00, 0x00, 0x0e, 0x00, 0x18, 0x00, 0x08, 0x00, 0x0c, 0x00, 0x10, 0x00,
  0x07, 0x00, 0x14, 0x00, 0x0e, 0x00, 0x00, 0x00, 0x00, 0x00, 0x00, 0x08,
  0x01, 0x00, 0x00, 0x00, 0x18, 0x00, 0x00, 0x00, 0x0c, 0x00, 0x00, 0x00,
  0x04, 0x00, 0x00, 0x00, 0xc4, 0xfc, 0xff, 0xff, 0x01, 0x00, 0x00, 0x00,
  0x06, 0x00, 0x00, 0x00, 0x03, 0x00, 0x00, 0x00, 0x02, 0x00, 0x00, 0x00,
  0x07, 0x00, 0x00, 0x00, 0x01, 0x00, 0x00, 0x00, 0x00, 0x00, 0x0e, 0x00,
  0x16, 0x00, 0x00, 0x00, 0x08, 0x00, 0x0c, 0x00, 0x07, 0x00, 0x10, 0x00,
  0x0e, 0x00, 0x00, 0x00, 0x00, 0x00, 0x00, 0x02, 0x38, 0x00, 0x00, 0x00,
  0x2c, 0x00, 0x00, 0x00, 0x14, 0x00, 0x00, 0x00, 0x00, 0x00, 0x0e, 0x00,
  0x14, 0x00, 0x00, 0x00, 0x08, 0x00, 0x0c, 0x00, 0x10, 0x00, 0x07, 0x00,
  0x0e, 0x00, 0x00, 0x00, 0x00, 0x00, 0x00, 0x01, 0x02, 0x00, 0x00, 0x00,
  0x02, 0x00, 0x00, 0x00, 0x08, 0x00, 0x00, 0x00, 0x01, 0x00, 0x00, 0x00,
  0x02, 0x00, 0x00, 0x00, 0x03, 0x00, 0x00, 0x00, 0x04, 0x00, 0x00, 0x00,
  0x08, 0x00, 0x00, 0x00, 0x00, 0x00, 0x00, 0x00, 0x00, 0x00, 0x0e, 0x00,
  0x1a, 0x00, 0x08, 0x00, 0x0c, 0x00, 0x10, 0x00, 0x07, 0x00, 0x14, 0x00,
  0x0e, 0x00, 0x00, 0x00, 0x00, 0x00, 0x00, 0x11, 0x02, 0x00, 0x00, 0x00,
  0x38, 0x00, 0x00, 0x00, 0x2c, 0x00, 0x00, 0x00, 0x0c, 0x00, 0x00, 0x00,
  0x00, 0x00, 0x06, 0x00, 0x08, 0x00, 0x04, 0x00, 0x06, 0x00, 0x00, 0x00,
  0x04, 0x00, 0x00, 0x00, 0x04, 0x00, 0x00, 0x00, 0xff, 0xff, 0xff, 0xff,
  0x31, 0x00, 0x00, 0x00, 0x28, 0x00, 0x00, 0x00, 0x01, 0x00, 0x00, 0x00,
  0x01, 0x00, 0x00, 0x00, 0x04, 0x00, 0x00, 0x00, 0x02, 0x00, 0x00, 0x00,
  0x03, 0x00, 0x00, 0x00, 0x05, 0x00, 0x00, 0x00, 0x01, 0x00, 0x00, 0x00,
  0x09, 0x00, 0x00, 0x00, 0x01, 0x00, 0x00, 0x00, 0x03, 0x00, 0x00, 0x00,
  0x0a, 0x00, 0x00, 0x00, 0x34, 0x04, 0x00, 0x00, 0xcc, 0x03, 0x00, 0x00,
  0x4c, 0x03, 0x00, 0x00, 0xdc, 0x02, 0x00, 0x00, 0x60, 0x02, 0x00, 0x00,
  0x20, 0x02, 0x00, 0x00, 0xb0, 0x01, 0x00, 0x00, 0x44, 0x01, 0x00, 0x00,
  0x70, 0x00, 0x00, 0x00, 0x04, 0x00, 0x00, 0x00, 0x02, 0xfc, 0xff, 0xff,
  0x00, 0x00, 0x00, 0x09, 0x44, 0x00, 0x00, 0x00, 0x07, 0x00, 0x00, 0x00,
  0x28, 0x00, 0x00, 0x00, 0x04, 0x00, 0x00, 0x00, 0xf4, 0xfb, 0xff, 0xff,
  0x14, 0x00, 0x00, 0x00, 0x04, 0x00, 0x00, 0x00, 0x01, 0x00, 0x00, 0x00,
  0x80, 0xff, 0xff, 0xff, 0xff, 0xff, 0xff, 0xff, 0x01, 0x00, 0x00, 0x00,
  0x00, 0x00, 0x80, 0x3b, 0x0e, 0x00, 0x00, 0x00, 0x6c, 0x61, 0x62, 0x65,
  0x6c, 0x73, 0x5f, 0x73, 0x6f, 0x66, 0x74, 0x6d, 0x61, 0x78, 0x00, 0x00,
  0x02, 0x00, 0x00, 0x00, 0x01, 0x00, 0x00, 0x00, 0x03, 0x00, 0x00, 0x00,
  0x00, 0x00, 0x0e, 0x00, 0x1a, 0x00, 0x08, 0x00, 0x07, 0x00, 0x0c, 0x00,
  0x10, 0x00, 0x14, 0x00, 0x0e, 0x00, 0x00, 0x00, 0x00, 0x00, 0x00, 0x09,
  0xb4, 0x00, 0x00, 0x00, 0x08, 0x00, 0x00, 0x00, 0x94, 0x00, 0x00, 0x00,
  0x18, 0x00, 0x00, 0x00, 0x00, 0x00, 0x12, 0x00, 0x10, 0x00, 0x00, 0x00,
  0x00, 0x00, 0x04, 0x00, 0x08, 0x00, 0x00, 0x00, 0x00, 0x00, 0x0c, 0x00,
  0x12, 0x00, 0x00, 0x00, 0x50, 0x00, 0x00, 0x00, 0x08, 0x00, 0x00, 0x00,
  0x03, 0x00, 0x00, 0x00, 0x08, 0x00, 0x00, 0x00, 0x00, 0x00, 0x00, 0x00,
  0x00, 0x00, 0x00, 0x00, 0x00, 0x00, 0x00, 0x00, 0x00, 0x00, 0x00, 0x00,
  0x00, 0x00, 0x00, 0x00, 0x00, 0x00, 0x00, 0x00, 0x00, 0x00, 0x00, 0x00,
  0x00, 0x00, 0x00, 0x00, 0x00, 0x00, 0x00, 0x00, 0x00, 0x00, 0x00, 0x00,
  0x00, 0x00, 0x00, 0x00, 0x00, 0x00, 0x00, 0x00, 0x00, 0x00, 0x00, 0x00,
  0x00, 0x00, 0x00, 0x00, 0x00, 0x00, 0x00, 0x00, 0x00, 0x00, 0x00, 0x00,
  0x08, 0x00, 0x00, 0x00, 0xae, 0x8a, 0x5b, 0x39, 0xac, 0x95, 0x4e, 0x3a,
  0xa7, 0xc6, 0x86, 0x39, 0x4a, 0xfd, 0x13, 0x3b, 0xf6, 0x21, 0xdc, 0x3a,
  0x62, 0xfc, 0x1b, 0x3a, 0x47, 0xc2, 0xe3, 0x3a, 0xa8, 0xd8, 0x05, 0x3b,
  0x12, 0x00, 0x00, 0x00, 0x66, 0x69, 0x72, 0x73, 0x74, 0x5f, 0x77, 0x65,
  0x69, 0x67, 0x68, 0x74, 0x73, 0x2f, 0x72, 0x65, 0x61, 0x64, 0x00, 0x00,
  0x04, 0x00, 0x00, 0x00, 0x01, 0x00, 0x00, 0x00, 0x0a, 0x00, 0x00, 0x00,
  0x08, 0x00, 0x00, 0x00, 0x08, 0x00, 0x00, 0x00, 0x3a, 0xfd, 0xff, 0xff,
  0x00, 0x00, 0x00, 0x09, 0x54, 0x00, 0x00, 0x00, 0x02, 0x00, 0x00, 0x00,
  0x28, 0x00, 0x00, 0x00, 0x04, 0x00, 0x00, 0x00, 0x2c, 0xfd, 0xff, 0xff,
  0x14, 0x00, 0x00, 0x00, 0x04, 0x00, 0x00, 0x00, 0x01, 0x00, 0x00, 0x00,
  0x00, 0x00, 0x00, 0x00, 0x00, 0x00, 0x00, 0x00, 0x01, 0x00, 0x00, 0x00,
  0x18, 0xf4, 0x70, 0x3a, 0x1f, 0x00, 0x00, 0x00, 0x66, 0x69, 0x6e, 0x61,
  0x6c, 0x5f, 0x66, 0x63, 0x5f, 0x77, 0x65, 0x69, 0x67, 0x68, 0x74, 0x73,
  0x2f, 0x72, 0x65, 0x61, 0x64, 0x2f, 0x74, 0x72, 0x61, 0x6e, 0x73, 0x70,
  0x6f, 0x73, 0x65, 0x00, 0x02, 0x00, 0x00, 0x00, 0x03, 0x00, 0x00, 0x00,
  0xa0, 0x0f, 0x00, 0x00, 0xa2, 0xfd, 0xff, 0xff, 0x00, 0x00, 0x00, 0x09,
  0x58, 0x00, 0x00, 0x00, 0x04, 0x00, 0x00, 0x00, 0x44, 0x00, 0x00, 0x00,
  0x04, 0x00, 0x00, 0x00, 0x74, 0xfe, 0xff, 0xff, 0x30, 0x00, 0x00, 0x00,
  0x24, 0x00, 0x00, 0x00, 0x18, 0x00, 0x00, 0x00, 0x04, 0x00, 0x00, 0x00,
  0x01, 0x00, 0x00, 0x00, 0xf4, 0xff, 0xff, 0xff, 0xff, 0xff, 0xff, 0xff,
  0x00, 0x00, 0x00, 0x00, 0x01, 0x00, 0x00, 0x00, 0x73, 0x76, 0x89, 0x3e,
  0x01, 0x00, 0x00, 0x00, 0x82, 0xa6, 0x15, 0x42, 0x01, 0x00, 0x00, 0x00,
  0xef, 0x66, 0xf8, 0xc1, 0x05, 0x00, 0x00, 0x00, 0x61, 0x64, 0x64, 0x5f,
  0x31, 0x00, 0x00, 0x00, 0x02, 0x00, 0x00, 0x00, 0x01, 0x00, 0x00, 0x00,
  0x03, 0x00, 0x00, 0x00, 0x0e, 0xfe, 0xff, 0xff, 0x00, 0x00, 0x00, 0x02,
  0x2c, 0x00, 0x00, 0x00, 0x06, 0x00, 0x00, 0x00, 0x10, 0x00, 0x00, 0x00,
  0x08, 0x00, 0x00, 0x00, 0x04, 0x00, 0x04, 0x00, 0x04, 0x00, 0x00, 0x00,
  0x0f, 0x00, 0x00, 0x00, 0x52, 0x65, 0x73, 0x68, 0x61, 0x70, 0x65, 0x5f,
  0x32, 0x2f, 0x73, 0x68, 0x61, 0x70, 0x65, 0x00, 0x01, 0x00, 0x00, 0x00,
  0x04, 0x00, 0x00, 0x00, 0x4a, 0xfe, 0xff, 0xff, 0x00, 0x00, 0x00, 0x09,
  0x5c, 0x00, 0x00, 0x00, 0x05, 0x00, 0x00, 0x00, 0x44, 0x00, 0x00, 0x00,
  0x04, 0x00, 0x00, 0x00, 0x1c, 0xff, 0xff, 0xff, 0x30, 0x00, 0x00, 0x00,
  0x24, 0x00, 0x00, 0x00, 0x18, 0x00, 0x00, 0x00, 0x04, 0x00, 0x00, 0x00,
  0x01, 0x00, 0x00, 0x00, 0x80, 0xff, 0xff, 0xff, 0xff, 0xff, 0xff, 0xff,
  0x00, 0x00, 0x00, 0x00, 0x01, 0x00, 0x00, 0x00, 0x41, 0x41, 0xd1, 0x3d,
  0x01, 0x00, 0x00, 0x00, 0x00, 0x70, 0xd0, 0x41, 0x01, 0x00, 0x00, 0x00,
  0x00, 0x00, 0x00, 0x00, 0x09, 0x00, 0x00, 0x00, 0x52, 0x65, 0x73, 0x68,
  0x61, 0x70, 0x65, 0x5f, 0x32, 0x00, 0x00, 0x00, 0x04, 0x00, 0x00, 0x00,
  0x01, 0x00, 0x00, 0x00, 0x31, 0x00, 0x00, 0x00, 0x28, 0x00, 0x00, 0x00,
  0x01, 0x00, 0x00, 0x00, 0xc2, 0xfe, 0xff, 0xff, 0x00, 0x00, 0x00, 0x09,
  0x58, 0x00, 0x00, 0x00, 0x0a, 0x00, 0x00, 0x00, 0x40, 0x00, 0x00, 0x00,
  0x04, 0x00, 0x00, 0x00, 0x94, 0xff, 0xff, 0xff, 0x2c, 0x00, 0x00, 0x00,
  0x20, 0x00, 0x00, 0x00, 0x14, 0x00, 0x00, 0x00, 0x04, 0x00, 0x00, 0x00,
  0x01, 0x00, 0x00, 0x00, 0x80, 0xff, 0xff, 0xff, 0xff, 0xff, 0xff, 0xff,
  0x01, 0x00, 0x00, 0x00, 0x41, 0x41, 0xd1, 0x3d, 0x01, 0x00, 0x00, 0x00,
  0x00, 0x70, 0xd0, 0x41, 0x01, 0x00, 0x00, 0x00, 0x00, 0x00, 0x00, 0x00,
  0x09, 0x00, 0x00, 0x00, 0x52, 0x65, 0x73, 0x68, 0x61, 0x70, 0x65, 0x5f,
  0x31, 0x00, 0x00, 0x00, 0x02, 0x00, 0x00, 0x00, 0x01, 0x00, 0x00, 0x00,
  0xa8, 0x07, 0x00, 0x00, 0x2e, 0xff, 0xff, 0xff, 0x00, 0x00, 0x00, 0x09,
  0x60, 0x00, 0x00, 0x00, 0x09, 0x00, 0x00, 0x00, 0x4c, 0x00, 0x00, 0x00,
  0x10, 0x00, 0x00, 0x00, 0x0c, 0x00, 0x14, 0x00, 0x04, 0x00, 0x08, 0x00,
  0x0c, 0x00, 0x10, 0x00, 0x0c, 0x00, 0x00, 0x00, 0x2c, 0x00, 0x00, 0x00,
  0x20, 0x00, 0x00, 0x00, 0x14, 0x00, 0x00, 0x00, 0x04, 0x00, 0x00, 0x00,
  0x01, 0x00, 0x00, 0x00, 0x80, 0xff, 0xff, 0xff, 0xff, 0xff, 0xff, 0xff,
  0x01, 0x00, 0x00, 0x00, 0x7c, 0xc0, 0x18, 0x3e, 0x01, 0x00, 0x00, 0x00,
  0xbc, 0x27, 0x18, 0x42, 0x01, 0x00, 0x00, 0x00, 0x00, 0x00, 0x00, 0x00,
  0x04, 0x00, 0x00, 0x00, 0x52, 0x65, 0x6c, 0x75, 0x00, 0x00, 0x00, 0x00,
  0x04, 0x00, 0x00, 0x00, 0x01, 0x00, 0x00, 0x00, 0x19, 0x00, 0x00, 0x00,
  0x14, 0x00, 0x00, 0x00, 0x08, 0x00, 0x00, 0x00, 0xaa, 0xff, 0xff, 0xff,
  0x00, 0x00, 0x00, 0x02, 0x44, 0x00, 0x00, 0x00, 0x01, 0x00, 0x00, 0x00,
  0x2c, 0x00, 0x00, 0x00, 0x04, 0x00, 0x00, 0x00, 0x9c, 0xff, 0xff, 0xff,
  0x18, 0x00, 0x00, 0x00, 0x04, 0x00, 0x00, 0x00, 0x01, 0x00, 0x00, 0x00,
  0x00, 0x00, 0x00, 0x00, 0x00, 0x00, 0x00, 0x00, 0x00, 0x00, 0x00, 0x00,
  0x01, 0x00, 0x00, 0x00, 0x1a, 0xc6, 0x0f, 0x39, 0x0b, 0x00, 0x00, 0x00,
  0x4d, 0x61, 0x74, 0x4d, 0x75, 0x6c, 0x5f, 0x62, 0x69, 0x61, 0x73, 0x00,
  0x01, 0x00, 0x00, 0x00, 0x03, 0x00, 0x00, 0x00, 0x00, 0x00, 0x0e, 0x00,
  0x18, 0x00, 0x08, 0x00, 0x07, 0x00, 0x0c, 0x00, 0x10, 0x00, 0x14, 0x00,
  0x0e, 0x00, 0x00, 0x00, 0x00, 0x00, 0x00, 0x02, 0xa0, 0x00, 0x00, 0x00,
  0x03, 0x00, 0x00, 0x00, 0x88, 0x00, 0x00, 0x00, 0x10, 0x00, 0x00, 0x00,
  0x0c, 0x00, 0x0c, 0x00, 0x00, 0x00, 0x00, 0x00, 0x04, 0x00, 0x08, 0x00,
  0x0c, 0x00, 0x00, 0x00, 0x4c, 0x00, 0x00, 0x00, 0x04, 0x00, 0x00, 0x00,
  0x08, 0x00, 0x00, 0x00, 0x00, 0x00, 0x00, 0x00, 0x00, 0x00, 0x00, 0x00,
  0x00, 0x00, 0x00, 0x00, 0x00, 0x00, 0x00, 0x00, 0x00, 0x00, 0x00, 0x00,
  0x00, 0x00, 0x00, 0x00, 0x00, 0x00, 0x00, 0x00, 0x00, 0x00, 0x00, 0x00,
  0x00, 0x00, 0x00, 0x00, 0x00, 0x00, 0x00, 0x00, 0x00, 0x00, 0x00, 0x00,
  0x00, 0x00, 0x00, 0x00, 0x00, 0x00, 0x00, 0x00, 0x00, 0x00, 0x00, 0x00,
  0x00, 0x00, 0x00, 0x00, 0x00, 0x00, 0x00, 0x00, 0x08, 0x00, 0x00, 0x00,
  0x2e, 0x74, 0xb3, 0x37, 0xda, 0xdc, 0xa8, 0x38, 0x12, 0x55, 0xdc, 0x37,
  0x05, 0xef, 0x71, 0x39, 0xd6, 0xef, 0x33, 0x39, 0x9d, 0x01, 0x7f, 0x38,
  0xaa, 0x2b, 0x3a, 0x39, 0xfe, 0xcf, 0x5a, 0x39, 0x0b, 0x00, 0x00, 0x00,
  0x43, 0x6f, 0x6e, 0x76, 0x32, 0x44, 0x5f, 0x62, 0x69, 0x61, 0x73, 0x00,
  0x01, 0x00, 0x00, 0x00, 0x08, 0x00, 0x00, 0x00, 0x04, 0x00, 0x00, 0x00,
  0x4c, 0x00, 0x00, 0x00, 0x30, 0x00, 0x00, 0x00, 0x1c, 0x00, 0x00, 0x00,
  0x04, 0x00, 0x00, 0x00, 0xe6, 0xff, 0xff, 0xff, 0x00, 0x00, 0x00, 0x19,
  0x02, 0x00, 0x00, 0x00, 0x00, 0x00, 0x06, 0x00, 0x06, 0x00, 0x05, 0x00,
  0x06, 0x00, 0x00, 0x00, 0x00, 0x16, 0x0a, 0x00, 0x0e, 0x00, 0x07, 0x00,
  0x00, 0x00, 0x08, 0x00, 0x0a, 0x00, 0x00, 0x00, 0x00, 0x00, 0x00, 0x09,
  0x04, 0x00, 0x00, 0x00, 0x00, 0x00, 0x0a, 0x00, 0x0c, 0x00, 0x07, 0x00,
  0x00, 0x00, 0x08, 0x00, 0x0a, 0x00, 0x00, 0x00, 0x00, 0x00, 0x00, 0x04,
  0x03, 0x00, 0x00, 0x00
};
unsigned int models_tiny_conv_silence_20_0_bgvol_0_model_tflite_len = 14704;
