unsigned char models_tiny_conv_silence_40_0_bgvol_0_1_model_tflite[] = {
  0x1c, 0x00, 0x00, 0x00, 0x54, 0x46, 0x4c, 0x33, 0x00, 0x00, 0x12, 0x00,
  0x1c, 0x00, 0x04, 0x00, 0x08, 0x00, 0x0c, 0x00, 0x10, 0x00, 0x14, 0x00,
  0x00, 0x00, 0x18, 0x00, 0x12, 0x00, 0x00, 0x00, 0x03, 0x00, 0x00, 0x00,
  0xf0, 0x38, 0x00, 0x00, 0x90, 0x32, 0x00, 0x00, 0x78, 0x32, 0x00, 0x00,
  0x3c, 0x00, 0x00, 0x00, 0x04, 0x00, 0x00, 0x00, 0x01, 0x00, 0x00, 0x00,
  0x0c, 0x00, 0x00, 0x00, 0x08, 0x00, 0x0c, 0x00, 0x04, 0x00, 0x08, 0x00,
  0x08, 0x00, 0x00, 0x00, 0x08, 0x00, 0x00, 0x00, 0x0b, 0x00, 0x00, 0x00,
  0x13, 0x00, 0x00, 0x00, 0x6d, 0x69, 0x6e, 0x5f, 0x72, 0x75, 0x6e, 0x74,
  0x69, 0x6d, 0x65, 0x5f, 0x76, 0x65, 0x72, 0x73, 0x69, 0x6f, 0x6e, 0x00,
  0x0c, 0x00, 0x00, 0x00, 0x30, 0x32, 0x00, 0x00, 0x14, 0x32, 0x00, 0x00,
  0x24, 0x03, 0x00, 0x00, 0xf4, 0x02, 0x00, 0x00, 0xec, 0x02, 0x00, 0x00,
  0xe4, 0x02, 0x00, 0x00, 0xc4, 0x02, 0x00, 0x00, 0xbc, 0x02, 0x00, 0x00,
  0x2c, 0x00, 0x00, 0x00, 0x24, 0x00, 0x00, 0x00, 0x1c, 0x00, 0x00, 0x00,
  0x04, 0x00, 0x00, 0x00, 0xba, 0xcc, 0xff, 0xff, 0x04, 0x00, 0x00, 0x00,
  0x05, 0x00, 0x00, 0x00, 0x31, 0x2e, 0x35, 0x2e, 0x30, 0x00, 0x00, 0x00,
  0x38, 0xca, 0xff, 0xff, 0x3c, 0xca, 0xff, 0xff, 0xd6, 0xcc, 0xff, 0xff,
  0x04, 0x00, 0x00, 0x00, 0x80, 0x02, 0x00, 0x00, 0xe4, 0xc4, 0x1e, 0x92,
  0xe2, 0xcc, 0x58, 0xd4, 0xbc, 0x81, 0xd0, 0xd5, 0xa4, 0xfa, 0xfe, 0xf4,
  0x9d, 0xd2, 0xed, 0x12, 0xc2, 0xa7, 0x43, 0xea, 0xe0, 0xd8, 0xcf, 0x55,
  0xc7, 0xed, 0xed, 0x1b, 0xb3, 0xfd, 0xc3, 0x10, 0x95, 0xc5, 0x61, 0xdf,
  0xed, 0x86, 0xce, 0xdb, 0xc1, 0x48, 0xc2, 0x7f, 0xd3, 0xc3, 0xfa, 0x24,
  0x16, 0xde, 0x6a, 0x1a, 0xe5, 0xc6, 0xfa, 0x0e, 0x21, 0xfc, 0xef, 0x41,
  0xcb, 0xbc, 0xef, 0x96, 0xfe, 0xad, 0x18, 0xc6, 0xfe, 0xc0, 0xe8, 0x19,
  0xd9, 0x0d, 0xe9, 0xdb, 0xf5, 0xed, 0xe2, 0x31, 0xa7, 0x9c, 0x02, 0xe4,
  0x9b, 0xaa, 0xb4, 0xfa, 0xf3, 0xf1, 0x01, 0x08, 0xd8, 0xe5, 0xc8, 0xf1,
  0x99, 0xb8, 0x49, 0xe4, 0xbb, 0x86, 0xd6, 0x0a, 0xee, 0x52, 0xaa, 0x52,
  0x98, 0xa6, 0xe1, 0x3c, 0x25, 0xc4, 0x64, 0x23, 0xd2, 0xaf, 0xe6, 0x02,
  0x16, 0xcc, 0xf4, 0x21, 0xba, 0xdd, 0x18, 0x18, 0xda, 0xd0, 0xc6, 0xd9,
  0xc9, 0xd5, 0xd4, 0x7f, 0xb2, 0x26, 0xcc, 0xd3, 0xb4, 0x27, 0xdc, 0xf6,
  0x9d, 0xca, 0xd8, 0xfc, 0x04, 0xb1, 0xa9, 0xa3, 0xcc, 0xe9, 0xe7, 0xf1,
  0x81, 0xd8, 0xc4, 0xd4, 0x94, 0xca, 0x0b, 0xf4, 0xf5, 0xc1, 0xe3, 0x37,
  0xcc, 0x1c, 0xa0, 0x30, 0xac, 0xd3, 0xd6, 0x15, 0xfa, 0xe0, 0x36, 0x1f,
  0xc7, 0xd6, 0xd1, 0xf3, 0xe9, 0xc9, 0xde, 0x0b, 0xe8, 0xe2, 0x0c, 0x53,
  0xc4, 0xf9, 0xf0, 0xd2, 0xeb, 0xac, 0xde, 0x6c, 0xb7, 0x43, 0xc5, 0xd2,
  0xba, 0x2b, 0xec, 0xd0, 0x9b, 0xfb, 0xdd, 0xf6, 0xb4, 0xad, 0xa5, 0xa9,
  0x93, 0xf4, 0xf6, 0xeb, 0xcf, 0xe7, 0xd7, 0xd3, 0xa5, 0xcf, 0x27, 0xfa,
  0x05, 0xd6, 0xe4, 0xf3, 0xa6, 0x29, 0xbc, 0x27, 0xc6, 0xcb, 0xf2, 0xf0,
  0x2b, 0x00, 0x2b, 0x21, 0xad, 0xb3, 0xe7, 0x04, 0x03, 0xc1, 0x27, 0xf5,
  0xea, 0x01, 0x1e, 0x5e, 0xc7, 0x0c, 0xf6, 0xe0, 0xc4, 0xb5, 0xd7, 0x37,
  0xd3, 0x55, 0xc5, 0xdb, 0x92, 0x08, 0xe2, 0xd8, 0xd7, 0x14, 0xfe, 0xfc,
  0xac, 0xcd, 0x9a, 0xa4, 0xc6, 0xf7, 0x3e, 0xe5, 0x97, 0xed, 0xc9, 0xdf,
  0x95, 0xf2, 0x45, 0xef, 0xc5, 0xc3, 0xdf, 0xf7, 0xc7, 0x3c, 0xdc, 0x1d,
  0xd4, 0x00, 0xc8, 0x0b, 0x1e, 0x19, 0x55, 0x0b, 0xb8, 0xd2, 0xe4, 0x01,
  0x01, 0xd5, 0x5b, 0xfe, 0x97, 0xeb, 0x06, 0x3c, 0xca, 0x03, 0xfc, 0xd5,
  0x9a, 0xb7, 0xd9, 0x14, 0xd3, 0x5e, 0xcc, 0xe7, 0xa5, 0x23, 0xd8, 0xe1,
  0xaa, 0x11, 0x37, 0xfb, 0xa5, 0xa1, 0x81, 0xb4, 0xa0, 0xef, 0x7f, 0xe8,
  0x92, 0xe2, 0xc4, 0xf0, 0x93, 0xf2, 0x4d, 0xe9, 0xb2, 0xc7, 0xc3, 0x17,
  0xcf, 0x3c, 0x01, 0x0e, 0xc6, 0x0f, 0xb7, 0x27, 0x23, 0xfa, 0x4f, 0xfc,
  0x00, 0xc5, 0xc1, 0xd4, 0xda, 0xf6, 0x64, 0xee, 0xc2, 0xf9, 0x03, 0x26,
  0xeb, 0xeb, 0xf5, 0xd2, 0xc2, 0xe3, 0xc4, 0xfb, 0xe8, 0x67, 0xf8, 0xdd,
  0x96, 0x0e, 0xd9, 0xfd, 0xbf, 0x08, 0x18, 0xf7, 0xe9, 0xa5, 0x8f, 0xcb,
  0x99, 0xf5, 0x57, 0xdb, 0xc1, 0xe6, 0xd6, 0xf2, 0x81, 0xd4, 0x4a, 0xe5,
  0xc1, 0xc9, 0xd4, 0x09, 0xe3, 0x31, 0xfc, 0x0a, 0xee, 0x25, 0xb0, 0x14,
  0x19, 0xdb, 0x2d, 0xe5, 0x26, 0xc3, 0xbd, 0xc9, 0x07, 0xf7, 0x2b, 0xee,
  0xfe, 0xd6, 0xef, 0xf5, 0xf4, 0xc4, 0xc3, 0xda, 0xb2, 0x96, 0xd7, 0xfb,
  0xf6, 0x5d, 0xe4, 0xe6, 0xea, 0x23, 0xc6, 0x13, 0xb1, 0xfb, 0xc0, 0xfe,
  0xdc, 0xc5, 0x91, 0xe2, 0xab, 0x09, 0x0f, 0xe0, 0xde, 0xf5, 0xd3, 0x03,
  0xc3, 0xce, 0xff, 0xdd, 0xdc, 0xdf, 0xbd, 0x09, 0xcd, 0x23, 0xc7, 0x08,
  0xd9, 0x07, 0x9f, 0x0f, 0xfc, 0xdb, 0x02, 0xe0, 0x45, 0xe1, 0xdc, 0xf4,
  0xec, 0x05, 0xdf, 0xee, 0xbf, 0xfc, 0xed, 0xe3, 0xd0, 0x81, 0xc2, 0xdf,
  0xe0, 0x91, 0xd8, 0xf3, 0x0f, 0x62, 0xdb, 0xee, 0xae, 0xf9, 0xce, 0x06,
  0xc1, 0xe3, 0xdb, 0xfe, 0xf2, 0xc8, 0x9f, 0x0b, 0xbe, 0x38, 0xe1, 0xd5,
  0xdd, 0xef, 0xe9, 0x2b, 0x9c, 0xa5, 0xce, 0xe9, 0xcd, 0xb1, 0xd7, 0x1f,
  0xf5, 0x22, 0x94, 0xfe, 0x00, 0x12, 0x9f, 0x1f, 0x23, 0xea, 0xd9, 0xd9,
  0x55, 0xfb, 0xd8, 0xf6, 0xb7, 0x03, 0xa6, 0xdd, 0xe6, 0xe6, 0xd9, 0x03,
  0x01, 0x9f, 0xe8, 0xe3, 0x99, 0xa7, 0xe4, 0xec, 0xf7, 0x42, 0xcd, 0xed,
  0xbd, 0x05, 0xd3, 0xfc, 0xbc, 0xe6, 0x13, 0xf6, 0x27, 0xac, 0x83, 0x0e,
  0xd0, 0x33, 0xf6, 0xc7, 0xf2, 0xd6, 0xb5, 0x26, 0xcf, 0xba, 0xf9, 0xda,
  0xd2, 0xed, 0xda, 0x14, 0xde, 0x0a, 0x9e, 0xe4, 0xdd, 0x14, 0x91, 0x0b,
  0xf3, 0xfd, 0xf9, 0xd2, 0x3b, 0xc3, 0xde, 0x00, 0x98, 0xe8, 0xa4, 0xd4,
  0xcc, 0xcc, 0xff, 0xff, 0x66, 0xcf, 0xff, 0xff, 0x04, 0x00, 0x00, 0x00,
  0x10, 0x00, 0x00, 0x00, 0xff, 0xff, 0xff, 0xff, 0x31, 0x00, 0x00, 0x00,
  0x28, 0x00, 0x00, 0x00, 0x01, 0x00, 0x00, 0x00, 0xec, 0xcc, 0xff, 0xff,
  0xf0, 0xcc, 0xff, 0xff, 0x8a, 0xcf, 0xff, 0xff, 0x04, 0x00, 0x00, 0x00,
  0x20, 0x00, 0x00, 0x00, 0xdf, 0xff, 0xff, 0xff, 0xa8, 0xff, 0xff, 0xff,
  0xd5, 0xff, 0xff, 0xff, 0xa3, 0x02, 0x00, 0x00, 0x7a, 0xff, 0xff, 0xff,
  0xb6, 0x05, 0x00, 0x00, 0x38, 0x06, 0x00, 0x00, 0x00, 0x00, 0x00, 0x00,
  0xb6, 0xcf, 0xff, 0xff, 0x04, 0x00, 0x00, 0x00, 0xe0, 0x2e, 0x00, 0x00,
  0x17, 0xfb, 0xfc, 0x0b, 0xf4, 0x04, 0x14, 0xf5, 0xfb, 0xfb, 0x08, 0x11,
  0xfc, 0x67, 0xd4, 0x13, 0x0d, 0x02, 0x00, 0x1d, 0x0c, 0x22, 0x0e, 0xfb,
  0x0e, 0xf7, 0x04, 0xfd, 0xf4, 0x08, 0x11, 0xff, 0x08, 0x02, 0x07, 0xeb,
  0x08, 0xf3, 0x18, 0x09, 0x00, 0xfe, 0xf5, 0xfb, 0x09, 0x22, 0x3e, 0x0b,
  0xf2, 0xfb, 0x0b, 0xf6, 0x06, 0x02, 0x0a, 0x03, 0x05, 0x04, 0xf8, 0xdf,
  0xe8, 0x17, 0x13, 0xf6, 0xfb, 0xfb, 0x08, 0x11, 0xf4, 0xf6, 0x0c, 0x15,
  0xf6, 0xf2, 0x00, 0xf9, 0x07, 0xe0, 0xf4, 0x02, 0x05, 0xfc, 0x03, 0x03,
  0x02, 0x02, 0xfc, 0x0b, 0xfa, 0xfe, 0xf7, 0x05, 0xfd, 0xf3, 0xfe, 0xf1,
  0x05, 0x04, 0x10, 0xf0, 0xf8, 0x07, 0x08, 0x09, 0xf3, 0xf4, 0x00, 0x05,
  0x03, 0x03, 0x1c, 0x00, 0x0c, 0xfa, 0xfc, 0xf7, 0xe8, 0xd4, 0x17, 0x03,
  0x0b, 0xf0, 0x09, 0x15, 0xf6, 0x4e, 0x16, 0xf5, 0x07, 0x10, 0x01, 0x08,
  0x02, 0xf2, 0x14, 0xf8, 0x04, 0x00, 0xee, 0x2a, 0xea, 0x47, 0x20, 0x09,
  0xfb, 0xf1, 0x06, 0x29, 0xf4, 0x1a, 0x19, 0x02, 0x01, 0xfb, 0x12, 0xf8,
  0x0d, 0x0f, 0x02, 0xf8, 0xff, 0xfe, 0x09, 0x15, 0xf2, 0xfc, 0x25, 0xff,
  0xff, 0x0a, 0x0e, 0x3b, 0x07, 0x47, 0x04, 0x16, 0xf9, 0x07, 0x08, 0x35,
  0xf3, 0x25, 0x1e, 0x06, 0x08, 0xfc, 0xfc, 0xfd, 0x03, 0xff, 0x28, 0x09,
  0xfa, 0xf8, 0xfc, 0xe0, 0x07, 0xfd, 0x26, 0xf7, 0x01, 0x01, 0x05, 0x31,
  0xf9, 0x18, 0x30, 0xfa, 0xf7, 0xfd, 0x00, 0xec, 0x01, 0x0b, 0x1c, 0x06,
  0xf3, 0xfc, 0x07, 0xfa, 0xfc, 0x10, 0x23, 0x15, 0xf9, 0x01, 0x0d, 0x24,
  0x03, 0xe4, 0x0c, 0xf6, 0xfe, 0x03, 0xff, 0xe1, 0xf2, 0xdb, 0x09, 0x0f,
  0x05, 0x03, 0xfc, 0xfc, 0xf7, 0xf4, 0xf7, 0x00, 0x09, 0x01, 0xf4, 0xfa,
  0xeb, 0x16, 0x00, 0xf9, 0xfe, 0x0b, 0xfc, 0xf9, 0xfc, 0x0a, 0x12, 0x01,
  0xf9, 0x0b, 0x08, 0x17, 0xf3, 0x10, 0x1c, 0x02, 0xff, 0xfb, 0xf2, 0xac,
  0xfd, 0xd7, 0x0a, 0xf3, 0xf9, 0xf3, 0x08, 0x4b, 0xf9, 0x3e, 0x21, 0xf7,
  0x16, 0xfb, 0xed, 0xd4, 0xfe, 0xcd, 0xdb, 0x10, 0x0a, 0xff, 0x05, 0x11,
  0x07, 0x37, 0x13, 0xf2, 0xf6, 0xfe, 0x02, 0x10, 0xfd, 0x0c, 0x10, 0xf9,
  0xfe, 0xf8, 0xfe, 0x05, 0xf8, 0xec, 0xff, 0x08, 0xfc, 0x01, 0xf5, 0x0d,
  0x02, 0xfb, 0x3f, 0x23, 0xf6, 0x05, 0x05, 0x2b, 0xf4, 0x46, 0x06, 0x23,
  0x03, 0xf2, 0xfb, 0x28, 0x08, 0x0b, 0x3f, 0x14, 0xf4, 0xee, 0xf1, 0x0f,
  0xf4, 0xff, 0x13, 0x15, 0x01, 0xf7, 0xf3, 0xf6, 0xe6, 0x14, 0x07, 0x03,
  0x05, 0x0b, 0xf7, 0x0f, 0xfb, 0x18, 0x1f, 0x07, 0xfc, 0xee, 0xed, 0xfc,
  0xf4, 0x10, 0x10, 0x07, 0xfd, 0x02, 0xf5, 0x0e, 0xfe, 0x23, 0xfe, 0x08,
  0xfe, 0xf9, 0xfe, 0x27, 0x08, 0xf9, 0xfe, 0x14, 0x00, 0xfe, 0x00, 0xd0,
  0x05, 0xe9, 0xfd, 0x0d, 0x12, 0xf4, 0xee, 0xe3, 0x0c, 0x0b, 0xef, 0x11,
  0xfb, 0x02, 0xf0, 0xfe, 0x03, 0x0d, 0xed, 0x01, 0xfd, 0xf9, 0xfc, 0x06,
  0xed, 0x1a, 0x19, 0x05, 0x0b, 0xfc, 0xf0, 0x27, 0xec, 0x0f, 0x20, 0x17,
  0xf8, 0x06, 0xf8, 0xe5, 0xfc, 0xf5, 0x0b, 0x1a, 0x00, 0xeb, 0xfb, 0x33,
  0xf4, 0x27, 0x0c, 0x1e, 0xf7, 0xf0, 0xf5, 0xf2, 0xf7, 0xfe, 0xe0, 0x0b,
  0x13, 0xfa, 0xf7, 0x1d, 0xe8, 0x00, 0x12, 0x1a, 0xff, 0xf9, 0xfe, 0x23,
  0xf7, 0xf4, 0x2b, 0x02, 0xee, 0x06, 0x0b, 0xf2, 0xf2, 0xf2, 0x05, 0x0b,
  0x0b, 0xfc, 0x03, 0x11, 0xf0, 0xf8, 0x46, 0x3f, 0xef, 0x00, 0x01, 0x0b,
  0x01, 0x5e, 0x22, 0x1e, 0xfb, 0x04, 0xfd, 0x19, 0x03, 0x06, 0x11, 0x1a,
  0x04, 0xef, 0x05, 0x29, 0x07, 0xfe, 0xf9, 0x0e, 0x12, 0xf3, 0xf0, 0xf6,
  0x07, 0xf7, 0xf2, 0x11, 0x0b, 0xfe, 0xf9, 0xfd, 0xf0, 0x14, 0x09, 0x17,
  0x07, 0xf8, 0xf0, 0xf6, 0x0a, 0xfe, 0x1f, 0x08, 0x0f, 0x03, 0xfe, 0xec,
  0xfb, 0x0d, 0x0d, 0x1e, 0x04, 0xed, 0xfc, 0x12, 0xf8, 0xf6, 0xec, 0x15,
  0x0b, 0xfc, 0xfb, 0xb3, 0xee, 0x01, 0xf7, 0x1b, 0x04, 0xf8, 0xfb, 0xda,
  0xed, 0xed, 0xfd, 0x10, 0x07, 0xf8, 0xf4, 0xf9, 0x07, 0x11, 0xf6, 0x03,
  0x09, 0xfc, 0x01, 0x05, 0x01, 0xf2, 0x20, 0x0b, 0xf0, 0xf2, 0xfb, 0x32,
  0xf9, 0xf7, 0x0c, 0x19, 0x0e, 0xfb, 0xeb, 0xd8, 0x04, 0xe1, 0xf8, 0x17,
  0xfb, 0x0b, 0xef, 0x3c, 0xec, 0x01, 0x13, 0x0c, 0x04, 0x01, 0xf6, 0x09,
  0x0a, 0xe2, 0xe0, 0x11, 0x0c, 0xf0, 0xf5, 0x21, 0xec, 0xfe, 0x01, 0x01,
  0xf6, 0x00, 0xff, 0x33, 0x00, 0xe1, 0x0f, 0x16, 0xf3, 0xfc, 0x0a, 0x0a,
  0x05, 0xe5, 0xef, 0x04, 0x0b, 0xf4, 0xff, 0xf8, 0xfa, 0xfd, 0x33, 0x45,
  0x05, 0x07, 0xf3, 0xef, 0xf9, 0x03, 0x0b, 0x15, 0xfa, 0xf0, 0xf5, 0xef,
  0xef, 0x28, 0x1a, 0x15, 0xfb, 0xf8, 0xf7, 0x1d, 0xf6, 0xf9, 0xf2, 0x0f,
  0xf4, 0xf2, 0xe6, 0xf8, 0xf4, 0x02, 0xe9, 0x0f, 0xfe, 0xfa, 0xf4, 0xf2,
  0xf3, 0x0f, 0x11, 0x05, 0x0e, 0xfd, 0x03, 0xf8, 0xf6, 0x07, 0x23, 0x0c,
  0x05, 0xf7, 0xf3, 0xea, 0xf6, 0x02, 0xfb, 0x16, 0xfd, 0x00, 0xe7, 0xe1,
  0xe7, 0x01, 0x06, 0xf5, 0xf8, 0xf7, 0xf8, 0xb2, 0x0a, 0x07, 0xeb, 0x00,
  0xf3, 0x04, 0xfc, 0xf3, 0x06, 0xff, 0xeb, 0x10, 0xfa, 0x00, 0xf6, 0xf5,
  0xf4, 0x09, 0x0a, 0xfa, 0x11, 0xf7, 0xfa, 0x04, 0xf8, 0xf1, 0x28, 0x10,
  0xf4, 0xf5, 0xf5, 0x45, 0xf9, 0xf7, 0xff, 0x02, 0xf3, 0xfc, 0xfe, 0x06,
  0xf5, 0xdd, 0x0d, 0x1d, 0x09, 0xff, 0xf1, 0x17, 0xf3, 0xde, 0x29, 0x00,
  0xfd, 0xf5, 0xec, 0x00, 0xf9, 0xcc, 0xfb, 0x0c, 0x0d, 0xfd, 0xf8, 0x36,
  0xea, 0xd8, 0xc5, 0x23, 0x01, 0x06, 0x01, 0x34, 0x01, 0xb9, 0x08, 0xfa,
  0xfc, 0xf3, 0xf9, 0x07, 0xfd, 0xfe, 0xf6, 0xfe, 0x12, 0x07, 0x00, 0xed,
  0xf3, 0xfd, 0x34, 0x30, 0xff, 0x0b, 0x04, 0xc9, 0xf0, 0xff, 0x15, 0x06,
  0x06, 0xfb, 0x01, 0xdb, 0x00, 0x1b, 0x36, 0x06, 0x04, 0xfc, 0xe9, 0x21,
  0x07, 0xd3, 0xf6, 0x1b, 0x10, 0xf7, 0xf5, 0xe7, 0x0a, 0xf8, 0xf5, 0x08,
  0x09, 0xf0, 0xfc, 0xea, 0x03, 0xfd, 0x0b, 0x20, 0xf3, 0x00, 0xf2, 0xf3,
  0xee, 0x00, 0x14, 0xfb, 0x06, 0xf8, 0xe6, 0x00, 0xff, 0xf3, 0x04, 0x17,
  0x07, 0xfb, 0xfd, 0xeb, 0xfa, 0xfc, 0xeb, 0xfc, 0x02, 0x07, 0x01, 0xcd,
  0xfe, 0xf3, 0x03, 0x14, 0x04, 0x03, 0xf1, 0xe5, 0x03, 0x08, 0xec, 0x06,
  0xfe, 0xed, 0xff, 0xde, 0xed, 0x1f, 0xf8, 0x09, 0xff, 0xf7, 0xf1, 0xfa,
  0xf5, 0xed, 0x21, 0x05, 0x0c, 0xf8, 0xe6, 0x38, 0xfe, 0xef, 0x0e, 0xef,
  0x0f, 0xea, 0xff, 0x34, 0x05, 0xd3, 0x1c, 0x0b, 0x0b, 0x0a, 0xea, 0x16,
  0xf4, 0xeb, 0x19, 0x07, 0x11, 0xf3, 0xff, 0x08, 0x09, 0xe2, 0xec, 0x07,
  0xef, 0xee, 0xfa, 0x30, 0xfb, 0xe2, 0xe1, 0x15, 0x02, 0x0a, 0xfe, 0x41,
  0x09, 0xf1, 0x16, 0x01, 0xfe, 0xf4, 0xfe, 0x0f, 0x01, 0x0f, 0xea, 0x01,
  0x01, 0x00, 0x04, 0x0e, 0xef, 0xeb, 0x29, 0x1f, 0x0d, 0xff, 0xf4, 0xe0,
  0xf1, 0x01, 0xf4, 0x1b, 0x0d, 0xfd, 0xf3, 0xdd, 0xfe, 0x0a, 0x39, 0x06,
  0x07, 0xfe, 0xf7, 0x0e, 0xfd, 0xe1, 0xf1, 0xff, 0x0b, 0xfb, 0xe9, 0xe4,
  0xf9, 0x15, 0xef, 0x17, 0x17, 0x06, 0xf0, 0xf2, 0xf9, 0x11, 0x01, 0x1f,
  0x0c, 0xfd, 0x01, 0xe6, 0xf1, 0xf4, 0x12, 0x13, 0x03, 0xf9, 0x03, 0x04,
  0xf3, 0xee, 0xf8, 0xfd, 0x04, 0xff, 0xf8, 0xe4, 0x00, 0xda, 0x00, 0x01,
  0x03, 0xfe, 0xf7, 0xe4, 0xf3, 0xfa, 0x0e, 0x18, 0xf8, 0xfc, 0xf5, 0xe4,
  0x09, 0x1c, 0x0a, 0x0b, 0x03, 0xff, 0xf1, 0xd9, 0xfe, 0x24, 0xf8, 0xf8,
  0xfd, 0x05, 0xff, 0xf8, 0xf7, 0xe6, 0x10, 0x17, 0x06, 0x08, 0x05, 0x43,
  0x00, 0xd3, 0x08, 0xfc, 0x05, 0xfb, 0xfd, 0x2d, 0x01, 0xdc, 0x19, 0xfc,
  0xf4, 0xf6, 0xe5, 0x1c, 0xfc, 0xe4, 0xf8, 0x17, 0xf7, 0x03, 0xfc, 0x0e,
  0xeb, 0xeb, 0xf0, 0x09, 0x09, 0xf2, 0x02, 0x1b, 0xf9, 0xe2, 0x00, 0x14,
  0xff, 0xf0, 0xff, 0x36, 0x03, 0x19, 0x18, 0xfb, 0x0e, 0xfc, 0xf9, 0x1f,
  0x0a, 0x17, 0xec, 0xf4, 0x07, 0x0a, 0x14, 0x04, 0xf7, 0xfc, 0x2b, 0x30,
  0x0f, 0x07, 0xfd, 0xee, 0x05, 0xf8, 0xe4, 0x13, 0x00, 0xf4, 0xed, 0xde,
  0xe6, 0xf0, 0x49, 0x0d, 0x0a, 0x01, 0xf6, 0xff, 0xfe, 0xec, 0x0e, 0xfb,
  0x18, 0x01, 0xea, 0xeb, 0x01, 0x0e, 0xed, 0x16, 0x04, 0xf9, 0xfa, 0xdf,
  0xf5, 0x1e, 0x03, 0x16, 0xf9, 0xff, 0xfd, 0xea, 0xee, 0xe5, 0x17, 0x11,
  0x0e, 0x00, 0xfc, 0x06, 0x0c, 0xfc, 0xf6, 0x13, 0x01, 0xed, 0xf1, 0xe3,
  0xf7, 0xf1, 0xe4, 0x0e, 0x07, 0x03, 0x08, 0xe6, 0x01, 0xed, 0x12, 0xfb,
  0x05, 0x02, 0xdd, 0xf7, 0x02, 0x13, 0xfa, 0xfb, 0xf5, 0xf5, 0xf1, 0xe2,
  0xf5, 0x25, 0x00, 0x03, 0xf3, 0xf0, 0xf4, 0xfb, 0xf5, 0xdb, 0x0c, 0x13,
  0x04, 0xff, 0xe9, 0x45, 0xf4, 0xf2, 0xf8, 0x0b, 0x11, 0xf9, 0xfa, 0x2f,
  0xf8, 0x03, 0xed, 0x08, 0x02, 0x02, 0xf8, 0x12, 0xfa, 0xe4, 0xf3, 0x1d,
  0x01, 0xed, 0xfd, 0x18, 0x05, 0xf6, 0x07, 0x08, 0x16, 0xfe, 0xfd, 0x41,
  0x08, 0x04, 0xfa, 0x0d, 0xff, 0xef, 0x00, 0x37, 0xf5, 0xd9, 0xf9, 0x06,
  0x04, 0xed, 0xfc, 0x01, 0xfd, 0x25, 0xda, 0x11, 0x14, 0x0d, 0x0c, 0x0a,
  0x06, 0xfc, 0x27, 0x02, 0xfb, 0xfa, 0xff, 0xf5, 0xfd, 0x07, 0xd3, 0x0b,
  0x0b, 0x0d, 0xf8, 0xf0, 0xf7, 0xe7, 0x31, 0x04, 0x04, 0xf3, 0x0a, 0x02,
  0xef, 0xf4, 0x16, 0xf7, 0xfc, 0x04, 0xff, 0xe4, 0x06, 0xee, 0xee, 0x0e,
  0x01, 0xfe, 0xe7, 0xc7, 0xe3, 0x38, 0xf4, 0x0a, 0x01, 0xf5, 0x09, 0xe2,
  0xf7, 0xf0, 0x09, 0x1a, 0xf7, 0xff, 0xf8, 0x03, 0xed, 0xf5, 0x16, 0x0f,
  0xf7, 0x05, 0x07, 0xec, 0xed, 0xf1, 0xf3, 0x1b, 0xfb, 0xef, 0xf4, 0xff,
  0xfb, 0xe6, 0xfc, 0x09, 0xff, 0xf0, 0xfc, 0x0a, 0xf6, 0x14, 0x0b, 0x13,
  0x13, 0x04, 0xfe, 0xe4, 0xf0, 0x1b, 0xf1, 0xfb, 0xf6, 0xfc, 0xf5, 0x03,
  0xf5, 0xf7, 0xf5, 0x03, 0x01, 0xfb, 0xfa, 0x3a, 0xfe, 0x07, 0xe4, 0x14,
  0xfe, 0xf2, 0x03, 0x22, 0xf8, 0x19, 0xd8, 0x0b, 0xf7, 0x05, 0xed, 0xef,
  0x0a, 0xf6, 0xd3, 0x16, 0x0c, 0xec, 0xff, 0x01, 0xee, 0x07, 0x06, 0x17,
  0xf8, 0x00, 0xf0, 0x36, 0xf8, 0x16, 0xf3, 0x24, 0xf8, 0xf8, 0xf6, 0x30,
  0xfd, 0xe8, 0xe9, 0xfe, 0x14, 0xf2, 0x09, 0xf5, 0xfe, 0x3b, 0xe3, 0x16,
  0x15, 0xfa, 0x00, 0x25, 0xfa, 0xf5, 0x26, 0x0a, 0xf7, 0x0b, 0x05, 0xfc,
  0xf7, 0xfa, 0xb4, 0x10, 0x04, 0x00, 0xf9, 0xf6, 0xea, 0x0f, 0x18, 0x01,
  0x06, 0xfd, 0xf9, 0xee, 0xf0, 0x17, 0x26, 0x0c, 0x0d, 0xf5, 0xe6, 0xe9,
  0x00, 0xef, 0xcb, 0x12, 0x05, 0xf4, 0xed, 0xc9, 0xf4, 0x18, 0xe8, 0x23,
  0xfd, 0x00, 0x05, 0xf3, 0xf6, 0xea, 0x04, 0x13, 0x0b, 0x10, 0x09, 0x0e,
  0x06, 0xd7, 0x15, 0x17, 0x01, 0xfd, 0xed, 0xe5, 0xf9, 0xfd, 0x13, 0x17,
  0x01, 0xf9, 0xef, 0x01, 0x09, 0x1a, 0xf7, 0x15, 0xfc, 0x04, 0xed, 0xef,
  0x06, 0xfd, 0x0c, 0x07, 0x10, 0x02, 0x07, 0xd9, 0xff, 0x18, 0x03, 0x14,
  0xf8, 0xfc, 0xf4, 0x0a, 0xf5, 0xf4, 0x20, 0x12, 0x06, 0xf5, 0xf1, 0x26,
  0xf6, 0xf9, 0xf8, 0x0d, 0x07, 0xfa, 0x09, 0x2b, 0xef, 0x02, 0xc2, 0xf4,
  0x06, 0xfa, 0xe7, 0xf8, 0x0d, 0xf6, 0xe0, 0x1b, 0x00, 0xf9, 0xfb, 0x17,
  0xfe, 0x05, 0x08, 0x2c, 0x00, 0xfe, 0x07, 0x38, 0x04, 0xff, 0xe4, 0x1d,
  0x05, 0xf3, 0xfc, 0x1d, 0xff, 0xef, 0xee, 0xfb, 0x08, 0xf6, 0xf5, 0xf4,
  0xff, 0x2d, 0xec, 0xf0, 0xf8, 0xf0, 0xfe, 0x06, 0x02, 0x1d, 0x30, 0x23,
  0x03, 0x02, 0xec, 0x07, 0x01, 0x0c, 0xbd, 0x1e, 0xf8, 0x08, 0x12, 0xeb,
  0xe5, 0x11, 0xfd, 0x26, 0x0a, 0xfd, 0x0b, 0xdf, 0xff, 0x0c, 0x42, 0xfd,
  0x10, 0x07, 0xff, 0xde, 0xf6, 0xf2, 0xb8, 0xfb, 0xf4, 0x06, 0xf1, 0xcf,
  0xef, 0x10, 0xf1, 0xff, 0x12, 0x04, 0xfe, 0xf6, 0xee, 0x08, 0x10, 0x01,
  0xf5, 0x0c, 0x06, 0x12, 0xf3, 0xbd, 0x0e, 0x1e, 0x0f, 0x02, 0xe5, 0xe2,
  0xf7, 0x11, 0x12, 0x1b, 0xfe, 0xf5, 0x0f, 0xf6, 0xfd, 0x13, 0x07, 0x1a,
  0xf7, 0x0d, 0xf8, 0xf7, 0xf0, 0x11, 0xfe, 0xfd, 0x02, 0xf9, 0x01, 0xf7,
  0xfc, 0xf8, 0x00, 0xf4, 0xfb, 0x05, 0xf7, 0xf9, 0xfa, 0xfa, 0x12, 0x03,
  0xfe, 0xf8, 0xfd, 0x20, 0x08, 0x05, 0xeb, 0xfa, 0xfb, 0xf7, 0xf1, 0x11,
  0xe9, 0x1e, 0xce, 0xed, 0x10, 0xf3, 0xf7, 0x01, 0x01, 0xf2, 0xd3, 0x19,
  0x09, 0xf5, 0xfe, 0x05, 0xf6, 0x22, 0x12, 0x03, 0x0d, 0x0a, 0xf9, 0x2b,
  0xfa, 0xee, 0xf8, 0x25, 0xff, 0xfe, 0xee, 0x06, 0x00, 0xf4, 0xe5, 0x13,
  0x07, 0xfa, 0xf7, 0xd2, 0x06, 0x3c, 0xdf, 0x09, 0x08, 0x05, 0x12, 0x05,
  0x10, 0x1f, 0x25, 0x34, 0x10, 0xf0, 0xfe, 0x0f, 0x04, 0x25, 0xce, 0x10,
  0x09, 0x09, 0xfe, 0xf9, 0xe5, 0x0e, 0xe3, 0x0b, 0xfb, 0xef, 0x10, 0xde,
  0x05, 0x06, 0x2b, 0x07, 0x01, 0xff, 0xed, 0xc6, 0xf0, 0xf0, 0xd7, 0xee,
  0x0d, 0x04, 0xe5, 0xd0, 0xe1, 0x03, 0xdc, 0x15, 0x12, 0xfe, 0xfa, 0xea,
  0xef, 0xf0, 0x2e, 0xf3, 0xff, 0x06, 0x0e, 0x12, 0xef, 0x00, 0x03, 0xfc,
  0xf7, 0x11, 0x06, 0xe0, 0x09, 0xfc, 0x22, 0x17, 0x03, 0xfc, 0xf0, 0x0e,
  0xf6, 0x19, 0x09, 0x15, 0xf7, 0xfa, 0xe4, 0xdf, 0xf4, 0x04, 0x01, 0xfc,
  0x09, 0xf9, 0x08, 0xfc, 0xe7, 0xf2, 0x0f, 0xff, 0xf5, 0x12, 0xf4, 0x0f,
  0xf2, 0x13, 0xf3, 0x1d, 0x13, 0x03, 0xf3, 0x16, 0xff, 0xfa, 0xf3, 0x04,
  0x0e, 0x01, 0xfb, 0x25, 0xfc, 0x24, 0xb9, 0xef, 0xfe, 0x0f, 0x05, 0xef,
  0x08, 0xf8, 0xf0, 0xfb, 0x0a, 0xea, 0xfb, 0xfb, 0xf6, 0x0e, 0x01, 0x0e,
  0xf5, 0xf6, 0xfb, 0x2c, 0xe4, 0xfc, 0xe8, 0x25, 0x03, 0xf7, 0x01, 0xfc,
  0x04, 0xf9, 0xef, 0x08, 0x0c, 0xf6, 0x06, 0xff, 0xfe, 0x48, 0xf2, 0x08,
  0x0a, 0x03, 0x08, 0x06, 0x00, 0x32, 0x2d, 0x35, 0xfe, 0x05, 0x04, 0x06,
  0xf8, 0x01, 0xde, 0x21, 0xfc, 0xf2, 0xfa, 0xfa, 0xf4, 0xf3, 0xcf, 0x13,
  0x0a, 0x04, 0xf4, 0xdf, 0xfc, 0xfd, 0x0f, 0x03, 0x0a, 0xff, 0xf5, 0xd6,
  0xff, 0xe5, 0xd2, 0x0c, 0xf5, 0x09, 0xf6, 0xe8, 0xe1, 0xe0, 0xd6, 0x02,
  0xf5, 0xf7, 0xf5, 0xf6, 0xf6, 0xef, 0x22, 0xfa, 0x0d, 0xf4, 0x09, 0x0e,
  0xfc, 0xf4, 0x24, 0x07, 0x07, 0x05, 0xf7, 0xde, 0x0c, 0x0e, 0xfb, 0xfd,
  0xf9, 0x03, 0x03, 0xfe, 0xfa, 0x10, 0x0a, 0xf5, 0xff, 0x06, 0xf0, 0xe1,
  0x05, 0xee, 0xf4, 0x02, 0x06, 0x02, 0xf4, 0x10, 0xf0, 0xfe, 0x15, 0xfd,
  0x09, 0x04, 0x01, 0xfe, 0xf1, 0x01, 0xfe, 0x05, 0x06, 0x05, 0x06, 0x0a,
  0xec, 0x06, 0xf5, 0x05, 0xf1, 0xf6, 0xfc, 0x16, 0x09, 0x12, 0xdf, 0xef,
  0x05, 0xfa, 0xf9, 0xe4, 0x12, 0xfe, 0x00, 0x07, 0x09, 0x00, 0xee, 0x17,
  0xee, 0x0d, 0xf2, 0x0b, 0xf9, 0x02, 0xf5, 0xfc, 0xe7, 0xf3, 0xdc, 0x24,
  0x00, 0xfa, 0xf4, 0xf8, 0x06, 0xf8, 0xe3, 0x1f, 0xff, 0xf2, 0xf7, 0x0a,
  0xff, 0x55, 0x02, 0xf3, 0x05, 0x06, 0xee, 0xfa, 0x03, 0x39, 0x4f, 0x2a,
  0x03, 0xf7, 0xfc, 0x00, 0xfe, 0x06, 0xfa, 0x03, 0xff, 0x0b, 0xfe, 0xf1,
  0xf7, 0xfd, 0xdd, 0x22, 0x09, 0xed, 0xf5, 0xc2, 0x06, 0x03, 0x09, 0x07,
  0x05, 0xee, 0xfb, 0xc6, 0x03, 0xe1, 0xc6, 0xf2, 0x05, 0x07, 0xf9, 0xf9,
  0xea, 0xda, 0xd4, 0xf2, 0xfe, 0x10, 0x08, 0x02, 0xf5, 0x0e, 0x18, 0x0f,
  0x0a, 0x04, 0x09, 0xf8, 0x04, 0xee, 0x20, 0x05, 0xf5, 0x08, 0xfd, 0xf1,
  0xf3, 0x17, 0xf4, 0xfc, 0xf2, 0xee, 0xfa, 0xf5, 0xfe, 0x05, 0xf8, 0xfa,
  0x0c, 0x0c, 0x06, 0xe8, 0xf8, 0xee, 0xdc, 0x03, 0xfe, 0x01, 0xf9, 0xf3,
  0xf9, 0xe7, 0xfb, 0x15, 0x02, 0x0e, 0x04, 0x05, 0xfa, 0x05, 0xf6, 0x19,
  0x08, 0x00, 0xfc, 0x14, 0xfd, 0x08, 0xf5, 0xea, 0xfe, 0xfc, 0xf3, 0x0b,
  0xfd, 0x05, 0xe8, 0xf9, 0x0e, 0x00, 0xef, 0xec, 0x0c, 0x19, 0x0e, 0x06,
  0xf9, 0x0c, 0x09, 0x0b, 0xf8, 0x04, 0xdd, 0x0c, 0x0d, 0x02, 0x02, 0x02,
  0xfc, 0xd8, 0xf4, 0x1d, 0xf7, 0xfc, 0xf1, 0xe7, 0x0d, 0x18, 0xdb, 0x10,
  0x08, 0x05, 0x02, 0x06, 0x0e, 0x44, 0xfe, 0x0b, 0x0c, 0x02, 0x06, 0xfe,
  0x01, 0x31, 0x45, 0x25, 0xfc, 0x0a, 0x11, 0xf4, 0xfd, 0x18, 0x03, 0x14,
  0xf9, 0xfa, 0xfc, 0xf1, 0xeb, 0xe7, 0xe5, 0x12, 0xf7, 0xfb, 0x0c, 0xd2,
  0xf3, 0xf4, 0xf8, 0x03, 0x05, 0x05, 0xf8, 0xc9, 0xfe, 0xef, 0xc5, 0x09,
  0x0a, 0x08, 0xf3, 0xf7, 0xf0, 0xe6, 0xea, 0xfa, 0x0c, 0xfe, 0xfa, 0xf6,
  0xf7, 0x10, 0x1b, 0x07, 0xfa, 0xfe, 0xf7, 0xf3, 0xf4, 0xf1, 0x14, 0xf2,
  0x01, 0x02, 0xfd, 0xeb, 0x07, 0x00, 0xf2, 0x01, 0x06, 0xf0, 0xf6, 0xd4,
  0xfa, 0x07, 0xf7, 0x03, 0xfb, 0x04, 0x03, 0xed, 0x05, 0x00, 0xe1, 0x09,
  0x0d, 0xfb, 0xef, 0xf6, 0xfc, 0xea, 0xdd, 0xff, 0x04, 0xf8, 0xf3, 0x06,
  0x04, 0x0e, 0xe5, 0x15, 0x12, 0xf2, 0x04, 0x06, 0xf4, 0x11, 0xdd, 0xfd,
  0xfd, 0xf8, 0xef, 0x17, 0xfd, 0xe7, 0xef, 0xeb, 0x03, 0xec, 0x03, 0xeb,
  0x0a, 0x04, 0x14, 0xf5, 0x12, 0x04, 0xf8, 0xf4, 0xfb, 0x1e, 0xdb, 0x26,
  0xfe, 0x02, 0xff, 0x19, 0x00, 0xce, 0x0e, 0x26, 0x02, 0xee, 0x02, 0xf1,
  0x01, 0xf1, 0xdd, 0x10, 0xf5, 0x01, 0xf8, 0xfe, 0xf2, 0x28, 0xfb, 0xf0,
  0x0a, 0xf9, 0xf6, 0x04, 0xfb, 0x27, 0x48, 0x21, 0x00, 0xfd, 0xf9, 0xe5,
  0xf1, 0x1a, 0xf4, 0x06, 0xf6, 0xfb, 0x06, 0xdb, 0xe6, 0x03, 0xd8, 0x08,
  0x07, 0xfd, 0xfc, 0xe4, 0xef, 0x09, 0x13, 0x02, 0x0b, 0x02, 0x00, 0xc1,
  0xfa, 0xef, 0xea, 0xf6, 0x08, 0xf8, 0xef, 0x0e, 0xec, 0xe8, 0xf4, 0xec,
  0xf8, 0x02, 0x00, 0xfb, 0x04, 0xf9, 0x23, 0x13, 0x07, 0x12, 0x00, 0xf6,
  0xf3, 0x0b, 0x28, 0x03, 0x01, 0xf5, 0xf2, 0xf1, 0xfd, 0x0a, 0x13, 0x04,
  0x02, 0xfd, 0x00, 0xc6, 0xf6, 0x0a, 0xf3, 0xf6, 0xff, 0x0a, 0x01, 0xfe,
  0xfa, 0xdb, 0xd8, 0x06, 0xf1, 0x0a, 0xf7, 0x06, 0xeb, 0xfb, 0xdb, 0x05,
  0x0b, 0x11, 0xf4, 0x10, 0x03, 0x0c, 0xd8, 0x1e, 0x07, 0xf9, 0x01, 0x00,
  0x07, 0x0f, 0xf3, 0x0d, 0xf5, 0x06, 0xf8, 0x0e, 0xef, 0xf6, 0xe8, 0xfd,
  0x02, 0x03, 0xf1, 0xf6, 0x0a, 0x1b, 0xf2, 0x0f, 0xfe, 0x03, 0x01, 0xfb,
  0xfb, 0x10, 0xaf, 0x10, 0x10, 0x09, 0xf8, 0x24, 0xf2, 0xf7, 0xd6, 0x10,
  0x04, 0x0d, 0x05, 0xf9, 0xf2, 0x01, 0xd1, 0xff, 0xff, 0xfc, 0x00, 0xf8,
  0x03, 0x09, 0x02, 0xfc, 0x07, 0xf5, 0x06, 0x15, 0x04, 0x1d, 0x4c, 0x14,
  0xfd, 0xf2, 0x00, 0xec, 0xf7, 0x0c, 0xca, 0x23, 0xf8, 0x12, 0xfc, 0xe8,
  0xf8, 0x1b, 0xdf, 0x0a, 0x0a, 0x04, 0x03, 0xec, 0x11, 0x0e, 0x1b, 0x0a,
  0xfc, 0xff, 0x03, 0xc4, 0xff, 0x04, 0xf4, 0x14, 0x02, 0x07, 0xf5, 0x13,
  0x0a, 0xc4, 0xf4, 0xfd, 0x10, 0xf7, 0xfb, 0xf8, 0xfd, 0x11, 0x3d, 0x13,
  0x11, 0xef, 0xfc, 0xed, 0x0d, 0x09, 0x36, 0x0c, 0x04, 0x07, 0x06, 0xe9,
  0x0a, 0x18, 0x02, 0x12, 0x07, 0xf5, 0xfc, 0xd6, 0xf6, 0xfc, 0xf4, 0xfa,
  0xfb, 0x08, 0xf6, 0x0e, 0x00, 0xe6, 0xb5, 0x15, 0x05, 0x05, 0xf8, 0x00,
  0xf5, 0xe8, 0xce, 0xfe, 0x0a, 0x07, 0xf6, 0x1a, 0xf6, 0x0d, 0xd9, 0x11,
  0x0a, 0x05, 0x11, 0x0c, 0xfe, 0x04, 0x07, 0x0e, 0xff, 0xf6, 0xfd, 0xf5,
  0x06, 0xf2, 0xfd, 0x12, 0xfa, 0xfd, 0x09, 0xf9, 0xfa, 0x09, 0xeb, 0x08,
  0xf2, 0x01, 0xf0, 0x09, 0xff, 0xed, 0xb0, 0x19, 0x00, 0xf8, 0xed, 0x3f,
  0x0a, 0xf2, 0xc6, 0x12, 0xf7, 0x05, 0xee, 0x08, 0x05, 0xf4, 0xc5, 0x1a,
  0xf8, 0x08, 0x09, 0x0d, 0x04, 0x09, 0x0f, 0x12, 0xff, 0x08, 0x01, 0x04,
  0xf5, 0x0d, 0x37, 0x05, 0x00, 0x0c, 0x0a, 0xca, 0x08, 0x0b, 0xd3, 0x18,
  0xfc, 0xf6, 0x08, 0xcc, 0xf0, 0x06, 0xcb, 0x1b, 0x0e, 0xf2, 0x03, 0xfd,
  0x0d, 0x25, 0x2b, 0x00, 0x07, 0xfb, 0xef, 0xce, 0xff, 0xf8, 0x0e, 0x03,
  0x00, 0x04, 0xff, 0x23, 0xf6, 0xd5, 0x11, 0xff, 0xfd, 0xfd, 0x02, 0xf5,
  0xff, 0x13, 0x25, 0x08, 0x08, 0xee, 0xf5, 0xeb, 0x02, 0x07, 0x30, 0xf4,
  0x0f, 0x04, 0x07, 0xf3, 0xf4, 0xf8, 0xfa, 0x0a, 0x00, 0x0e, 0xef, 0xca,
  0x05, 0xeb, 0x02, 0x05, 0xf7, 0x07, 0x04, 0x18, 0xf8, 0xf4, 0xa1, 0xff,
  0xf8, 0xf6, 0xff, 0x1a, 0xf9, 0x05, 0xcc, 0xec, 0xf5, 0xfb, 0x07, 0x03,
  0x04, 0x11, 0xc7, 0xfc, 0x08, 0xfb, 0xf6, 0x03, 0xf3, 0x00, 0xfd, 0x1d,
  0xf1, 0xfa, 0xf7, 0xe8, 0xfa, 0xf6, 0x07, 0x08, 0x01, 0xf2, 0xef, 0x07,
  0xed, 0x16, 0xf9, 0x18, 0x02, 0xf4, 0x07, 0x18, 0xf7, 0x04, 0x94, 0x0f,
  0xf6, 0x10, 0xfd, 0x44, 0xfe, 0xeb, 0xca, 0x0a, 0x04, 0xfc, 0x00, 0x0d,
  0xfc, 0xec, 0xbb, 0x20, 0x04, 0x0b, 0xf5, 0xf4, 0x07, 0xf6, 0xfc, 0x02,
  0x06, 0x03, 0xeb, 0xf4, 0xf0, 0x15, 0x33, 0x0c, 0xf7, 0x06, 0x09, 0xb1,
  0xfa, 0x1e, 0xd6, 0x17, 0x05, 0x01, 0x06, 0xda, 0x01, 0x05, 0xc1, 0x28,
  0x08, 0xff, 0xf1, 0xfc, 0xfb, 0x1e, 0x27, 0x0f, 0xf8, 0x06, 0xf3, 0xbf,
  0x04, 0xfc, 0x18, 0x01, 0x06, 0xf9, 0xfe, 0x02, 0xf3, 0xd7, 0x23, 0x04,
  0x04, 0x03, 0x11, 0xf0, 0x02, 0xfe, 0x07, 0x18, 0x05, 0x0f, 0xf0, 0xda,
  0x0f, 0xf9, 0x19, 0xe3, 0x0c, 0x03, 0xfd, 0xf8, 0x03, 0x17, 0xf5, 0xf3,
  0xfc, 0x0a, 0xe6, 0xc2, 0xe4, 0xff, 0x15, 0x01, 0xf4, 0xfd, 0x07, 0x0a,
  0x02, 0xf4, 0x95, 0x0b, 0xf9, 0xfa, 0xfb, 0x05, 0xf7, 0x13, 0xdc, 0x11,
  0x00, 0xf7, 0xf2, 0x00, 0x0a, 0xfc, 0xbf, 0x07, 0x0b, 0x08, 0xf2, 0xf4,
  0xfb, 0xe4, 0xf7, 0x1c, 0xfe, 0x07, 0x03, 0x06, 0xf6, 0xf9, 0xf5, 0x0e,
  0x08, 0xfd, 0xf3, 0x13, 0xf4, 0xf3, 0xf5, 0x0f, 0xf9, 0x04, 0xf4, 0x05,
  0xf8, 0xf0, 0xab, 0x05, 0xfe, 0xf4, 0x0e, 0x52, 0xf7, 0xe8, 0xcc, 0x05,
  0xed, 0x00, 0x02, 0x10, 0xfb, 0xfd, 0xc1, 0x0f, 0x0e, 0x0b, 0xfe, 0x18,
  0x02, 0xfe, 0x17, 0x01, 0xed, 0xfd, 0xfd, 0xf8, 0xfb, 0x0f, 0x33, 0x25,
  0xf6, 0x0e, 0x01, 0xb0, 0xe9, 0x1c, 0xdb, 0x07, 0x03, 0x06, 0x0e, 0xc1,
  0x07, 0x08, 0xcd, 0x14, 0x01, 0x02, 0xfd, 0xdb, 0x0a, 0x2a, 0x05, 0x0c,
  0xfe, 0xec, 0x0b, 0xc2, 0xef, 0x05, 0x19, 0x12, 0xfc, 0xf8, 0x02, 0xfa,
  0x09, 0xbd, 0x38, 0xfc, 0xf1, 0xfc, 0xfb, 0x0f, 0xf3, 0x0b, 0xfe, 0x0c,
  0xed, 0xf4, 0xf1, 0xfe, 0xf4, 0x10, 0x23, 0xd7, 0xe9, 0x10, 0x01, 0xdd,
  0x0c, 0xf8, 0xea, 0xe8, 0xfd, 0xf9, 0xeb, 0xcd, 0xfd, 0xf6, 0xf9, 0xf5,
  0xf0, 0xf2, 0xfc, 0x0d, 0x03, 0xe0, 0x9d, 0x05, 0x00, 0xfb, 0xfa, 0x0f,
  0xf6, 0x06, 0xf3, 0xfa, 0xfe, 0x07, 0xf7, 0x12, 0xfb, 0xd4, 0xc3, 0x0b,
  0xf6, 0xf9, 0xf6, 0x2a, 0xe9, 0xea, 0xef, 0x0e, 0x05, 0x12, 0xf7, 0x01,
  0xf8, 0x07, 0xfe, 0x17, 0xfd, 0x08, 0xfe, 0x2b, 0xf2, 0x06, 0xe2, 0x13,
  0x09, 0x14, 0xf8, 0x10, 0xf3, 0xd1, 0x9c, 0xf6, 0x05, 0x07, 0x01, 0x6c,
  0xf8, 0xf8, 0xda, 0x09, 0x02, 0x09, 0xfc, 0x37, 0x04, 0xec, 0xcd, 0x13,
  0x0d, 0x07, 0x02, 0x08, 0x03, 0x02, 0xfb, 0x02, 0xed, 0xf0, 0x03, 0xf6,
  0xf6, 0x11, 0x11, 0x1b, 0xf4, 0xfe, 0x07, 0xbc, 0xfb, 0xf1, 0xcc, 0x05,
  0xf6, 0x0b, 0x0c, 0xce, 0xfc, 0x13, 0xff, 0x05, 0xf8, 0x08, 0xf4, 0xc1,
  0xfb, 0x07, 0xf8, 0x00, 0xef, 0x08, 0xfe, 0xc3, 0x05, 0xf9, 0x2b, 0x0f,
  0x06, 0x0b, 0x07, 0xf6, 0xf1, 0xd0, 0x3a, 0x07, 0xfb, 0xef, 0xf5, 0x01,
  0xf0, 0xf3, 0xe3, 0x02, 0x05, 0xfd, 0xf1, 0xff, 0xf9, 0xe7, 0x2b, 0xf4,
  0xec, 0xf6, 0xf5, 0xe7, 0xfb, 0xf5, 0xe4, 0xe9, 0xfc, 0x08, 0xf3, 0xc1,
  0xfa, 0xfb, 0xf0, 0x01, 0xf1, 0xf1, 0x03, 0x09, 0xff, 0x0a, 0xa7, 0xfb,
  0xf9, 0x09, 0xec, 0x09, 0xf8, 0x0c, 0xf3, 0xfa, 0xf4, 0x0e, 0x08, 0x00,
  0xfa, 0xc3, 0xbc, 0x07, 0x00, 0x02, 0xf7, 0x17, 0xf7, 0xec, 0xf9, 0x15,
  0xf9, 0x0c, 0xe7, 0x09, 0x08, 0x30, 0x04, 0x18, 0xfa, 0x03, 0xf2, 0x2d,
  0xf6, 0xf2, 0xe7, 0x11, 0x01, 0x08, 0xf8, 0x1e, 0xfb, 0xe1, 0xa5, 0xfe,
  0x0a, 0xfa, 0x0c, 0x7c, 0xf5, 0xfc, 0xd2, 0x05, 0xfe, 0xfd, 0xfc, 0x5f,
  0xf9, 0xe2, 0xcb, 0x21, 0x02, 0xfb, 0x0a, 0x02, 0x0a, 0xfe, 0xf0, 0x0c,
  0xec, 0x0b, 0xfa, 0xe8, 0xee, 0x19, 0xfc, 0x06, 0x0e, 0x08, 0x0c, 0xad,
  0xeb, 0x19, 0x0e, 0xfd, 0xf4, 0x05, 0xfa, 0xc3, 0x04, 0x12, 0x11, 0x10,
  0xf6, 0xfe, 0xfc, 0xc8, 0x0a, 0x13, 0x06, 0x06, 0x01, 0xf7, 0xfc, 0xaf,
  0xf8, 0xe9, 0x18, 0xfd, 0x01, 0xfc, 0xfe, 0xf6, 0xf8, 0xee, 0x21, 0x18,
  0x08, 0xf4, 0x0d, 0xde, 0x07, 0xf2, 0xf6, 0xf7, 0x12, 0xfb, 0xf9, 0x09,
  0xf8, 0xe3, 0x02, 0xf7, 0x0c, 0xfe, 0xf6, 0xf0, 0xed, 0xf7, 0x01, 0xeb,
  0xf9, 0xfd, 0xf3, 0xd8, 0xef, 0xf7, 0x22, 0xf0, 0x12, 0xf5, 0xf9, 0xf4,
  0xf3, 0x1a, 0xa1, 0x1f, 0x01, 0xed, 0x0e, 0x04, 0x09, 0x11, 0xfc, 0x0c,
  0xf3, 0xfd, 0xff, 0xff, 0xf8, 0xbd, 0xec, 0x0d, 0xf9, 0x0b, 0x0c, 0x3c,
  0xfb, 0xfc, 0x01, 0x25, 0xfa, 0x02, 0xf6, 0x19, 0xff, 0x32, 0xf2, 0x1e,
  0x05, 0xff, 0xef, 0x0b, 0xf7, 0xef, 0x09, 0x03, 0xf3, 0xf6, 0xfa, 0x0f,
  0xf6, 0xea, 0xde, 0x00, 0x08, 0xff, 0x03, 0x6b, 0xfa, 0xfc, 0xde, 0x12,
  0x06, 0xf7, 0x05, 0x65, 0xf7, 0xdf, 0xef, 0x1a, 0xf3, 0x03, 0x0d, 0x18,
  0xfb, 0x21, 0xec, 0x0a, 0xf5, 0xfa, 0x00, 0xd6, 0x03, 0x0f, 0x17, 0x11,
  0x09, 0xfc, 0x01, 0x98, 0x0b, 0x1b, 0x37, 0x02, 0x0b, 0x03, 0xfb, 0xc1,
  0x00, 0x14, 0x2c, 0x13, 0x0a, 0xf8, 0xf0, 0xc8, 0x01, 0xee, 0x1e, 0x1b,
  0xfc, 0x01, 0x01, 0xa7, 0x05, 0xf0, 0x0e, 0xfa, 0x02, 0x09, 0xf5, 0xe4,
  0x07, 0xdd, 0x2b, 0x17, 0x09, 0xf8, 0xf7, 0xdd, 0xfb, 0xda, 0x06, 0xf9,
  0xee, 0x0c, 0xf7, 0x06, 0xff, 0xdc, 0x02, 0xf0, 0xfd, 0x05, 0x0e, 0xec,
  0x0a, 0x05, 0x05, 0xef, 0x06, 0x02, 0xff, 0xd5, 0xf8, 0x17, 0x1d, 0x03,
  0xf5, 0x05, 0x01, 0xde, 0xf6, 0x1b, 0xb9, 0x09, 0x05, 0x04, 0xf9, 0xd4,
  0x07, 0xfc, 0xfb, 0x0a, 0xf9, 0xf2, 0x02, 0x18, 0x13, 0xc9, 0x0c, 0x29,
  0x09, 0x01, 0x0e, 0x0f, 0xfd, 0xfe, 0xeb, 0x0d, 0x0c, 0xf3, 0x0c, 0x11,
  0xf8, 0x28, 0x13, 0x05, 0xfd, 0x0e, 0xec, 0x06, 0xf7, 0x04, 0xe3, 0x0b,
  0x0b, 0x0a, 0xf6, 0xf9, 0x0b, 0xea, 0xdb, 0xe9, 0x04, 0xf3, 0x0c, 0x5a,
  0x05, 0x13, 0xde, 0x15, 0xff, 0x13, 0x0a, 0x60, 0x0f, 0xdd, 0xde, 0x19,
  0x01, 0xfc, 0xf9, 0x20, 0x02, 0x20, 0xfe, 0xf3, 0x09, 0xfb, 0xea, 0xe5,
  0xf9, 0x0b, 0xf4, 0x01, 0x0b, 0xfe, 0x03, 0xb6, 0xff, 0x19, 0x1c, 0x0e,
  0xf4, 0xf5, 0x05, 0xaf, 0x01, 0x12, 0x19, 0x25, 0x00, 0xee, 0xf1, 0xc3,
  0x04, 0xf9, 0x1c, 0x10, 0xfe, 0x07, 0x03, 0xa9, 0xf0, 0x14, 0xeb, 0x0e,
  0x00, 0x07, 0x03, 0xd8, 0xf9, 0x03, 0xff, 0x0c, 0x06, 0xfd, 0xf9, 0xdf,
  0xf3, 0xf7, 0x0e, 0xff, 0x08, 0xfb, 0xf5, 0xe9, 0x02, 0x15, 0xf5, 0xe8,
  0xf9, 0xfd, 0x0e, 0x02, 0xf2, 0xeb, 0xeb, 0xf1, 0x0a, 0xec, 0xfc, 0xd0,
  0xf7, 0x03, 0x0d, 0xe4, 0x14, 0x02, 0x10, 0xdb, 0xe9, 0x0f, 0xd6, 0x07,
  0x09, 0xef, 0xfb, 0xc7, 0x02, 0x11, 0xd9, 0x05, 0x09, 0x02, 0x02, 0x11,
  0xf7, 0xca, 0x5a, 0x18, 0x07, 0xfa, 0x0c, 0x19, 0xfd, 0x07, 0xf6, 0x0f,
  0xfa, 0x00, 0x06, 0x2b, 0xfa, 0x1a, 0x16, 0x00, 0x09, 0x01, 0x08, 0x03,
  0x09, 0x0b, 0x01, 0xf1, 0x02, 0x0d, 0x09, 0xf9, 0xef, 0xf1, 0xea, 0xf6,
  0x01, 0xfa, 0xf4, 0x3f, 0x01, 0xff, 0x0f, 0x13, 0xfa, 0xf0, 0xff, 0x5d,
  0xfd, 0xf1, 0xfe, 0x0b, 0xf8, 0x0b, 0x02, 0x29, 0xfd, 0xf6, 0x1a, 0x02,
  0x0a, 0xfc, 0xf6, 0xef, 0x03, 0x0d, 0xde, 0xfa, 0x02, 0x03, 0xf6, 0xb3,
  0xfe, 0x07, 0x1c, 0x0b, 0x05, 0xe9, 0xfc, 0xc1, 0x06, 0x06, 0x35, 0x13,
  0xf9, 0x02, 0xf6, 0xc1, 0x08, 0x0c, 0x0b, 0x1a, 0xf1, 0x01, 0xef, 0xc2,
  0xf8, 0xfd, 0x02, 0x04, 0xee, 0xf4, 0xfd, 0xcf, 0x05, 0x0b, 0xfb, 0xf5,
  0x09, 0xf7, 0xf6, 0xd5, 0xfa, 0x15, 0x15, 0xf1, 0x10, 0x00, 0xf9, 0xfc,
  0x04, 0x18, 0x14, 0x11, 0x0c, 0xfd, 0x09, 0xe6, 0x02, 0x1d, 0xfd, 0xf3,
  0xf4, 0x05, 0x05, 0xd1, 0xfa, 0x21, 0xff, 0xd3, 0xf8, 0xfe, 0x03, 0x05,
  0x09, 0xf8, 0xf5, 0xf4, 0xf7, 0xef, 0x0f, 0xdd, 0x04, 0xec, 0xeb, 0x26,
  0x07, 0xf9, 0xfb, 0x11, 0xf9, 0xef, 0x31, 0x21, 0xfb, 0xfe, 0xff, 0x0d,
  0x0c, 0x0c, 0x11, 0xf7, 0x06, 0x03, 0x06, 0x25, 0x03, 0x14, 0x37, 0xfd,
  0xf2, 0xf7, 0xfc, 0x1f, 0xf9, 0xeb, 0x18, 0xf7, 0x10, 0xf8, 0xfa, 0xfe,
  0x06, 0x00, 0xf2, 0x13, 0xf4, 0x0b, 0xf6, 0x3c, 0xf1, 0xff, 0x05, 0x00,
  0x05, 0xfa, 0x03, 0x33, 0xff, 0xd6, 0xdb, 0xf0, 0x01, 0x10, 0xfd, 0x0a,
  0xf8, 0xf6, 0x1a, 0xf0, 0x01, 0x05, 0x12, 0x0d, 0x14, 0x0a, 0xf9, 0x09,
  0xf2, 0x1b, 0x01, 0xf9, 0x01, 0x8b, 0x16, 0x00, 0xf7, 0x05, 0x0c, 0xd9,
  0x0e, 0x05, 0xf1, 0xfa, 0xfe, 0x06, 0x04, 0x0d, 0x0b, 0x1d, 0xf4, 0x05,
  0xe9, 0x19, 0xfb, 0x22, 0x14, 0x05, 0xfc, 0x0d, 0xfa, 0x14, 0x0e, 0xfb,
  0xfd, 0xed, 0xe2, 0x03, 0xfe, 0xfe, 0xfe, 0x0b, 0x13, 0x0d, 0xed, 0xf0,
  0x0a, 0x14, 0xf2, 0x2f, 0x0b, 0x08, 0xe4, 0xf5, 0x03, 0x1b, 0x09, 0xf6,
  0x09, 0x10, 0xf1, 0xfc, 0x0c, 0x0a, 0xf4, 0x10, 0x05, 0x3c, 0x0d, 0xfc,
  0xfb, 0x02, 0x04, 0x00, 0x12, 0xfe, 0x0c, 0x00, 0x0b, 0x18, 0x06, 0x02,
  0x17, 0x20, 0x00, 0xf7, 0x09, 0x0d, 0x06, 0x0c, 0x10, 0x08, 0xfb, 0x0b,
  0xf7, 0x0b, 0xf7, 0x06, 0x08, 0xfa, 0xf0, 0xf1, 0xf5, 0x0f, 0xfd, 0x08,
  0x13, 0x2f, 0xef, 0x08, 0x0e, 0x0f, 0x06, 0x07, 0x02, 0xb7, 0xe7, 0x0d,
  0xfa, 0x0a, 0x00, 0xf2, 0x15, 0x08, 0xfb, 0x06, 0xf3, 0x13, 0x0c, 0xf2,
  0x0a, 0xc2, 0xd4, 0xf2, 0x0e, 0x12, 0xfd, 0xe9, 0x11, 0xf3, 0xd9, 0x02,
  0x09, 0x05, 0x0e, 0x01, 0x10, 0xfc, 0x01, 0x06, 0xf1, 0x0b, 0x04, 0x00,
  0x08, 0x03, 0xdd, 0xfa, 0x04, 0x11, 0xef, 0xd9, 0x04, 0xb2, 0x17, 0xf2,
  0xf9, 0x22, 0x06, 0xc0, 0xf4, 0xe0, 0xe8, 0xfd, 0xed, 0x15, 0x02, 0xf5,
  0xf8, 0x09, 0xc8, 0xf7, 0xf0, 0x28, 0x0f, 0x17, 0x01, 0xfe, 0xd5, 0xfe,
  0xef, 0x19, 0x0b, 0xd1, 0xf4, 0xf5, 0xcc, 0xf7, 0x05, 0x13, 0x10, 0x1e,
  0x02, 0x0a, 0xf5, 0xfd, 0x0b, 0x0a, 0xfe, 0x18, 0x04, 0xe4, 0xde, 0xfb,
  0xf3, 0x23, 0x08, 0xe5, 0xfd, 0x1c, 0x03, 0xec, 0x00, 0x12, 0x11, 0x2a,
  0xfd, 0x26, 0xee, 0x0b, 0xfa, 0x15, 0x11, 0x02, 0x04, 0x0c, 0x11, 0xed,
  0xfc, 0x07, 0xfc, 0xea, 0xf7, 0xf7, 0x00, 0xfa, 0xff, 0x0f, 0xf7, 0x13,
  0xf5, 0x07, 0xdb, 0xf8, 0xf7, 0x25, 0x05, 0xff, 0x01, 0xf2, 0xe4, 0xf6,
  0xea, 0x0a, 0x04, 0x52, 0xf3, 0x5b, 0xe8, 0x03, 0x08, 0x14, 0xf9, 0xce,
  0x0d, 0xd9, 0xef, 0x00, 0x00, 0x11, 0xfe, 0x3a, 0x11, 0x38, 0x1c, 0xf4,
  0xf8, 0x0a, 0x08, 0xec, 0x10, 0xec, 0xea, 0xfb, 0x02, 0x1c, 0x04, 0xdf,
  0x0e, 0xf3, 0x0b, 0xf1, 0xfe, 0x03, 0x0f, 0xf9, 0xfc, 0x16, 0x03, 0xf0,
  0xfb, 0x0b, 0xf9, 0xf8, 0x08, 0x14, 0xe2, 0xce, 0xf5, 0x1c, 0xf2, 0xd6,
  0x0e, 0xb2, 0xf2, 0xf9, 0xf5, 0x04, 0x1c, 0xee, 0x0a, 0xf4, 0xcd, 0xf0,
  0xf8, 0x0f, 0x0f, 0xfb, 0x04, 0x0d, 0xf5, 0xff, 0x02, 0x1a, 0x1a, 0x05,
  0x0a, 0xfb, 0x14, 0xfe, 0xfb, 0x0d, 0x07, 0xfe, 0x02, 0xf9, 0xf0, 0xf1,
  0xf4, 0x0d, 0x03, 0x1d, 0x0e, 0xef, 0x0a, 0xf8, 0x02, 0x01, 0x16, 0xfd,
  0x03, 0xf4, 0x0f, 0xf6, 0x09, 0x0d, 0x15, 0xe0, 0x03, 0x13, 0x20, 0xf1,
  0x03, 0x07, 0x17, 0x3f, 0x0e, 0x15, 0x1f, 0xe7, 0xfa, 0x04, 0x14, 0x22,
  0x0a, 0x0f, 0x0e, 0xee, 0x03, 0x05, 0x0f, 0x12, 0xfc, 0x04, 0x0b, 0xfb,
  0x01, 0x0f, 0x0e, 0x04, 0x05, 0xf4, 0xf2, 0xfe, 0xfd, 0x0d, 0x16, 0xe5,
  0xf3, 0xf3, 0xd9, 0xed, 0xfc, 0xfd, 0x0a, 0x17, 0x0c, 0x00, 0x07, 0xef,
  0xf9, 0x20, 0x0b, 0xcf, 0x08, 0xda, 0xfc, 0xf8, 0xf8, 0x1f, 0x1e, 0x06,
  0x01, 0x22, 0x38, 0x02, 0xff, 0x19, 0x0b, 0xe1, 0x05, 0xfe, 0xff, 0xe3,
  0xff, 0x19, 0x0d, 0xda, 0x0b, 0x15, 0xcf, 0xf6, 0x07, 0x03, 0x0a, 0xfc,
  0x0b, 0x21, 0xf5, 0x02, 0xe6, 0xf9, 0x10, 0x07, 0x14, 0x00, 0xdc, 0xe1,
  0xff, 0x0e, 0x04, 0xe5, 0x04, 0xa4, 0xf5, 0xec, 0xf7, 0x17, 0x04, 0xe6,
  0x0b, 0xe7, 0xf5, 0xf8, 0xfd, 0x02, 0x0f, 0xfd, 0xfd, 0x12, 0x19, 0xee,
  0xfb, 0x0a, 0x1c, 0x03, 0x02, 0xfc, 0x22, 0xfd, 0x01, 0x10, 0x0a, 0xfd,
  0x00, 0xf5, 0x16, 0xfe, 0x04, 0x12, 0x18, 0x1a, 0x15, 0xf5, 0xe1, 0xf0,
  0xfb, 0x15, 0x05, 0x05, 0x05, 0xfc, 0x18, 0xea, 0x03, 0x0d, 0x0a, 0xec,
  0x19, 0x1a, 0x03, 0x04, 0x01, 0x0c, 0x1c, 0x5f, 0x0d, 0x11, 0x0f, 0xeb,
  0xfa, 0x12, 0x10, 0x23, 0x03, 0x0c, 0x17, 0x03, 0xfa, 0x0c, 0x19, 0x01,
  0x13, 0x06, 0xf8, 0xff, 0x00, 0x10, 0x16, 0x04, 0xfa, 0x01, 0xe8, 0xf7,
  0x03, 0x15, 0x09, 0xc5, 0xfb, 0x1e, 0xf4, 0xfb, 0x05, 0x09, 0x1f, 0x1e,
  0x05, 0x23, 0x03, 0xf2, 0x09, 0x0c, 0x1e, 0xd7, 0x01, 0x06, 0xdd, 0xfa,
  0x11, 0x0b, 0x22, 0x17, 0x03, 0x1e, 0x19, 0xeb, 0xf5, 0x0f, 0x06, 0xd6,
  0x08, 0x0d, 0x0b, 0xf6, 0x0a, 0x15, 0x04, 0xdd, 0xf5, 0x29, 0xdc, 0x08,
  0xfa, 0x0a, 0x04, 0xfe, 0x11, 0x12, 0x1b, 0xf1, 0xed, 0x00, 0x03, 0xf3,
  0x13, 0x0b, 0xda, 0xd8, 0xfc, 0x11, 0x06, 0x2b, 0xfe, 0xe7, 0xf8, 0xfd,
  0xf5, 0x17, 0x0d, 0x16, 0x0d, 0xed, 0x06, 0xf5, 0x03, 0x0f, 0xfc, 0xfe,
  0x08, 0x1c, 0x1b, 0xe2, 0x03, 0x05, 0x15, 0xfe, 0x05, 0xf0, 0x2b, 0xef,
  0xf2, 0x12, 0x21, 0x0a, 0xf1, 0xf6, 0xea, 0xee, 0xfd, 0x0e, 0x25, 0x02,
  0x03, 0x0c, 0xea, 0x07, 0xfb, 0x0a, 0x0e, 0x2c, 0x10, 0xfa, 0x06, 0x00,
  0x05, 0x07, 0x0e, 0x10, 0x0c, 0x02, 0x15, 0xfd, 0xf8, 0x07, 0x14, 0x41,
  0x16, 0xfd, 0x16, 0xeb, 0xef, 0x03, 0x01, 0x12, 0x0a, 0x03, 0x16, 0xfc,
  0xfd, 0x0d, 0x0c, 0x0a, 0x0d, 0xfb, 0x08, 0xfc, 0xfc, 0x10, 0x10, 0x02,
  0x04, 0x30, 0xdd, 0xf6, 0x02, 0xfc, 0x16, 0xc2, 0xfe, 0x19, 0xf8, 0xf1,
  0x01, 0x0f, 0x08, 0xf1, 0x03, 0x22, 0xed, 0xee, 0xfb, 0x18, 0x07, 0xde,
  0x07, 0x3d, 0xe7, 0xea, 0xfd, 0x15, 0x14, 0xf3, 0xfe, 0x35, 0x26, 0xfe,
  0x0a, 0x03, 0x06, 0xd5, 0xf5, 0x42, 0x3f, 0xec, 0xee, 0x02, 0xfd, 0xc0,
  0xfb, 0x45, 0xf7, 0x0f, 0xf9, 0x01, 0x05, 0x10, 0xef, 0x05, 0x0d, 0xef,
  0xfe, 0x0c, 0xfc, 0x13, 0xf7, 0xfe, 0xff, 0xe7, 0x01, 0x0b, 0x04, 0x3e,
  0x06, 0x07, 0x03, 0xed, 0x05, 0x17, 0x02, 0x2a, 0xf7, 0xe9, 0xd8, 0x02,
  0xf0, 0x00, 0x08, 0xed, 0x06, 0x3e, 0x17, 0xe7, 0xfc, 0x01, 0x12, 0x0b,
  0x0c, 0xfc, 0x16, 0xee, 0x06, 0x09, 0x01, 0x1e, 0x04, 0x13, 0xf7, 0xf1,
  0xf9, 0x02, 0x0a, 0x0d, 0x06, 0x05, 0xf7, 0xef, 0x01, 0x00, 0x0b, 0xfb,
  0x05, 0x0e, 0xf6, 0xf9, 0x04, 0x01, 0x15, 0x19, 0x0c, 0x11, 0x02, 0x02,
  0xec, 0x11, 0x08, 0x3d, 0xff, 0x0d, 0x03, 0xfa, 0xf6, 0x13, 0x02, 0x12,
  0xf8, 0xe6, 0x25, 0xf2, 0xf9, 0x14, 0x06, 0x32, 0x07, 0xe5, 0x11, 0x04,
  0x0b, 0x04, 0xfb, 0x0e, 0x12, 0x20, 0xfa, 0x07, 0xfc, 0x0c, 0x13, 0xd2,
  0x07, 0x30, 0xf8, 0xfe, 0xfc, 0xf8, 0x19, 0xbe, 0x03, 0x2b, 0xf9, 0xec,
  0x09, 0x06, 0x09, 0xe8, 0xfd, 0x23, 0xe8, 0xea, 0x03, 0x12, 0x0d, 0xfe,
  0x0b, 0x25, 0x09, 0xf6, 0x0b, 0x07, 0x13, 0xdc, 0x0f, 0x18, 0x41, 0xf6,
  0x0a, 0x00, 0xff, 0xb1, 0x09, 0xfe, 0xf4, 0x06, 0x07, 0x04, 0x0c, 0xed,
  0x00, 0xf2, 0x1a, 0xf3, 0xf6, 0x04, 0xf0, 0xf4, 0xf8, 0x0a, 0xf8, 0xe1,
  0x04, 0x0a, 0x07, 0x1d, 0xf9, 0x0d, 0x28, 0x08, 0xfb, 0xfb, 0x0a, 0x1b,
  0xfd, 0xf5, 0xdd, 0xf3, 0x03, 0x0f, 0x09, 0xf5, 0x0b, 0x42, 0x05, 0xf2,
  0xfb, 0x02, 0xf9, 0x26, 0x09, 0x06, 0x19, 0xfd, 0x10, 0x08, 0x0b, 0x17,
  0x02, 0xf0, 0xf2, 0xf1, 0x0a, 0xfd, 0x1e, 0x05, 0x12, 0x11, 0xf0, 0xeb,
  0x07, 0xf6, 0x15, 0x01, 0xf9, 0x28, 0xf9, 0x04, 0x05, 0x07, 0x08, 0x1a,
  0x01, 0x2c, 0x03, 0xfb, 0xf0, 0xfb, 0x05, 0x1f, 0xfd, 0x10, 0xf7, 0xe9,
  0x02, 0x0a, 0xfb, 0x1d, 0x09, 0xea, 0x0e, 0xee, 0xfe, 0x02, 0x17, 0x3d,
  0xff, 0xe1, 0x1e, 0x00, 0xff, 0x0f, 0x0c, 0x10, 0x05, 0x31, 0xf7, 0x02,
  0x02, 0x00, 0x09, 0xd3, 0x07, 0x33, 0x02, 0x06, 0xfd, 0x07, 0x0f, 0xd8,
  0x05, 0x0b, 0x08, 0xf2, 0x10, 0xf2, 0x04, 0xe6, 0xfb, 0x1f, 0x06, 0xe4,
  0xf2, 0x0f, 0x00, 0xde, 0x05, 0x25, 0x08, 0xf4, 0x07, 0xff, 0xff, 0xcd,
  0xf0, 0x25, 0x1a, 0xe0, 0xf7, 0xfb, 0x01, 0xbd, 0x00, 0xf7, 0xef, 0xef,
  0xf3, 0x07, 0xfe, 0xf8, 0xfb, 0xea, 0x25, 0xfa, 0x03, 0x0a, 0x0f, 0xf1,
  0x00, 0xff, 0xf6, 0xec, 0xf3, 0x11, 0x00, 0x0c, 0x10, 0x03, 0x2b, 0x03,
  0xfa, 0x07, 0x02, 0x16, 0x13, 0x0a, 0xb9, 0xfc, 0x01, 0xfd, 0xf5, 0xfc,
  0x0f, 0x2b, 0xfe, 0xfa, 0x00, 0x02, 0xfb, 0x1e, 0x08, 0x11, 0x13, 0xdc,
  0xfd, 0xff, 0xfb, 0x2f, 0xf4, 0xc5, 0xf6, 0xee, 0x04, 0x10, 0x0e, 0x1b,
  0x0a, 0x24, 0xe1, 0x05, 0xef, 0x10, 0x1e, 0xed, 0x05, 0x02, 0xfc, 0xfd,
  0xf7, 0x0f, 0x07, 0x05, 0x07, 0x19, 0x0f, 0xf3, 0x00, 0xfe, 0x1c, 0x11,
  0x05, 0x18, 0xfa, 0xf2, 0xfd, 0x0f, 0x00, 0x1a, 0xfc, 0xfd, 0x10, 0x00,
  0x01, 0x0a, 0x0e, 0x0f, 0xff, 0xdb, 0x0f, 0x11, 0x0b, 0x04, 0x10, 0xfb,
  0xf9, 0x24, 0xfb, 0xfe, 0xeb, 0xfa, 0x14, 0xbe, 0x06, 0x13, 0x1e, 0xf7,
  0x08, 0xfa, 0x09, 0xd8, 0x08, 0x0d, 0x26, 0x00, 0x03, 0x08, 0x01, 0xf6,
  0x03, 0x2f, 0x28, 0xf3, 0x02, 0x03, 0x04, 0xf6, 0x15, 0xfb, 0xf9, 0xf0,
  0xfb, 0x0a, 0x02, 0xc5, 0xf5, 0x0f, 0x01, 0xe2, 0xf3, 0x02, 0xfc, 0xae,
  0xf6, 0x18, 0x0d, 0x14, 0xfe, 0xff, 0x01, 0x0a, 0xf3, 0xd0, 0x1e, 0x06,
  0x0a, 0xfb, 0xfd, 0xf0, 0x05, 0x0f, 0xeb, 0xf8, 0xed, 0x09, 0xfd, 0x13,
  0xf2, 0x00, 0x3b, 0xf5, 0x08, 0x02, 0x18, 0x13, 0xf9, 0x0c, 0xdc, 0x09,
  0xff, 0x0c, 0x07, 0x10, 0x13, 0xfd, 0xf6, 0xea, 0x06, 0x12, 0x11, 0x24,
  0x00, 0x0b, 0x27, 0xed, 0xfd, 0x0e, 0xf3, 0x21, 0xff, 0xda, 0x15, 0xec,
  0xf2, 0x0e, 0x0c, 0x0a, 0x02, 0x18, 0xe5, 0xe3, 0xf3, 0x01, 0x01, 0xfd,
  0x04, 0x0e, 0xd1, 0xf2, 0x00, 0x0e, 0x16, 0x15, 0x04, 0x19, 0x19, 0xdf,
  0x02, 0xfc, 0x04, 0x14, 0x10, 0x19, 0x03, 0xf8, 0xfd, 0x09, 0xed, 0x04,
  0x13, 0xf4, 0x07, 0x02, 0x03, 0x17, 0x0b, 0x15, 0x10, 0xf0, 0x1f, 0x0e,
  0x0a, 0x10, 0x02, 0xf2, 0x02, 0x0f, 0xf3, 0xf8, 0x05, 0xf0, 0x0a, 0xca,
  0x13, 0xed, 0x29, 0xf7, 0x08, 0x0b, 0x13, 0xe4, 0x0b, 0xf7, 0x37, 0xf9,
  0xfd, 0x07, 0xff, 0x0a, 0x02, 0x1e, 0x33, 0xfa, 0x08, 0x11, 0x0d, 0x0c,
  0x0b, 0xfe, 0xfb, 0xeb, 0xff, 0x0c, 0x04, 0xd5, 0x03, 0xde, 0x15, 0xf8,
  0x00, 0xef, 0xff, 0xbd, 0x01, 0x2b, 0x17, 0x05, 0xf7, 0x02, 0xf9, 0x06,
  0x0a, 0xb6, 0x21, 0xfc, 0xfc, 0xf8, 0x06, 0xf2, 0x07, 0x12, 0xdf, 0xe6,
  0xfe, 0x0a, 0xfe, 0x13, 0xff, 0x0c, 0x39, 0x00, 0xf8, 0x0d, 0x16, 0x0e,
  0x02, 0xfb, 0xe5, 0xfc, 0xef, 0x13, 0x07, 0x16, 0x0a, 0xfd, 0xd8, 0xee,
  0xfa, 0x08, 0x15, 0x2b, 0x0a, 0x0f, 0x4d, 0xeb, 0x00, 0x11, 0xfd, 0x35,
  0x09, 0xde, 0x29, 0xf7, 0xf8, 0x17, 0x07, 0x0e, 0x00, 0x0a, 0xe0, 0x02,
  0xfb, 0xf7, 0x12, 0xf8, 0xf6, 0x2a, 0xdf, 0xf0, 0xfc, 0x04, 0x0e, 0x16,
  0xf8, 0x0b, 0xf6, 0xee, 0x09, 0x10, 0x04, 0x0f, 0x16, 0xe6, 0x11, 0xf9,
  0xfa, 0x05, 0xff, 0xfc, 0x0a, 0xea, 0x07, 0xff, 0x03, 0x0a, 0x11, 0x1a,
  0x0c, 0xf9, 0x03, 0x03, 0x05, 0x07, 0x16, 0x02, 0xf0, 0x0a, 0xeb, 0xf8,
  0x00, 0x07, 0x06, 0xd2, 0x10, 0x0e, 0x10, 0xfe, 0xfd, 0x09, 0xf5, 0xcd,
  0xf1, 0xeb, 0x2c, 0xfc, 0x0a, 0xf3, 0xfd, 0x01, 0xf9, 0x15, 0x38, 0xfa,
  0x04, 0x0b, 0x02, 0xef, 0x05, 0x07, 0x04, 0xde, 0xfc, 0x0d, 0x06, 0xcf,
  0x02, 0xf8, 0x22, 0xe3, 0x01, 0x07, 0xf8, 0xe4, 0x0a, 0x2c, 0x1a, 0x03,
  0xf2, 0x0d, 0x09, 0x15, 0x00, 0xe0, 0x1e, 0xfd, 0x07, 0xf7, 0x14, 0xf6,
  0xfe, 0xfe, 0xf5, 0xef, 0xf0, 0x03, 0x05, 0x0f, 0x03, 0xf8, 0x4c, 0xe7,
  0xf5, 0x01, 0xf6, 0x0d, 0xfa, 0xf1, 0x0a, 0xee, 0x05, 0xfd, 0x11, 0x20,
  0x17, 0xf3, 0xde, 0xfa, 0x01, 0x0b, 0xff, 0x29, 0xfe, 0x13, 0x49, 0x0d,
  0xfb, 0x07, 0xf0, 0x30, 0xee, 0xfa, 0x0d, 0xf9, 0xfb, 0x13, 0x17, 0xfe,
  0x0b, 0xf4, 0xec, 0xf3, 0xfa, 0x01, 0x14, 0xf2, 0x06, 0x43, 0xea, 0xe9,
  0xf5, 0xfd, 0xf7, 0x23, 0x01, 0x1c, 0x02, 0xde, 0x03, 0x06, 0xfd, 0xfb,
  0xfa, 0xf9, 0xff, 0x01, 0xfc, 0x0a, 0x0e, 0x16, 0x03, 0xef, 0x07, 0x05,
  0x03, 0xf7, 0x0a, 0x07, 0x09, 0x0a, 0x12, 0xf4, 0x07, 0xf8, 0x03, 0xfe,
  0x05, 0x06, 0x07, 0x01, 0x0f, 0x08, 0x02, 0xe7, 0xfe, 0x08, 0x1d, 0x03,
  0xf3, 0x10, 0x01, 0xf2, 0xfa, 0xe5, 0x40, 0x0b, 0xfb, 0x00, 0x02, 0xf3,
  0x06, 0x27, 0x2d, 0xea, 0x08, 0xfa, 0x13, 0x01, 0x0a, 0xf8, 0xfc, 0xdc,
  0x02, 0x06, 0xff, 0xe6, 0x03, 0x1c, 0x27, 0xde, 0xf6, 0xee, 0x04, 0x0d,
  0x03, 0x23, 0x10, 0xf5, 0x02, 0x00, 0x04, 0x22, 0xf5, 0xbe, 0x16, 0xf5,
  0xf3, 0xff, 0x0f, 0xeb, 0x0e, 0xe4, 0xf3, 0xc4, 0x05, 0x0e, 0x03, 0x0a,
  0x13, 0xdc, 0x2f, 0xda, 0xf1, 0x01, 0x0d, 0xfe, 0xf6, 0xfd, 0x30, 0xf6,
  0x04, 0xf1, 0xf3, 0x33, 0x0c, 0x00, 0xe2, 0xfe, 0x00, 0x05, 0x00, 0x2f,
  0xfe, 0x07, 0x55, 0x0a, 0xf4, 0x0a, 0x01, 0x2b, 0xff, 0xfb, 0x1c, 0xfc,
  0x03, 0x0b, 0xff, 0x1d, 0xe8, 0x06, 0xd8, 0x0a, 0xfd, 0x00, 0xfb, 0xf3,
  0x03, 0x21, 0xec, 0xe2, 0xfe, 0xff, 0xfa, 0x21, 0x03, 0x01, 0x08, 0xe3,
  0x12, 0xef, 0x04, 0x03, 0x09, 0x10, 0x05, 0xf3, 0xfc, 0xf4, 0xf0, 0x19,
  0x06, 0x02, 0x13, 0x0c, 0x06, 0x0e, 0xfa, 0xfc, 0x06, 0x0b, 0x10, 0x03,
  0xee, 0xfc, 0x0c, 0xfe, 0xfc, 0xf7, 0x0c, 0xf1, 0xf3, 0xf8, 0x0a, 0xed,
  0xfa, 0xf9, 0x00, 0xe7, 0x09, 0xf8, 0x02, 0xdf, 0xf9, 0xe7, 0x42, 0x17,
  0x09, 0x02, 0x04, 0x1e, 0xfd, 0x0a, 0x17, 0xfe, 0x02, 0x00, 0xf8, 0xfa,
  0x06, 0x00, 0x0c, 0xde, 0xff, 0x0b, 0x0b, 0xdf, 0xfa, 0x14, 0x39, 0xea,
  0x09, 0x07, 0x07, 0xf5, 0xfa, 0x29, 0x29, 0xe7, 0x05, 0xfc, 0x04, 0xfb,
  0x0a, 0xaf, 0x14, 0xff, 0xfe, 0x11, 0x01, 0xfd, 0x06, 0xdf, 0xd9, 0xd3,
  0xff, 0x0c, 0x05, 0x07, 0x07, 0xe7, 0x0f, 0xf5, 0xf7, 0x02, 0x0d, 0x08,
  0xf1, 0xff, 0x3f, 0xe8, 0x02, 0xf9, 0x10, 0x27, 0x04, 0xfd, 0xff, 0xfa,
  0xec, 0x03, 0x0a, 0x37, 0x05, 0x06, 0x3d, 0x05, 0x0c, 0x14, 0x0d, 0x1f,
  0x07, 0x0c, 0x32, 0x06, 0xfb, 0x07, 0x02, 0x15, 0xf7, 0x0e, 0xe9, 0x1e,
  0x02, 0xf7, 0x0e, 0xfb, 0x12, 0x18, 0xe1, 0xf5, 0x00, 0x07, 0xff, 0x24,
  0x12, 0xf4, 0x13, 0xed, 0x0b, 0x03, 0x09, 0xfd, 0x04, 0xf3, 0x06, 0xf5,
  0xf3, 0xef, 0xef, 0x11, 0x08, 0xf8, 0x0e, 0x06, 0x02, 0x07, 0xfc, 0x04,
  0xfb, 0x09, 0x09, 0xec, 0x0a, 0xff, 0x07, 0xfe, 0x02, 0x0b, 0x05, 0xe3,
  0xf6, 0x03, 0x07, 0xe9, 0x03, 0x12, 0x02, 0xf6, 0xfe, 0x03, 0xfd, 0xde,
  0x03, 0x18, 0x29, 0xff, 0x02, 0xfa, 0xfe, 0x13, 0xfd, 0x10, 0x1c, 0x00,
  0x00, 0x0a, 0x14, 0x08, 0x08, 0x0f, 0x17, 0xf4, 0x01, 0xff, 0xfe, 0xfe,
  0xfb, 0x1c, 0x26, 0xd5, 0xfd, 0xf9, 0x17, 0x0b, 0x10, 0x19, 0x28, 0xcb,
  0xf1, 0xf4, 0xf5, 0x06, 0x09, 0xc4, 0xf9, 0x0d, 0x06, 0xfd, 0x11, 0x07,
  0xfd, 0xd0, 0xb6, 0xc8, 0x06, 0xff, 0x01, 0x08, 0x0f, 0x0a, 0x11, 0xee,
  0x11, 0x14, 0xfa, 0x19, 0x00, 0xfd, 0x43, 0xeb, 0x0c, 0x02, 0x11, 0x2c,
  0xff, 0x0e, 0x0e, 0xf5, 0xfe, 0xf2, 0x07, 0x37, 0x10, 0x11, 0x4e, 0x01,
  0xfd, 0xf7, 0xf8, 0x0b, 0x0a, 0x1a, 0x44, 0xfd, 0xfc, 0x0f, 0x09, 0x03,
  0x0a, 0xfd, 0xea, 0x0a, 0x0b, 0x00, 0x12, 0xff, 0xf8, 0x0d, 0xd0, 0xe9,
  0x0a, 0xff, 0xfa, 0x0c, 0x0a, 0xee, 0x1d, 0xe6, 0x00, 0xfd, 0xfd, 0x07,
  0xfd, 0xf5, 0x10, 0x0d, 0xfc, 0x06, 0xff, 0x04, 0xfd, 0xfb, 0x1d, 0x02,
  0x06, 0x03, 0x0d, 0xfb, 0x04, 0x14, 0x04, 0xf7, 0xff, 0x16, 0x0f, 0xfd,
  0x0a, 0x12, 0x0f, 0xf3, 0xf8, 0xfe, 0x06, 0xf2, 0x0b, 0x06, 0x12, 0xf1,
  0x10, 0xf8, 0x09, 0xea, 0xfd, 0x17, 0x31, 0x16, 0xfe, 0xf7, 0x09, 0x1a,
  0x06, 0xfc, 0xf7, 0x0a, 0xfe, 0x0a, 0xfe, 0x04, 0x03, 0xf3, 0x2a, 0xde,
  0x08, 0xf6, 0xef, 0xf3, 0x07, 0x2e, 0x12, 0xe9, 0x00, 0x04, 0x03, 0x0a,
  0xfe, 0x03, 0x2e, 0xd6, 0xfc, 0xec, 0xf7, 0xfc, 0xf1, 0xcc, 0x02, 0x06,
  0x06, 0xfe, 0xff, 0x0f, 0x07, 0xdf, 0xa9, 0xd3, 0x06, 0x10, 0x14, 0x1d,
  0x08, 0xfe, 0x04, 0xf0, 0xfc, 0x07, 0x09, 0x02, 0xfb, 0x1b, 0x2c, 0xef,
  0x03, 0x0e, 0x04, 0x31, 0xff, 0x12, 0x21, 0x01, 0xf8, 0xfe, 0x00, 0x36,
  0x1a, 0xfd, 0x50, 0x09, 0xfc, 0xff, 0xf9, 0x00, 0xf3, 0x27, 0x29, 0x11,
  0xf9, 0x00, 0xfc, 0x06, 0x09, 0xf7, 0xde, 0x09, 0x00, 0x0b, 0x03, 0xf9,
  0x00, 0x08, 0xe7, 0xed, 0xf8, 0x0b, 0xfd, 0x16, 0xfc, 0x06, 0x03, 0xfa,
  0xf8, 0x03, 0x00, 0x24, 0x08, 0xf9, 0x0d, 0xfb, 0x05, 0x05, 0x01, 0x09,
  0x01, 0x17, 0x11, 0x05, 0xf6, 0x06, 0x01, 0x17, 0xf2, 0x1e, 0x17, 0xff,
  0xef, 0x04, 0x06, 0xf3, 0x0e, 0x0a, 0x10, 0xe7, 0x0b, 0x05, 0xf7, 0xec,
  0xf5, 0x0a, 0x07, 0xfc, 0x03, 0x07, 0x01, 0xec, 0xf4, 0x29, 0x2d, 0x0e,
  0xf3, 0xf9, 0x05, 0x15, 0x0e, 0xf9, 0xf8, 0xf8, 0xff, 0xf7, 0x09, 0x14,
  0x00, 0xdf, 0x3b, 0xe1, 0x03, 0x04, 0xfb, 0xed, 0x12, 0x42, 0x0d, 0xe8,
  0x00, 0xfa, 0x00, 0x11, 0x07, 0xfc, 0x37, 0xe7, 0x03, 0xf5, 0xf5, 0x13,
  0x00, 0xd1, 0x0c, 0xfe, 0xff, 0x04, 0xfe, 0xff, 0x04, 0xd5, 0xae, 0xd3,
  0xfb, 0x06, 0x07, 0x1c, 0x04, 0xf4, 0x06, 0xf4, 0x0e, 0x06, 0xf4, 0x0e,
  0xfe, 0x10, 0x3a, 0xef, 0xf8, 0x07, 0xfd, 0x2e, 0x0b, 0x0e, 0xe9, 0xf7,
  0x04, 0x0e, 0xf2, 0x2c, 0x08, 0x08, 0x29, 0x14, 0xff, 0x04, 0x00, 0xec,
  0xed, 0x30, 0x21, 0x0a, 0xf9, 0x02, 0xf4, 0x0a, 0x02, 0x1c, 0xdd, 0x05,
  0xfe, 0x08, 0x0a, 0x05, 0x03, 0xf7, 0xd0, 0x03, 0xff, 0xfd, 0xfa, 0x2f,
  0xfe, 0x05, 0x0f, 0x00, 0xf1, 0x09, 0xf9, 0x48, 0xf0, 0xee, 0x0e, 0x01,
  0xfd, 0xf3, 0x0a, 0xf3, 0x0c, 0x2a, 0x22, 0xf4, 0x01, 0x06, 0x00, 0x01,
  0x09, 0x25, 0x30, 0xeb, 0x01, 0x0a, 0x04, 0xfe, 0x16, 0x0c, 0x0f, 0xe6,
  0xfa, 0x05, 0x15, 0x07, 0xfc, 0x09, 0x06, 0xf9, 0xf5, 0x0b, 0xef, 0xe4,
  0x06, 0x17, 0x10, 0x19, 0xff, 0xf5, 0x00, 0x1e, 0x01, 0xfa, 0x17, 0xfb,
  0x00, 0x0c, 0x0e, 0x01, 0x04, 0x05, 0x55, 0xe9, 0xf8, 0x01, 0x04, 0xc6,
  0x00, 0x22, 0x23, 0xfa, 0x04, 0xf0, 0xfb, 0x0b, 0xfa, 0x01, 0x49, 0xe1,
  0x13, 0x09, 0xf8, 0x01, 0xfe, 0xf2, 0x09, 0x11, 0xeb, 0xfe, 0x02, 0xee,
  0x11, 0xd3, 0xca, 0xe1, 0xf3, 0x01, 0xf4, 0x1f, 0x00, 0xf1, 0x1d, 0xfa,
  0x08, 0xfe, 0xfc, 0x24, 0x05, 0x09, 0x21, 0xe6, 0x08, 0xfb, 0x08, 0x1c,
  0x11, 0xfb, 0xf4, 0x0a, 0xfa, 0x03, 0xee, 0x27, 0x11, 0xee, 0x17, 0x00,
  0x01, 0xf9, 0x15, 0xec, 0x0c, 0x43, 0x1b, 0x0e, 0x09, 0x0f, 0x09, 0x1a,
  0x02, 0x02, 0xb8, 0xeb, 0x03, 0xf3, 0x0b, 0x00, 0x09, 0xd8, 0xd3, 0xeb,
  0xf4, 0x04, 0xff, 0x0f, 0x0b, 0xf0, 0xfb, 0x06, 0x07, 0xf6, 0xfe, 0x29,
  0x0f, 0xf9, 0x1a, 0x02, 0xf7, 0x04, 0xfe, 0xee, 0xff, 0x12, 0x1b, 0x05,
  0x07, 0x08, 0x13, 0x06, 0xef, 0x1d, 0x2b, 0xd8, 0x05, 0xfa, 0x04, 0x00,
  0x06, 0xf1, 0x1d, 0xe7, 0x07, 0xef, 0x0f, 0xfb, 0x04, 0x0c, 0x09, 0xe5,
  0xf1, 0x01, 0xfa, 0x09, 0xfd, 0x0c, 0x15, 0x03, 0xfa, 0xf8, 0x01, 0xf6,
  0xf5, 0xf2, 0x25, 0xf8, 0x00, 0x06, 0xfd, 0xf8, 0xfc, 0x14, 0x5f, 0xe3,
  0x05, 0xf0, 0x02, 0xc5, 0x11, 0x20, 0x2f, 0xed, 0xfb, 0x02, 0x07, 0x03,
  0xf0, 0x1d, 0x43, 0xec, 0x0d, 0x05, 0xe9, 0x08, 0x05, 0x05, 0xf5, 0xf9,
  0xfb, 0x03, 0xfd, 0xf7, 0xee, 0xed, 0xe5, 0xef, 0xff, 0x04, 0xf6, 0x2f,
  0x08, 0x04, 0x21, 0xf0, 0x0e, 0x08, 0x08, 0x28, 0xfc, 0xfe, 0x3b, 0xd9,
  0x07, 0x0b, 0x13, 0x0b, 0xf8, 0xf7, 0xe3, 0xfd, 0xf4, 0x00, 0x0d, 0x1d,
  0x01, 0xfa, 0x0f, 0x0d, 0xf9, 0xf7, 0xf7, 0xef, 0xfd, 0x28, 0x1d, 0xf6,
  0x0e, 0x08, 0x03, 0x0d, 0x02, 0x01, 0xdb, 0xf3, 0xf8, 0x05, 0x09, 0xe6,
  0xf5, 0xec, 0xdd, 0x10, 0xf3, 0x12, 0x0e, 0x0e, 0x10, 0x08, 0xf8, 0x02,
  0xf9, 0x00, 0x04, 0x2f, 0xf2, 0x03, 0x0b, 0xf2, 0xf8, 0xfd, 0x09, 0xfb,
  0xfb, 0x22, 0x13, 0x1b, 0x04, 0x02, 0xf9, 0xf3, 0x03, 0x13, 0x15, 0xec,
  0x06, 0x02, 0x07, 0xf0, 0x0c, 0x0e, 0x17, 0xfe, 0x03, 0xff, 0x06, 0x08,
  0x0c, 0x01, 0xfa, 0xed, 0xf9, 0x0e, 0x00, 0x0b, 0x10, 0x18, 0x04, 0xf3,
  0x0c, 0xfd, 0xfd, 0xef, 0x00, 0xfc, 0xf1, 0xeb, 0xfb, 0xf6, 0xfb, 0xe8,
  0x04, 0x20, 0x54, 0xe8, 0x03, 0x0c, 0x04, 0xbb, 0x11, 0x3a, 0x2d, 0xef,
  0x00, 0x00, 0xee, 0xff, 0xfb, 0x0a, 0x41, 0xf2, 0xfd, 0x07, 0x02, 0x00,
  0xfd, 0xfe, 0xfe, 0xf4, 0xfb, 0x03, 0x02, 0x11, 0x01, 0xfe, 0xdb, 0xe9,
  0x01, 0xfd, 0x07, 0x4a, 0xeb, 0xdf, 0x23, 0xdb, 0x04, 0x00, 0xfd, 0x3b,
  0xfe, 0x05, 0x4e, 0xd8, 0x01, 0x0e, 0x03, 0x04, 0xfb, 0xdf, 0xda, 0xef,
  0x00, 0xf7, 0x08, 0x3b, 0xf6, 0x01, 0xfe, 0xf9, 0x06, 0x0e, 0x10, 0xf9,
  0x01, 0x1e, 0x00, 0xf3, 0xff, 0xfb, 0x0b, 0x19, 0x0a, 0x03, 0xe2, 0x07,
  0x09, 0xf1, 0x08, 0xf8, 0xf4, 0xfa, 0x00, 0x00, 0x01, 0x14, 0x0f, 0x2a,
  0xfd, 0x0c, 0xf9, 0xfd, 0xff, 0x05, 0xed, 0x24, 0x06, 0xf0, 0x0a, 0x07,
  0xff, 0xf6, 0xf5, 0xfe, 0xff, 0x21, 0x1d, 0x06, 0xf1, 0x02, 0x0f, 0xf9,
  0xfb, 0xf6, 0x17, 0xea, 0xf8, 0xf5, 0x0a, 0x06, 0x11, 0x05, 0x43, 0xf0,
  0x05, 0x04, 0x00, 0x09, 0x0d, 0x2e, 0x1a, 0xfc, 0xff, 0x07, 0xf7, 0x03,
  0x03, 0x05, 0x05, 0xf8, 0x12, 0xf2, 0x03, 0xf5, 0xfc, 0x09, 0xf7, 0xf6,
  0x12, 0x04, 0x07, 0xe6, 0x03, 0x2b, 0x6f, 0x11, 0x02, 0x0b, 0x09, 0xb4,
  0x13, 0x1a, 0x21, 0xe7, 0xf0, 0xfe, 0x01, 0xef, 0x02, 0x02, 0x3c, 0x04,
  0xfa, 0xf9, 0xfd, 0xf0, 0x06, 0x05, 0xfe, 0x04, 0xf7, 0xfa, 0xf4, 0x02,
  0x04, 0xf6, 0xf2, 0xee, 0x01, 0x01, 0x0e, 0x53, 0xf9, 0xf5, 0x21, 0xf2,
  0x02, 0xf6, 0xfc, 0x46, 0x12, 0xdc, 0x37, 0xe5, 0x06, 0xfd, 0x07, 0x19,
  0xfc, 0xe6, 0xfa, 0xf6, 0x08, 0x0c, 0x04, 0x27, 0xfc, 0x13, 0xf3, 0xfe,
  0x03, 0x10, 0x01, 0x06, 0x12, 0x47, 0xd7, 0xec, 0xfb, 0xf3, 0xf9, 0x08,
  0x04, 0x05, 0xf9, 0xfd, 0x0c, 0xfe, 0xfb, 0xee, 0x0b, 0xd7, 0xef, 0x10,
  0x06, 0xf8, 0x0a, 0x2b, 0x06, 0x1d, 0x0c, 0x19, 0xfb, 0x07, 0x0d, 0x20,
  0xff, 0xf5, 0x0f, 0x1f, 0xf7, 0xfd, 0x0c, 0xed, 0xf9, 0x31, 0x2f, 0xff,
  0x07, 0x03, 0x0b, 0x0a, 0xf0, 0xfe, 0xff, 0xf3, 0x03, 0x04, 0x05, 0xfc,
  0x08, 0x37, 0x20, 0x03, 0x05, 0xf3, 0xfe, 0xf9, 0x0c, 0x25, 0x17, 0xef,
  0x07, 0x0c, 0xfc, 0x0e, 0x05, 0xe4, 0x01, 0x09, 0x07, 0xf3, 0x06, 0xd2,
  0x00, 0x07, 0x21, 0x00, 0x13, 0x00, 0xf5, 0xe6, 0x12, 0x4a, 0x4c, 0xfa,
  0x06, 0x15, 0x00, 0xa7, 0xff, 0x1c, 0x33, 0xe9, 0x0b, 0x0c, 0x0a, 0xbd,
  0xfb, 0x25, 0x42, 0xfa, 0xfc, 0xf7, 0xf5, 0xf9, 0xff, 0x0d, 0x01, 0x06,
  0xfe, 0x0f, 0x09, 0x27, 0x0f, 0xe5, 0xf1, 0xe0, 0x04, 0xff, 0x05, 0x54,
  0xea, 0xf5, 0x1c, 0xf0, 0xff, 0x07, 0x0e, 0x47, 0x0c, 0xef, 0x14, 0xef,
  0xff, 0xfd, 0x00, 0x29, 0xfd, 0xf7, 0x1a, 0x05, 0xf8, 0xfe, 0xfd, 0x33,
  0x0e, 0x1d, 0xda, 0xf2, 0x08, 0x0d, 0xf4, 0x14, 0x02, 0x44, 0xdc, 0xe3,
  0x05, 0xf1, 0x0a, 0x05, 0x0e, 0x18, 0x1d, 0xed, 0x08, 0xff, 0x01, 0xea,
  0x09, 0x07, 0xfa, 0x0e, 0xfa, 0xff, 0x06, 0x21, 0x0f, 0x18, 0x09, 0x27,
  0xff, 0x00, 0xf0, 0x21, 0x06, 0xde, 0x20, 0xfe, 0x06, 0xfe, 0x07, 0xf4,
  0xf1, 0xf2, 0x23, 0xf6, 0x07, 0x05, 0xfe, 0x00, 0x13, 0xe5, 0xf1, 0xf7,
  0x0a, 0xf8, 0x10, 0x0c, 0x01, 0x46, 0x34, 0x01, 0x05, 0x16, 0x00, 0xeb,
  0xfe, 0x20, 0x03, 0xf3, 0x05, 0xfe, 0x09, 0xf2, 0x06, 0xf0, 0x0a, 0xe3,
  0x03, 0x10, 0x12, 0xee, 0x05, 0x17, 0x06, 0xe8, 0x00, 0x0d, 0x00, 0xf3,
  0x12, 0x32, 0x53, 0x01, 0xf5, 0xf1, 0x09, 0x83, 0x07, 0x21, 0x2a, 0x0d,
  0x11, 0x0a, 0xf0, 0xa2, 0x05, 0x1f, 0x34, 0xf3, 0x0b, 0xf9, 0xfe, 0x12,
  0xfd, 0xf3, 0x24, 0x09, 0xfa, 0x0a, 0xfd, 0x2a, 0xfa, 0xee, 0xf2, 0xef,
  0x0b, 0x00, 0xfd, 0x4f, 0xf6, 0xec, 0xfa, 0xd7, 0xf4, 0xfc, 0xfd, 0x37,
  0xfe, 0xdb, 0xf7, 0xf4, 0xfa, 0x0a, 0xe9, 0x3a, 0xf5, 0xe4, 0x03, 0x07,
  0x03, 0x00, 0xf2, 0x42, 0x00, 0x1b, 0xf1, 0xed, 0xf3, 0x0e, 0xfc, 0x03,
  0x17, 0x22, 0xfc, 0xe5, 0x10, 0x0d, 0x0b, 0x16, 0x11, 0x25, 0xf8, 0xf7,
  0x07, 0xfb, 0xfe, 0xee, 0x07, 0x15, 0x1f, 0xfb, 0x04, 0x00, 0x09, 0x24,
  0x11, 0x0a, 0xf3, 0x19, 0x14, 0xfe, 0xfe, 0x18, 0xf3, 0xec, 0xfe, 0x13,
  0xfb, 0xf9, 0x06, 0x19, 0xfe, 0xeb, 0x2c, 0xf8, 0xf9, 0x0a, 0x00, 0x12,
  0x07, 0x05, 0xde, 0xfb, 0xf3, 0x02, 0x07, 0x04, 0x0b, 0x47, 0x08, 0xd9,
  0x05, 0xfa, 0x0d, 0xdd, 0x07, 0x14, 0x06, 0xfb, 0x09, 0x05, 0x0c, 0xfe,
  0x13, 0xe8, 0x30, 0xeb, 0x13, 0xf9, 0xf7, 0xf8, 0x0c, 0x15, 0xff, 0xf2,
  0x02, 0x0f, 0xff, 0xfd, 0xf9, 0x2d, 0x2a, 0xfa, 0x09, 0x0b, 0x15, 0x8f,
  0xf5, 0x17, 0x22, 0xf1, 0xff, 0xfd, 0x07, 0x81, 0xf2, 0x38, 0x04, 0xf1,
  0xfd, 0xf7, 0x03, 0xf3, 0x02, 0xe4, 0x15, 0xfc, 0xfd, 0x01, 0x0c, 0x1a,
  0x06, 0xed, 0xd7, 0xf8, 0xf5, 0x12, 0x0a, 0x50, 0xf9, 0xf3, 0xe0, 0xdc,
  0x05, 0x01, 0xfc, 0x3d, 0x04, 0xe6, 0x05, 0xeb, 0x02, 0xf9, 0xf8, 0x2e,
  0xfc, 0x08, 0x06, 0xfd, 0xfa, 0xf8, 0x09, 0x54, 0xfd, 0x0f, 0x03, 0xfd,
  0xfc, 0xff, 0x14, 0x2c, 0xf5, 0x24, 0xf1, 0xd8, 0x0c, 0x09, 0xfc, 0x1a,
  0x04, 0x30, 0xe9, 0x10, 0x09, 0xfd, 0xf4, 0xd8, 0x07, 0x07, 0x11, 0xf3,
  0xf8, 0xff, 0x0e, 0xfc, 0x0a, 0x18, 0xf1, 0x0f, 0x11, 0x10, 0xff, 0x19,
  0xfd, 0xe2, 0x0a, 0x03, 0xfe, 0xf2, 0x07, 0x27, 0xf7, 0x01, 0x33, 0xee,
  0xfa, 0x03, 0xff, 0x27, 0xfd, 0x0f, 0xee, 0xf9, 0x08, 0x06, 0xf5, 0xfd,
  0x06, 0x55, 0xf2, 0xea, 0x03, 0xff, 0xf1, 0xec, 0x03, 0x07, 0x11, 0xea,
  0x04, 0x03, 0x0d, 0xf1, 0x0d, 0xe1, 0xf5, 0xf6, 0xf3, 0xf7, 0x00, 0x0b,
  0x01, 0x18, 0x37, 0xf7, 0x04, 0x0a, 0xfd, 0x0b, 0x1a, 0x2d, 0x46, 0x1a,
  0xf9, 0xf8, 0xfa, 0xb1, 0x11, 0x0d, 0x1e, 0xef, 0x0e, 0x00, 0xef, 0xac,
  0x00, 0x40, 0x1f, 0xef, 0x09, 0x11, 0xff, 0xdd, 0x06, 0xe0, 0xec, 0xef,
  0x02, 0x07, 0xfa, 0x0d, 0x0b, 0x00, 0xe4, 0xf4, 0x07, 0x01, 0x0a, 0x4f,
  0x0b, 0xef, 0xdc, 0xed, 0x10, 0xf8, 0x0d, 0x55, 0x14, 0xe9, 0xe6, 0xe1,
  0xff, 0x05, 0xfe, 0x30, 0xea, 0xfa, 0xf7, 0xec, 0x00, 0xfe, 0xf2, 0x43,
  0xf9, 0xf8, 0x11, 0xe5, 0xef, 0x14, 0xfa, 0x2a, 0x04, 0xf8, 0x06, 0xe4,
  0x12, 0x04, 0xf9, 0x19, 0xee, 0x06, 0xef, 0x12, 0x0a, 0xfb, 0xfa, 0x0d,
  0x0c, 0xdf, 0x1d, 0x07, 0x0c, 0x14, 0xfc, 0xfc, 0x09, 0x01, 0xf3, 0x23,
  0xfb, 0x08, 0x07, 0x17, 0x10, 0xc8, 0x14, 0x0f, 0xee, 0x03, 0x07, 0x0f,
  0xfe, 0x1c, 0x47, 0xe9, 0x12, 0x12, 0x02, 0x1f, 0x02, 0x06, 0x33, 0x02,
  0x08, 0xf8, 0x04, 0xdb, 0xfc, 0x42, 0xcb, 0xd5, 0xfe, 0x01, 0x02, 0xee,
  0xfb, 0xfc, 0x3c, 0xfe, 0x0a, 0xf7, 0xf1, 0xdc, 0x02, 0xd3, 0x21, 0xfd,
  0xfb, 0x01, 0x04, 0xf3, 0x0b, 0x0c, 0x11, 0x11, 0x09, 0x10, 0xff, 0xfc,
  0x03, 0x18, 0x34, 0x14, 0x0c, 0x04, 0x0c, 0xa9, 0x0a, 0x0b, 0x15, 0xf1,
  0xf5, 0x07, 0x08, 0xa9, 0x09, 0x0b, 0x02, 0xee, 0xfe, 0xff, 0xfa, 0xe6,
  0x0b, 0x10, 0xea, 0x0b, 0x0f, 0xf5, 0xfb, 0x1f, 0xef, 0xfa, 0x04, 0xfe,
  0xf8, 0x00, 0x09, 0x33, 0x06, 0xfa, 0xf6, 0xe2, 0x07, 0xf1, 0xfe, 0x59,
  0x0f, 0x03, 0xe4, 0xdf, 0x07, 0x00, 0xf7, 0x35, 0x03, 0xec, 0x20, 0x0d,
  0x09, 0xfb, 0x0f, 0x3a, 0xf6, 0x00, 0x06, 0xe3, 0xf9, 0x0b, 0x0d, 0x31,
  0xf6, 0xf5, 0x23, 0x01, 0x02, 0x04, 0x0a, 0x13, 0x0f, 0xf9, 0xe7, 0xfd,
  0x04, 0xfb, 0x03, 0x17, 0x17, 0xee, 0x00, 0xfb, 0xfc, 0xfa, 0x0d, 0x11,
  0x0a, 0xee, 0x13, 0x1b, 0x08, 0x11, 0x15, 0x21, 0xff, 0xde, 0x1a, 0x21,
  0x03, 0x04, 0xfc, 0x0a, 0x04, 0xfc, 0x1b, 0x13, 0x0b, 0x04, 0x11, 0x1c,
  0xfc, 0x18, 0x18, 0xe6, 0x09, 0x0d, 0x0b, 0xf6, 0xf7, 0xfa, 0xd7, 0xdd,
  0x04, 0x04, 0x0c, 0xeb, 0xfa, 0xf1, 0x00, 0x04, 0xf8, 0xfd, 0x10, 0xe4,
  0xf9, 0x03, 0xe7, 0x08, 0x02, 0x0c, 0x06, 0xe4, 0xfd, 0x18, 0x08, 0x1f,
  0x04, 0xff, 0x10, 0xf8, 0x0a, 0xf0, 0x20, 0xf6, 0xf9, 0x02, 0xfe, 0xb7,
  0x09, 0x16, 0x12, 0xfd, 0xf4, 0x00, 0x08, 0xc5, 0xfe, 0x38, 0x20, 0x08,
  0xf1, 0xfa, 0xfb, 0x01, 0x03, 0x0e, 0xee, 0x0a, 0xf3, 0x03, 0xfc, 0xfd,
  0xea, 0xf9, 0xee, 0xfc, 0xf6, 0xf9, 0x10, 0xfc, 0xf2, 0x04, 0xf1, 0xf6,
  0x03, 0xe7, 0x09, 0xf9, 0xfe, 0xeb, 0xfd, 0xed, 0x00, 0xfe, 0x06, 0xff,
  0x02, 0xf7, 0x02, 0xf6, 0xf5, 0x04, 0xfa, 0xed, 0x01, 0xe7, 0x0d, 0xf9,
  0xed, 0xfe, 0xfb, 0xef, 0xef, 0xfc, 0x07, 0x0a, 0x0d, 0xf5, 0xff, 0xf9,
  0xf9, 0xf9, 0xfa, 0xf4, 0x03, 0xff, 0xf9, 0xec, 0xfe, 0xec, 0x0a, 0xf8,
  0xf0, 0x05, 0xf0, 0xf6, 0xee, 0xfc, 0xfe, 0x03, 0x0a, 0x02, 0x06, 0xee,
  0xee, 0xfe, 0xf7, 0xf9, 0xfa, 0xef, 0xf2, 0xf4, 0xeb, 0xe8, 0xf9, 0xfa,
  0xfe, 0xe8, 0x0a, 0xf5, 0xff, 0xe8, 0xf2, 0xf6, 0x09, 0xe8, 0xf2, 0xf5,
  0x0f, 0xfb, 0x00, 0xfb, 0x04, 0xed, 0x09, 0x02, 0xf8, 0xeb, 0xff, 0x00,
  0x04, 0xee, 0x0d, 0xfb, 0x04, 0xfd, 0x00, 0xeb, 0x02, 0x00, 0x07, 0xe6,
  0xf5, 0xee, 0xfa, 0xfb, 0x07, 0xee, 0xfc, 0x03, 0xfd, 0xed, 0xfc, 0xf6,
  0x05, 0xf4, 0x0e, 0xeb, 0x08, 0xef, 0xf9, 0x00, 0xf1, 0xf0, 0x0d, 0xe9,
  0xfb, 0xf3, 0xfc, 0x0f, 0xed, 0xf9, 0xf6, 0xfd, 0x03, 0xfb, 0x0e, 0xf1,
  0xef, 0xf0, 0xfa, 0xfd, 0xfa, 0xee, 0xe0, 0x01, 0xf7, 0xf3, 0xef, 0xf8,
  0x0f, 0x02, 0xec, 0xff, 0x06, 0xeb, 0x0a, 0xea, 0xfa, 0xf3, 0xf2, 0xfd,
  0x0b, 0xef, 0x0a, 0xf0, 0x03, 0xf2, 0xfc, 0x0a, 0x0d, 0xea, 0x01, 0xed,
  0x0c, 0xf7, 0xea, 0xf2, 0x0f, 0x03, 0xf5, 0x0b, 0x07, 0xf0, 0xfa, 0x04,
  0x16, 0xea, 0xec, 0x03, 0x03, 0xf2, 0x01, 0x00, 0x02, 0x02, 0xf4, 0x02,
  0x02, 0xfd, 0xf5, 0xf2, 0x15, 0xf8, 0xfe, 0xfe, 0xf4, 0xe5, 0xfb, 0x0f,
  0x05, 0xf4, 0x03, 0x04, 0xf9, 0xf7, 0xe9, 0x02, 0x0c, 0xed, 0xf7, 0x09,
  0x01, 0xfd, 0xee, 0x08, 0xf1, 0xee, 0x0c, 0xfa, 0xff, 0xf3, 0x09, 0x12,
  0xf4, 0x05, 0xed, 0xfd, 0xfb, 0xe9, 0x05, 0x09, 0x09, 0x00, 0x04, 0xff,
  0x0c, 0xf9, 0x00, 0xef, 0x01, 0xf2, 0xf4, 0x07, 0xf2, 0x04, 0xed, 0x03,
  0xfd, 0xf7, 0xf8, 0xed, 0x08, 0xf0, 0x03, 0xf8, 0x0a, 0xe0, 0xf5, 0x04,
  0x02, 0x01, 0x02, 0xfc, 0xf6, 0xe2, 0x05, 0xff, 0x02, 0xeb, 0xea, 0xf3,
  0x05, 0xec, 0xed, 0xf4, 0xff, 0xfb, 0xf0, 0xfa, 0x03, 0xfc, 0x08, 0x0d,
  0x07, 0xed, 0xee, 0xf5, 0x02, 0xfa, 0xf4, 0x01, 0x0d, 0xfa, 0xcf, 0xee,
  0x0c, 0x01, 0xfb, 0xf4, 0x0c, 0x01, 0x02, 0xf9, 0xf6, 0xfe, 0xf8, 0x0d,
  0xee, 0xf1, 0xfe, 0x00, 0xfc, 0xfb, 0x03, 0x06, 0x0d, 0xf3, 0xe7, 0xfa,
  0x06, 0xed, 0xed, 0xff, 0x07, 0xff, 0xfd, 0x02, 0x05, 0xfb, 0xf4, 0x04,
  0xfe, 0xfa, 0xf8, 0x04, 0xfc, 0xe6, 0xf1, 0x07, 0x09, 0xea, 0x08, 0xfe,
  0x06, 0xfa, 0xf5, 0xf8, 0x07, 0xef, 0xf9, 0x01, 0xfe, 0xf6, 0xfe, 0xed,
  0x04, 0xf6, 0xfb, 0x0a, 0xfd, 0x01, 0xfc, 0x0a, 0xfa, 0x09, 0xf7, 0x06,
  0x11, 0xfa, 0xe4, 0x02, 0x04, 0x00, 0xf0, 0xfe, 0x06, 0xfc, 0xff, 0xfd,
  0xf9, 0xfe, 0xeb, 0x0d, 0x04, 0xf4, 0xf6, 0x08, 0xfc, 0x03, 0x01, 0x02,
  0xf8, 0xe5, 0xff, 0xfc, 0x01, 0x01, 0xfc, 0xf1, 0x07, 0x02, 0xf9, 0xfd,
  0xf6, 0x00, 0xf0, 0xff, 0xf4, 0xf5, 0xfd, 0x05, 0x0c, 0xf7, 0xf0, 0xfd,
  0x03, 0xee, 0x01, 0x00, 0xfd, 0xfa, 0xf6, 0x01, 0x09, 0xf6, 0xee, 0xf6,
  0xff, 0xfa, 0xf3, 0xef, 0x0f, 0x01, 0xf2, 0x03, 0xf8, 0xfc, 0xfc, 0x06,
  0xf4, 0xe9, 0xf2, 0xee, 0x0b, 0xea, 0xfd, 0x08, 0x0e, 0x00, 0x01, 0xf5,
  0x03, 0x0c, 0xdb, 0xdf, 0x00, 0x03, 0x02, 0xfe, 0x0c, 0x0b, 0xff, 0xf5,
  0xfd, 0xfc, 0x0a, 0xf3, 0x02, 0x0c, 0xf9, 0xeb, 0x06, 0xf7, 0xfa, 0x13,
  0xf4, 0xf1, 0x07, 0x04, 0xf0, 0xf0, 0xff, 0xf4, 0x07, 0xf1, 0xeb, 0x07,
  0xfb, 0x05, 0xfa, 0xf7, 0x01, 0xf9, 0xfe, 0xfe, 0xf8, 0x0c, 0xfa, 0x04,
  0x06, 0x01, 0xf9, 0xf7, 0x03, 0xf2, 0xf2, 0xfb, 0xf6, 0xf2, 0xf7, 0x07,
  0x03, 0xfe, 0x07, 0xf5, 0x0a, 0x03, 0xf1, 0xff, 0xef, 0xfe, 0x03, 0xf5,
  0xef, 0x02, 0xff, 0x05, 0xfb, 0x02, 0xff, 0x04, 0x02, 0x01, 0xf9, 0xf5,
  0x0c, 0xf4, 0xf8, 0x09, 0xff, 0xf8, 0xee, 0x05, 0xfc, 0x00, 0xfb, 0x01,
  0xfe, 0xfc, 0xf1, 0xfe, 0xf8, 0xe8, 0xf9, 0x01, 0xff, 0xf9, 0x03, 0xff,
  0x08, 0xee, 0x06, 0xf1, 0xfe, 0xf6, 0xff, 0xf6, 0xf4, 0xe8, 0xed, 0x0a,
  0x06, 0xf1, 0x00, 0xfa, 0xf9, 0x06, 0xfc, 0x01, 0xf5, 0x0d, 0xef, 0xfe,
  0xff, 0x09, 0xfe, 0xf0, 0xfb, 0xf8, 0xfe, 0xf0, 0xfd, 0x01, 0x06, 0x03,
  0xff, 0xf9, 0x00, 0xf1, 0xfe, 0xe8, 0x02, 0x02, 0xf6, 0x0f, 0x09, 0xfe,
  0xf5, 0xf7, 0x0c, 0xff, 0x09, 0x07, 0xe2, 0xfa, 0x0c, 0xf9, 0x0c, 0xf8,
  0x08, 0xfc, 0xe1, 0xf5, 0xf5, 0xff, 0x05, 0x09, 0xfa, 0x0b, 0xf9, 0xfa,
  0xf6, 0xfe, 0x0d, 0xfd, 0x07, 0xf6, 0xf5, 0xfd, 0x00, 0xf9, 0xee, 0x00,
  0x04, 0x0d, 0x07, 0xe9, 0xf1, 0xff, 0xf9, 0x07, 0x01, 0xf7, 0xf1, 0xf7,
  0x01, 0xf4, 0xf4, 0xf5, 0xf7, 0xec, 0xfd, 0xfa, 0xf4, 0x01, 0xf0, 0x03,
  0x14, 0xf5, 0xe9, 0xff, 0x00, 0x05, 0x04, 0xfa, 0x0c, 0xfe, 0x02, 0xf1,
  0x0c, 0x03, 0xfa, 0x10, 0x08, 0xfe, 0xeb, 0xf7, 0xee, 0xfd, 0x02, 0x08,
  0xff, 0xfd, 0xe7, 0xfb, 0x0f, 0x0a, 0xf4, 0xfe, 0x01, 0xfc, 0xff, 0xff,
  0x06, 0xf9, 0x02, 0xf2, 0x02, 0xf2, 0xf5, 0xf1, 0xf6, 0x08, 0x06, 0xf9,
  0x10, 0xf4, 0xec, 0x10, 0x09, 0x07, 0x00, 0x08, 0x09, 0xf6, 0x07, 0x03,
  0xf4, 0x08, 0xef, 0xfb, 0x08, 0xf1, 0xee, 0xfe, 0xfc, 0x02, 0x04, 0xed,
  0x0b, 0xfd, 0xee, 0x0d, 0x03, 0xf0, 0x0a, 0xf7, 0x12, 0x04, 0xef, 0xf6,
  0xfa, 0xf6, 0x02, 0xf5, 0x0f, 0xfe, 0xfe, 0xe4, 0x06, 0xfe, 0xfe, 0xed,
  0x0e, 0x00, 0x0b, 0x07, 0x08, 0xef, 0x0b, 0xf0, 0x00, 0xf8, 0xe4, 0xef,
  0xf0, 0xf3, 0x0c, 0xfb, 0x04, 0x0f, 0xf1, 0xf0, 0xf8, 0xf9, 0xf1, 0xf1,
  0x0d, 0x07, 0xfa, 0x01, 0xf3, 0xfd, 0xf8, 0xf1, 0x06, 0xfe, 0xfb, 0x05,
  0xf7, 0xf9, 0x0c, 0x04, 0x03, 0xf9, 0x00, 0x02, 0x15, 0x10, 0xfe, 0xfb,
  0x03, 0xfd, 0xf5, 0xf1, 0xf8, 0x08, 0xf6, 0x09, 0xfc, 0xf4, 0x01, 0x03,
  0xfe, 0x06, 0xec, 0x0e, 0x09, 0xf9, 0x00, 0xfb, 0xfc, 0x05, 0x0f, 0xff,
  0x06, 0xf1, 0xf1, 0xeb, 0xff, 0xed, 0xf8, 0xfc, 0xfb, 0xee, 0x04, 0xfa,
  0xf6, 0x02, 0xff, 0xf5, 0xf5, 0xff, 0xeb, 0xfa, 0xfe, 0xf6, 0xe6, 0x00,
  0x12, 0xee, 0xe5, 0xf5, 0xee, 0xf9, 0x0c, 0xf4, 0xf3, 0xf0, 0x07, 0xf4,
  0x02, 0xfb, 0x08, 0xf8, 0x01, 0xf8, 0xfc, 0x12, 0x10, 0xff, 0xfb, 0xfb,
  0xf4, 0xf7, 0x00, 0xfd, 0xf8, 0x04, 0xfe, 0x0d, 0x04, 0x08, 0xff, 0x05,
  0x11, 0xfe, 0xf7, 0x02, 0xf5, 0x06, 0x00, 0x09, 0xfd, 0xfb, 0x05, 0xf3,
  0x07, 0xfc, 0xe7, 0x04, 0xf5, 0x14, 0xfc, 0x0b, 0x03, 0xf2, 0xf7, 0xed,
  0xfa, 0xed, 0xfd, 0x03, 0xf5, 0xf5, 0x0a, 0xfc, 0xef, 0xf4, 0xff, 0xfd,
  0xff, 0x0c, 0xda, 0xf4, 0xf9, 0x05, 0xf8, 0xed, 0x0f, 0x09, 0xfb, 0xf6,
  0x07, 0xfb, 0x00, 0xf9, 0x19, 0xea, 0x04, 0x03, 0xf8, 0x03, 0x0b, 0xf8,
  0xe7, 0x03, 0xf1, 0x00, 0xf6, 0xe8, 0x04, 0x09, 0x06, 0xf0, 0xf4, 0x04,
  0xf7, 0xf3, 0xfc, 0xf4, 0x0b, 0xf0, 0xfc, 0xf4, 0xfb, 0xf3, 0xfa, 0xeb,
  0x01, 0x08, 0x0c, 0x0b, 0xf7, 0xff, 0x06, 0x04, 0x04, 0xf4, 0x17, 0xf9,
  0xfb, 0xf9, 0xfe, 0xfd, 0x06, 0x06, 0x04, 0xfd, 0x01, 0x12, 0xf2, 0x02,
  0xf2, 0x00, 0xf4, 0x08, 0xf7, 0xf8, 0x05, 0x08, 0x06, 0xfa, 0xe2, 0xf7,
  0xfe, 0x05, 0xea, 0xfb, 0x09, 0xfe, 0xeb, 0xeb, 0xfa, 0xfb, 0xff, 0x05,
  0x10, 0xee, 0xfa, 0xfa, 0x09, 0xf5, 0xf4, 0x0a, 0x0b, 0xf0, 0x05, 0xff,
  0x0e, 0x0e, 0xec, 0x0a, 0xfc, 0xf4, 0xfe, 0xfb, 0x07, 0xf8, 0xfe, 0xfb,
  0x00, 0x02, 0xec, 0xfa, 0x05, 0x0e, 0xf6, 0xff, 0x04, 0xf6, 0xf9, 0xff,
  0xfb, 0x04, 0xf2, 0x00, 0x0b, 0x05, 0xf1, 0x05, 0x0b, 0xfd, 0xfd, 0x09,
  0xfd, 0x09, 0xfa, 0xef, 0x05, 0xfd, 0x0b, 0x02, 0x00, 0xfe, 0x01, 0x0a,
  0xee, 0x06, 0x04, 0xf7, 0xff, 0xfe, 0xee, 0xf4, 0xff, 0xe6, 0xfd, 0x04,
  0xfc, 0x02, 0x00, 0xee, 0x02, 0xe6, 0xf5, 0xfa, 0x07, 0x03, 0xff, 0xf1,
  0xf7, 0xf6, 0x06, 0xf3, 0x04, 0xfd, 0xfb, 0x08, 0x03, 0x01, 0x0a, 0xf7,
  0x03, 0xf5, 0xf2, 0x05, 0x00, 0xf7, 0xf6, 0xf9, 0x0d, 0x09, 0x00, 0xf2,
  0xed, 0xfb, 0xfb, 0x03, 0xfd, 0xf7, 0x0f, 0x02, 0xfa, 0xef, 0xfe, 0x06,
  0x02, 0xf4, 0x07, 0x06, 0x04, 0x0e, 0xfa, 0xf4, 0x01, 0x02, 0xec, 0xed,
  0x02, 0xf1, 0x00, 0x0a, 0xfd, 0xec, 0xff, 0x0b, 0xfa, 0xfb, 0x1c, 0x0a,
  0x00, 0xf6, 0xed, 0xfb, 0x06, 0xfc, 0xfe, 0x0b, 0x0f, 0xeb, 0x00, 0xfb,
  0xf9, 0xf4, 0xff, 0xfa, 0xfb, 0x02, 0x01, 0x06, 0xf8, 0x02, 0xfc, 0x00,
  0x0c, 0xeb, 0x0e, 0xfe, 0xf8, 0x12, 0xf6, 0x04, 0x00, 0x03, 0xe7, 0x08,
  0xfe, 0x00, 0x06, 0x01, 0xff, 0xf5, 0xfc, 0x01, 0x07, 0x0f, 0x06, 0x12,
  0x09, 0xf5, 0xff, 0x03, 0xf6, 0x01, 0x11, 0x03, 0xfc, 0xf9, 0xf3, 0x0b,
  0xfe, 0x05, 0xf0, 0x0d, 0x08, 0xf9, 0x02, 0xfa, 0xfb, 0x02, 0x0e, 0x09,
  0x04, 0x06, 0xf2, 0x00, 0x0d, 0xec, 0xf7, 0x10, 0xf6, 0xf8, 0xdd, 0xfd,
  0x04, 0x04, 0xff, 0x07, 0xf4, 0x04, 0x00, 0xfb, 0xec, 0x03, 0xf9, 0xf2,
  0x13, 0x02, 0xea, 0x05, 0xfc, 0xf1, 0xec, 0xf8, 0xfc, 0xee, 0xf3, 0x0d,
  0x00, 0x08, 0x01, 0x00, 0xf2, 0x08, 0xf8, 0xfb, 0x04, 0xfe, 0x05, 0xfb,
  0x17, 0xf4, 0xf4, 0xef, 0x03, 0xf4, 0xf3, 0x0d, 0x0a, 0xf8, 0x08, 0x04,
  0xfd, 0x08, 0xfe, 0xfa, 0xfe, 0x02, 0x1e, 0x18, 0x04, 0xfc, 0x06, 0x06,
  0x15, 0x00, 0xe6, 0xed, 0xf6, 0x00, 0x02, 0xfe, 0xef, 0xf6, 0x03, 0xf7,
  0x00, 0x0e, 0x14, 0x06, 0x0f, 0x17, 0xed, 0xfb, 0xf9, 0xf5, 0xeb, 0xfa,
  0xf3, 0xed, 0xf1, 0xf5, 0xf8, 0x02, 0x03, 0x0a, 0x0e, 0xea, 0xf8, 0xed,
  0xf0, 0xfd, 0x03, 0xff, 0x00, 0x00, 0x18, 0xf8, 0xfa, 0x15, 0xff, 0x04,
  0xfe, 0xfd, 0xec, 0x09, 0xfc, 0x01, 0x06, 0xf5, 0x09, 0xf4, 0xf5, 0x0d,
  0xef, 0xfe, 0x05, 0x0d, 0xfb, 0xfc, 0xfe, 0xfd, 0xf8, 0x11, 0xf4, 0xf4,
  0x09, 0xf4, 0xf8, 0xf8, 0x04, 0x06, 0xfd, 0x1a, 0x04, 0xeb, 0xf2, 0xeb,
  0xf9, 0x0e, 0x08, 0xfc, 0x03, 0x04, 0xf1, 0xf4, 0xfa, 0x01, 0x07, 0x09,
  0x01, 0x0b, 0xe3, 0xf8, 0xee, 0xf8, 0x07, 0x02, 0x02, 0xf8, 0xfb, 0xf1,
  0x09, 0x03, 0xf6, 0x09, 0x1d, 0xf7, 0xfd, 0x0a, 0xfe, 0xf2, 0xff, 0xed,
  0x03, 0x08, 0x07, 0xf4, 0xf8, 0xed, 0x0f, 0x0b, 0xec, 0x10, 0xf6, 0x0c,
  0xf1, 0xfb, 0x03, 0x0c, 0x1e, 0x02, 0xfa, 0xe4, 0xfd, 0xf6, 0xf0, 0x0a,
  0x0b, 0x09, 0x05, 0x03, 0x00, 0xf1, 0xf0, 0x09, 0xeb, 0xfe, 0x1e, 0xf5,
  0x03, 0x00, 0x02, 0x0c, 0x0b, 0xf5, 0xfa, 0x07, 0x0a, 0xf4, 0x03, 0xf6,
  0x05, 0xf4, 0xf5, 0xf1, 0x02, 0x07, 0x03, 0xf5, 0xfa, 0xf7, 0xec, 0x04,
  0xfe, 0x0f, 0xff, 0x07, 0x09, 0xe6, 0xf6, 0xf6, 0xf4, 0xf5, 0xfe, 0x05,
  0x01, 0xe8, 0x01, 0x08, 0x0c, 0x07, 0xf9, 0xfa, 0x07, 0xe5, 0x13, 0x0d,
  0x01, 0xf8, 0x10, 0x00, 0x0d, 0xed, 0x01, 0x09, 0xf7, 0x05, 0x13, 0x01,
  0x00, 0xe7, 0xe9, 0x07, 0xff, 0x15, 0x03, 0xea, 0x09, 0x08, 0xef, 0xf6,
  0xfd, 0x02, 0x0c, 0x05, 0xfc, 0xea, 0xe5, 0xe9, 0xfd, 0x04, 0x07, 0x09,
  0x0b, 0x04, 0xfc, 0xff, 0xf5, 0x07, 0x12, 0xf8, 0xf4, 0xf4, 0x05, 0x00,
  0xff, 0xff, 0x0b, 0xfa, 0xf5, 0x07, 0xdb, 0xf1, 0x0f, 0x01, 0x01, 0xf8,
  0xf9, 0xf9, 0xef, 0xff, 0x00, 0xf0, 0x0b, 0xf1, 0x0b, 0xfa, 0xfe, 0xf6,
  0xf6, 0xfa, 0x05, 0xfe, 0x01, 0x02, 0x02, 0xfb, 0xf9, 0xf6, 0xf5, 0xfd,
  0xf2, 0x0c, 0xf0, 0xf5, 0x08, 0xf5, 0x05, 0x0b, 0x1a, 0xf0, 0xf3, 0xff,
  0x07, 0x00, 0xff, 0xf7, 0x10, 0xed, 0x02, 0x03, 0x07, 0xee, 0xee, 0xfb,
  0x02, 0xf2, 0x1d, 0xff, 0xff, 0xfe, 0x04, 0x05, 0x09, 0xe6, 0xf1, 0x00,
  0x05, 0xfd, 0x00, 0xf7, 0x11, 0xf3, 0x01, 0x02, 0xf7, 0x04, 0x15, 0x01,
  0xe7, 0x00, 0xfe, 0x01, 0xf8, 0x08, 0xef, 0x06, 0x0a, 0xf4, 0x00, 0xf8,
  0xfb, 0x00, 0x01, 0x06, 0x14, 0xf5, 0xfc, 0xfe, 0xfd, 0x0c, 0x0d, 0x04,
  0x0d, 0xe5, 0xe5, 0x02, 0x08, 0x07, 0x00, 0x05, 0x0e, 0xe9, 0xfb, 0xfe,
  0xf9, 0x02, 0xfd, 0x03, 0xfb, 0xfb, 0x00, 0x01, 0xf2, 0x0d, 0xf5, 0x05,
  0xfa, 0xf7, 0x05, 0x05, 0xf0, 0x13, 0x08, 0x06, 0x04, 0x03, 0xf2, 0x0d,
  0x0c, 0x0a, 0xfd, 0x08, 0x10, 0xea, 0xf7, 0xfc, 0x05, 0x10, 0x07, 0xf0,
  0x03, 0xf0, 0x08, 0xf3, 0x08, 0x09, 0x00, 0xfe, 0xfe, 0xf9, 0xd5, 0xfc,
  0x0c, 0x0e, 0x0c, 0x00, 0x00, 0x06, 0xf8, 0xfb, 0x07, 0x06, 0xf3, 0xeb,
  0x15, 0xf0, 0xf1, 0xf7, 0x05, 0x02, 0xf8, 0x05, 0x04, 0xf2, 0xf4, 0xf2,
  0x11, 0xfc, 0x15, 0xfd, 0xff, 0x19, 0xee, 0x06, 0xff, 0xf0, 0x04, 0x0e,
  0x18, 0x0a, 0x05, 0xe7, 0xfb, 0xfb, 0xf3, 0xff, 0x09, 0xef, 0xf8, 0xfc,
  0xfd, 0x01, 0xec, 0xec, 0x0f, 0xf7, 0x1b, 0x0b, 0x00, 0xff, 0x02, 0xfd,
  0x05, 0xf1, 0xfb, 0x09, 0xf0, 0x12, 0x04, 0xf3, 0xfd, 0xe9, 0xf5, 0x03,
  0xf4, 0xfd, 0x19, 0x16, 0xfe, 0x08, 0xe8, 0xfb, 0xfd, 0x02, 0xfd, 0xfc,
  0x08, 0xf9, 0xe8, 0xf8, 0x0f, 0xf8, 0xf8, 0x00, 0x07, 0xee, 0xfd, 0x00,
  0xf2, 0x0a, 0x04, 0xf4, 0xfb, 0xf1, 0x04, 0x18, 0xf0, 0xf4, 0xf7, 0x06,
  0x06, 0xf8, 0xf9, 0x02, 0xf3, 0x0b, 0x05, 0x06, 0x02, 0xea, 0xf1, 0xf8,
  0x07, 0x02, 0x04, 0xff, 0xf3, 0xff, 0xf7, 0x05, 0x0d, 0x02, 0x0b, 0xf9,
  0x06, 0xfb, 0xf7, 0x02, 0x03, 0x06, 0xf8, 0xf7, 0xef, 0xfd, 0xfc, 0x0d,
  0xfa, 0x14, 0x11, 0x09, 0xf5, 0xf2, 0xf8, 0xfa, 0xf5, 0x00, 0x03, 0x05,
  0x01, 0xf6, 0x09, 0xf6, 0xfd, 0x03, 0x0b, 0x09, 0xfd, 0x0a, 0x04, 0xf0,
  0x00, 0xfa, 0x06, 0x02, 0x04, 0xe7, 0x04, 0xfb, 0xfe, 0x0d, 0xe5, 0xf0,
  0xf8, 0x08, 0xf2, 0xfe, 0x05, 0xf6, 0x09, 0x03, 0xf1, 0x0b, 0xdc, 0xf6,
  0xfd, 0xfb, 0xff, 0xfb, 0x0a, 0x0f, 0xe4, 0xeb, 0x10, 0xef, 0x0a, 0xf6,
  0x1c, 0x0f, 0x05, 0xf9, 0xff, 0xf7, 0xf8, 0xf9, 0x02, 0xfa, 0x10, 0x1c,
  0x0b, 0xec, 0x06, 0x05, 0x00, 0xf5, 0xf9, 0xfa, 0xf1, 0xff, 0x07, 0xfd,
  0x07, 0xf5, 0xed, 0xf6, 0x03, 0xff, 0x14, 0x00, 0xe9, 0x0f, 0xf0, 0xf6,
  0xff, 0x07, 0xfa, 0x00, 0x1a, 0xe9, 0xf5, 0x06, 0xfb, 0xfa, 0xf9, 0xfd,
  0x03, 0xf9, 0xf9, 0x00, 0x11, 0x03, 0xfa, 0x0f, 0xec, 0xe7, 0xfb, 0xf7,
  0xfa, 0x01, 0x0c, 0x14, 0x07, 0xec, 0xff, 0xf7, 0xf0, 0xff, 0x10, 0xf4,
  0x00, 0xed, 0xe8, 0x01, 0x08, 0xf5, 0x0b, 0x03, 0x0d, 0x06, 0x00, 0xf6,
  0xf2, 0xf9, 0x11, 0xec, 0x01, 0x05, 0xef, 0xfa, 0xfe, 0xf5, 0xfb, 0x06,
  0xf1, 0xf3, 0x09, 0x0b, 0xf3, 0xfe, 0x02, 0x07, 0x06, 0x02, 0x09, 0x03,
  0x0a, 0x07, 0xff, 0xee, 0xfc, 0x0a, 0xfe, 0x04, 0xf3, 0xee, 0x04, 0xfc,
  0x04, 0x07, 0xfd, 0xee, 0x01, 0xf6, 0x06, 0x0d, 0x0b, 0x09, 0xf3, 0xfc,
  0xfd, 0xf7, 0x02, 0x01, 0xfc, 0xf1, 0x01, 0x07, 0xf7, 0x10, 0x18, 0x0b,
  0xeb, 0x0f, 0xf2, 0xf5, 0x0d, 0x07, 0x03, 0x04, 0x0a, 0x16, 0xf5, 0x08,
  0xff, 0x08, 0xf3, 0x08, 0x10, 0x0f, 0x07, 0xfb, 0xf9, 0xf5, 0xec, 0x06,
  0x0f, 0xfe, 0x0a, 0x0b, 0x08, 0xf1, 0x06, 0xfc, 0xeb, 0xf0, 0x09, 0xff,
  0x0a, 0x00, 0xf8, 0x08, 0xf6, 0xfe, 0x03, 0xf3, 0x08, 0xec, 0x16, 0xf2,
  0xef, 0xf7, 0x0e, 0x00, 0x10, 0x0a, 0xeb, 0xf8, 0x04, 0xf2, 0xe5, 0x0a,
  0x00, 0xf0, 0xf1, 0xec, 0xf0, 0x06, 0xed, 0x01, 0x11, 0x09, 0xf4, 0xfc,
  0xff, 0xf5, 0xfa, 0x0a, 0xf3, 0x15, 0x10, 0x10, 0x05, 0x01, 0xe2, 0xff,
  0x10, 0x12, 0x0d, 0xf3, 0xf6, 0xfa, 0xfb, 0x0f, 0xec, 0x13, 0x06, 0xf8,
  0x0a, 0xe9, 0xf3, 0xf3, 0xfd, 0xfe, 0x21, 0x01, 0xfd, 0x03, 0xea, 0x04,
  0x01, 0xfd, 0xff, 0xfa, 0xff, 0xfc, 0xec, 0x09, 0x04, 0xfd, 0x0a, 0xf2,
  0xf8, 0xfd, 0xfd, 0x0a, 0xfe, 0xef, 0x10, 0x01, 0x02, 0x09, 0xf9, 0xfc,
  0x08, 0x07, 0x00, 0xf4, 0x0f, 0xf6, 0x09, 0xf3, 0xfd, 0x02, 0xfd, 0xfb,
  0x00, 0x07, 0xf0, 0x06, 0x0b, 0xfe, 0xf1, 0xfb, 0xf8, 0x01, 0xf4, 0x0a,
  0xee, 0xfe, 0x10, 0x06, 0xe8, 0x05, 0xed, 0xfe, 0x02, 0xf0, 0x02, 0x00,
  0x13, 0xfe, 0xf3, 0xff, 0x09, 0xef, 0x02, 0x05, 0x09, 0xf7, 0xf9, 0xfd,
  0xeb, 0x06, 0xff, 0x01, 0x0e, 0x0c, 0x0e, 0x1f, 0xf9, 0xf4, 0xfe, 0xec,
  0xf9, 0xeb, 0xf3, 0xf9, 0xff, 0x01, 0xfc, 0x02, 0xfe, 0x04, 0x01, 0xec,
  0xfb, 0xe8, 0x14, 0xf5, 0x01, 0xe9, 0x0a, 0xf4, 0xf9, 0x0e, 0x05, 0xfe,
  0xf7, 0xf5, 0x06, 0x10, 0xfc, 0xf3, 0xfa, 0x12, 0xf7, 0xf2, 0xf8, 0xf9,
  0xed, 0x0b, 0xf9, 0xf3, 0x09, 0xf2, 0xe9, 0x0e, 0x12, 0x06, 0x0c, 0x08,
  0x11, 0xf3, 0x04, 0xf5, 0x0a, 0x04, 0xf2, 0xff, 0x0e, 0xfa, 0xf2, 0x02,
  0xfc, 0x07, 0xff, 0x04, 0x14, 0x02, 0xea, 0x09, 0xff, 0x04, 0x06, 0x0c,
  0xff, 0xf6, 0xf5, 0x0c, 0x0a, 0x15, 0x01, 0xf9, 0x01, 0xed, 0xec, 0x0f,
  0xec, 0xf7, 0x03, 0xfb, 0xfb, 0xf5, 0x07, 0xff, 0x0d, 0xfe, 0x0b, 0xf7,
  0xfd, 0xfa, 0xee, 0xf6, 0xfc, 0xef, 0x0d, 0xf5, 0x0e, 0xe6, 0x08, 0xee,
  0xf9, 0xf2, 0x0c, 0x06, 0x0b, 0xef, 0xf5, 0xfd, 0x0d, 0xf6, 0x05, 0xfa,
  0xf3, 0xe8, 0x10, 0x0c, 0x03, 0x0d, 0x10, 0x03, 0xff, 0x07, 0xf1, 0x04,
  0xfa, 0x09, 0x0e, 0x0e, 0x0e, 0xf6, 0xfe, 0xf2, 0x00, 0xf0, 0xff, 0xf5,
  0xfb, 0xf7, 0x04, 0xe4, 0x00, 0xfd, 0xf0, 0xf1, 0xf1, 0xf9, 0x01, 0x08,
  0xfb, 0x05, 0xfc, 0xe2, 0xf8, 0xf7, 0xe6, 0xf8, 0xfc, 0xf9, 0x0f, 0xf9,
  0x15, 0x0a, 0x02, 0x00, 0x04, 0x07, 0x03, 0xe9, 0x03, 0xf8, 0x08, 0xfa,
  0xf5, 0x09, 0x01, 0xef, 0x05, 0x01, 0x04, 0x27, 0x07, 0x08, 0x0b, 0xfc,
  0xf5, 0xec, 0xee, 0x09, 0x06, 0x06, 0x04, 0xf0, 0x10, 0xf4, 0xf6, 0x01,
  0x0f, 0x00, 0x09, 0x0b, 0x0f, 0xf8, 0xec, 0x01, 0xf4, 0x0c, 0xff, 0xfa,
  0xf9, 0xf1, 0xef, 0x09, 0x04, 0x04, 0x01, 0x0c, 0x05, 0xf6, 0xea, 0xfd,
  0x06, 0x01, 0x05, 0x19, 0xfc, 0xf4, 0xf9, 0xfe, 0x0a, 0x11, 0x0f, 0xf9,
  0x03, 0x0a, 0x00, 0x02, 0x09, 0xef, 0x0d, 0xfd, 0xf6, 0xfd, 0x03, 0xf7,
  0x02, 0xfb, 0xf9, 0xfd, 0xfd, 0xfb, 0xeb, 0x03, 0xfb, 0xfa, 0xf9, 0x06,
  0xf7, 0xf2, 0x11, 0xfd, 0xec, 0xed, 0xea, 0x06, 0x05, 0xfa, 0x03, 0x03,
  0xff, 0xf0, 0x00, 0xf2, 0xf0, 0xf2, 0xee, 0x01, 0x06, 0xf7, 0x03, 0x11,
  0x02, 0x0d, 0xdd, 0xff, 0xf9, 0xfc, 0xf2, 0x00, 0x05, 0xea, 0xfb, 0xf2,
  0x05, 0x06, 0x08, 0xfe, 0xfe, 0xf8, 0xf6, 0xfe, 0x00, 0xf9, 0xfc, 0x16,
  0x06, 0x07, 0xfc, 0x10, 0x12, 0xf5, 0x08, 0x06, 0xf0, 0x04, 0x04, 0xef,
  0x0d, 0xf9, 0x12, 0xfd, 0x21, 0x00, 0xf1, 0xed, 0xfd, 0xf6, 0xfe, 0xfe,
  0x04, 0xea, 0x36, 0x08, 0x0b, 0x0f, 0xfa, 0xfa, 0xfe, 0x01, 0x03, 0x20,
  0x02, 0xf5, 0xf9, 0xf1, 0xf5, 0x05, 0x16, 0x0b, 0x00, 0x09, 0xf7, 0x03,
  0xf3, 0xf1, 0x02, 0x05, 0x02, 0xf4, 0x0c, 0x10, 0x03, 0xf6, 0xee, 0xf2,
  0x08, 0x06, 0xeb, 0xf6, 0x09, 0xf7, 0xee, 0xee, 0xff, 0xf9, 0x1d, 0x01,
  0x06, 0xf1, 0xf5, 0xff, 0x0b, 0x03, 0x00, 0xf3, 0xf7, 0xfd, 0x01, 0xfe,
  0x10, 0x08, 0x17, 0x13, 0x09, 0xfd, 0xf0, 0x07, 0x05, 0xfa, 0x0f, 0x04,
  0x00, 0xf9, 0xff, 0xf4, 0xf3, 0x01, 0x06, 0x01, 0xfe, 0xf6, 0x09, 0xe9,
  0x08, 0x01, 0x02, 0x0e, 0x08, 0xfc, 0x0a, 0xef, 0xff, 0xfa, 0xfe, 0xfe,
  0x00, 0x06, 0x01, 0x09, 0xf5, 0xf5, 0x03, 0xf6, 0xea, 0xf1, 0xfc, 0x0c,
  0x13, 0x02, 0xfc, 0x14, 0xf6, 0x10, 0xf8, 0xeb, 0xee, 0xff, 0xfd, 0xfd,
  0xfe, 0x0d, 0xf1, 0x04, 0x05, 0xf8, 0xf2, 0xe8, 0xf3, 0x0b, 0x19, 0xfa,
  0xf2, 0x06, 0x03, 0x16, 0x03, 0x22, 0xe9, 0x0e, 0x0a, 0xff, 0xf5, 0xf3,
  0xfa, 0x04, 0x13, 0xfa, 0xfe, 0xfe, 0xfc, 0xf6, 0x0a, 0x09, 0xfa, 0xe6,
  0xff, 0x00, 0xec, 0xf6, 0x01, 0xef, 0x43, 0xfb, 0x06, 0xed, 0x04, 0x0b,
  0x18, 0xfe, 0x19, 0x1a, 0xf8, 0xfd, 0xed, 0xf6, 0xfa, 0xfd, 0x15, 0x04,
  0x0d, 0xf9, 0x07, 0xfe, 0xf5, 0xfb, 0x03, 0x0b, 0x08, 0xf8, 0x12, 0x09,
  0x06, 0x04, 0xf5, 0xf7, 0x05, 0x05, 0x00, 0xf3, 0x03, 0x07, 0xf7, 0x0e,
  0xf7, 0xf8, 0x08, 0x07, 0xff, 0xf8, 0x10, 0xfb, 0xf5, 0x0a, 0xfe, 0xff,
  0xf3, 0xf1, 0x12, 0xfc, 0xf4, 0x01, 0x17, 0x0a, 0xf0, 0xf6, 0xf4, 0xee,
  0xfa, 0xfc, 0x05, 0xff, 0x04, 0xf7, 0xfe, 0xf4, 0x0c, 0xfa, 0xf6, 0x05,
  0x09, 0xf2, 0xf1, 0xf9, 0x01, 0x05, 0xf8, 0x09, 0x0e, 0xee, 0x09, 0x14,
  0xf9, 0xf0, 0xee, 0xfe, 0xef, 0xfe, 0xe8, 0x12, 0x00, 0xf7, 0x10, 0xfc,
  0xf0, 0x04, 0x03, 0xfa, 0xee, 0xf5, 0xf7, 0x0e, 0x17, 0x0b, 0xe8, 0xfa,
  0xff, 0xf6, 0xf9, 0xf6, 0xfd, 0xf2, 0xf6, 0x0e, 0x0d, 0x03, 0xf4, 0xff,
  0xf6, 0xef, 0x07, 0x08, 0xfe, 0x0d, 0x0d, 0x26, 0xfe, 0x0b, 0xda, 0x00,
  0x08, 0x0b, 0xf3, 0xf1, 0xfa, 0xe7, 0x0b, 0xe5, 0xfa, 0xfd, 0x14, 0x12,
  0x1b, 0x15, 0xf8, 0xff, 0x07, 0xf9, 0x07, 0xf9, 0x14, 0xeb, 0x32, 0xfa,
  0x02, 0xea, 0x03, 0xfe, 0xf9, 0xf3, 0x19, 0x03, 0x0a, 0x0e, 0xfd, 0x02,
  0xf7, 0xec, 0x08, 0x04, 0x0c, 0xfd, 0xf9, 0x05, 0xfe, 0x03, 0x14, 0x0e,
  0xf0, 0x04, 0x07, 0x06, 0x05, 0xf6, 0xf1, 0x03, 0xff, 0xfa, 0x0a, 0x0a,
  0x04, 0x09, 0xf9, 0xf1, 0xf9, 0xfc, 0x0f, 0xf9, 0x06, 0xef, 0x00, 0xfd,
  0xf8, 0xff, 0xf2, 0x03, 0xf0, 0xff, 0x0c, 0xf8, 0xfd, 0x04, 0x0e, 0x01,
  0x0c, 0x07, 0x06, 0xeb, 0xf8, 0x02, 0xf8, 0x04, 0x0d, 0x01, 0xf7, 0xfc,
  0xfb, 0xfb, 0xfc, 0xff, 0xfb, 0xfe, 0xf0, 0xf8, 0x0a, 0xfb, 0xff, 0xf9,
  0x18, 0xfc, 0xf6, 0x08, 0xfc, 0xf3, 0xf7, 0xf8, 0xfd, 0x02, 0xe8, 0x0c,
  0xee, 0xfc, 0x15, 0x00, 0xf9, 0x02, 0xed, 0xf2, 0x09, 0x00, 0x0e, 0x1c,
  0x0d, 0xf8, 0xfa, 0xf6, 0x09, 0xf3, 0x04, 0x08, 0xef, 0xe5, 0xf2, 0x16,
  0x0a, 0xfe, 0x10, 0xfe, 0x01, 0x02, 0x08, 0xfe, 0xf0, 0xff, 0x05, 0x22,
  0xfd, 0x0d, 0xfd, 0x07, 0x13, 0xfa, 0x03, 0xfd, 0x04, 0xf2, 0xfe, 0x01,
  0xfd, 0xff, 0x22, 0x1d, 0x05, 0x0e, 0xee, 0xf1, 0xfb, 0xf8, 0xeb, 0x01,
  0x0c, 0xfb, 0x29, 0xef, 0x00, 0xf4, 0x02, 0xee, 0xfb, 0xf8, 0x0e, 0x13,
  0x06, 0xf4, 0xf6, 0x03, 0x0d, 0xfe, 0x0a, 0x00, 0xfd, 0xfd, 0x05, 0x04,
  0xf6, 0xf8, 0xfb, 0xeb, 0xf6, 0x0a, 0x10, 0x07, 0x02, 0xfa, 0xf4, 0xfe,
  0xfe, 0x06, 0x01, 0xf9, 0xff, 0x08, 0x0e, 0xf9, 0x00, 0x02, 0x10, 0xf4,
  0x02, 0xe8, 0x01, 0xf8, 0xfb, 0xf7, 0xff, 0xf8, 0xf8, 0xe2, 0x0c, 0x08,
  0xff, 0x02, 0x05, 0x03, 0xf1, 0xf0, 0xfe, 0xf3, 0x01, 0x09, 0xfb, 0x03,
  0x0f, 0xef, 0xe9, 0xfc, 0x08, 0xfb, 0x10, 0x00, 0x11, 0xf1, 0x09, 0xfc,
  0xfd, 0xf9, 0xf1, 0xf0, 0x0a, 0xf8, 0x04, 0x0e, 0xfb, 0xfa, 0xfe, 0xfb,
  0xed, 0x08, 0xf5, 0x08, 0x01, 0x09, 0xf8, 0x0e, 0x0d, 0x03, 0xf6, 0xff,
  0x08, 0xf5, 0x01, 0x02, 0x02, 0xf6, 0xef, 0xfe, 0x00, 0xf4, 0xfb, 0x12,
  0xed, 0xfd, 0x04, 0x1d, 0xfb, 0xf1, 0x06, 0xf9, 0x0a, 0xef, 0x12, 0xf4,
  0xfb, 0x04, 0x0f, 0x0a, 0x05, 0x13, 0xe6, 0xf2, 0x15, 0xfd, 0xf9, 0x0d,
  0xe5, 0xf6, 0x0e, 0xf6, 0xfb, 0x04, 0x09, 0x16, 0x0f, 0x17, 0xe5, 0xfd,
  0x0c, 0x07, 0xf7, 0xec, 0x05, 0xf4, 0x40, 0x01, 0x01, 0x0c, 0xf2, 0xf0,
  0x08, 0xfa, 0x16, 0x0c, 0x07, 0xfd, 0xff, 0xe9, 0xfa, 0xed, 0x1d, 0x00,
  0x04, 0xfa, 0x0c, 0xf8, 0xf3, 0xec, 0x02, 0xfd, 0x02, 0xff, 0xfe, 0x08,
  0x0d, 0x03, 0xfe, 0xed, 0xf9, 0x07, 0xf5, 0xf7, 0xf9, 0x03, 0x01, 0xfa,
  0xf2, 0x01, 0x0e, 0x04, 0x0a, 0xf1, 0x0e, 0xfd, 0xf2, 0x02, 0xf0, 0xfd,
  0xf0, 0xef, 0x10, 0xee, 0x0e, 0xfb, 0x18, 0xfd, 0x02, 0xf5, 0xfa, 0xfe,
  0x04, 0x09, 0xf7, 0xed, 0xfd, 0x01, 0xfd, 0xf1, 0x0e, 0x00, 0x08, 0xf0,
  0x07, 0xfa, 0x0b, 0xfe, 0xfc, 0xf2, 0xf7, 0x07, 0x07, 0x0c, 0xdb, 0x13,
  0xf7, 0x01, 0x02, 0xef, 0xf5, 0x05, 0xe7, 0x0f, 0xf1, 0x07, 0x16, 0x12,
  0x00, 0x08, 0xf0, 0xf5, 0x0c, 0x06, 0x05, 0xfe, 0x06, 0xf1, 0xec, 0x01,
  0xed, 0x03, 0xf6, 0xff, 0xf1, 0xeb, 0xe5, 0x12, 0x08, 0x04, 0x07, 0xfd,
  0x08, 0xf5, 0x14, 0xff, 0x0b, 0x04, 0x1e, 0x14, 0xf9, 0x12, 0xea, 0xf9,
  0xf6, 0xfd, 0xe6, 0x07, 0xec, 0xfb, 0x11, 0xfe, 0x05, 0x08, 0x17, 0x11,
  0xf3, 0x22, 0xe0, 0xf9, 0xf9, 0xf8, 0x01, 0xf0, 0x0c, 0xf5, 0x24, 0x07,
  0xed, 0x0e, 0x09, 0xfb, 0x0c, 0xf5, 0x1c, 0x01, 0xef, 0xff, 0x0b, 0xf4,
  0x05, 0xee, 0x0a, 0x0d, 0xfa, 0xef, 0x0e, 0x05, 0x06, 0x02, 0x12, 0x09,
  0x0a, 0x0c, 0xf7, 0xf3, 0xef, 0xf3, 0xf1, 0x06, 0xf7, 0xf4, 0x07, 0xfc,
  0xfb, 0xf8, 0x11, 0x03, 0xfd, 0xf7, 0x06, 0x10, 0xfc, 0xf8, 0x0b, 0xec,
  0x02, 0xfb, 0xf2, 0xf0, 0xf9, 0xf1, 0x0f, 0xef, 0xfd, 0xf7, 0x03, 0x0a,
  0x00, 0xfa, 0xfe, 0xef, 0xf7, 0x00, 0x07, 0x04, 0xfd, 0xfe, 0xf8, 0xfb,
  0x08, 0x09, 0x02, 0xf5, 0x03, 0xec, 0x0c, 0x0e, 0xf8, 0x07, 0x04, 0x04,
  0xef, 0x07, 0xef, 0x1a, 0x03, 0xfb, 0xfa, 0xf3, 0x03, 0xfb, 0xf2, 0x07,
  0x00, 0xfe, 0x14, 0x12, 0xf6, 0x0c, 0xe0, 0xf5, 0x05, 0x06, 0x09, 0x01,
  0x07, 0xf0, 0xf5, 0x02, 0xf4, 0xfd, 0xf2, 0xf8, 0xfc, 0xed, 0xe8, 0x0a,
  0xf4, 0x03, 0x02, 0xf9, 0x0a, 0xf4, 0x19, 0xf8, 0x09, 0xfe, 0x03, 0x2c,
  0xf7, 0x14, 0xe3, 0x11, 0xf3, 0x0e, 0xfc, 0x09, 0x00, 0xf5, 0x03, 0x13,
  0xfa, 0xed, 0x06, 0x14, 0xfd, 0x0e, 0xe5, 0xff, 0x04, 0xf5, 0x0f, 0x0d,
  0xfd, 0xe3, 0x1e, 0xfd, 0x11, 0x09, 0xf1, 0xfc, 0xfb, 0xf2, 0x0f, 0xfa,
  0xee, 0x03, 0xf5, 0xeb, 0xfd, 0xee, 0xf8, 0x07, 0x0b, 0xf6, 0x03, 0x0b,
  0xf0, 0xf8, 0x10, 0x04, 0xff, 0xf2, 0xed, 0xec, 0xff, 0xe5, 0xe3, 0xeb,
  0xfd, 0xf9, 0x06, 0xef, 0x03, 0xed, 0xee, 0x06, 0x01, 0x03, 0xff, 0x10,
  0xf6, 0xfa, 0xf1, 0xf5, 0xf9, 0xff, 0xf5, 0xed, 0xf3, 0xec, 0xf8, 0xf9,
  0x0b, 0xeb, 0xf2, 0xf4, 0xf5, 0xed, 0xf7, 0xf3, 0x0b, 0x03, 0xf4, 0x05,
  0xfc, 0xf8, 0xf8, 0xfc, 0xec, 0xfb, 0x13, 0xfc, 0xf9, 0xf1, 0x2d, 0xfe,
  0x05, 0x09, 0xff, 0x02, 0xf5, 0xf3, 0x0c, 0x0a, 0xf6, 0x0b, 0x0b, 0xfa,
  0xeb, 0x11, 0xf7, 0xf5, 0x06, 0x08, 0x08, 0x0a, 0x01, 0x04, 0xe0, 0xf8,
  0x02, 0x0a, 0x0a, 0x02, 0x02, 0xfe, 0xfe, 0x02, 0x06, 0x0e, 0xf4, 0x04,
  0x01, 0xf8, 0xf3, 0x1a, 0xf8, 0x00, 0xf9, 0x12, 0x01, 0xf7, 0x0d, 0x03,
  0x02, 0xec, 0x04, 0x1a, 0xf7, 0x1b, 0xd1, 0x13, 0xf6, 0xf2, 0x02, 0x06,
  0x08, 0xe9, 0x01, 0x06, 0x01, 0x02, 0x19, 0x22, 0xe8, 0x17, 0xca, 0x06,
  0xfd, 0x05, 0x02, 0x00, 0x14, 0xeb, 0xed, 0x12, 0xf6, 0x0f, 0xf9, 0xf6,
  0xf4, 0xff, 0xfc, 0x04, 0x08, 0x09, 0x04, 0xf5, 0x07, 0xfb, 0xd4, 0xf9,
  0x09, 0xfb, 0x0a, 0x05, 0x00, 0x04, 0xec, 0x0b, 0xf4, 0x03, 0xfd, 0x09,
  0xfd, 0xf2, 0xcd, 0xec, 0x08, 0x02, 0xee, 0x0d, 0x05, 0xee, 0xcf, 0xfb,
  0xed, 0xf7, 0x03, 0xf7, 0x05, 0x0a, 0xe8, 0xfe, 0xf9, 0xf0, 0xf9, 0x02,
  0xf6, 0xed, 0xea, 0xf4, 0xec, 0xf7, 0xf8, 0xf4, 0x07, 0xf0, 0xf5, 0x03,
  0xf8, 0x05, 0xf5, 0xf2, 0x03, 0x05, 0xf8, 0xf8, 0x13, 0x0b, 0x12, 0x02,
  0x0d, 0x06, 0x11, 0x0f, 0xfa, 0x01, 0xfe, 0xed, 0x0d, 0xfe, 0xed, 0x01,
  0xee, 0x04, 0x04, 0xfa, 0xf7, 0xf5, 0xe8, 0xf9, 0x01, 0xfe, 0x19, 0x0c,
  0xfc, 0x03, 0xea, 0xed, 0x00, 0x02, 0xf6, 0x00, 0x08, 0xf8, 0xf0, 0x12,
  0xf5, 0x05, 0xf1, 0x08, 0xfe, 0x06, 0xe3, 0x0c, 0x03, 0xfd, 0x05, 0x0e,
  0x0b, 0x05, 0x05, 0x05, 0x09, 0xf7, 0xeb, 0x19, 0xec, 0x06, 0xf3, 0xfa,
  0xef, 0xfb, 0xf4, 0x02, 0xf0, 0x0a, 0xf4, 0xfb, 0xf7, 0x08, 0xfd, 0x07,
  0xf8, 0x07, 0xea, 0xf9, 0xfd, 0x07, 0xff, 0x06, 0xfb, 0x02, 0xe6, 0xfd,
  0xf4, 0xfb, 0xfa, 0x01, 0xf0, 0xf1, 0xfb, 0xfe, 0x06, 0xf0, 0xea, 0xfb,
  0xf4, 0xfd, 0xe5, 0x07, 0x03, 0xfb, 0xed, 0xe9, 0xfd, 0x0b, 0xf7, 0xf5,
  0xf0, 0xec, 0xe8, 0xff, 0xf5, 0x10, 0xed, 0xef, 0xf8, 0x03, 0xfd, 0xfa,
  0x0b, 0x0a, 0xde, 0xf5, 0x0d, 0xfc, 0xe7, 0x00, 0xf7, 0xff, 0xf3, 0x06,
  0xfe, 0xf3, 0xee, 0x05, 0xf5, 0xec, 0xe8, 0xf3, 0xe9, 0x06, 0x07, 0xfc,
  0xf0, 0x02, 0x08, 0x07, 0xff, 0xfe, 0x00, 0xf3, 0x03, 0xf3, 0xf8, 0x0e,
  0xa2, 0xfe, 0xff, 0xff, 0x04, 0x00, 0x00, 0x00, 0x0c, 0x00, 0x00, 0x00,
  0x29, 0xff, 0xff, 0xff, 0x62, 0x02, 0x00, 0x00, 0x75, 0xfe, 0xff, 0xff,
  0x24, 0xfc, 0xff, 0xff, 0x0f, 0x00, 0x00, 0x00, 0x54, 0x4f, 0x43, 0x4f,
  0x20, 0x43, 0x6f, 0x6e, 0x76, 0x65, 0x72, 0x74, 0x65, 0x64, 0x2e, 0x00,
  0x01, 0x00, 0x00, 0x00, 0x04, 0x00, 0x00, 0x00, 0x24, 0xfb, 0xff, 0xff,
  0x68, 0x01, 0x00, 0x00, 0x5c, 0x01, 0x00, 0x00, 0x50, 0x01, 0x00, 0x00,
  0x04, 0x00, 0x00, 0x00, 0x04, 0x00, 0x00, 0x00, 0xf4, 0x00, 0x00, 0x00,
  0x90, 0x00, 0x00, 0x00, 0x48, 0x00, 0x00, 0x00, 0x04, 0x00, 0x00, 0x00,
  0xce, 0xff, 0xff, 0xff, 0x00, 0x00, 0x00, 0x09, 0x03, 0x00, 0x00, 0x00,
  0x1c, 0x00, 0x00, 0x00, 0x10, 0x00, 0x00, 0x00, 0x04, 0x00, 0x00, 0x00,
  0x1a, 0xff, 0xff, 0xff, 0x00, 0x00, 0x80, 0x3f, 0x01, 0x00, 0x00, 0x00,
  0x09, 0x00, 0x00, 0x00, 0x01, 0x00, 0x00, 0x00, 0x06, 0x00, 0x00, 0x00,
  0x00, 0x00, 0x0e, 0x00, 0x18, 0x00, 0x08, 0x00, 0x0c, 0x00, 0x10, 0x00,
  0x07, 0x00, 0x14, 0x00, 0x0e, 0x00, 0x00, 0x00, 0x00, 0x00, 0x00, 0x08,
  0x01, 0x00, 0x00, 0x00, 0x18, 0x00, 0x00, 0x00, 0x0c, 0x00, 0x00, 0x00,
  0x04, 0x00, 0x00, 0x00, 0xc4, 0xfc, 0xff, 0xff, 0x01, 0x00, 0x00, 0x00,
  0x06, 0x00, 0x00, 0x00, 0x03, 0x00, 0x00, 0x00, 0x02, 0x00, 0x00, 0x00,
  0x07, 0x00, 0x00, 0x00, 0x01, 0x00, 0x00, 0x00, 0x00, 0x00, 0x0e, 0x00,
  0x16, 0x00, 0x00, 0x00, 0x08, 0x00, 0x0c, 0x00, 0x07, 0x00, 0x10, 0x00,
  0x0e, 0x00, 0x00, 0x00, 0x00, 0x00, 0x00, 0x02, 0x38, 0x00, 0x00, 0x00,
  0x2c, 0x00, 0x00, 0x00, 0x14, 0x00, 0x00, 0x00, 0x00, 0x00, 0x0e, 0x00,
  0x14, 0x00, 0x00, 0x00, 0x08, 0x00, 0x0c, 0x00, 0x10, 0x00, 0x07, 0x00,
  0x0e, 0x00, 0x00, 0x00, 0x00, 0x00, 0x00, 0x01, 0x02, 0x00, 0x00, 0x00,
  0x02, 0x00, 0x00, 0x00, 0x08, 0x00, 0x00, 0x00, 0x01, 0x00, 0x00, 0x00,
  0x02, 0x00, 0x00, 0x00, 0x03, 0x00, 0x00, 0x00, 0x04, 0x00, 0x00, 0x00,
  0x08, 0x00, 0x00, 0x00, 0x00, 0x00, 0x00, 0x00, 0x00, 0x00, 0x0e, 0x00,
  0x1a, 0x00, 0x08, 0x00, 0x0c, 0x00, 0x10, 0x00, 0x07, 0x00, 0x14, 0x00,
  0x0e, 0x00, 0x00, 0x00, 0x00, 0x00, 0x00, 0x11, 0x02, 0x00, 0x00, 0x00,
  0x38, 0x00, 0x00, 0x00, 0x2c, 0x00, 0x00, 0x00, 0x0c, 0x00, 0x00, 0x00,
  0x00, 0x00, 0x06, 0x00, 0x08, 0x00, 0x04, 0x00, 0x06, 0x00, 0x00, 0x00,
  0x04, 0x00, 0x00, 0x00, 0x04, 0x00, 0x00, 0x00, 0xff, 0xff, 0xff, 0xff,
  0x31, 0x00, 0x00, 0x00, 0x28, 0x00, 0x00, 0x00, 0x01, 0x00, 0x00, 0x00,
  0x01, 0x00, 0x00, 0x00, 0x04, 0x00, 0x00, 0x00, 0x02, 0x00, 0x00, 0x00,
  0x03, 0x00, 0x00, 0x00, 0x05, 0x00, 0x00, 0x00, 0x01, 0x00, 0x00, 0x00,
  0x09, 0x00, 0x00, 0x00, 0x01, 0x00, 0x00, 0x00, 0x03, 0x00, 0x00, 0x00,
  0x0a, 0x00, 0x00, 0x00, 0x34, 0x04, 0x00, 0x00, 0xcc, 0x03, 0x00, 0x00,
  0x4c, 0x03, 0x00, 0x00, 0xdc, 0x02, 0x00, 0x00, 0x60, 0x02, 0x00, 0x00,
  0x20, 0x02, 0x00, 0x00, 0xb0, 0x01, 0x00, 0x00, 0x44, 0x01, 0x00, 0x00,
  0x70, 0x00, 0x00, 0x00, 0x04, 0x00, 0x00, 0x00, 0x02, 0xfc, 0xff, 0xff,
  0x00, 0x00, 0x00, 0x09, 0x44, 0x00, 0x00, 0x00, 0x07, 0x00, 0x00, 0x00,
  0x28, 0x00, 0x00, 0x00, 0x04, 0x00, 0x00, 0x00, 0xf4, 0xfb, 0xff, 0xff,
  0x14, 0x00, 0x00, 0x00, 0x04, 0x00, 0x00, 0x00, 0x01, 0x00, 0x00, 0x00,
  0x80, 0xff, 0xff, 0xff, 0xff, 0xff, 0xff, 0xff, 0x01, 0x00, 0x00, 0x00,
  0x00, 0x00, 0x80, 0x3b, 0x0e, 0x00, 0x00, 0x00, 0x6c, 0x61, 0x62, 0x65,
  0x6c, 0x73, 0x5f, 0x73, 0x6f, 0x66, 0x74, 0x6d, 0x61, 0x78, 0x00, 0x00,
  0x02, 0x00, 0x00, 0x00, 0x01, 0x00, 0x00, 0x00, 0x03, 0x00, 0x00, 0x00,
  0x00, 0x00, 0x0e, 0x00, 0x1a, 0x00, 0x08, 0x00, 0x07, 0x00, 0x0c, 0x00,
  0x10, 0x00, 0x14, 0x00, 0x0e, 0x00, 0x00, 0x00, 0x00, 0x00, 0x00, 0x09,
  0xb4, 0x00, 0x00, 0x00, 0x08, 0x00, 0x00, 0x00, 0x94, 0x00, 0x00, 0x00,
  0x18, 0x00, 0x00, 0x00, 0x00, 0x00, 0x12, 0x00, 0x10, 0x00, 0x00, 0x00,
  0x00, 0x00, 0x04, 0x00, 0x08, 0x00, 0x00, 0x00, 0x00, 0x00, 0x0c, 0x00,
  0x12, 0x00, 0x00, 0x00, 0x50, 0x00, 0x00, 0x00, 0x08, 0x00, 0x00, 0x00,
  0x03, 0x00, 0x00, 0x00, 0x08, 0x00, 0x00, 0x00, 0x00, 0x00, 0x00, 0x00,
  0x00, 0x00, 0x00, 0x00, 0x00, 0x00, 0x00, 0x00, 0x00, 0x00, 0x00, 0x00,
  0x00, 0x00, 0x00, 0x00, 0x00, 0x00, 0x00, 0x00, 0x00, 0x00, 0x00, 0x00,
  0x00, 0x00, 0x00, 0x00, 0x00, 0x00, 0x00, 0x00, 0x00, 0x00, 0x00, 0x00,
  0x00, 0x00, 0x00, 0x00, 0x00, 0x00, 0x00, 0x00, 0x00, 0x00, 0x00, 0x00,
  0x00, 0x00, 0x00, 0x00, 0x00, 0x00, 0x00, 0x00, 0x00, 0x00, 0x00, 0x00,
  0x08, 0x00, 0x00, 0x00, 0x7d, 0x9e, 0xbb, 0x39, 0x48, 0xa6, 0xd5, 0x39,
  0x10, 0xc8, 0x20, 0x3a, 0x1d, 0x56, 0x2c, 0x3b, 0xb0, 0x1f, 0xdc, 0x39,
  0x89, 0xc3, 0xd1, 0x3a, 0xf9, 0x41, 0xf0, 0x3a, 0x45, 0xae, 0xe0, 0x3a,
  0x12, 0x00, 0x00, 0x00, 0x66, 0x69, 0x72, 0x73, 0x74, 0x5f, 0x77, 0x65,
  0x69, 0x67, 0x68, 0x74, 0x73, 0x2f, 0x72, 0x65, 0x61, 0x64, 0x00, 0x00,
  0x04, 0x00, 0x00, 0x00, 0x01, 0x00, 0x00, 0x00, 0x0a, 0x00, 0x00, 0x00,
  0x08, 0x00, 0x00, 0x00, 0x08, 0x00, 0x00, 0x00, 0x3a, 0xfd, 0xff, 0xff,
  0x00, 0x00, 0x00, 0x09, 0x54, 0x00, 0x00, 0x00, 0x02, 0x00, 0x00, 0x00,
  0x28, 0x00, 0x00, 0x00, 0x04, 0x00, 0x00, 0x00, 0x2c, 0xfd, 0xff, 0xff,
  0x14, 0x00, 0x00, 0x00, 0x04, 0x00, 0x00, 0x00, 0x01, 0x00, 0x00, 0x00,
  0x00, 0x00, 0x00, 0x00, 0x00, 0x00, 0x00, 0x00, 0x01, 0x00, 0x00, 0x00,
  0xfe, 0xa4, 0x80, 0x3a, 0x1f, 0x00, 0x00, 0x00, 0x66, 0x69, 0x6e, 0x61,
  0x6c, 0x5f, 0x66, 0x63, 0x5f, 0x77, 0x65, 0x69, 0x67, 0x68, 0x74, 0x73,
  0x2f, 0x72, 0x65, 0x61, 0x64, 0x2f, 0x74, 0x72, 0x61, 0x6e, 0x73, 0x70,
  0x6f, 0x73, 0x65, 0x00, 0x02, 0x00, 0x00, 0x00, 0x03, 0x00, 0x00, 0x00,
  0xa0, 0x0f, 0x00, 0x00, 0xa2, 0xfd, 0xff, 0xff, 0x00, 0x00, 0x00, 0x09,
  0x58, 0x00, 0x00, 0x00, 0x04, 0x00, 0x00, 0x00, 0x44, 0x00, 0x00, 0x00,
  0x04, 0x00, 0x00, 0x00, 0x74, 0xfe, 0xff, 0xff, 0x30, 0x00, 0x00, 0x00,
  0x24, 0x00, 0x00, 0x00, 0x18, 0x00, 0x00, 0x00, 0x04, 0x00, 0x00, 0x00,
  0x01, 0x00, 0x00, 0x00, 0xf7, 0xff, 0xff, 0xff, 0xff, 0xff, 0xff, 0xff,
  0x00, 0x00, 0x00, 0x00, 0x01, 0x00, 0x00, 0x00, 0xc3, 0x27, 0x5c, 0x3e,
  0x01, 0x00, 0x00, 0x00, 0x0b, 0x34, 0xea, 0x41, 0x01, 0x00, 0x00, 0x00,
  0x2b, 0x63, 0xcc, 0xc1, 0x05, 0x00, 0x00, 0x00, 0x61, 0x64, 0x64, 0x5f,
  0x31, 0x00, 0x00, 0x00, 0x02, 0x00, 0x00, 0x00, 0x01, 0x00, 0x00, 0x00,
  0x03, 0x00, 0x00, 0x00, 0x0e, 0xfe, 0xff, 0xff, 0x00, 0x00, 0x00, 0x02,
  0x2c, 0x00, 0x00, 0x00, 0x06, 0x00, 0x00, 0x00, 0x10, 0x00, 0x00, 0x00,
  0x08, 0x00, 0x00, 0x00, 0x04, 0x00, 0x04, 0x00, 0x04, 0x00, 0x00, 0x00,
  0x0f, 0x00, 0x00, 0x00, 0x52, 0x65, 0x73, 0x68, 0x61, 0x70, 0x65, 0x5f,
  0x32, 0x2f, 0x73, 0x68, 0x61, 0x70, 0x65, 0x00, 0x01, 0x00, 0x00, 0x00,
  0x04, 0x00, 0x00, 0x00, 0x4a, 0xfe, 0xff, 0xff, 0x00, 0x00, 0x00, 0x09,
  0x5c, 0x00, 0x00, 0x00, 0x05, 0x00, 0x00, 0x00, 0x44, 0x00, 0x00, 0x00,
  0x04, 0x00, 0x00, 0x00, 0x1c, 0xff, 0xff, 0xff, 0x30, 0x00, 0x00, 0x00,
  0x24, 0x00, 0x00, 0x00, 0x18, 0x00, 0x00, 0x00, 0x04, 0x00, 0x00, 0x00,
  0x01, 0x00, 0x00, 0x00, 0x80, 0xff, 0xff, 0xff, 0xff, 0xff, 0xff, 0xff,
  0x00, 0x00, 0x00, 0x00, 0x01, 0x00, 0x00, 0x00, 0x41, 0x41, 0xd1, 0x3d,
  0x01, 0x00, 0x00, 0x00, 0x00, 0x70, 0xd0, 0x41, 0x01, 0x00, 0x00, 0x00,
  0x00, 0x00, 0x00, 0x00, 0x09, 0x00, 0x00, 0x00, 0x52, 0x65, 0x73, 0x68,
  0x61, 0x70, 0x65, 0x5f, 0x32, 0x00, 0x00, 0x00, 0x04, 0x00, 0x00, 0x00,
  0x01, 0x00, 0x00, 0x00, 0x31, 0x00, 0x00, 0x00, 0x28, 0x00, 0x00, 0x00,
  0x01, 0x00, 0x00, 0x00, 0xc2, 0xfe, 0xff, 0xff, 0x00, 0x00, 0x00, 0x09,
  0x58, 0x00, 0x00, 0x00, 0x0a, 0x00, 0x00, 0x00, 0x40, 0x00, 0x00, 0x00,
  0x04, 0x00, 0x00, 0x00, 0x94, 0xff, 0xff, 0xff, 0x2c, 0x00, 0x00, 0x00,
  0x20, 0x00, 0x00, 0x00, 0x14, 0x00, 0x00, 0x00, 0x04, 0x00, 0x00, 0x00,
  0x01, 0x00, 0x00, 0x00, 0x80, 0xff, 0xff, 0xff, 0xff, 0xff, 0xff, 0xff,
  0x01, 0x00, 0x00, 0x00, 0x41, 0x41, 0xd1, 0x3d, 0x01, 0x00, 0x00, 0x00,
  0x00, 0x70, 0xd0, 0x41, 0x01, 0x00, 0x00, 0x00, 0x00, 0x00, 0x00, 0x00,
  0x09, 0x00, 0x00, 0x00, 0x52, 0x65, 0x73, 0x68, 0x61, 0x70, 0x65, 0x5f,
  0x31, 0x00, 0x00, 0x00, 0x02, 0x00, 0x00, 0x00, 0x01, 0x00, 0x00, 0x00,
  0xa8, 0x07, 0x00, 0x00, 0x2e, 0xff, 0xff, 0xff, 0x00, 0x00, 0x00, 0x09,
  0x60, 0x00, 0x00, 0x00, 0x09, 0x00, 0x00, 0x00, 0x4c, 0x00, 0x00, 0x00,
  0x10, 0x00, 0x00, 0x00, 0x0c, 0x00, 0x14, 0x00, 0x04, 0x00, 0x08, 0x00,
  0x0c, 0x00, 0x10, 0x00, 0x0c, 0x00, 0x00, 0x00, 0x2c, 0x00, 0x00, 0x00,
  0x20, 0x00, 0x00, 0x00, 0x14, 0x00, 0x00, 0x00, 0x04, 0x00, 0x00, 0x00,
  0x01, 0x00, 0x00, 0x00, 0x80, 0xff, 0xff, 0xff, 0xff, 0xff, 0xff, 0xff,
  0x01, 0x00, 0x00, 0x00, 0x0d, 0x98, 0x18, 0x3e, 0x01, 0x00, 0x00, 0x00,
  0x75, 0xff, 0x17, 0x42, 0x01, 0x00, 0x00, 0x00, 0x00, 0x00, 0x00, 0x00,
  0x04, 0x00, 0x00, 0x00, 0x52, 0x65, 0x6c, 0x75, 0x00, 0x00, 0x00, 0x00,
  0x04, 0x00, 0x00, 0x00, 0x01, 0x00, 0x00, 0x00, 0x19, 0x00, 0x00, 0x00,
  0x14, 0x00, 0x00, 0x00, 0x08, 0x00, 0x00, 0x00, 0xaa, 0xff, 0xff, 0xff,
  0x00, 0x00, 0x00, 0x02, 0x44, 0x00, 0x00, 0x00, 0x01, 0x00, 0x00, 0x00,
  0x2c, 0x00, 0x00, 0x00, 0x04, 0x00, 0x00, 0x00, 0x9c, 0xff, 0xff, 0xff,
  0x18, 0x00, 0x00, 0x00, 0x04, 0x00, 0x00, 0x00, 0x01, 0x00, 0x00, 0x00,
  0x00, 0x00, 0x00, 0x00, 0x00, 0x00, 0x00, 0x00, 0x00, 0x00, 0x00, 0x00,
  0x01, 0x00, 0x00, 0x00, 0xbf, 0x5c, 0x19, 0x39, 0x0b, 0x00, 0x00, 0x00,
  0x4d, 0x61, 0x74, 0x4d, 0x75, 0x6c, 0x5f, 0x62, 0x69, 0x61, 0x73, 0x00,
  0x01, 0x00, 0x00, 0x00, 0x03, 0x00, 0x00, 0x00, 0x00, 0x00, 0x0e, 0x00,
  0x18, 0x00, 0x08, 0x00, 0x07, 0x00, 0x0c, 0x00, 0x10, 0x00, 0x14, 0x00,
  0x0e, 0x00, 0x00, 0x00, 0x00, 0x00, 0x00, 0x02, 0xa0, 0x00, 0x00, 0x00,
  0x03, 0x00, 0x00, 0x00, 0x88, 0x00, 0x00, 0x00, 0x10, 0x00, 0x00, 0x00,
  0x0c, 0x00, 0x0c, 0x00, 0x00, 0x00, 0x00, 0x00, 0x04, 0x00, 0x08, 0x00,
  0x0c, 0x00, 0x00, 0x00, 0x4c, 0x00, 0x00, 0x00, 0x04, 0x00, 0x00, 0x00,
  0x08, 0x00, 0x00, 0x00, 0x00, 0x00, 0x00, 0x00, 0x00, 0x00, 0x00, 0x00,
  0x00, 0x00, 0x00, 0x00, 0x00, 0x00, 0x00, 0x00, 0x00, 0x00, 0x00, 0x00,
  0x00, 0x00, 0x00, 0x00, 0x00, 0x00, 0x00, 0x00, 0x00, 0x00, 0x00, 0x00,
  0x00, 0x00, 0x00, 0x00, 0x00, 0x00, 0x00, 0x00, 0x00, 0x00, 0x00, 0x00,
  0x00, 0x00, 0x00, 0x00, 0x00, 0x00, 0x00, 0x00, 0x00, 0x00, 0x00, 0x00,
  0x00, 0x00, 0x00, 0x00, 0x00, 0x00, 0x00, 0x00, 0x08, 0x00, 0x00, 0x00,
  0x37, 0x5c, 0x19, 0x38, 0x36, 0xa3, 0x2e, 0x38, 0x51, 0x6c, 0x83, 0x38,
  0x3b, 0xde, 0x8c, 0x39, 0xfb, 0xed, 0x33, 0x38, 0x1b, 0x76, 0x2b, 0x39,
  0x1a, 0x63, 0x44, 0x39, 0x8c, 0xa7, 0x37, 0x39, 0x0b, 0x00, 0x00, 0x00,
  0x43, 0x6f, 0x6e, 0x76, 0x32, 0x44, 0x5f, 0x62, 0x69, 0x61, 0x73, 0x00,
  0x01, 0x00, 0x00, 0x00, 0x08, 0x00, 0x00, 0x00, 0x04, 0x00, 0x00, 0x00,
  0x4c, 0x00, 0x00, 0x00, 0x30, 0x00, 0x00, 0x00, 0x1c, 0x00, 0x00, 0x00,
  0x04, 0x00, 0x00, 0x00, 0xe6, 0xff, 0xff, 0xff, 0x00, 0x00, 0x00, 0x19,
  0x02, 0x00, 0x00, 0x00, 0x00, 0x00, 0x06, 0x00, 0x06, 0x00, 0x05, 0x00,
  0x06, 0x00, 0x00, 0x00, 0x00, 0x16, 0x0a, 0x00, 0x0e, 0x00, 0x07, 0x00,
  0x00, 0x00, 0x08, 0x00, 0x0a, 0x00, 0x00, 0x00, 0x00, 0x00, 0x00, 0x09,
  0x04, 0x00, 0x00, 0x00, 0x00, 0x00, 0x0a, 0x00, 0x0c, 0x00, 0x07, 0x00,
  0x00, 0x00, 0x08, 0x00, 0x0a, 0x00, 0x00, 0x00, 0x00, 0x00, 0x00, 0x04,
  0x03, 0x00, 0x00, 0x00
};
unsigned int models_tiny_conv_silence_40_0_bgvol_0_1_model_tflite_len = 14704;
