unsigned char models_tiny_conv_silence_20_0_bgvol_0_1_model_tflite[] = {
  0x1c, 0x00, 0x00, 0x00, 0x54, 0x46, 0x4c, 0x33, 0x00, 0x00, 0x12, 0x00,
  0x1c, 0x00, 0x04, 0x00, 0x08, 0x00, 0x0c, 0x00, 0x10, 0x00, 0x14, 0x00,
  0x00, 0x00, 0x18, 0x00, 0x12, 0x00, 0x00, 0x00, 0x03, 0x00, 0x00, 0x00,
  0xf0, 0x38, 0x00, 0x00, 0x90, 0x32, 0x00, 0x00, 0x78, 0x32, 0x00, 0x00,
  0x3c, 0x00, 0x00, 0x00, 0x04, 0x00, 0x00, 0x00, 0x01, 0x00, 0x00, 0x00,
  0x0c, 0x00, 0x00, 0x00, 0x08, 0x00, 0x0c, 0x00, 0x04, 0x00, 0x08, 0x00,
  0x08, 0x00, 0x00, 0x00, 0x08, 0x00, 0x00, 0x00, 0x0b, 0x00, 0x00, 0x00,
  0x13, 0x00, 0x00, 0x00, 0x6d, 0x69, 0x6e, 0x5f, 0x72, 0x75, 0x6e, 0x74,
  0x69, 0x6d, 0x65, 0x5f, 0x76, 0x65, 0x72, 0x73, 0x69, 0x6f, 0x6e, 0x00,
  0x0c, 0x00, 0x00, 0x00, 0x30, 0x32, 0x00, 0x00, 0x14, 0x32, 0x00, 0x00,
  0x24, 0x03, 0x00, 0x00, 0xf4, 0x02, 0x00, 0x00, 0xec, 0x02, 0x00, 0x00,
  0xe4, 0x02, 0x00, 0x00, 0xc4, 0x02, 0x00, 0x00, 0xbc, 0x02, 0x00, 0x00,
  0x2c, 0x00, 0x00, 0x00, 0x24, 0x00, 0x00, 0x00, 0x1c, 0x00, 0x00, 0x00,
  0x04, 0x00, 0x00, 0x00, 0xba, 0xcc, 0xff, 0xff, 0x04, 0x00, 0x00, 0x00,
  0x05, 0x00, 0x00, 0x00, 0x31, 0x2e, 0x35, 0x2e, 0x30, 0x00, 0x00, 0x00,
  0x38, 0xca, 0xff, 0xff, 0x3c, 0xca, 0xff, 0xff, 0xd6, 0xcc, 0xff, 0xff,
  0x04, 0x00, 0x00, 0x00, 0x80, 0x02, 0x00, 0x00, 0xde, 0xfa, 0xd7, 0x8e,
  0xcc, 0xbe, 0xff, 0x00, 0xba, 0x8f, 0x01, 0xab, 0x9d, 0xa5, 0xc0, 0xf3,
  0xbc, 0xeb, 0x20, 0x81, 0xbd, 0xcb, 0xe6, 0x36, 0xc2, 0x92, 0x03, 0x87,
  0x9e, 0xcf, 0xc3, 0xf0, 0xe5, 0xf7, 0xef, 0x9b, 0xfc, 0x0e, 0x0d, 0x58,
  0x81, 0x91, 0xea, 0x83, 0xb2, 0xb9, 0xfb, 0xd8, 0xd3, 0xd2, 0xe5, 0xb3,
  0xc7, 0xc3, 0x3e, 0x1a, 0x98, 0x96, 0x17, 0xb8, 0xba, 0xa6, 0xbf, 0xe6,
  0xed, 0xd8, 0xe8, 0x8c, 0xc5, 0xcd, 0xee, 0xfd, 0xcb, 0x81, 0xf5, 0xb0,
  0x90, 0xb8, 0xab, 0x09, 0xca, 0xcd, 0xef, 0x90, 0xbc, 0xbc, 0xda, 0x45,
  0xba, 0x94, 0xf6, 0xa7, 0x8c, 0x8f, 0xfa, 0x08, 0xd7, 0xb9, 0x0c, 0x94,
  0xc7, 0xe7, 0x1d, 0x7f, 0x8b, 0x93, 0x00, 0xab, 0xa2, 0xb9, 0xad, 0xfb,
  0xbc, 0xe5, 0xfc, 0xa8, 0xe7, 0xaa, 0x33, 0x22, 0xa9, 0xc3, 0x06, 0xc0,
  0x98, 0x9d, 0xa8, 0xe7, 0xd5, 0xc3, 0x1a, 0x9a, 0xc9, 0xcf, 0xde, 0x06,
  0xaa, 0x9d, 0xff, 0xc0, 0x8d, 0xb0, 0x16, 0x16, 0xde, 0xdc, 0xc7, 0xbd,
  0xc9, 0xd5, 0x1f, 0x2a, 0xae, 0x99, 0xc7, 0x98, 0x9f, 0xbd, 0x94, 0x11,
  0xc5, 0xb5, 0xea, 0xb5, 0xe3, 0xdc, 0xfa, 0x6b, 0x94, 0x89, 0x31, 0x9b,
  0xaa, 0xd7, 0xc9, 0x11, 0xca, 0xe1, 0x5e, 0xbd, 0xc5, 0xb2, 0xf6, 0x0f,
  0xb4, 0x94, 0xd7, 0xc4, 0xba, 0xbd, 0xd5, 0xf5, 0xe5, 0xc3, 0x1d, 0xa3,
  0xab, 0xcf, 0x01, 0x09, 0xca, 0xb0, 0x1a, 0x87, 0x8b, 0x9e, 0x3d, 0x01,
  0xc4, 0xca, 0xe2, 0xc3, 0xbb, 0xd9, 0x41, 0x25, 0xa9, 0xab, 0xbf, 0x9e,
  0x8f, 0xc5, 0xd5, 0x11, 0xdd, 0xc0, 0xaa, 0xb0, 0xda, 0xe5, 0xa0, 0x48,
  0x87, 0x96, 0x52, 0xba, 0x93, 0xbc, 0xd5, 0xee, 0xb5, 0xba, 0x7f, 0xa9,
  0xe3, 0xba, 0xce, 0xee, 0x9e, 0xaf, 0xd9, 0xe9, 0xc6, 0xb0, 0x28, 0xe0,
  0xbe, 0xdf, 0x0e, 0x9f, 0xc9, 0xd3, 0x08, 0xfd, 0xa9, 0xa7, 0x2f, 0xb4,
  0x84, 0x9d, 0xeb, 0xf4, 0xe1, 0xbb, 0xe8, 0xba, 0xbf, 0xd8, 0xd3, 0x0b,
  0xb5, 0x96, 0xf1, 0xd1, 0x9f, 0xb8, 0x81, 0xf7, 0xce, 0xe1, 0xd8, 0xc1,
  0xe8, 0xef, 0xe3, 0x1f, 0xa3, 0xb6, 0x48, 0xb6, 0xa0, 0xa7, 0xc6, 0xe3,
  0xcf, 0xbe, 0x1c, 0xae, 0xb5, 0xdb, 0x47, 0xd4, 0xb8, 0xc3, 0xe9, 0xee,
  0xb3, 0xac, 0x3d, 0xe8, 0xe2, 0xe4, 0xf9, 0xd7, 0xd8, 0xe2, 0x92, 0xf0,
  0xaf, 0x9e, 0x2a, 0xb7, 0x83, 0xc0, 0xfe, 0xf5, 0xd7, 0xae, 0x01, 0xb0,
  0xb8, 0xb5, 0x2a, 0xfd, 0xd3, 0xc0, 0x25, 0xbf, 0xc0, 0xae, 0xc6, 0xdc,
  0xf1, 0xd8, 0x02, 0xc9, 0xbf, 0xc9, 0xed, 0x0a, 0x98, 0x9c, 0x0e, 0x89,
  0xb4, 0xdd, 0x0f, 0xe7, 0xf4, 0x02, 0xba, 0xa8, 0xc5, 0xba, 0xe3, 0xc1,
  0xcc, 0xad, 0xfd, 0xd1, 0xd5, 0xb5, 0xe9, 0xe6, 0xe4, 0x20, 0xff, 0xb3,
  0xcc, 0xbe, 0xf8, 0x11, 0xd1, 0xb0, 0xfd, 0x8b, 0xb5, 0xae, 0x16, 0xf2,
  0xcf, 0xd8, 0xf3, 0x98, 0xb8, 0xab, 0x46, 0x05, 0xf3, 0x95, 0x4b, 0xc1,
  0xb4, 0xc8, 0x01, 0xea, 0xde, 0xfc, 0x13, 0xa7, 0xf6, 0xc1, 0xc2, 0x23,
  0xa7, 0xa9, 0xdc, 0xcf, 0x91, 0xc1, 0xc8, 0xf5, 0xca, 0xe0, 0xcd, 0xe8,
  0xdb, 0xbe, 0xb3, 0xf9, 0xd5, 0x8c, 0xf6, 0xf2, 0xbc, 0x9f, 0xbb, 0xf2,
  0x07, 0x23, 0x14, 0xb4, 0xd5, 0xb1, 0xef, 0x07, 0xd1, 0x92, 0xcf, 0xd9,
  0xa1, 0x81, 0xc7, 0xe7, 0xce, 0xca, 0xff, 0xd2, 0xab, 0x97, 0xcf, 0x13,
  0xf7, 0x91, 0x17, 0x9b, 0xb6, 0xc1, 0xd4, 0xff, 0x0b, 0xc2, 0x02, 0xa9,
  0xbf, 0xc8, 0xd8, 0x25, 0xd0, 0xaa, 0xe5, 0xc4, 0x91, 0xa7, 0xf2, 0x0c,
  0xf4, 0xe9, 0xf1, 0xbb, 0x04, 0xc5, 0xf3, 0x0b, 0xbf, 0xab, 0x01, 0xe5,
  0xa6, 0xae, 0xe0, 0x13, 0x02, 0xee, 0x1d, 0xbb, 0xe9, 0xb1, 0x33, 0xff,
  0xfd, 0xa6, 0xe1, 0xc8, 0x81, 0x8a, 0xa9, 0xc0, 0xd6, 0xd6, 0x1d, 0xa7,
  0xa3, 0xa3, 0x98, 0x05, 0xb6, 0x9c, 0xfe, 0xba, 0xb5, 0xa0, 0xad, 0xdd,
  0x22, 0xfc, 0x01, 0xb7, 0xd4, 0xb5, 0xd6, 0xf4, 0xcb, 0xcd, 0xf8, 0xd3,
  0x9f, 0xb1, 0xac, 0xe9, 0xe9, 0xde, 0xf3, 0xda, 0xde, 0xd3, 0xe4, 0xea,
  0xb7, 0x86, 0x01, 0xb9, 0xa2, 0xc9, 0x9f, 0xe9, 0xf2, 0xdd, 0x18, 0x9a,
  0xc6, 0xd9, 0xd6, 0x07, 0xe2, 0x9f, 0x04, 0xb8, 0x8a, 0xac, 0x34, 0xcf,
  0xed, 0xcf, 0x02, 0xc8, 0xce, 0x9f, 0xa2, 0xff, 0xd6, 0x90, 0x00, 0x9b,
  0xb9, 0xa1, 0x62, 0xd6, 0xeb, 0xc9, 0x07, 0xb2, 0xf6, 0xea, 0x09, 0xe6,
  0x9c, 0xb7, 0x04, 0xbc, 0x97, 0x94, 0xd4, 0xe0, 0x15, 0xcd, 0x0a, 0xc8,
  0xd0, 0xb7, 0x07, 0xea, 0xc9, 0x99, 0xe9, 0xe7, 0xc6, 0xaf, 0xe5, 0xe0,
  0xcc, 0xcc, 0xff, 0xff, 0x66, 0xcf, 0xff, 0xff, 0x04, 0x00, 0x00, 0x00,
  0x10, 0x00, 0x00, 0x00, 0xff, 0xff, 0xff, 0xff, 0x31, 0x00, 0x00, 0x00,
  0x28, 0x00, 0x00, 0x00, 0x01, 0x00, 0x00, 0x00, 0xec, 0xcc, 0xff, 0xff,
  0xf0, 0xcc, 0xff, 0xff, 0x8a, 0xcf, 0xff, 0xff, 0x04, 0x00, 0x00, 0x00,
  0x20, 0x00, 0x00, 0x00, 0xc3, 0xff, 0xff, 0xff, 0x91, 0xff, 0xff, 0xff,
  0x16, 0x04, 0x00, 0x00, 0xc8, 0xff, 0xff, 0xff, 0xbd, 0xff, 0xff, 0xff,
  0xb2, 0xff, 0xff, 0xff, 0x00, 0x00, 0x00, 0x00, 0xd1, 0x01, 0x00, 0x00,
  0xb6, 0xcf, 0xff, 0xff, 0x04, 0x00, 0x00, 0x00, 0xe0, 0x2e, 0x00, 0x00,
  0x0a, 0x06, 0x7f, 0x08, 0x06, 0xfb, 0xf2, 0x03, 0x02, 0xfe, 0x25, 0x0d,
  0x16, 0x00, 0xf2, 0xfa, 0xf9, 0xf8, 0x17, 0x0b, 0x04, 0x01, 0xfb, 0xf9,
  0xfb, 0x04, 0x29, 0x04, 0x04, 0x08, 0x07, 0xfe, 0x0a, 0x09, 0x10, 0x10,
  0x02, 0xfc, 0xfc, 0x05, 0x05, 0xfb, 0xfc, 0x0f, 0x02, 0x09, 0xfe, 0x08,
  0xfb, 0x0c, 0xf8, 0x04, 0x06, 0xfe, 0x0c, 0x07, 0xfb, 0x02, 0xef, 0x0a,
  0x07, 0xfe, 0x08, 0xfd, 0x01, 0xfe, 0xe5, 0x0e, 0x17, 0x0b, 0xfb, 0x01,
  0x04, 0xfb, 0xe2, 0x0e, 0x0b, 0x02, 0x00, 0xf3, 0xfc, 0x02, 0x07, 0x06,
  0x09, 0x01, 0x05, 0xfd, 0x09, 0xf9, 0x3c, 0x03, 0x0a, 0x0b, 0x09, 0xf7,
  0xf4, 0xfa, 0xf9, 0x0c, 0x07, 0xf7, 0xfe, 0x01, 0x06, 0x06, 0xf7, 0xfd,
  0x09, 0xf6, 0xfc, 0x06, 0xfd, 0xfe, 0xf6, 0x0c, 0x01, 0xfe, 0x02, 0x04,
  0xfb, 0xfd, 0xe6, 0x13, 0xfc, 0x0c, 0xf7, 0x05, 0xf9, 0xfc, 0x20, 0x0f,
  0x15, 0x00, 0x0b, 0x03, 0x0b, 0x00, 0x35, 0x06, 0x0c, 0x00, 0x07, 0xfa,
  0xfa, 0x10, 0x17, 0xfd, 0x07, 0x0f, 0x04, 0xf3, 0xf7, 0x00, 0xc0, 0x07,
  0x06, 0xf9, 0xfa, 0x03, 0xf9, 0xff, 0x18, 0x06, 0x15, 0x0a, 0x06, 0x21,
  0xff, 0xfb, 0x36, 0x12, 0x03, 0x0c, 0xf8, 0x06, 0xf5, 0x00, 0x1d, 0x13,
  0x06, 0x0b, 0x08, 0x15, 0xfa, 0xf5, 0x17, 0x09, 0x0c, 0x04, 0x04, 0x18,
  0x06, 0x02, 0x2b, 0x13, 0x06, 0xfe, 0x00, 0x1b, 0x01, 0xf2, 0x16, 0x0c,
  0x11, 0x14, 0x06, 0x15, 0xf2, 0xff, 0x00, 0x0d, 0x08, 0x09, 0x01, 0x19,
  0x07, 0x00, 0xcb, 0x12, 0x07, 0x03, 0x04, 0x18, 0x01, 0xfa, 0x0b, 0x0a,
  0x05, 0x00, 0xff, 0x1a, 0x05, 0x07, 0xe7, 0x11, 0x08, 0x0d, 0xff, 0x18,
  0x00, 0xf6, 0x07, 0x07, 0x0e, 0x01, 0xfb, 0x19, 0x04, 0xf8, 0x11, 0x0c,
  0x0e, 0x0d, 0x0a, 0x1a, 0xf4, 0xf0, 0x10, 0x02, 0x0a, 0x06, 0xfd, 0x0e,
  0x05, 0xf8, 0x24, 0x0f, 0xfd, 0x07, 0x02, 0x24, 0xfa, 0xf3, 0xef, 0x01,
  0x09, 0x06, 0xfc, 0x11, 0xfd, 0xfa, 0x22, 0x06, 0x0e, 0x03, 0x0a, 0x22,
  0xfd, 0xf2, 0xf8, 0x19, 0x0f, 0x09, 0xf5, 0x21, 0xfb, 0xf8, 0x3f, 0x12,
  0xfe, 0x14, 0x08, 0x2b, 0x07, 0xfa, 0x2c, 0x07, 0x0c, 0x08, 0xfb, 0x45,
  0xfe, 0xf6, 0x11, 0x0f, 0x08, 0x0a, 0xff, 0x2e, 0xf7, 0x00, 0x1e, 0x00,
  0x0a, 0x0e, 0xf2, 0x37, 0xfe, 0xee, 0x71, 0x0f, 0x01, 0x08, 0xf9, 0x3d,
  0xef, 0xeb, 0x19, 0x10, 0x02, 0x06, 0x07, 0x02, 0xef, 0xf5, 0x17, 0x13,
  0x00, 0x10, 0xfc, 0xe6, 0x09, 0xf7, 0x25, 0x10, 0x05, 0x0a, 0xf6, 0x0d,
  0x01, 0xf7, 0x06, 0x11, 0x0b, 0x0b, 0xf8, 0x06, 0xfd, 0xf1, 0xfd, 0x05,
  0x06, 0x14, 0xfd, 0x00, 0x01, 0xef, 0xd0, 0x11, 0x0c, 0xfd, 0xf7, 0x00,
  0x00, 0xf9, 0xfb, 0x06, 0x14, 0x12, 0xfe, 0x06, 0x05, 0xeb, 0xf1, 0x05,
  0x10, 0xff, 0x0b, 0xf5, 0xf9, 0xfd, 0x05, 0x05, 0x04, 0x09, 0x09, 0xfb,
  0x00, 0xee, 0x53, 0x07, 0xfb, 0xfe, 0x04, 0xd1, 0xf0, 0xf6, 0x04, 0x0a,
  0xfd, 0xfd, 0xff, 0x03, 0x02, 0xf5, 0x33, 0x0e, 0x09, 0x0b, 0x01, 0xed,
  0x0a, 0xf7, 0xf0, 0x12, 0x09, 0xfb, 0x03, 0x0b, 0xf7, 0x03, 0x09, 0x18,
  0x0a, 0x0d, 0xfd, 0xe4, 0x04, 0xf1, 0xe4, 0x0a, 0x02, 0x09, 0xf6, 0x0b,
  0xfc, 0xee, 0x4c, 0x0c, 0x0c, 0x0b, 0xff, 0x2b, 0x0a, 0xf5, 0x50, 0x02,
  0x0a, 0x04, 0x00, 0x2b, 0x00, 0xfe, 0x1a, 0x05, 0xf7, 0x01, 0xff, 0x24,
  0xfd, 0x04, 0xf9, 0x06, 0x11, 0x0b, 0x06, 0x21, 0xf6, 0x01, 0x22, 0x01,
  0x00, 0x07, 0xfd, 0x3d, 0xf9, 0xf8, 0xfb, 0x04, 0xf8, 0x03, 0x05, 0x08,
  0xfd, 0xfd, 0xf0, 0x13, 0xfd, 0x03, 0xf2, 0x0b, 0x00, 0xf9, 0x20, 0x0b,
  0x0a, 0x01, 0xf5, 0xfc, 0x04, 0xee, 0x04, 0x0d, 0x11, 0x00, 0xf6, 0x05,
  0xfe, 0xf0, 0xfc, 0x13, 0xf6, 0x04, 0xf8, 0x0d, 0xf3, 0xeb, 0xcb, 0x05,
  0x06, 0x0e, 0x0a, 0xf7, 0xfd, 0xf6, 0xfb, 0x0d, 0x09, 0x0b, 0x09, 0x08,
  0x07, 0xf9, 0xee, 0x17, 0x12, 0xfd, 0x04, 0xee, 0xfc, 0xee, 0x01, 0x10,
  0x07, 0x09, 0xfa, 0xfa, 0x01, 0xfb, 0x2c, 0x05, 0x09, 0x0e, 0x0e, 0xf2,
  0x09, 0xef, 0x0d, 0x15, 0x00, 0x0c, 0xfd, 0xe5, 0xfe, 0xf7, 0x3b, 0x05,
  0x09, 0xfc, 0xf9, 0xe8, 0xfc, 0xf9, 0xf5, 0x06, 0x10, 0x09, 0x0c, 0x28,
  0xf9, 0xef, 0x30, 0x0b, 0x08, 0x13, 0xfd, 0xfa, 0x0b, 0xfc, 0xf5, 0x07,
  0x05, 0x04, 0x0b, 0xf7, 0x05, 0xe8, 0x30, 0x12, 0x0c, 0x06, 0xf2, 0x36,
  0xff, 0xf8, 0x43, 0xfe, 0xfb, 0x10, 0xf8, 0x10, 0xf3, 0xfc, 0x2d, 0x08,
  0x00, 0x07, 0x00, 0x1e, 0x08, 0x06, 0xfa, 0x07, 0xfe, 0x0d, 0xfa, 0x04,
  0x0b, 0xfd, 0x33, 0x0e, 0x07, 0x0a, 0x04, 0x34, 0x03, 0xfa, 0xf6, 0x13,
  0x04, 0x0e, 0x06, 0x05, 0xfb, 0xea, 0xf1, 0x07, 0xf7, 0x04, 0x00, 0xff,
  0x0b, 0xfa, 0xf1, 0x0a, 0x0c, 0x03, 0xfd, 0xe5, 0x01, 0xfc, 0xfc, 0x16,
  0x09, 0xfa, 0x00, 0x28, 0xfe, 0xfc, 0x08, 0x0c, 0xfa, 0x0c, 0xf7, 0x1c,
  0xf5, 0xf6, 0xc9, 0x03, 0x03, 0x05, 0x07, 0xea, 0x0b, 0xeb, 0x0a, 0x07,
  0xff, 0x05, 0xf4, 0xef, 0xff, 0xf4, 0xf3, 0x00, 0x0b, 0x01, 0xfd, 0xe5,
  0xf9, 0x02, 0xeb, 0x0a, 0xfe, 0x06, 0x00, 0xf7, 0xf9, 0x01, 0x16, 0x12,
  0x0e, 0x00, 0x02, 0x08, 0xff, 0xfb, 0x06, 0x0e, 0x06, 0x0e, 0xf9, 0xfa,
  0xfe, 0xf7, 0x2c, 0x08, 0xfe, 0x00, 0x00, 0xf1, 0xfa, 0xf5, 0xff, 0x0d,
  0xf8, 0xfe, 0x08, 0x2f, 0x08, 0xed, 0x13, 0x0a, 0x04, 0x13, 0x03, 0xf7,
  0xf8, 0x03, 0xeb, 0x0a, 0x02, 0xf8, 0xf5, 0x09, 0x09, 0xee, 0x22, 0x01,
  0xfd, 0x0a, 0xff, 0x3a, 0x01, 0x07, 0x47, 0x0d, 0x08, 0xfc, 0x0a, 0xfc,
  0xfa, 0xfa, 0x32, 0x0b, 0x05, 0x0d, 0x04, 0x19, 0xfe, 0xf5, 0xfb, 0x0c,
  0x0f, 0x0b, 0xf5, 0x01, 0x05, 0x05, 0x27, 0x00, 0x05, 0x07, 0x0f, 0x27,
  0xf9, 0xf9, 0xf1, 0x09, 0x09, 0xff, 0x0b, 0xfb, 0x01, 0xf6, 0xef, 0x01,
  0x11, 0x01, 0xfc, 0x0c, 0x07, 0xf6, 0xf8, 0x06, 0x07, 0x0c, 0x05, 0xe8,
  0xf8, 0xfa, 0xf5, 0x00, 0xfd, 0x03, 0xff, 0x22, 0x08, 0xf5, 0x16, 0xfc,
  0x01, 0xfe, 0x03, 0x20, 0x02, 0xfc, 0xd4, 0x0e, 0xfa, 0x00, 0x0d, 0xed,
  0x0b, 0xeb, 0xfd, 0x10, 0xf7, 0x02, 0xfa, 0xfe, 0xfc, 0xf8, 0xee, 0x0e,
  0x03, 0xf8, 0x00, 0xee, 0x05, 0xf2, 0x07, 0x13, 0x00, 0xff, 0x0b, 0xe4,
  0xf7, 0xfc, 0x35, 0x0d, 0xfd, 0x05, 0xfe, 0x0f, 0xfe, 0xfa, 0x04, 0x0e,
  0x0d, 0x0d, 0x03, 0xf6, 0x03, 0xf9, 0x08, 0x06, 0x08, 0x00, 0xfa, 0xe0,
  0x04, 0xf2, 0x11, 0x06, 0x02, 0x04, 0x0f, 0x1f, 0x04, 0xf3, 0x29, 0x11,
  0xf6, 0x11, 0x00, 0xe5, 0x00, 0xf3, 0x15, 0x0a, 0xfc, 0x09, 0x07, 0x0c,
  0x03, 0xfe, 0x2f, 0x07, 0x12, 0x01, 0x05, 0x19, 0x01, 0xf3, 0x39, 0x01,
  0x0e, 0x07, 0xfe, 0xfc, 0xef, 0xf7, 0x45, 0xfb, 0xf6, 0x00, 0x09, 0x23,
  0x05, 0xf6, 0xe4, 0xfe, 0xfb, 0x03, 0xfd, 0xfb, 0xf5, 0xf4, 0x20, 0x0c,
  0xfb, 0x07, 0xfc, 0x20, 0xf7, 0x08, 0xf1, 0x16, 0x04, 0x06, 0x0a, 0x15,
  0xfa, 0x03, 0xe8, 0x0d, 0x03, 0x04, 0x0b, 0xed, 0xff, 0x06, 0xfa, 0x03,
  0x09, 0x0f, 0x01, 0xe0, 0x00, 0xfe, 0xf9, 0x06, 0x02, 0x00, 0x06, 0x01,
  0x0a, 0x01, 0x0a, 0x07, 0x04, 0x0f, 0x01, 0x23, 0x08, 0xf7, 0xdb, 0xfc,
  0xfc, 0x0e, 0x0a, 0x0d, 0xfa, 0xf2, 0xf7, 0x03, 0xfb, 0x10, 0xfa, 0xf2,
  0x05, 0xf7, 0xff, 0x0b, 0x00, 0x01, 0xf6, 0xfa, 0x06, 0xff, 0x06, 0x05,
  0x08, 0x05, 0xf5, 0xea, 0xf5, 0x07, 0x26, 0x03, 0xff, 0x05, 0x06, 0x17,
  0x0a, 0x06, 0xf8, 0x0a, 0x01, 0xfc, 0x02, 0xea, 0xf9, 0xfb, 0xf0, 0x12,
  0x0b, 0x05, 0xfd, 0xe1, 0x0a, 0x01, 0x12, 0x12, 0xff, 0xfe, 0x04, 0x1d,
  0xfd, 0xef, 0x2c, 0x0b, 0x02, 0x00, 0xfe, 0xdd, 0xff, 0xec, 0x14, 0x0c,
  0x00, 0x04, 0x09, 0x1e, 0xf4, 0xeb, 0x1a, 0x05, 0x04, 0xfd, 0x01, 0x15,
  0x02, 0xf6, 0x1c, 0x0a, 0xf8, 0xfe, 0x02, 0xf8, 0x04, 0xef, 0x2f, 0xf7,
  0x05, 0x10, 0xfd, 0x20, 0xfe, 0xef, 0xf6, 0x0a, 0x03, 0x0b, 0xff, 0xe9,
  0x06, 0xf5, 0x0b, 0x12, 0x03, 0x05, 0x00, 0x12, 0x06, 0xf8, 0xef, 0x0e,
  0x01, 0xf8, 0x02, 0xff, 0x04, 0xfa, 0xee, 0x08, 0x0c, 0x0b, 0xfa, 0x0a,
  0x03, 0xfb, 0xff, 0x08, 0x03, 0xff, 0xf3, 0xf5, 0xfd, 0x07, 0xee, 0x00,
  0x0f, 0x02, 0xf7, 0xec, 0xfb, 0x02, 0x10, 0x10, 0x09, 0xf7, 0xff, 0x1e,
  0xfc, 0xf9, 0xeb, 0xff, 0xf5, 0x01, 0xfb, 0xfb, 0xf8, 0xff, 0xf0, 0x0b,
  0x04, 0x05, 0x0d, 0x04, 0x07, 0x01, 0xff, 0xfc, 0xfd, 0xfd, 0x02, 0xe6,
  0x02, 0xee, 0xf9, 0x03, 0x04, 0x04, 0x02, 0xfe, 0xf9, 0xfb, 0x21, 0x10,
  0x08, 0xfd, 0x03, 0xf4, 0x09, 0xf5, 0xed, 0x07, 0xff, 0x05, 0x02, 0xfe,
  0xf8, 0xf8, 0x07, 0x05, 0xfd, 0x02, 0x01, 0xf1, 0x09, 0xfd, 0x18, 0x0c,
  0x05, 0x0b, 0x02, 0x24, 0xfb, 0xfa, 0x24, 0x0a, 0x0a, 0x07, 0x00, 0xe1,
  0xfd, 0x02, 0x09, 0x01, 0x02, 0x0a, 0xf5, 0x33, 0xfa, 0xf7, 0xf9, 0x05,
  0x0c, 0x08, 0xf3, 0x1f, 0xfe, 0x01, 0x13, 0x02, 0xfa, 0x08, 0xff, 0x05,
  0xfa, 0x04, 0x47, 0x06, 0x0a, 0x04, 0xff, 0x23, 0x00, 0xff, 0xe1, 0x10,
  0x03, 0xfd, 0x00, 0xe9, 0xf9, 0xf5, 0xea, 0x0c, 0x0a, 0x05, 0x08, 0xf8,
  0xf7, 0xf7, 0xe3, 0x03, 0xf8, 0xfa, 0x07, 0x0b, 0x07, 0x02, 0xfb, 0x05,
  0x10, 0xfe, 0xfe, 0x10, 0xf5, 0xf9, 0x12, 0x08, 0x0b, 0xfd, 0xfe, 0xf9,
  0xf6, 0xfd, 0xf3, 0x06, 0x09, 0x04, 0xfa, 0xf0, 0x07, 0xf0, 0xf3, 0x04,
  0x02, 0xfb, 0x01, 0x23, 0x07, 0xfe, 0xe8, 0x0c, 0x11, 0xff, 0x0a, 0xf6,
  0xfb, 0xfc, 0xe8, 0x09, 0x10, 0x0b, 0x01, 0x0d, 0xf8, 0xf0, 0xfc, 0x08,
  0xfa, 0x0c, 0xfa, 0xed, 0x01, 0xf1, 0xfb, 0x09, 0x05, 0xfd, 0x08, 0x09,
  0x01, 0xff, 0x15, 0x0d, 0x07, 0x02, 0x04, 0x00, 0xfe, 0xfc, 0xf8, 0xfc,
  0x00, 0x00, 0x05, 0xf0, 0xf9, 0xf6, 0x00, 0x05, 0x03, 0xfd, 0x0c, 0xef,
  0x04, 0xf8, 0x2b, 0x0e, 0xfd, 0x06, 0xfe, 0x26, 0x00, 0xf7, 0x20, 0x00,
  0x0e, 0xfe, 0xfe, 0xbd, 0x0d, 0x01, 0x04, 0x05, 0xf4, 0xfd, 0x01, 0x2e,
  0xf5, 0xfa, 0x05, 0x07, 0x01, 0xfc, 0xf5, 0x13, 0xf9, 0x00, 0x07, 0x06,
  0xf9, 0x03, 0x0b, 0x10, 0xf6, 0x04, 0x48, 0x06, 0xfb, 0xfc, 0xfe, 0xfd,
  0x03, 0xf4, 0xcc, 0x0f, 0x03, 0xff, 0xfe, 0xe2, 0xf4, 0xfc, 0xdd, 0x06,
  0xf5, 0xfd, 0xfb, 0xef, 0x01, 0x01, 0xec, 0x08, 0x0c, 0xfc, 0xff, 0xee,
  0x0a, 0xf7, 0xf0, 0x0e, 0x09, 0xfb, 0xfc, 0x00, 0x04, 0xfa, 0x07, 0x04,
  0x12, 0x03, 0x06, 0x36, 0xf1, 0xfc, 0xf8, 0x08, 0xfe, 0x0d, 0xfd, 0xe8,
  0x00, 0x06, 0xef, 0x01, 0xf6, 0x0c, 0xf5, 0x1d, 0x06, 0xf6, 0xfa, 0x0d,
  0xfe, 0x05, 0xff, 0xf7, 0x04, 0xfe, 0xe0, 0x0e, 0x09, 0x01, 0x0f, 0x14,
  0xf8, 0x00, 0x01, 0xfe, 0xf8, 0x00, 0x0c, 0xf4, 0x00, 0x04, 0xfa, 0x04,
  0x04, 0x05, 0x06, 0xfc, 0xf7, 0x03, 0x18, 0x0d, 0xfd, 0x01, 0xf4, 0xf1,
  0xfc, 0x00, 0xf2, 0x02, 0xfd, 0x0d, 0x02, 0x01, 0x00, 0x08, 0x07, 0x0b,
  0xff, 0xfb, 0x04, 0xe7, 0x05, 0xf5, 0x2e, 0x0c, 0x0a, 0xf9, 0xfe, 0x09,
  0xf0, 0xf9, 0x14, 0x09, 0x04, 0x06, 0x02, 0xb3, 0x05, 0xff, 0x05, 0x00,
  0x04, 0x0d, 0x09, 0x29, 0xfa, 0xf5, 0x0c, 0x13, 0x03, 0xfd, 0x02, 0xf7,
  0xf7, 0x0a, 0x15, 0x08, 0x03, 0x03, 0x04, 0x1f, 0xf3, 0xf9, 0x3b, 0xfa,
  0x04, 0xf9, 0x0d, 0xf6, 0x03, 0xfd, 0xd3, 0x0e, 0x07, 0xfd, 0xff, 0xd9,
  0x09, 0x09, 0xdd, 0x12, 0x0e, 0x09, 0x0b, 0xf5, 0x05, 0xfb, 0xfa, 0xff,
  0x07, 0x09, 0xfb, 0xf7, 0x04, 0x06, 0xfa, 0x0d, 0x04, 0xf5, 0xfc, 0xf8,
  0x02, 0x03, 0x10, 0x05, 0x0b, 0x10, 0x05, 0x13, 0xfc, 0xfd, 0xf7, 0x12,
  0x09, 0x06, 0x07, 0xeb, 0x07, 0xfe, 0xfa, 0x0a, 0x03, 0x08, 0x04, 0x26,
  0x00, 0x01, 0xf8, 0x03, 0xfd, 0x03, 0xfa, 0xf3, 0xfb, 0xf9, 0xee, 0x0f,
  0x00, 0x0e, 0xfd, 0x19, 0xfb, 0xf6, 0xfb, 0x0e, 0xfa, 0x0c, 0x03, 0x0e,
  0xf9, 0xfe, 0xf6, 0x0c, 0xff, 0x01, 0x00, 0xfc, 0x05, 0x06, 0x18, 0x13,
  0x07, 0x06, 0x00, 0xe7, 0xfc, 0xef, 0xf9, 0x0a, 0x0b, 0xfc, 0x05, 0xf4,
  0x00, 0xfb, 0x0c, 0xff, 0xf9, 0x02, 0xf8, 0xe5, 0x03, 0xf5, 0x3d, 0x0c,
  0xff, 0xf9, 0x0d, 0x17, 0xef, 0x04, 0x0c, 0x06, 0xfe, 0x00, 0x09, 0xa5,
  0xff, 0xf8, 0xf0, 0x0e, 0x02, 0xfe, 0xfa, 0xf7, 0x04, 0x00, 0x18, 0x07,
  0xfd, 0xfa, 0xf4, 0xf2, 0xf6, 0x03, 0x0d, 0x08, 0x01, 0xfd, 0x04, 0x20,
  0xfe, 0x09, 0x2e, 0xff, 0x05, 0x06, 0x0b, 0x0f, 0x04, 0x0d, 0xd7, 0x05,
  0x04, 0x0e, 0xf9, 0xe6, 0xf1, 0xf8, 0xe6, 0x08, 0x07, 0x00, 0x00, 0xed,
  0x0a, 0x09, 0xf2, 0x07, 0x01, 0x0a, 0x05, 0x00, 0x00, 0xf7, 0xef, 0x08,
  0x03, 0xfd, 0xfb, 0xef, 0x00, 0x05, 0x0f, 0x16, 0x05, 0x04, 0x03, 0x0a,
  0x08, 0xfe, 0xea, 0x14, 0x0c, 0x03, 0x07, 0xec, 0xfd, 0x03, 0xfa, 0x05,
  0xfe, 0x07, 0xff, 0x20, 0x02, 0xf9, 0x02, 0x09, 0x05, 0x02, 0x04, 0xef,
  0xf9, 0xfc, 0xea, 0x0b, 0xf7, 0x09, 0xfc, 0x01, 0x02, 0xf4, 0x02, 0x0a,
  0x08, 0x07, 0x04, 0xf8, 0xff, 0xfe, 0xea, 0x06, 0x0c, 0x00, 0xfc, 0x04,
  0xfa, 0xfe, 0x0f, 0x0e, 0xfe, 0x0b, 0xf6, 0xff, 0xf8, 0xfe, 0x01, 0x03,
  0xfb, 0x03, 0x09, 0x01, 0x0b, 0xfd, 0xff, 0x0c, 0x04, 0x03, 0xf6, 0xfd,
  0x05, 0xf8, 0x34, 0x0e, 0xfa, 0x04, 0x02, 0x1d, 0xf1, 0xfe, 0xfd, 0x09,
  0xfb, 0xff, 0xf9, 0xb7, 0x03, 0xff, 0xf1, 0x01, 0x01, 0x0e, 0xf9, 0xf1,
  0xf3, 0xf5, 0x06, 0x0d, 0x04, 0x06, 0xfe, 0xfb, 0x05, 0x06, 0x15, 0xfe,
  0x03, 0x0c, 0xfa, 0x40, 0xfa, 0xf6, 0x37, 0xfa, 0xfc, 0xf5, 0x03, 0xfd,
  0x03, 0xf5, 0xcd, 0x06, 0x0e, 0x07, 0xf9, 0xe4, 0x06, 0xfa, 0xdb, 0x01,
  0x08, 0x0a, 0x00, 0xf8, 0xfd, 0xf6, 0xea, 0x0c, 0x06, 0x03, 0x01, 0xec,
  0xfd, 0x03, 0xff, 0x0e, 0x00, 0x02, 0x0d, 0xed, 0x05, 0x06, 0x0b, 0x06,
  0x06, 0x0a, 0x02, 0xe9, 0x01, 0x02, 0xe9, 0x02, 0x05, 0xfc, 0xfb, 0x01,
  0x0d, 0xf2, 0xf2, 0xfe, 0x08, 0x08, 0xf2, 0x23, 0xf5, 0xfe, 0xf5, 0x01,
  0xf8, 0x09, 0x02, 0xf4, 0xf8, 0x08, 0xe2, 0x0b, 0xfd, 0xf7, 0x0e, 0x12,
  0x03, 0xf3, 0xf9, 0x05, 0x05, 0x02, 0x01, 0xe5, 0xfb, 0xef, 0xee, 0x03,
  0x08, 0x0c, 0x00, 0xf3, 0xf5, 0xfd, 0x01, 0x0a, 0x07, 0xf8, 0xfd, 0x08,
  0x02, 0x03, 0x0b, 0x0b, 0xf8, 0x08, 0xf6, 0xeb, 0xf5, 0x02, 0x11, 0xfc,
  0x04, 0x09, 0x05, 0xe9, 0x0c, 0xfd, 0x32, 0x07, 0x03, 0xfc, 0x03, 0x0c,
  0xfb, 0xfb, 0xf6, 0x10, 0xfd, 0x05, 0xfd, 0xb5, 0x02, 0x07, 0x14, 0x11,
  0x01, 0x0a, 0xfe, 0x05, 0x05, 0xf4, 0x10, 0x07, 0x01, 0x01, 0xfb, 0x00,
  0x06, 0xff, 0x06, 0xfe, 0x02, 0x02, 0x02, 0x20, 0xf4, 0x04, 0x33, 0xfd,
  0xf4, 0xf2, 0xfb, 0xfc, 0xff, 0xfd, 0xc8, 0x00, 0x09, 0xff, 0x0b, 0xe2,
  0xff, 0xfd, 0xdb, 0x0c, 0x09, 0xfd, 0x0b, 0xfb, 0xfc, 0x07, 0xd6, 0x08,
  0x09, 0xfb, 0xfc, 0x00, 0x06, 0x0b, 0xe7, 0x04, 0x01, 0xfa, 0x00, 0xdb,
  0x00, 0x04, 0xf8, 0x08, 0x02, 0x03, 0x03, 0xfe, 0x0c, 0xf3, 0xe1, 0x0c,
  0x0b, 0x10, 0x01, 0x12, 0x07, 0x00, 0xe0, 0x11, 0x09, 0x05, 0x05, 0x18,
  0x04, 0xfa, 0xfa, 0x04, 0x08, 0x0a, 0xf8, 0xf8, 0xff, 0x01, 0xf6, 0xfb,
  0x07, 0x09, 0x0e, 0x0b, 0xfb, 0x06, 0xf4, 0x0d, 0xff, 0xf9, 0xfe, 0xf3,
  0x09, 0x05, 0xea, 0xfd, 0x06, 0x05, 0xf7, 0xdf, 0xf9, 0x03, 0xf9, 0x03,
  0x01, 0x05, 0x00, 0x04, 0x04, 0xfa, 0x0b, 0x0d, 0xfc, 0x01, 0x06, 0xf9,
  0x09, 0x09, 0x11, 0x05, 0xfb, 0x0b, 0xf8, 0xe5, 0x0a, 0xf9, 0x31, 0x06,
  0x07, 0xfd, 0x07, 0x02, 0xf2, 0xfc, 0x05, 0x04, 0x10, 0x07, 0xfe, 0xba,
  0x07, 0xf0, 0x13, 0x0c, 0xfe, 0x09, 0x07, 0xf9, 0x03, 0xfd, 0x19, 0x01,
  0xfc, 0x05, 0x07, 0x10, 0xf9, 0xfc, 0xf5, 0x01, 0x0b, 0x00, 0x05, 0x11,
  0x00, 0xfd, 0x2f, 0x02, 0x02, 0xfe, 0x03, 0x12, 0xf4, 0x09, 0xc5, 0x13,
  0x03, 0x03, 0x08, 0xeb, 0xfc, 0x00, 0xe4, 0xff, 0x01, 0x08, 0x04, 0xee,
  0xff, 0xfe, 0xd9, 0x0a, 0x07, 0x0b, 0x04, 0x14, 0xfe, 0x04, 0xef, 0x01,
  0x07, 0x00, 0xf9, 0xf3, 0x00, 0xf2, 0x05, 0xfa, 0x07, 0x02, 0x06, 0xdf,
  0x0a, 0xfe, 0xe9, 0x0b, 0x05, 0x03, 0x08, 0xff, 0x06, 0xfe, 0xe7, 0x12,
  0xf3, 0xf7, 0x00, 0x03, 0x00, 0x05, 0xe9, 0xfd, 0x05, 0x02, 0x02, 0xfd,
  0x04, 0xf6, 0xff, 0x09, 0xff, 0x05, 0x0d, 0x21, 0x04, 0x03, 0xf3, 0x0c,
  0x05, 0x05, 0xfd, 0x0e, 0x0a, 0x05, 0xff, 0x02, 0x00, 0xfd, 0x00, 0xd8,
  0xfb, 0xfc, 0xfb, 0x05, 0xfa, 0x08, 0x04, 0xd9, 0x00, 0x05, 0x0a, 0xfd,
  0xf4, 0xf8, 0x03, 0x16, 0x0c, 0x02, 0x0c, 0x06, 0xff, 0x03, 0xfe, 0xe5,
  0x04, 0x01, 0x1b, 0x05, 0x04, 0x04, 0x0a, 0xfe, 0xfd, 0x04, 0x0d, 0x04,
  0xf6, 0xff, 0xf9, 0xb8, 0xfa, 0xf6, 0x14, 0x12, 0x07, 0x01, 0x04, 0xfc,
  0xfc, 0x00, 0x21, 0x03, 0x01, 0xff, 0x04, 0x1f, 0xf7, 0xfa, 0xee, 0x00,
  0x03, 0x04, 0xfc, 0x08, 0xfa, 0x09, 0x26, 0xf9, 0x0a, 0x0c, 0x07, 0x12,
  0x04, 0xfc, 0xc6, 0xf6, 0x0c, 0xfa, 0x01, 0xe5, 0x03, 0x09, 0xe2, 0x0c,
  0xfa, 0xfc, 0xfd, 0x0f, 0xf3, 0xfa, 0xd4, 0xf8, 0xff, 0x0a, 0xfd, 0x02,
  0x0c, 0xf4, 0xf9, 0x02, 0xfc, 0x0a, 0xfa, 0x00, 0x0a, 0xf4, 0xf8, 0x07,
  0xf7, 0xfa, 0x06, 0xec, 0x06, 0x02, 0xe8, 0x07, 0x10, 0x11, 0x04, 0xe4,
  0x03, 0x00, 0xe9, 0x09, 0x00, 0x0b, 0x02, 0xff, 0xfb, 0x06, 0xf3, 0x12,
  0x04, 0x08, 0x05, 0xf1, 0x00, 0x00, 0x07, 0x03, 0x0a, 0x00, 0xfa, 0x0d,
  0xfd, 0xfc, 0xfd, 0x08, 0x0b, 0x05, 0xf6, 0x23, 0x09, 0x07, 0x05, 0x03,
  0x07, 0x0a, 0xff, 0xf7, 0xf5, 0xfa, 0xf2, 0x10, 0xf5, 0x07, 0xf9, 0xdc,
  0xfa, 0xf9, 0xfc, 0x07, 0xfd, 0xff, 0x08, 0xfa, 0xfb, 0x0b, 0xfb, 0x0e,
  0x07, 0xfa, 0xfd, 0xe7, 0xff, 0xfc, 0x10, 0x02, 0x0a, 0x01, 0xfe, 0x01,
  0xfe, 0x01, 0x17, 0x0f, 0xf8, 0x03, 0xf5, 0xc8, 0x03, 0xf6, 0x09, 0x10,
  0x0f, 0xfc, 0x09, 0xfa, 0x04, 0xf9, 0x13, 0x10, 0x04, 0x04, 0x00, 0x19,
  0xff, 0x06, 0xe8, 0xfb, 0x04, 0x0a, 0x03, 0x02, 0x06, 0xfc, 0x18, 0x09,
  0x0e, 0xfe, 0x05, 0x20, 0xf9, 0xf9, 0xcc, 0x06, 0x0f, 0x02, 0x06, 0xdb,
  0xf6, 0x01, 0xe1, 0x01, 0xff, 0x06, 0x03, 0x0d, 0x02, 0xff, 0xcf, 0x0d,
  0x00, 0xfe, 0x04, 0x10, 0x01, 0xfe, 0xef, 0x07, 0x03, 0xff, 0x06, 0xfd,
  0xff, 0xf5, 0xee, 0x15, 0x09, 0x08, 0x0d, 0xed, 0x07, 0xf1, 0xde, 0x0c,
  0xfa, 0x0f, 0xff, 0xf7, 0x09, 0xfd, 0xf8, 0x11, 0x00, 0xfd, 0x00, 0x03,
  0xf9, 0x02, 0xee, 0xfd, 0x0c, 0x0d, 0xf8, 0x0b, 0x03, 0xf8, 0xfc, 0xf9,
  0x00, 0x01, 0x09, 0x16, 0xfb, 0xff, 0x02, 0x08, 0x07, 0x10, 0xf4, 0x32,
  0x0d, 0x0a, 0x09, 0xfe, 0x00, 0x02, 0xfd, 0xec, 0x05, 0x08, 0xf3, 0x0a,
  0x02, 0xfd, 0x00, 0xc6, 0xf7, 0xfa, 0x07, 0x01, 0x01, 0x05, 0x02, 0xeb,
  0xf6, 0x08, 0x08, 0xf9, 0x06, 0x01, 0xf9, 0xcf, 0xf9, 0xf7, 0x17, 0x05,
  0x07, 0x04, 0xff, 0x05, 0xf1, 0x05, 0x22, 0x09, 0x06, 0xf9, 0x07, 0xdb,
  0xf7, 0x07, 0x09, 0x10, 0xfe, 0xfe, 0xfc, 0x11, 0xf9, 0xf7, 0x12, 0x01,
  0x03, 0x01, 0xff, 0xfc, 0xfd, 0x08, 0xe0, 0x05, 0xff, 0xfc, 0x0d, 0xda,
  0xfa, 0x0b, 0x06, 0x07, 0x0a, 0xf6, 0xf7, 0x32, 0xfd, 0xff, 0xc3, 0x01,
  0x05, 0x07, 0xf6, 0xd8, 0xff, 0x08, 0xe0, 0x0d, 0xf5, 0x03, 0xfe, 0x0a,
  0x07, 0x05, 0xdc, 0x05, 0xf9, 0x01, 0x00, 0x13, 0x04, 0x0a, 0xef, 0xfe,
  0x0d, 0xf8, 0xf8, 0xea, 0x07, 0x0a, 0xe2, 0xff, 0x00, 0x04, 0xfe, 0xee,
  0xfd, 0xf2, 0xe1, 0x06, 0x0b, 0xfd, 0x03, 0x00, 0x00, 0xfe, 0xfb, 0x14,
  0xf9, 0x05, 0x03, 0xf5, 0xf8, 0xfa, 0xdd, 0x06, 0x11, 0xfc, 0x04, 0xff,
  0x03, 0xff, 0x09, 0x0f, 0x04, 0x03, 0x08, 0x07, 0x02, 0xf7, 0xf0, 0x0e,
  0x0a, 0x05, 0x08, 0x3f, 0xfe, 0xf6, 0x0e, 0x0a, 0x0c, 0x0f, 0xfc, 0xf7,
  0xfe, 0x05, 0xed, 0xfb, 0x0c, 0x01, 0x08, 0xd2, 0x0d, 0xfa, 0x01, 0x06,
  0xfd, 0x00, 0x05, 0xf9, 0xf8, 0xfb, 0x01, 0x01, 0xff, 0x07, 0xff, 0xf1,
  0xf9, 0xff, 0x09, 0xfb, 0x08, 0x09, 0x02, 0xf9, 0x09, 0xf4, 0x1f, 0xfb,
  0xf7, 0xfd, 0xfb, 0xf6, 0xff, 0xfa, 0x08, 0xff, 0xfc, 0xf7, 0x04, 0x0a,
  0xf2, 0x06, 0x27, 0xfb, 0x07, 0x05, 0xfe, 0xd7, 0xf9, 0x05, 0xe0, 0x10,
  0xfa, 0x00, 0x0b, 0xcd, 0xfc, 0xf8, 0x1c, 0x01, 0x09, 0x04, 0x09, 0x2d,
  0x02, 0x06, 0xc7, 0x05, 0x05, 0x0f, 0x04, 0xe4, 0x02, 0xfd, 0xcd, 0x0d,
  0x07, 0x03, 0xfb, 0x17, 0x04, 0xfe, 0xd8, 0x08, 0x08, 0xfb, 0x03, 0x01,
  0x03, 0xfd, 0xf8, 0x08, 0x02, 0xfe, 0x03, 0x03, 0xf1, 0xfa, 0xd0, 0x13,
  0x06, 0x00, 0xf5, 0xe4, 0xf9, 0xf6, 0xe5, 0x03, 0x01, 0x0e, 0x06, 0x01,
  0xfc, 0x0b, 0xf8, 0x05, 0x05, 0xfc, 0xf5, 0xfe, 0x02, 0x0a, 0xd9, 0x0d,
  0x04, 0x08, 0xf2, 0xee, 0xfe, 0xfc, 0x08, 0x04, 0x06, 0x03, 0x03, 0xf8,
  0x02, 0xfc, 0xf2, 0x08, 0x04, 0x07, 0x10, 0x2d, 0xfd, 0x04, 0x0a, 0x09,
  0x04, 0x07, 0xf5, 0xf8, 0x0a, 0xf8, 0xee, 0x00, 0x0c, 0x12, 0x04, 0xd6,
  0x02, 0x0d, 0x00, 0x0a, 0x02, 0x00, 0x04, 0xf5, 0x03, 0xf4, 0x07, 0x02,
  0xfb, 0x02, 0x0d, 0xef, 0xfb, 0x09, 0x10, 0x04, 0xfc, 0xfa, 0xf6, 0x00,
  0xf9, 0xf2, 0x2f, 0x01, 0x02, 0xf6, 0x05, 0x05, 0xfd, 0xfe, 0x17, 0x08,
  0x03, 0x07, 0x03, 0x13, 0x06, 0xf6, 0x1b, 0x04, 0xfa, 0x09, 0xf9, 0xd8,
  0xfd, 0xf9, 0xd4, 0x0a, 0x05, 0x04, 0xfd, 0xc3, 0xfc, 0xf9, 0x03, 0xff,
  0x0b, 0x00, 0xfc, 0x27, 0xfa, 0x04, 0xd4, 0x0b, 0x08, 0x02, 0xfd, 0x03,
  0xff, 0xfb, 0xce, 0xfe, 0x02, 0xff, 0x09, 0x0d, 0x00, 0x03, 0xd8, 0x0f,
  0x08, 0xf8, 0xf9, 0xf7, 0x06, 0x0d, 0xe7, 0xfd, 0x0a, 0x07, 0xfd, 0xfa,
  0xfb, 0xf7, 0xd8, 0x0a, 0x03, 0x09, 0xff, 0xea, 0xff, 0x03, 0xef, 0x08,
  0xfe, 0x03, 0xfe, 0x11, 0x00, 0x05, 0x0a, 0xfd, 0x03, 0x04, 0x03, 0x14,
  0x04, 0xfe, 0xda, 0x05, 0x01, 0x08, 0xf5, 0xe4, 0xfe, 0x0c, 0x09, 0x0c,
  0x04, 0xfa, 0xf2, 0xeb, 0xfc, 0x00, 0xe9, 0x03, 0x11, 0x09, 0x0a, 0x23,
  0x01, 0x08, 0x0f, 0x01, 0xfe, 0x06, 0x0a, 0x09, 0x00, 0x04, 0xf4, 0x00,
  0x0f, 0x07, 0xfb, 0xe1, 0xf8, 0x02, 0xf7, 0x0d, 0x05, 0x04, 0xf9, 0xfb,
  0xfa, 0x06, 0x07, 0x02, 0x01, 0xfc, 0xfb, 0xf7, 0xff, 0x05, 0x09, 0x0b,
  0xff, 0x0a, 0x02, 0xf3, 0x00, 0x05, 0x2e, 0x0d, 0x03, 0xfe, 0xf9, 0xf7,
  0x02, 0xf9, 0x16, 0xfc, 0x08, 0x03, 0x01, 0xfc, 0xf7, 0xfe, 0x10, 0x07,
  0xf4, 0x01, 0x07, 0xbd, 0xfa, 0xf4, 0xd9, 0x06, 0x0c, 0x00, 0x04, 0xba,
  0xfb, 0xff, 0x09, 0x02, 0x08, 0xf6, 0xfb, 0x40, 0xf2, 0xff, 0xef, 0x01,
  0x06, 0x0a, 0x02, 0x0b, 0x05, 0xfb, 0xe4, 0x0d, 0xfd, 0x02, 0x06, 0x07,
  0x02, 0x0a, 0xd2, 0x00, 0xfc, 0x11, 0xf7, 0xed, 0xfd, 0x03, 0xe4, 0x05,
  0x0d, 0x07, 0x0f, 0xf5, 0xfe, 0x0d, 0xd9, 0x0d, 0x00, 0x06, 0x00, 0xfa,
  0x05, 0x08, 0xe2, 0x11, 0x03, 0x0a, 0x03, 0x04, 0x07, 0xfc, 0x05, 0x0b,
  0xff, 0x04, 0xf9, 0x1f, 0x07, 0xfc, 0xd5, 0x04, 0x05, 0xfb, 0xfc, 0xe1,
  0xf8, 0x0c, 0xfa, 0x0d, 0xfe, 0xff, 0xfe, 0xf8, 0x05, 0x0a, 0xe8, 0x02,
  0x06, 0x04, 0x0a, 0x11, 0x02, 0x08, 0x0d, 0x04, 0x08, 0x0a, 0xfc, 0x04,
  0x01, 0x01, 0x02, 0x08, 0x01, 0x0e, 0x03, 0xf5, 0xf7, 0xff, 0xf6, 0x0a,
  0x08, 0xfe, 0xfc, 0xf5, 0x0c, 0xfe, 0x04, 0x0d, 0x03, 0x04, 0x06, 0xff,
  0x0e, 0xfc, 0x11, 0x0c, 0x0c, 0xf5, 0xfe, 0xea, 0x01, 0xfd, 0x34, 0x10,
  0x07, 0x08, 0x01, 0x02, 0x05, 0x01, 0x11, 0xfd, 0x0b, 0x08, 0xfc, 0x1c,
  0xf6, 0xf1, 0x02, 0x09, 0x0c, 0xfd, 0xfe, 0xb6, 0xff, 0xfd, 0xd5, 0x07,
  0xfc, 0x06, 0xf8, 0xc9, 0x0a, 0xfd, 0xf5, 0x0d, 0xf8, 0x09, 0x04, 0x27,
  0x0e, 0xfd, 0xe1, 0xf8, 0xfe, 0xfd, 0xf7, 0x01, 0x00, 0x05, 0xd5, 0x00,
  0x05, 0xfb, 0x01, 0xf5, 0x0a, 0xfc, 0xcf, 0x07, 0x00, 0x07, 0xfe, 0x04,
  0x03, 0xf2, 0xcd, 0x04, 0xfc, 0x01, 0x00, 0x05, 0x0b, 0xff, 0xdd, 0x04,
  0x04, 0x0d, 0xf7, 0xf1, 0x0c, 0x03, 0xe4, 0x04, 0x00, 0x10, 0x02, 0xfe,
  0x05, 0x0e, 0xf8, 0x06, 0x07, 0x01, 0x08, 0x16, 0x0b, 0x07, 0xcf, 0x00,
  0x0a, 0xfb, 0x0a, 0xed, 0xf8, 0x00, 0xf1, 0xfe, 0x05, 0x10, 0x04, 0x0e,
  0xf0, 0x06, 0xcf, 0x08, 0x06, 0x0d, 0x07, 0xf2, 0x06, 0xf1, 0xff, 0x0b,
  0xff, 0xfb, 0xfd, 0xf7, 0x02, 0x03, 0x05, 0x0a, 0x02, 0xff, 0x00, 0x01,
  0xfe, 0x04, 0xef, 0x0c, 0x04, 0x02, 0xfe, 0xf0, 0xf2, 0x07, 0xf8, 0x0c,
  0x0e, 0x00, 0xf9, 0x05, 0x0d, 0x03, 0xfd, 0x00, 0x0f, 0x00, 0x03, 0xf3,
  0x02, 0x0a, 0x2d, 0x07, 0xfb, 0x0c, 0xfb, 0xf5, 0x09, 0x01, 0xf3, 0x02,
  0x05, 0x07, 0xfe, 0x29, 0xfa, 0x07, 0x06, 0x0c, 0x0c, 0x07, 0xfa, 0xc7,
  0x0a, 0x08, 0xd4, 0x08, 0xf9, 0xfc, 0xf9, 0xca, 0xff, 0xf3, 0xef, 0xff,
  0xf7, 0x00, 0x08, 0x24, 0xfe, 0xfe, 0xea, 0xfa, 0x0a, 0x07, 0x07, 0xfb,
  0x00, 0x00, 0xdd, 0x08, 0xf6, 0xff, 0x02, 0xf3, 0x0d, 0xff, 0xe5, 0xfd,
  0xfc, 0xf7, 0xfb, 0xed, 0x03, 0xfb, 0xcf, 0xff, 0xf8, 0x04, 0x05, 0x13,
  0x01, 0x03, 0xda, 0x0b, 0xfe, 0x07, 0xfc, 0x01, 0xf7, 0x0f, 0xec, 0x12,
  0xff, 0xfa, 0xfe, 0x04, 0xff, 0xf6, 0xf7, 0x02, 0x07, 0x0c, 0xf7, 0x1e,
  0xff, 0xf5, 0xc8, 0x00, 0x07, 0x06, 0xfa, 0xe4, 0xf9, 0x02, 0xf8, 0x08,
  0x02, 0xfd, 0xff, 0x01, 0x0a, 0x08, 0xca, 0x00, 0x01, 0x04, 0xfd, 0xf0,
  0x04, 0x08, 0x02, 0x06, 0x00, 0x0d, 0x05, 0xe8, 0x08, 0xff, 0x09, 0x01,
  0xfb, 0x10, 0xfb, 0xfd, 0xf8, 0x07, 0xf8, 0x06, 0x0d, 0x06, 0x0d, 0xf0,
  0xff, 0xfc, 0xf5, 0x02, 0xfd, 0xf9, 0xfd, 0x05, 0xf6, 0xfc, 0xef, 0x09,
  0xfd, 0x06, 0x0b, 0xf5, 0x04, 0x05, 0x1b, 0x08, 0x07, 0x06, 0xf7, 0xff,
  0x07, 0x0b, 0x02, 0x04, 0x05, 0x00, 0xf7, 0x3b, 0xf7, 0xfc, 0x11, 0x02,
  0x0e, 0x09, 0x01, 0xce, 0x07, 0xf4, 0xdb, 0x00, 0x02, 0xf5, 0xff, 0xe4,
  0x08, 0xf7, 0xf8, 0xfd, 0x0c, 0xf4, 0x0b, 0x21, 0x08, 0xfd, 0xec, 0xfa,
  0xfa, 0x05, 0x08, 0xfd, 0x00, 0xfb, 0xdd, 0xfc, 0xfd, 0x05, 0xf6, 0x01,
  0xfd, 0xfc, 0xe9, 0x05, 0xf8, 0xf6, 0x0a, 0xe9, 0x07, 0x01, 0xd9, 0x06,
  0x07, 0x08, 0xfc, 0x11, 0xfa, 0x00, 0xe4, 0x08, 0xf8, 0xfd, 0xff, 0x08,
  0xf5, 0xff, 0xef, 0x01, 0x09, 0xf6, 0x02, 0x03, 0x0c, 0xff, 0xf5, 0x02,
  0x0a, 0x03, 0x06, 0x15, 0x08, 0xf6, 0xdf, 0xfa, 0x07, 0x06, 0x06, 0xed,
  0xf9, 0x0e, 0x02, 0x01, 0x07, 0xfd, 0x0b, 0x02, 0xff, 0xfa, 0xdb, 0xfd,
  0xfb, 0xf7, 0x03, 0x11, 0x08, 0x0c, 0x03, 0x07, 0xfe, 0x08, 0xf8, 0xfe,
  0xfa, 0xfa, 0xfc, 0x0e, 0x06, 0x0d, 0x00, 0xfd, 0xfe, 0xf5, 0xfa, 0xfc,
  0xf8, 0x04, 0xf4, 0xf7, 0x08, 0x06, 0xff, 0xfd, 0xfa, 0xfe, 0x08, 0x0d,
  0x0a, 0xfd, 0xfb, 0x0c, 0x06, 0x11, 0x04, 0x01, 0x05, 0xfe, 0x1c, 0x09,
  0x0b, 0xf7, 0x00, 0x06, 0x05, 0xf3, 0x03, 0x08, 0xf6, 0x08, 0xfe, 0x28,
  0x0d, 0x0d, 0x19, 0x07, 0x05, 0xff, 0x03, 0xd6, 0xf9, 0x02, 0xf2, 0x09,
  0x05, 0x0a, 0x0d, 0xf9, 0x06, 0x0c, 0xe7, 0x03, 0x0e, 0x02, 0xfc, 0x17,
  0x09, 0xf8, 0xf7, 0xf5, 0xfe, 0xfe, 0x05, 0xf9, 0xfd, 0xfb, 0xe5, 0x02,
  0xf1, 0x00, 0xfd, 0xef, 0x05, 0xf8, 0xee, 0x06, 0xfb, 0x0b, 0xf8, 0x02,
  0x08, 0x00, 0xc7, 0xfe, 0x09, 0x01, 0x00, 0x31, 0xf9, 0x01, 0xfb, 0x05,
  0xf7, 0xfe, 0xfc, 0x01, 0xf8, 0xfe, 0x0d, 0xfc, 0xfc, 0xfc, 0x01, 0xf2,
  0xff, 0xf8, 0x05, 0x03, 0x00, 0xf5, 0xfb, 0x25, 0x09, 0x08, 0xf4, 0x00,
  0x05, 0x01, 0x0d, 0xfb, 0xf6, 0xfa, 0xfe, 0x07, 0x05, 0x05, 0x00, 0x01,
  0x04, 0x06, 0xe4, 0x08, 0x03, 0x01, 0x02, 0x04, 0x04, 0x0d, 0xfd, 0xff,
  0xff, 0x06, 0x07, 0xed, 0xfa, 0xf2, 0x1c, 0xf6, 0x05, 0x04, 0x01, 0xf7,
  0x03, 0xf7, 0x04, 0x00, 0xfe, 0xfd, 0x05, 0x07, 0xfe, 0x03, 0x17, 0x05,
  0x02, 0x03, 0x00, 0xf7, 0xf5, 0xff, 0xfd, 0xfa, 0xf8, 0x11, 0x01, 0x19,
  0xf4, 0xf6, 0x1d, 0x02, 0xf4, 0xff, 0x0a, 0x0a, 0x06, 0xfd, 0x13, 0x07,
  0x01, 0x0a, 0x06, 0x50, 0x05, 0xf4, 0x3e, 0x00, 0x07, 0x01, 0x00, 0xe6,
  0x00, 0xfe, 0x29, 0xfe, 0x01, 0x04, 0x0f, 0x03, 0xfa, 0xfc, 0x07, 0x01,
  0xf6, 0xfc, 0x00, 0x19, 0x12, 0x02, 0x88, 0xf0, 0x03, 0xfe, 0x00, 0x0a,
  0x01, 0x0e, 0xf6, 0xf4, 0xfc, 0x06, 0x01, 0x0b, 0x04, 0xfc, 0xdf, 0xff,
  0xfa, 0xff, 0xfe, 0x04, 0x01, 0x01, 0xcd, 0xfa, 0x01, 0xf0, 0x03, 0x08,
  0x03, 0xff, 0x00, 0xf6, 0xf1, 0x06, 0x03, 0x0b, 0x11, 0x07, 0x03, 0xf6,
  0xf5, 0xf8, 0xff, 0x02, 0x05, 0x03, 0x07, 0xf3, 0xf4, 0xfa, 0x09, 0x04,
  0xff, 0x03, 0x16, 0xf6, 0xf6, 0x05, 0xf9, 0xfb, 0x06, 0xfd, 0x29, 0xe9,
  0x01, 0xf3, 0xfa, 0x06, 0x01, 0x12, 0x27, 0xff, 0xf6, 0xf3, 0xfe, 0x05,
  0x05, 0x09, 0x09, 0xfa, 0xfd, 0xff, 0x01, 0x05, 0x13, 0x08, 0xc6, 0xf8,
  0xf3, 0xfd, 0x04, 0xfc, 0x08, 0xfc, 0x15, 0xf1, 0xf4, 0x01, 0x08, 0xfc,
  0xf9, 0x08, 0x09, 0xed, 0xf5, 0xf4, 0xfe, 0x04, 0x0b, 0x07, 0x0d, 0xf9,
  0xfb, 0xf6, 0xf7, 0x09, 0xf9, 0x06, 0x0a, 0xfc, 0xfc, 0x01, 0x09, 0x0c,
  0x01, 0x07, 0xdb, 0xff, 0x01, 0x0b, 0xfc, 0xfa, 0xfc, 0x0d, 0xc7, 0xf3,
  0xfb, 0xfd, 0x00, 0x0a, 0x02, 0x04, 0x03, 0xf8, 0xf3, 0xfa, 0x07, 0xfa,
  0x0d, 0x0c, 0x3e, 0xfe, 0xf5, 0xfe, 0x03, 0x06, 0x08, 0x03, 0xf1, 0xee,
  0xec, 0xff, 0xfb, 0xe8, 0x09, 0x13, 0xc1, 0xf7, 0xfa, 0xfa, 0xf9, 0xf8,
  0x08, 0xff, 0xdc, 0xec, 0xf6, 0xfc, 0xfb, 0xfe, 0x01, 0xff, 0xf3, 0xed,
  0x00, 0xfb, 0xf5, 0xe6, 0x02, 0x07, 0xe6, 0xf0, 0xe8, 0xf9, 0xfa, 0xf1,
  0x04, 0x0f, 0xe9, 0xed, 0xf2, 0xff, 0xfa, 0xea, 0xfc, 0x11, 0x0c, 0xfd,
  0xf8, 0xf1, 0x04, 0xdf, 0xfe, 0x05, 0x33, 0xf5, 0xfb, 0xfb, 0xfd, 0xe9,
  0xf7, 0x03, 0xf6, 0xef, 0xfa, 0xf4, 0x07, 0xd8, 0xff, 0x08, 0x1a, 0xf2,
  0xf2, 0xfa, 0x05, 0xdd, 0x0b, 0x06, 0xf6, 0xf6, 0xf6, 0xf3, 0xfc, 0xe6,
  0x0b, 0x0a, 0xe7, 0xeb, 0xf9, 0xf7, 0x04, 0xf2, 0x02, 0x0a, 0xf5, 0xf9,
  0x03, 0x03, 0x05, 0xe7, 0x09, 0x09, 0xc7, 0xfd, 0xf0, 0x03, 0xf9, 0xed,
  0xfe, 0x08, 0x0d, 0xf9, 0xf4, 0xff, 0x0c, 0xe2, 0x08, 0x06, 0xec, 0xf8,
  0xf2, 0xf1, 0x02, 0xe5, 0x10, 0x16, 0x00, 0xfb, 0xf9, 0xf5, 0xff, 0xee,
  0xfa, 0x07, 0xb9, 0xe6, 0xfb, 0xf8, 0x0e, 0xdd, 0x03, 0x06, 0x0b, 0xfd,
  0xf3, 0xfe, 0xf9, 0xb9, 0x04, 0x02, 0xf0, 0xf4, 0xfb, 0x0a, 0xfb, 0xd2,
  0x04, 0x0a, 0xf2, 0xf4, 0xf2, 0xf7, 0x07, 0xcc, 0x05, 0x00, 0x8f, 0xf5,
  0xf2, 0xef, 0xfd, 0xce, 0x04, 0x06, 0xed, 0xee, 0xfb, 0xfa, 0xfb, 0x01,
  0x01, 0x11, 0xe7, 0xf7, 0xf0, 0xfb, 0x06, 0x1b, 0xfc, 0x01, 0xea, 0xf7,
  0xfb, 0x05, 0xf3, 0xfa, 0x09, 0x10, 0x03, 0xe8, 0xf1, 0xfb, 0xfe, 0xf9,
  0xfc, 0x11, 0x15, 0xef, 0xf0, 0xf4, 0x03, 0x0e, 0x08, 0xff, 0x3d, 0xec,
  0xf1, 0xfc, 0x00, 0x03, 0x05, 0x08, 0x0b, 0xe9, 0xf1, 0xfd, 0xfe, 0x08,
  0xfa, 0x05, 0x28, 0xf5, 0xec, 0xfd, 0xf9, 0x0b, 0xff, 0x13, 0x08, 0xf7,
  0xee, 0xf5, 0xf2, 0x06, 0x01, 0x0d, 0xb4, 0xea, 0xfe, 0x01, 0x01, 0x32,
  0xfe, 0x0c, 0xfb, 0xf1, 0xee, 0xf2, 0xf4, 0x0e, 0x0e, 0x07, 0xcf, 0xf7,
  0xf7, 0xfe, 0x07, 0x13, 0x09, 0x0a, 0x13, 0xf6, 0xf3, 0xf0, 0xfc, 0xf9,
  0x00, 0x03, 0x07, 0xea, 0x04, 0x02, 0xfd, 0x21, 0x04, 0x0b, 0x24, 0xf1,
  0xff, 0x02, 0xf9, 0xf5, 0x0c, 0x03, 0xd1, 0xf1, 0xf2, 0xf2, 0xfd, 0xd9,
  0x00, 0x0a, 0xdf, 0xff, 0xf7, 0xf9, 0x03, 0xd6, 0x05, 0x0a, 0xe6, 0xfa,
  0x01, 0xf7, 0xfb, 0xe6, 0xf5, 0x04, 0x04, 0xf3, 0x04, 0xf5, 0x0f, 0xeb,
  0xfc, 0x0a, 0xe7, 0xf2, 0x05, 0xfc, 0x06, 0xbf, 0x06, 0x0d, 0x08, 0xed,
  0xfa, 0xfb, 0xf4, 0x00, 0x10, 0x18, 0x12, 0xec, 0xf1, 0xfc, 0x02, 0xf6,
  0xfc, 0x04, 0xf1, 0xee, 0xfc, 0xf4, 0xf4, 0x0f, 0x03, 0xfb, 0xf6, 0xf0,
  0xf7, 0xf1, 0x02, 0xf9, 0x02, 0x07, 0x0d, 0xef, 0xfe, 0xfe, 0x07, 0xed,
  0xf8, 0x0a, 0x4d, 0xf3, 0xfb, 0xfa, 0x01, 0x12, 0xf6, 0x07, 0x02, 0xfa,
  0xf1, 0xf9, 0xf8, 0x05, 0x07, 0x09, 0x11, 0xea, 0xf6, 0xef, 0xf6, 0x07,
  0x05, 0x09, 0x0b, 0xff, 0xf9, 0xfc, 0x04, 0x14, 0xfa, 0x09, 0xd4, 0xfb,
  0xf6, 0xfe, 0x05, 0x17, 0x04, 0x11, 0xfa, 0xf3, 0xf8, 0xec, 0xf7, 0x0d,
  0x05, 0x0c, 0xd3, 0xec, 0xf0, 0xf8, 0x01, 0x23, 0xfc, 0x01, 0x0c, 0xe3,
  0xf5, 0xf5, 0xf3, 0xdb, 0xf4, 0x0f, 0xd9, 0xf1, 0xf2, 0xfc, 0x03, 0x1a,
  0x00, 0x07, 0x02, 0xef, 0x01, 0x00, 0x01, 0x00, 0x08, 0x10, 0xd2, 0xf6,
  0xf8, 0xf8, 0xf9, 0xcc, 0xff, 0x02, 0xd2, 0xf6, 0xf5, 0xfc, 0x03, 0x01,
  0x06, 0x09, 0xd9, 0xfb, 0xff, 0xf8, 0x01, 0xef, 0x0f, 0x03, 0x06, 0xf6,
  0xfe, 0x05, 0xff, 0xfd, 0x01, 0x0d, 0xcd, 0xf2, 0xf4, 0xf4, 0xf9, 0xdd,
  0xf8, 0x08, 0x10, 0xfc, 0xf5, 0xf4, 0x05, 0xff, 0x03, 0x0a, 0x21, 0xfb,
  0xff, 0xfa, 0x03, 0x01, 0x05, 0x05, 0x1d, 0xf5, 0xf1, 0xfc, 0xf9, 0x2b,
  0xfc, 0x03, 0x04, 0xf0, 0xf1, 0xf7, 0xf8, 0xcc, 0xf7, 0x0e, 0x03, 0xee,
  0x01, 0xf2, 0x00, 0xef, 0x08, 0xf8, 0x34, 0xf4, 0xf0, 0x01, 0xf8, 0x22,
  0x03, 0x03, 0x00, 0xf8, 0xf3, 0xfd, 0x01, 0x1c, 0xfc, 0x10, 0x0d, 0xf5,
  0xf7, 0xfa, 0xfd, 0x30, 0xf8, 0xff, 0x09, 0xee, 0x00, 0xfa, 0x07, 0x12,
  0x01, 0x0c, 0xf7, 0xf8, 0xf6, 0xfc, 0x08, 0x05, 0x07, 0x02, 0x02, 0xf8,
  0xfb, 0xed, 0x07, 0x07, 0x0b, 0x0e, 0xdf, 0xf0, 0xef, 0x06, 0xfe, 0x1b,
  0x03, 0x0a, 0x13, 0xf7, 0xed, 0x02, 0xf7, 0xe3, 0x06, 0x08, 0xfd, 0xf0,
  0xf7, 0x03, 0xff, 0x0b, 0xf6, 0x06, 0x02, 0xf3, 0xf8, 0xee, 0xff, 0xfd,
  0xf5, 0x04, 0xe2, 0xfd, 0xee, 0xf8, 0xf9, 0xce, 0x02, 0x09, 0xd7, 0xfa,
  0xfd, 0x02, 0x03, 0xf9, 0x04, 0x10, 0xd4, 0xf5, 0x03, 0xfc, 0xfd, 0xe8,
  0xfc, 0x04, 0x10, 0xee, 0xef, 0x02, 0xf6, 0x02, 0xfc, 0x01, 0xea, 0xf5,
  0xff, 0xf4, 0xf2, 0xd7, 0x04, 0x01, 0x16, 0xf7, 0xf6, 0x05, 0x0b, 0x06,
  0x00, 0x02, 0x1b, 0xee, 0xf3, 0x00, 0x07, 0x01, 0x0f, 0x0b, 0x11, 0xf2,
  0xf3, 0xff, 0x03, 0x21, 0xf6, 0x0a, 0x07, 0xf6, 0xf1, 0xfd, 0xf4, 0xec,
  0x0b, 0x05, 0x01, 0xee, 0xf4, 0x03, 0x04, 0xd6, 0xfe, 0x07, 0x2f, 0xf3,
  0xfa, 0xfa, 0x0e, 0x0f, 0x0b, 0x08, 0x05, 0xf3, 0xf3, 0xfc, 0x0b, 0x04,
  0x02, 0x01, 0x05, 0xf8, 0xfd, 0xf7, 0x02, 0x11, 0xf5, 0xfb, 0x03, 0xf0,
  0xf5, 0x02, 0x02, 0x28, 0xfb, 0x04, 0xda, 0xfc, 0xf4, 0xf7, 0x05, 0xe8,
  0xf8, 0x0e, 0x09, 0xf5, 0xfa, 0xfb, 0x0c, 0xfc, 0x02, 0xfe, 0xff, 0xfa,
  0xf5, 0xfe, 0x02, 0x24, 0x01, 0x04, 0xf9, 0xf0, 0xf0, 0xf3, 0x05, 0xe9,
  0xff, 0xff, 0xea, 0xf8, 0xff, 0xea, 0x0a, 0x1e, 0xfa, 0x03, 0x00, 0xfc,
  0xf1, 0xf8, 0xf8, 0xec, 0xff, 0x13, 0xd9, 0xf9, 0xf3, 0xf1, 0x08, 0xe8,
  0xfe, 0x09, 0xdf, 0x02, 0xf8, 0xf3, 0xfe, 0x0c, 0x02, 0x06, 0xba, 0x05,
  0xf9, 0xf3, 0x07, 0xe1, 0x07, 0x04, 0x16, 0xfa, 0x01, 0xf7, 0x06, 0x0c,
  0x05, 0x07, 0xf2, 0xf1, 0xff, 0xf5, 0xf6, 0xe8, 0xfb, 0x04, 0x1e, 0xef,
  0xff, 0xf3, 0xfa, 0x00, 0xff, 0x05, 0x1e, 0xf1, 0xfd, 0xf1, 0xf8, 0x12,
  0x07, 0x0d, 0x15, 0xef, 0xf0, 0xef, 0xf6, 0x2b, 0xfd, 0x06, 0x1b, 0xff,
  0xff, 0xf8, 0x02, 0xf5, 0xfe, 0x06, 0xf7, 0xf9, 0xf5, 0x00, 0x00, 0xdb,
  0x05, 0x0d, 0x1c, 0xf7, 0xff, 0xf5, 0x04, 0x03, 0x09, 0x0b, 0x14, 0xec,
  0x01, 0xfe, 0xfc, 0x03, 0xff, 0x06, 0x00, 0xf9, 0xee, 0xfa, 0x01, 0x0a,
  0x02, 0x06, 0x08, 0xe9, 0xf9, 0xfb, 0xfc, 0x11, 0xfc, 0x0d, 0xd6, 0xfe,
  0xfd, 0xfe, 0x0f, 0xef, 0x00, 0xf8, 0x15, 0xee, 0xff, 0xee, 0x04, 0x12,
  0xf4, 0xfd, 0x15, 0xf0, 0x06, 0xf0, 0x00, 0x26, 0x05, 0x04, 0xf4, 0xf5,
  0xf9, 0xfe, 0xf4, 0xe4, 0xfc, 0x03, 0xe4, 0xf3, 0xf5, 0xf6, 0xfa, 0x1a,
  0xf7, 0x04, 0xea, 0xfe, 0xfd, 0xf1, 0xfb, 0xe6, 0x08, 0xfb, 0xf0, 0xe6,
  0xfa, 0xf6, 0x05, 0xe6, 0xff, 0x0c, 0xec, 0xee, 0xfb, 0xf4, 0xf8, 0xfe,
  0x07, 0x03, 0xd7, 0xfd, 0x03, 0xfd, 0x0a, 0xe1, 0x05, 0x07, 0x22, 0xf7,
  0xf3, 0xf5, 0x07, 0x18, 0x01, 0x00, 0xfc, 0xf7, 0xf3, 0xfe, 0x09, 0xf8,
  0xf6, 0x02, 0x21, 0xea, 0xf5, 0xfa, 0x01, 0xf9, 0x08, 0x01, 0x19, 0x00,
  0xf7, 0xf9, 0xfe, 0xfe, 0x04, 0x0a, 0x0d, 0xf6, 0x04, 0xff, 0x05, 0x0f,
  0xfd, 0x01, 0x0d, 0xfa, 0xf7, 0xf2, 0xfa, 0x14, 0x07, 0x0c, 0x12, 0xf4,
  0xf6, 0x04, 0xf5, 0xdb, 0x0a, 0x02, 0x26, 0xf2, 0xfb, 0xf7, 0xfc, 0xf8,
  0x03, 0x07, 0x13, 0xff, 0xfa, 0xf8, 0xfe, 0x13, 0xfe, 0x05, 0x0e, 0xf4,
  0xe8, 0xf9, 0x05, 0x30, 0x08, 0xf9, 0xf5, 0xf5, 0xfe, 0xf2, 0x01, 0x10,
  0xf8, 0x02, 0xd9, 0xf8, 0xfa, 0x06, 0x01, 0x02, 0x02, 0x00, 0x0e, 0x03,
  0xf5, 0x02, 0xfd, 0xfe, 0x04, 0x0a, 0x12, 0xfb, 0x03, 0x00, 0xf3, 0x15,
  0xfd, 0x10, 0xe6, 0xf6, 0xf4, 0xf1, 0xfd, 0xd9, 0xfc, 0xf7, 0xd9, 0xf1,
  0xf7, 0x00, 0xfe, 0x2d, 0xfe, 0x04, 0xfb, 0xf3, 0xee, 0xfd, 0x07, 0xe7,
  0x05, 0xfe, 0xff, 0x00, 0xfb, 0xfc, 0xf9, 0xe1, 0xfb, 0x09, 0xf5, 0xfc,
  0xf8, 0xf3, 0xfe, 0x04, 0x09, 0xff, 0xc1, 0x03, 0xff, 0xfb, 0x05, 0xec,
  0x06, 0xff, 0x2a, 0xf4, 0x02, 0xfe, 0xfd, 0x26, 0xf9, 0x06, 0x0f, 0xfa,
  0xf7, 0xfd, 0xf5, 0x11, 0xf8, 0x03, 0x15, 0xfc, 0xf9, 0xf1, 0xfd, 0xfb,
  0x10, 0xfe, 0x1f, 0x02, 0xf2, 0xf8, 0xfd, 0xf1, 0x00, 0xfe, 0x0a, 0xfa,
  0x00, 0x00, 0xfe, 0x05, 0x08, 0x03, 0x1a, 0x04, 0xfd, 0x05, 0xf7, 0x1c,
  0xfe, 0xff, 0x07, 0xfc, 0xf9, 0xf3, 0xfb, 0xf4, 0x00, 0x08, 0x1e, 0xf8,
  0xed, 0x06, 0x01, 0x10, 0xf8, 0x02, 0x11, 0xff, 0xef, 0xf9, 0x09, 0xf0,
  0xf6, 0xff, 0x0a, 0xfd, 0xeb, 0x02, 0x00, 0x1a, 0x10, 0x04, 0xf2, 0xf9,
  0xfb, 0xf7, 0x04, 0xef, 0xf5, 0xf6, 0xe7, 0xf2, 0xfb, 0x01, 0xf3, 0x09,
  0xfd, 0x03, 0x1e, 0xf8, 0xf0, 0xf3, 0x03, 0x06, 0xf8, 0x05, 0x15, 0xf7,
  0xfc, 0xf5, 0x09, 0x10, 0x05, 0x06, 0xde, 0xeb, 0xf5, 0xf0, 0x07, 0xe5,
  0x09, 0x02, 0xdf, 0xf3, 0xf3, 0xf8, 0xfe, 0x49, 0xfa, 0x07, 0x04, 0xfb,
  0xea, 0xf6, 0xfd, 0xd9, 0x00, 0x0e, 0xff, 0xf2, 0xf8, 0xf8, 0x02, 0xfb,
  0xfe, 0x07, 0xf3, 0xfc, 0xfb, 0xfa, 0xfd, 0xee, 0xf9, 0x01, 0xca, 0xfb,
  0xf6, 0x00, 0x05, 0xec, 0xfa, 0xfe, 0x2d, 0xf8, 0xf0, 0xfd, 0x09, 0x37,
  0xfb, 0xfa, 0x29, 0xea, 0xf2, 0x06, 0xf9, 0x03, 0xfe, 0x0a, 0x19, 0x02,
  0xf8, 0xfd, 0xff, 0x0d, 0xff, 0x06, 0x0f, 0x00, 0xf0, 0x03, 0x09, 0xf9,
  0x09, 0x08, 0x04, 0xea, 0x06, 0xf3, 0xfb, 0xda, 0xfd, 0x02, 0x10, 0xea,
  0xf4, 0x03, 0xfd, 0x16, 0x10, 0x11, 0x06, 0xf4, 0xfe, 0xf6, 0xfe, 0xec,
  0x05, 0x05, 0x20, 0xf2, 0xf3, 0xfe, 0x0a, 0x08, 0x09, 0xf6, 0x11, 0xed,
  0xf7, 0xfb, 0x05, 0xf6, 0x07, 0xff, 0x08, 0xf8, 0x03, 0xf4, 0xf5, 0x0c,
  0xff, 0x04, 0xef, 0xff, 0xfb, 0xf3, 0x0c, 0x0b, 0x08, 0x08, 0xe2, 0xf7,
  0xf7, 0xf7, 0x05, 0x16, 0xf4, 0x01, 0x1e, 0xfc, 0xf4, 0x03, 0xfb, 0xfd,
  0x04, 0xfe, 0x07, 0xf7, 0xf0, 0xf4, 0xff, 0x1b, 0x06, 0x07, 0xdd, 0xfa,
  0x06, 0xf8, 0x0e, 0xf4, 0x05, 0x04, 0xe5, 0xef, 0xee, 0xee, 0x01, 0x55,
  0x06, 0x02, 0x0e, 0x01, 0xf8, 0xfe, 0x04, 0xe2, 0x0a, 0xf5, 0x03, 0xfb,
  0xf0, 0xfa, 0xfd, 0xf5, 0x03, 0x01, 0xe9, 0xfe, 0x03, 0xfc, 0xf4, 0xdf,
  0x01, 0x00, 0xcb, 0xef, 0xff, 0xf0, 0x0b, 0xf7, 0x0c, 0x06, 0x2f, 0xf7,
  0xf8, 0xf4, 0x01, 0x2f, 0x04, 0x03, 0x2b, 0xf9, 0xf6, 0xee, 0xfa, 0x0e,
  0x08, 0x0d, 0x0e, 0x02, 0x06, 0x02, 0x0b, 0x04, 0xfb, 0xf5, 0x0f, 0x01,
  0x00, 0xef, 0xf9, 0x1e, 0x04, 0x07, 0x04, 0x01, 0xfd, 0x0b, 0xfa, 0xe4,
  0x08, 0xf8, 0x1b, 0xfe, 0xf9, 0xfd, 0x02, 0x18, 0xf4, 0x04, 0xfd, 0xf6,
  0xfc, 0x00, 0xf5, 0xe2, 0x03, 0x04, 0x16, 0xfe, 0xfd, 0xf8, 0x01, 0x12,
  0x06, 0xfd, 0x1c, 0xff, 0xf7, 0xf8, 0xf9, 0xe5, 0xf3, 0xf6, 0x16, 0xea,
  0xf4, 0x06, 0xf3, 0x01, 0x05, 0xfd, 0x04, 0xfc, 0xf3, 0xee, 0x08, 0xf7,
  0x0f, 0x00, 0xff, 0xfa, 0xfe, 0xfa, 0x08, 0x16, 0xf3, 0xfb, 0x0f, 0xf5,
  0xf8, 0xfc, 0x01, 0x03, 0x02, 0x0a, 0x0d, 0xf3, 0xf8, 0xf1, 0xfc, 0x19,
  0x03, 0x06, 0xe2, 0xfb, 0xf7, 0xf4, 0x01, 0xe4, 0x06, 0xf7, 0xf5, 0xf8,
  0xfb, 0xf2, 0x02, 0x55, 0xf9, 0x00, 0x07, 0xf8, 0xff, 0xfb, 0x09, 0x03,
  0x03, 0xfd, 0xfa, 0xf1, 0xf8, 0x03, 0xff, 0x14, 0xfd, 0x04, 0xf1, 0xfe,
  0xfa, 0x02, 0xf9, 0xdc, 0xfc, 0x00, 0xd6, 0xf6, 0xfe, 0xfa, 0x03, 0xf6,
  0x09, 0x00, 0x27, 0xf6, 0xf7, 0xf4, 0x04, 0x26, 0xfc, 0x09, 0x36, 0xf0,
  0xf5, 0xfb, 0xf7, 0x10, 0xf8, 0x08, 0x16, 0xfa, 0xee, 0x06, 0xff, 0xff,
  0x01, 0x00, 0x07, 0xf6, 0xfe, 0xfc, 0xfc, 0x0d, 0xfa, 0xfe, 0x0f, 0xfe,
  0xfc, 0x07, 0xfe, 0xfc, 0x05, 0x06, 0x1a, 0xec, 0x09, 0x07, 0x07, 0x1b,
  0xf4, 0x07, 0xff, 0xf5, 0xff, 0xf3, 0x08, 0xee, 0xfe, 0xfe, 0x12, 0xea,
  0xfb, 0xf4, 0xf9, 0xff, 0x08, 0x0c, 0x1e, 0x03, 0xf9, 0x06, 0xfc, 0xf8,
  0x02, 0xfa, 0x0e, 0xf8, 0xff, 0xfc, 0xfa, 0x22, 0xf8, 0x10, 0xfb, 0xfe,
  0xf9, 0xf4, 0xfd, 0x08, 0x05, 0xf7, 0xf0, 0xed, 0xef, 0xf5, 0x01, 0x15,
  0x02, 0x05, 0xf3, 0xfa, 0xeb, 0x06, 0x00, 0x0d, 0x0a, 0x00, 0x03, 0x02,
  0xeb, 0x06, 0xfe, 0x0b, 0xfb, 0xfc, 0xdb, 0xfb, 0xfa, 0x00, 0x00, 0xdf,
  0xfd, 0x0d, 0x00, 0xf8, 0x00, 0xf0, 0xf7, 0x47, 0x0e, 0xfd, 0x11, 0xf4,
  0xf9, 0xef, 0xfd, 0x14, 0x0e, 0x0a, 0xf0, 0xed, 0xf6, 0xfd, 0x04, 0x18,
  0x03, 0x00, 0xfb, 0xf6, 0xfa, 0x04, 0xf9, 0xc8, 0x07, 0x0f, 0xd7, 0x04,
  0x00, 0xf1, 0x00, 0xfa, 0x06, 0x0d, 0x2c, 0xf9, 0xfd, 0xed, 0xfc, 0x28,
  0x00, 0x00, 0x3c, 0xf1, 0xf4, 0x00, 0x09, 0x0c, 0x00, 0xff, 0x18, 0xfb,
  0x04, 0xfd, 0xff, 0x20, 0xf9, 0xfb, 0x0c, 0xf4, 0x03, 0xff, 0x0b, 0x0f,
  0x07, 0x08, 0x07, 0x01, 0xf9, 0xfb, 0xf9, 0x07, 0x05, 0x03, 0x21, 0xfc,
  0x04, 0xf7, 0x09, 0xff, 0x07, 0xfc, 0xff, 0xf7, 0xec, 0xf4, 0x02, 0xe0,
  0x03, 0x08, 0x12, 0xef, 0xeb, 0x03, 0x04, 0x00, 0x0a, 0xf6, 0x16, 0xeb,
  0x06, 0xef, 0x03, 0xf5, 0x0b, 0x05, 0x1b, 0xfc, 0xee, 0xff, 0x08, 0x0f,
  0x01, 0xf4, 0x02, 0xef, 0xf8, 0xee, 0xf7, 0x22, 0x0b, 0xfb, 0xf1, 0xfd,
  0xfc, 0x02, 0xfc, 0xff, 0x08, 0xff, 0xee, 0xfb, 0x03, 0xf4, 0xf6, 0x0a,
  0xff, 0x0d, 0x06, 0xfe, 0xf5, 0x09, 0x04, 0x0b, 0xfc, 0xf9, 0xde, 0xff,
  0xfe, 0xf2, 0x05, 0xeb, 0x07, 0x00, 0x00, 0x00, 0xf2, 0xfe, 0xfb, 0x43,
  0x0a, 0x08, 0x04, 0xf1, 0xf5, 0x02, 0xfe, 0x00, 0x02, 0x06, 0xe1, 0x01,
  0xfa, 0xf3, 0x04, 0xfe, 0x0a, 0x03, 0xfb, 0x02, 0x00, 0xed, 0xfc, 0xd8,
  0xf8, 0xff, 0xd0, 0xef, 0x08, 0xf8, 0x0d, 0xfa, 0xf8, 0x06, 0x35, 0xeb,
  0x00, 0xfd, 0x0b, 0x2b, 0x07, 0x0b, 0x28, 0x00, 0x06, 0xf6, 0xfb, 0xfe,
  0x0b, 0x08, 0x19, 0xec, 0xfe, 0xf5, 0x0d, 0xf4, 0xf8, 0xfd, 0x11, 0xf2,
  0xf5, 0xed, 0xf1, 0x1f, 0xfc, 0xf6, 0x0e, 0xef, 0xfe, 0xfd, 0xfe, 0x11,
  0x03, 0xfc, 0x1e, 0xeb, 0x06, 0xf8, 0x0b, 0x06, 0x00, 0xf5, 0xf8, 0xf6,
  0xf4, 0xf4, 0xfd, 0xf3, 0x07, 0x06, 0x18, 0xf8, 0xfd, 0xfa, 0xfe, 0x07,
  0x02, 0xff, 0x15, 0xf7, 0xf4, 0xf8, 0xfa, 0xe3, 0xfe, 0x09, 0x28, 0xff,
  0x08, 0xfb, 0x03, 0x17, 0x06, 0x10, 0xf8, 0xf9, 0xf4, 0xf4, 0x0c, 0x1e,
  0x0a, 0x10, 0xff, 0xed, 0x05, 0xfe, 0x05, 0x07, 0xfb, 0x00, 0xed, 0xfa,
  0xfc, 0xf4, 0xfc, 0xf5, 0x04, 0x06, 0x0b, 0xf4, 0xf5, 0xfa, 0xfb, 0x18,
  0xfb, 0xfc, 0xe1, 0x03, 0xec, 0xf7, 0x0a, 0x00, 0x0a, 0xf3, 0x0e, 0xf6,
  0x06, 0xfc, 0x07, 0x3f, 0x0c, 0x03, 0xfe, 0xf1, 0xf5, 0xf7, 0x02, 0x03,
  0xfd, 0x09, 0xde, 0xef, 0xff, 0xf8, 0x04, 0x01, 0x02, 0x04, 0x0d, 0xfe,
  0xfd, 0xf8, 0xfc, 0xeb, 0xfb, 0x01, 0xd9, 0x01, 0x07, 0xee, 0xf6, 0xf5,
  0x05, 0x00, 0x35, 0xf8, 0x01, 0xfa, 0x04, 0x25, 0x00, 0x0c, 0x30, 0xf2,
  0x07, 0xfc, 0x09, 0x03, 0xf5, 0xf6, 0x1c, 0xea, 0xf9, 0xf4, 0x0b, 0xe9,
  0xfa, 0xfc, 0x0c, 0x00, 0xf2, 0xef, 0xfa, 0x0b, 0xfa, 0x02, 0x1a, 0xf7,
  0xfc, 0xf3, 0x07, 0x1c, 0x06, 0x0f, 0x1a, 0xed, 0xee, 0xf6, 0xfa, 0x0d,
  0x08, 0xfb, 0x10, 0xf3, 0xf9, 0xf6, 0xf8, 0x05, 0x02, 0x02, 0x18, 0xf8,
  0xfd, 0xee, 0xf8, 0x18, 0xfb, 0x09, 0x12, 0xfc, 0xf2, 0xff, 0xf6, 0xdc,
  0x02, 0xfd, 0x17, 0xf4, 0xf9, 0xfc, 0x0c, 0x04, 0xfa, 0xf9, 0xff, 0xf3,
  0xfc, 0xfd, 0xfa, 0x2d, 0x09, 0x05, 0xfe, 0xf8, 0xf8, 0xf4, 0x00, 0x1b,
  0xff, 0x0d, 0xe0, 0xfe, 0xfd, 0xfd, 0xff, 0xf9, 0x0a, 0x04, 0x11, 0xf5,
  0x02, 0xfb, 0x00, 0x24, 0xfd, 0xf6, 0xe3, 0xf5, 0xf8, 0xf9, 0xfe, 0xfa,
  0xff, 0xf3, 0x09, 0xff, 0xf1, 0xee, 0x02, 0x36, 0x07, 0x05, 0xf7, 0xf0,
  0x00, 0xf5, 0x06, 0x14, 0xf6, 0xf5, 0xdd, 0xeb, 0xf8, 0xfa, 0xf7, 0xd2,
  0x00, 0xf4, 0x12, 0xf5, 0x07, 0xff, 0x06, 0xef, 0xfc, 0x03, 0xdb, 0xfe,
  0x04, 0xfc, 0xfd, 0xdc, 0x02, 0xf4, 0x38, 0xf0, 0xff, 0xfe, 0xf8, 0x21,
  0x07, 0x02, 0x2b, 0xeb, 0xf1, 0xf7, 0xfc, 0xfd, 0x0c, 0xfe, 0x1c, 0x01,
  0xfb, 0xf8, 0xf9, 0xee, 0xf3, 0x05, 0x18, 0xf8, 0xfa, 0xfd, 0x0b, 0xfd,
  0xff, 0x08, 0x18, 0xf5, 0xfd, 0xfe, 0xf2, 0x23, 0x07, 0x09, 0x12, 0xee,
  0x00, 0x05, 0xfe, 0x16, 0xfb, 0xf9, 0x0d, 0xf7, 0xf3, 0xf2, 0x02, 0xfd,
  0xfb, 0x04, 0x13, 0xf9, 0xfb, 0xff, 0x01, 0x01, 0x00, 0xf8, 0x21, 0xfa,
  0x01, 0xed, 0xff, 0xee, 0xf8, 0x04, 0x0a, 0xf7, 0xef, 0xf4, 0x02, 0xe2,
  0x0b, 0x03, 0xfa, 0xf3, 0xfd, 0xf4, 0xf9, 0x0b, 0xf8, 0xf9, 0x03, 0xf5,
  0xfd, 0x00, 0x05, 0x34, 0xf7, 0x0f, 0xf6, 0xf4, 0x00, 0xee, 0x06, 0x03,
  0x04, 0xff, 0x10, 0xf6, 0x02, 0xfb, 0x00, 0x27, 0xf8, 0x00, 0xed, 0xf6,
  0xf1, 0xfc, 0xfe, 0xf7, 0x05, 0x09, 0xfe, 0xfb, 0xec, 0xff, 0x00, 0x27,
  0x05, 0xfc, 0xf0, 0x04, 0xef, 0xed, 0x0a, 0x12, 0x03, 0xf8, 0xdf, 0xfa,
  0xf0, 0xfa, 0xfe, 0xf6, 0xff, 0x03, 0x1f, 0x07, 0xf9, 0xfb, 0xff, 0x0e,
  0xfe, 0x08, 0xf6, 0xfb, 0xff, 0x0a, 0xf9, 0xe0, 0x05, 0xf4, 0x3c, 0x02,
  0xfe, 0x06, 0x08, 0x23, 0x03, 0x03, 0x2b, 0xed, 0xf4, 0xfd, 0xfb, 0x05,
  0x01, 0xf6, 0x0a, 0xfb, 0xec, 0xf3, 0xff, 0xf8, 0x05, 0x00, 0x14, 0xfc,
  0xf0, 0xfa, 0xfd, 0x0c, 0xfc, 0x00, 0x18, 0xf6, 0x02, 0xf4, 0x06, 0x0a,
  0xf5, 0x0a, 0x08, 0xfd, 0xfb, 0x03, 0x07, 0x08, 0xfa, 0x06, 0x10, 0xf0,
  0xef, 0xf3, 0x00, 0x02, 0x00, 0x0b, 0x18, 0xf4, 0xfd, 0x05, 0x01, 0xf9,
  0xfc, 0x00, 0x11, 0xff, 0x04, 0xf9, 0xfc, 0xf3, 0xf7, 0xfc, 0x16, 0xf0,
  0x01, 0x0b, 0x05, 0xcc, 0x01, 0x04, 0x00, 0x00, 0xf0, 0xf0, 0xf9, 0x13,
  0xf5, 0xfc, 0x02, 0xfc, 0xf5, 0x08, 0x05, 0x32, 0xfb, 0x03, 0x01, 0xf7,
  0xf5, 0xfb, 0xfb, 0x0d, 0x0a, 0x04, 0x06, 0x04, 0xf6, 0xf4, 0xf7, 0x23,
  0xf8, 0x07, 0xe6, 0xf3, 0xf7, 0xfd, 0x07, 0xfc, 0x04, 0x0b, 0xf3, 0xf8,
  0xf5, 0xf7, 0xf5, 0x0f, 0x06, 0xff, 0xf3, 0xfd, 0xf8, 0xfd, 0x04, 0xe3,
  0x02, 0x08, 0xe4, 0xf8, 0xf9, 0x02, 0x05, 0x05, 0x06, 0xfb, 0x21, 0xfb,
  0xf2, 0xfc, 0xfd, 0x29, 0x02, 0xfc, 0xfd, 0x00, 0xf6, 0xf9, 0x07, 0xd8,
  0xf4, 0xfb, 0x46, 0xf8, 0xf8, 0xf1, 0x0c, 0x34, 0xfb, 0x06, 0x2f, 0xf8,
  0x05, 0xfe, 0x05, 0xfc, 0xfb, 0xfe, 0x12, 0x00, 0xf6, 0x01, 0xf9, 0xed,
  0xf6, 0x07, 0x14, 0xfe, 0x05, 0xf9, 0xfe, 0x0a, 0x0d, 0x09, 0x1b, 0xf4,
  0xf2, 0x00, 0x01, 0x1d, 0xfb, 0xfe, 0x00, 0xf6, 0xff, 0xfc, 0xf9, 0x03,
  0xfe, 0x08, 0x07, 0xff, 0xf4, 0xef, 0xf8, 0x01, 0xfb, 0x00, 0xfc, 0xfb,
  0x00, 0x01, 0xf2, 0xfb, 0xfe, 0x04, 0x18, 0xff, 0x04, 0xf8, 0xfd, 0xfe,
  0x03, 0xf9, 0x0b, 0xef, 0xf6, 0xfd, 0xf3, 0xbc, 0xf4, 0x00, 0xff, 0xf1,
  0xf9, 0xfb, 0x0c, 0x16, 0x02, 0x00, 0xff, 0xfd, 0xf3, 0xf9, 0xf9, 0x32,
  0xfc, 0x09, 0xf6, 0xf7, 0x05, 0xf4, 0x07, 0x1e, 0xfa, 0x02, 0x02, 0xfe,
  0xf9, 0x01, 0x01, 0x12, 0xfe, 0xfa, 0xec, 0x01, 0xf0, 0xfb, 0xfb, 0x01,
  0x07, 0xf8, 0xe5, 0xf5, 0x01, 0xfb, 0xfd, 0x1b, 0x05, 0xf4, 0xed, 0xfb,
  0xfc, 0xf1, 0x09, 0xf7, 0xff, 0x04, 0xe7, 0xf6, 0xf4, 0xf5, 0xfe, 0x1c,
  0x00, 0x0e, 0x16, 0xf7, 0xf3, 0xfb, 0x03, 0x33, 0x00, 0xfa, 0xe9, 0xf8,
  0x04, 0xf6, 0x05, 0xdd, 0xf6, 0x0c, 0x34, 0xf5, 0xf9, 0xfc, 0xfd, 0x24,
  0x0a, 0x02, 0x1c, 0xfa, 0xf9, 0xfc, 0xff, 0xee, 0xfb, 0x04, 0x18, 0xff,
  0x02, 0xf7, 0xfa, 0x14, 0xf9, 0xfc, 0x23, 0xfc, 0xf4, 0x00, 0xfd, 0xff,
  0x03, 0xfe, 0x0d, 0xfa, 0xfb, 0xf1, 0xf7, 0x1a, 0xff, 0x06, 0x0e, 0xec,
  0x03, 0xf4, 0x0f, 0xeb, 0x0b, 0x05, 0x16, 0xfd, 0xee, 0xf5, 0x08, 0x07,
  0xfb, 0xf4, 0xf3, 0xf8, 0xff, 0xff, 0x07, 0x18, 0xf7, 0x06, 0x12, 0xfd,
  0x03, 0xf0, 0x02, 0x0c, 0xf7, 0x04, 0x18, 0x00, 0x0a, 0xf4, 0xfa, 0xd5,
  0x00, 0xff, 0x08, 0xeb, 0xf9, 0xfa, 0x01, 0x05, 0x04, 0x01, 0x11, 0xfc,
  0xf8, 0xfa, 0x02, 0x33, 0xf5, 0x05, 0x09, 0xf8, 0xfb, 0xf8, 0x0e, 0x0c,
  0xf8, 0xfe, 0xf2, 0xfd, 0xf7, 0xef, 0x04, 0x10, 0x0f, 0xf5, 0xf6, 0xfa,
  0xfe, 0xf6, 0xf8, 0xfe, 0xf8, 0x00, 0xe4, 0xfa, 0xfa, 0xf4, 0x03, 0x01,
  0x02, 0x07, 0xe3, 0xef, 0x06, 0xf5, 0xfc, 0xf9, 0x05, 0x02, 0xeb, 0xfc,
  0xf3, 0x00, 0x04, 0x25, 0x04, 0xfd, 0x27, 0xef, 0x02, 0xfa, 0xfc, 0x2f,
  0x00, 0x04, 0xf5, 0x08, 0xf9, 0x01, 0x05, 0xdc, 0xf4, 0xf4, 0x20, 0xfb,
  0xf5, 0xf3, 0x07, 0x07, 0xf3, 0x07, 0x1e, 0xf1, 0x05, 0xfd, 0x09, 0xf4,
  0xf7, 0x08, 0x17, 0xff, 0xf1, 0xf8, 0x02, 0x12, 0x00, 0x03, 0x16, 0xfc,
  0xf2, 0x00, 0x01, 0x0a, 0x0e, 0x0d, 0x0e, 0xf6, 0xf8, 0xf9, 0x08, 0x13,
  0xfd, 0x05, 0x08, 0xfc, 0x00, 0x01, 0xff, 0xf3, 0xfd, 0x03, 0x19, 0xf7,
  0x03, 0xf9, 0x0b, 0xe3, 0x08, 0x00, 0xe9, 0xf8, 0xf1, 0x02, 0x0c, 0x16,
  0x06, 0xfb, 0x0e, 0xf8, 0xff, 0xf6, 0xf4, 0x0e, 0xf7, 0x07, 0x0b, 0xf2,
  0xf9, 0x02, 0x00, 0xe9, 0xff, 0x0d, 0x08, 0xff, 0x02, 0xee, 0xff, 0xfe,
  0xf3, 0x0c, 0x07, 0xff, 0x03, 0xf9, 0xff, 0x2f, 0x07, 0x02, 0x0f, 0xf8,
  0xfe, 0xfe, 0x0c, 0x1d, 0x07, 0x07, 0xfa, 0xf1, 0x00, 0xf8, 0xfe, 0x06,
  0xf7, 0x05, 0xf8, 0x05, 0x01, 0xf4, 0xfb, 0xf0, 0xf3, 0xf8, 0xe2, 0xfc,
  0xf3, 0xf9, 0x03, 0x06, 0x01, 0x03, 0xe9, 0x0a, 0xfe, 0xf3, 0xff, 0x02,
  0x09, 0x06, 0xfa, 0x05, 0xfd, 0xf7, 0x08, 0x3e, 0xf9, 0xf9, 0x2c, 0xf9,
  0xf4, 0xf0, 0x0d, 0x2f, 0x0a, 0x05, 0x04, 0xf7, 0x09, 0xfa, 0xfd, 0xb6,
  0xfe, 0x01, 0x2c, 0xf7, 0xfb, 0xff, 0xf9, 0x08, 0x02, 0x0d, 0x1d, 0x00,
  0x02, 0xfe, 0x0c, 0xf6, 0x02, 0x03, 0x22, 0x04, 0xfa, 0xfd, 0xf6, 0x08,
  0x0e, 0x05, 0x1f, 0xf6, 0xf3, 0x05, 0x01, 0x03, 0xfe, 0x07, 0x0d, 0xfc,
  0xf9, 0xfd, 0xfd, 0x04, 0x08, 0x02, 0x0c, 0xf4, 0xfe, 0x06, 0x00, 0xee,
  0x05, 0x07, 0x12, 0xfb, 0xf3, 0xfc, 0x0a, 0xeb, 0xff, 0xf9, 0xf8, 0xfe,
  0x00, 0x02, 0x05, 0x10, 0x05, 0x08, 0x1c, 0xf5, 0xfb, 0xfc, 0x00, 0xfa,
  0x05, 0xff, 0x0c, 0xfd, 0x0b, 0x03, 0xf1, 0xf9, 0x07, 0x02, 0xfc, 0xfb,
  0xf7, 0x06, 0x05, 0x17, 0x00, 0xfe, 0x0f, 0xf5, 0x09, 0xfb, 0xfb, 0x1e,
  0xfb, 0xfa, 0x10, 0xff, 0xfe, 0xf7, 0x03, 0x20, 0x06, 0xf3, 0xfe, 0xf2,
  0x04, 0xfa, 0xf8, 0x00, 0xf3, 0xfa, 0x02, 0xf8, 0xf8, 0xf8, 0x08, 0x17,
  0x03, 0x02, 0xe8, 0x07, 0x00, 0xfd, 0xfc, 0xfd, 0x02, 0x06, 0xf6, 0x02,
  0x03, 0x09, 0x00, 0xe7, 0xfd, 0x05, 0x0c, 0x08, 0xf2, 0x02, 0x04, 0x44,
  0xfd, 0xfd, 0x34, 0x09, 0xfa, 0x01, 0x01, 0x1f, 0x07, 0x00, 0x1b, 0x0c,
  0x01, 0xfd, 0xfc, 0xdf, 0xf9, 0xf8, 0x15, 0xff, 0x04, 0xf9, 0xfd, 0x0d,
  0x05, 0x0b, 0x24, 0xff, 0x04, 0x01, 0x08, 0x04, 0x08, 0x04, 0x25, 0xf9,
  0xef, 0xfe, 0x03, 0xf7, 0x06, 0xf9, 0x15, 0xfb, 0xfa, 0xf0, 0x0b, 0xfd,
  0x06, 0xfb, 0x0e, 0x01, 0xf7, 0x00, 0xfc, 0x04, 0xfe, 0xf5, 0x13, 0xef,
  0x03, 0x05, 0x02, 0x01, 0xfb, 0xfc, 0x14, 0xf5, 0xf4, 0x0a, 0xfd, 0xfc,
  0xfe, 0x04, 0xf1, 0x00, 0xf7, 0xf6, 0x00, 0x0c, 0x02, 0xf3, 0x17, 0x07,
  0x06, 0xee, 0x03, 0xeb, 0xfd, 0xf9, 0x12, 0x04, 0xff, 0x00, 0x01, 0x1c,
  0x02, 0xf5, 0x24, 0x05, 0x0a, 0xf8, 0x07, 0x0f, 0x02, 0x0f, 0x09, 0xf8,
  0xfe, 0xff, 0x03, 0x0e, 0xf8, 0x04, 0x16, 0x07, 0xf8, 0x07, 0xfe, 0x0d,
  0x08, 0xff, 0xf5, 0xf8, 0xff, 0xfc, 0x07, 0xe4, 0xff, 0x03, 0x07, 0xfc,
  0xf7, 0x06, 0xfd, 0x06, 0xf7, 0x05, 0xeb, 0xf8, 0xfc, 0xf4, 0xf7, 0x17,
  0x07, 0x09, 0xf0, 0xfd, 0xfd, 0xfe, 0xf5, 0xd4, 0xfa, 0xf7, 0x03, 0x00,
  0xf6, 0x02, 0x0a, 0x34, 0x04, 0x06, 0x3f, 0xff, 0x03, 0xf7, 0x09, 0x25,
  0x0d, 0xfe, 0x07, 0x05, 0x02, 0x06, 0x0d, 0xde, 0x02, 0xff, 0x1c, 0xfe,
  0xf6, 0xf7, 0xf7, 0x06, 0x09, 0x00, 0x22, 0xfb, 0x04, 0x00, 0x04, 0xff,
  0x00, 0x0e, 0x2f, 0xfd, 0xfd, 0xf0, 0xf9, 0x02, 0xf4, 0x00, 0x2d, 0xf3,
  0xfd, 0xfa, 0x02, 0xee, 0xfe, 0x07, 0x15, 0xf3, 0x06, 0xf4, 0xff, 0xf5,
  0x0a, 0x03, 0x1c, 0xf5, 0x0e, 0xfa, 0x03, 0x07, 0x0a, 0x06, 0x20, 0xff,
  0x03, 0x03, 0x02, 0xe6, 0xf8, 0x00, 0xed, 0xf4, 0xf8, 0x03, 0x00, 0x11,
  0x01, 0x02, 0x21, 0xfc, 0x01, 0xf9, 0x02, 0xf6, 0x04, 0x01, 0x0c, 0xf7,
  0x05, 0x09, 0xfb, 0x16, 0xfe, 0xfd, 0x1e, 0x04, 0x05, 0xf7, 0xf6, 0x16,
  0x03, 0x00, 0x15, 0xfa, 0xfd, 0xf8, 0x08, 0x0b, 0xfd, 0x09, 0x17, 0xfc,
  0xf2, 0xf7, 0xff, 0x14, 0x0a, 0x01, 0x06, 0x07, 0xf9, 0xf3, 0x03, 0x06,
  0xf8, 0x05, 0x0f, 0x05, 0xfa, 0xf4, 0x02, 0x01, 0xfa, 0x01, 0xf1, 0xfa,
  0xfe, 0x02, 0x04, 0x0a, 0xf5, 0x06, 0x0f, 0x01, 0xfb, 0x00, 0x03, 0xce,
  0x03, 0xfd, 0x05, 0x02, 0x09, 0x07, 0xfd, 0x36, 0x02, 0xfa, 0x3d, 0x02,
  0xff, 0x0b, 0x00, 0x0f, 0x0c, 0x0a, 0x13, 0xfa, 0x02, 0xf9, 0x04, 0xed,
  0x04, 0x00, 0x1f, 0x01, 0xef, 0xfb, 0x0c, 0xf3, 0xff, 0x09, 0x26, 0x05,
  0x03, 0xf3, 0x03, 0xf2, 0xfb, 0xfa, 0x2e, 0xfe, 0xff, 0xf7, 0x08, 0x05,
  0xfc, 0x0c, 0x27, 0xef, 0x06, 0xf3, 0x04, 0xf6, 0xf8, 0x0c, 0x17, 0xff,
  0xfc, 0x07, 0x03, 0xf6, 0xfb, 0x00, 0x1d, 0xfd, 0x09, 0xf6, 0x03, 0xfc,
  0x04, 0xf9, 0x1d, 0x0c, 0xfa, 0xf7, 0xff, 0xfe, 0xf3, 0x0c, 0x01, 0xf0,
  0xfd, 0xfa, 0x08, 0x0a, 0x04, 0x0a, 0x18, 0xfd, 0xfe, 0x05, 0x06, 0xf9,
  0xfa, 0x0f, 0xf5, 0xf6, 0xf9, 0x04, 0x09, 0xf5, 0x03, 0xfc, 0x27, 0x01,
  0xf7, 0xf8, 0x06, 0x05, 0xfe, 0x06, 0x15, 0xfd, 0x06, 0xfc, 0x06, 0x13,
  0x04, 0xf5, 0x2c, 0xf1, 0xfc, 0xfc, 0xff, 0x07, 0xf1, 0xfe, 0x19, 0x00,
  0xfc, 0xf7, 0xf3, 0x07, 0x08, 0x0d, 0x23, 0xf7, 0x05, 0xf4, 0x0f, 0xff,
  0xf8, 0xfd, 0x05, 0x03, 0x0a, 0xfd, 0xf9, 0x0d, 0x03, 0xf9, 0x19, 0x06,
  0x08, 0xfe, 0xfc, 0xcf, 0xf6, 0xf6, 0x08, 0xf5, 0xfd, 0xfb, 0xfd, 0x19,
  0x0b, 0xf5, 0x31, 0x0a, 0xff, 0x04, 0x01, 0x12, 0x04, 0xfc, 0x1a, 0x00,
  0x08, 0xf4, 0xfb, 0xf1, 0xfa, 0x0c, 0x12, 0x04, 0x09, 0xf6, 0xf6, 0x0a,
  0x0e, 0x00, 0x1d, 0xfb, 0xf2, 0xf9, 0x00, 0xf1, 0xfa, 0x08, 0x25, 0x00,
  0xf6, 0xfe, 0x07, 0xf8, 0xfb, 0xfb, 0x1d, 0xf6, 0xff, 0xfd, 0x02, 0xe0,
  0x00, 0x02, 0x22, 0xfa, 0xfe, 0xf4, 0x0b, 0x05, 0x0b, 0xfd, 0x10, 0x03,
  0xf5, 0xf7, 0x00, 0x07, 0x05, 0x07, 0xfe, 0x08, 0xfd, 0x00, 0x0a, 0xe6,
  0xf8, 0xfa, 0xec, 0x02, 0x05, 0x02, 0xfc, 0xfa, 0xfb, 0x00, 0x0d, 0x06,
  0x00, 0x0b, 0xfb, 0xfc, 0xf7, 0x01, 0xfe, 0xfe, 0x07, 0xf6, 0x01, 0x01,
  0xf6, 0x0a, 0x1e, 0xf7, 0x02, 0x07, 0xff, 0x1c, 0xfd, 0xf5, 0x01, 0xfd,
  0xff, 0xfd, 0xfc, 0xfc, 0xf4, 0xfb, 0x08, 0xfc, 0xfe, 0x01, 0x00, 0xf6,
  0x00, 0x01, 0xf2, 0x06, 0xff, 0x0d, 0xf4, 0x1b, 0x01, 0x0d, 0x17, 0x06,
  0xfa, 0x03, 0xfa, 0xe0, 0x06, 0xfa, 0xef, 0x06, 0xff, 0xf7, 0xf8, 0x06,
  0x04, 0x07, 0xfe, 0x00, 0xf8, 0x04, 0xfe, 0xc1, 0xfd, 0xf8, 0xdb, 0x09,
  0x00, 0xfe, 0xfc, 0x2d, 0x05, 0x01, 0x0d, 0x06, 0xf3, 0x00, 0x03, 0x09,
  0x0d, 0xfe, 0xf6, 0x00, 0x06, 0x01, 0xf4, 0x02, 0x02, 0xf6, 0xee, 0xfe,
  0x02, 0xf4, 0xf9, 0x02, 0x04, 0xf9, 0x01, 0x02, 0x03, 0x06, 0x0d, 0xf9,
  0x0d, 0xfd, 0xf4, 0xf9, 0xf8, 0x01, 0x06, 0xef, 0xfb, 0xfe, 0x04, 0x0e,
  0x05, 0x01, 0x05, 0x00, 0x02, 0x02, 0xf4, 0x0c, 0xfc, 0x03, 0x00, 0xff,
  0xfd, 0xf5, 0x00, 0xf6, 0x00, 0x01, 0x0b, 0xfd, 0x04, 0xf6, 0x02, 0xfb,
  0xfa, 0xf9, 0xfe, 0xf1, 0xfa, 0xfa, 0xf9, 0xff, 0xf5, 0xfa, 0xf6, 0xf8,
  0x00, 0xfa, 0xf4, 0x02, 0xfb, 0xfa, 0x06, 0x03, 0xfc, 0xfc, 0x03, 0xf6,
  0x04, 0x02, 0xf7, 0x01, 0x08, 0x02, 0x02, 0x03, 0x09, 0x05, 0x06, 0xf0,
  0xf4, 0xf8, 0x0c, 0xf5, 0xfd, 0x00, 0xf7, 0x07, 0xfd, 0xf6, 0xfb, 0x09,
  0xff, 0xf5, 0x01, 0x08, 0xfe, 0xf6, 0x08, 0xfa, 0xfc, 0xf3, 0x04, 0xf5,
  0xfc, 0xff, 0xf2, 0xf2, 0x00, 0x08, 0xfa, 0x08, 0xff, 0x00, 0xfd, 0xfb,
  0xf7, 0xf7, 0x00, 0x03, 0xf8, 0xf4, 0xfc, 0x05, 0x07, 0xfc, 0xfe, 0x00,
  0xf0, 0xfc, 0x06, 0x08, 0x02, 0xfe, 0xfc, 0x0a, 0xf9, 0xef, 0xf8, 0x00,
  0x00, 0xff, 0x07, 0x05, 0x02, 0x01, 0xfa, 0x02, 0x00, 0xfb, 0xfe, 0xf6,
  0xf8, 0xf5, 0xec, 0xfe, 0xf8, 0xfc, 0x03, 0xfc, 0x07, 0x03, 0xfa, 0x05,
  0xf7, 0x0a, 0x01, 0x09, 0x00, 0xfc, 0xf4, 0xff, 0xfa, 0xff, 0x0c, 0xf4,
  0x0b, 0xf6, 0xfd, 0xfe, 0x0d, 0xf7, 0xf7, 0xfd, 0x00, 0xf1, 0xf0, 0xfe,
  0x03, 0xf2, 0x05, 0xff, 0x0c, 0xfc, 0x0d, 0x02, 0xfa, 0xf2, 0xfa, 0x01,
  0xf9, 0xfe, 0xf2, 0xfd, 0x08, 0xf7, 0xf5, 0xf3, 0xfa, 0xf0, 0xf8, 0xf4,
  0xfe, 0x02, 0xf2, 0xf6, 0xfc, 0x00, 0xfb, 0x04, 0xfa, 0x01, 0x06, 0xfd,
  0x04, 0xfb, 0xfa, 0x0b, 0x03, 0x07, 0xfc, 0xf8, 0xfc, 0xf5, 0xff, 0x03,
  0xfe, 0x00, 0xfb, 0x01, 0xfb, 0xf7, 0xef, 0x02, 0xff, 0x05, 0xff, 0xf7,
  0x06, 0x03, 0x01, 0x10, 0xfc, 0xff, 0xfd, 0x00, 0x03, 0xf7, 0xfb, 0xfd,
  0xff, 0x09, 0xf4, 0xf8, 0xf5, 0xf6, 0xfd, 0xf8, 0x07, 0xf9, 0x05, 0x06,
  0xfb, 0x09, 0x05, 0x08, 0x0b, 0xfb, 0x04, 0xfd, 0xfd, 0xfa, 0x05, 0xfd,
  0xfc, 0x01, 0x01, 0xfa, 0x02, 0xf8, 0xf3, 0x07, 0xfd, 0xfa, 0x05, 0xf6,
  0xf3, 0xf0, 0xdc, 0x0d, 0x03, 0x0a, 0x03, 0x04, 0x07, 0xfc, 0xfe, 0x06,
  0xfd, 0x0b, 0x04, 0xf1, 0xf2, 0xf6, 0xff, 0x04, 0xfb, 0xf1, 0xfc, 0xea,
  0x08, 0x01, 0xf0, 0xfb, 0x03, 0x04, 0x09, 0xfa, 0xfa, 0x09, 0xf4, 0x0c,
  0xf9, 0xf3, 0x08, 0xf5, 0x04, 0xff, 0xf5, 0xf8, 0x07, 0xf5, 0x02, 0xf5,
  0x0b, 0xfc, 0xef, 0x03, 0x01, 0xfa, 0xf7, 0xfc, 0x09, 0x04, 0xf0, 0x0b,
  0x09, 0xfd, 0xfd, 0xff, 0x01, 0xfe, 0xf1, 0x0e, 0xf4, 0x05, 0x03, 0xfd,
  0x07, 0x03, 0xf1, 0xff, 0xfc, 0xf9, 0xf4, 0xf8, 0x03, 0x01, 0xf5, 0xfe,
  0x04, 0x08, 0xf8, 0x0a, 0x03, 0xf7, 0x01, 0xf8, 0xf5, 0x01, 0x06, 0xf7,
  0xf3, 0xf9, 0xee, 0x0e, 0x06, 0x0b, 0xfc, 0x04, 0x0b, 0xfe, 0xf9, 0x09,
  0xfb, 0xfe, 0xf8, 0x0a, 0x00, 0x00, 0xfc, 0x08, 0xfc, 0x05, 0xfd, 0xf3,
  0x03, 0x08, 0xf1, 0x07, 0xf5, 0xf9, 0xfd, 0xfa, 0x02, 0xfd, 0xf7, 0xfb,
  0x04, 0xf6, 0xf4, 0xfe, 0x00, 0xfe, 0xf3, 0x0e, 0x08, 0x01, 0x02, 0x09,
  0x02, 0xfd, 0xf6, 0x04, 0xfd, 0xfc, 0xf8, 0x01, 0xff, 0x00, 0x04, 0x02,
  0x07, 0xfc, 0x05, 0xf4, 0xfc, 0x05, 0xd9, 0xf7, 0x02, 0xf7, 0xfa, 0xfb,
  0xfb, 0xfd, 0x03, 0xf7, 0x05, 0x00, 0xfb, 0xf2, 0xfb, 0x03, 0x05, 0x0d,
  0x03, 0xfe, 0x0c, 0xf8, 0xfb, 0x02, 0x05, 0xfc, 0x07, 0xf2, 0xf8, 0xf7,
  0xf9, 0x04, 0xfa, 0x0f, 0xf4, 0xfe, 0x05, 0xfd, 0x02, 0x00, 0xf7, 0xfd,
  0xfe, 0x00, 0xf4, 0xfe, 0xfb, 0x07, 0xea, 0xf9, 0x00, 0x01, 0xfb, 0xf6,
  0xfd, 0x05, 0xfe, 0x04, 0xf9, 0x07, 0x07, 0xf8, 0xfb, 0x01, 0x01, 0x01,
  0xf5, 0x0c, 0xfc, 0xf8, 0xfa, 0xff, 0xfd, 0xfb, 0x04, 0x03, 0x04, 0xf4,
  0x08, 0xf4, 0xf5, 0x0a, 0xff, 0x05, 0x00, 0xf8, 0x03, 0xfa, 0xf7, 0xfd,
  0x0d, 0x0a, 0x04, 0x03, 0xff, 0xfb, 0x06, 0x0d, 0x0b, 0x03, 0x01, 0xfb,
  0xff, 0x01, 0xf8, 0x00, 0x02, 0xfc, 0xfd, 0xf4, 0x05, 0x01, 0x0a, 0x05,
  0xff, 0x01, 0xfb, 0xf6, 0xfe, 0x07, 0x06, 0x05, 0x10, 0xfb, 0x01, 0xfe,
  0x06, 0xfa, 0xfc, 0x03, 0x06, 0x01, 0xfa, 0xf5, 0x09, 0x01, 0xf5, 0x10,
  0xf7, 0xfc, 0x05, 0xf9, 0x02, 0xfc, 0x06, 0xfe, 0x05, 0x05, 0xf6, 0xfa,
  0x04, 0x03, 0xfd, 0xf5, 0x03, 0x09, 0x0b, 0x03, 0x03, 0xfc, 0xf6, 0x00,
  0x00, 0xf5, 0x02, 0xf9, 0xfd, 0x08, 0xed, 0xfa, 0x03, 0x07, 0x01, 0xfe,
  0x09, 0x02, 0xf1, 0x07, 0x04, 0xfc, 0xf6, 0xf2, 0x00, 0xf9, 0x06, 0xfc,
  0x07, 0x08, 0xfc, 0x06, 0xfc, 0xff, 0xf8, 0x02, 0x00, 0x03, 0x00, 0xf7,
  0xf8, 0x0a, 0xf2, 0xfc, 0xf8, 0x00, 0x07, 0xf0, 0xfb, 0x08, 0xf4, 0xfe,
  0xf5, 0x09, 0xf4, 0xf9, 0x03, 0x02, 0xfb, 0xfe, 0x0a, 0xfb, 0x09, 0xf7,
  0xf3, 0x03, 0xf6, 0xfc, 0xf6, 0x02, 0xfa, 0x0b, 0xfe, 0xfe, 0xea, 0x05,
  0x03, 0xfd, 0xfc, 0xf9, 0x09, 0x06, 0xfd, 0x10, 0x11, 0xff, 0xf5, 0x01,
  0x04, 0xf3, 0xe8, 0x0d, 0x0c, 0x0a, 0x04, 0x02, 0xf9, 0x05, 0x02, 0xff,
  0xfa, 0xf4, 0x05, 0x05, 0x05, 0x04, 0xee, 0x01, 0x10, 0xfa, 0x00, 0xfb,
  0x03, 0x00, 0xf7, 0x09, 0x08, 0x0d, 0x05, 0x04, 0x00, 0x00, 0xf8, 0x01,
  0x04, 0x0c, 0x01, 0xfd, 0x0c, 0x08, 0xf0, 0x0c, 0x0f, 0xfd, 0xfb, 0x06,
  0x05, 0xfe, 0xf4, 0x01, 0x01, 0x04, 0xfe, 0xfa, 0x06, 0x01, 0xfa, 0xff,
  0xfb, 0x04, 0x03, 0xfb, 0xfe, 0xfd, 0xf8, 0x00, 0xfe, 0xf2, 0x0a, 0xf6,
  0xfe, 0x08, 0xef, 0x04, 0x02, 0xfe, 0xfd, 0x05, 0xff, 0xfa, 0xef, 0x03,
  0x01, 0xff, 0x03, 0xfe, 0x00, 0x0e, 0xff, 0xff, 0xfa, 0x05, 0x09, 0x02,
  0xf7, 0xf8, 0x06, 0x09, 0xfb, 0x01, 0xf9, 0xf8, 0xf4, 0xf3, 0xfe, 0x01,
  0x02, 0x07, 0x07, 0xf1, 0xf8, 0xf9, 0xf0, 0xfb, 0x04, 0xf6, 0x06, 0xf9,
  0x09, 0x00, 0xfb, 0xff, 0xfc, 0xfe, 0xf9, 0x00, 0xf9, 0x05, 0xfd, 0x06,
  0x09, 0x06, 0xf8, 0x01, 0x03, 0x03, 0xfb, 0x02, 0xfe, 0x0b, 0xf5, 0xfe,
  0xf4, 0x02, 0xf5, 0x0a, 0x01, 0xfd, 0x08, 0xf9, 0x09, 0x0d, 0xf7, 0x03,
  0x07, 0xfc, 0x06, 0xf5, 0x06, 0xf8, 0xf7, 0x08, 0x0a, 0xff, 0xf9, 0xfd,
  0x0a, 0x01, 0xfe, 0x0e, 0x11, 0x01, 0x02, 0x04, 0xfc, 0x01, 0x06, 0xfd,
  0x0e, 0x00, 0x08, 0xfc, 0x0b, 0x0a, 0xfd, 0xfc, 0xfa, 0xfa, 0xf5, 0xfc,
  0x02, 0xfe, 0xf8, 0x08, 0x04, 0xff, 0xfb, 0x01, 0xfd, 0x01, 0xfa, 0xfe,
  0xfd, 0x04, 0xfd, 0x08, 0xf9, 0xfd, 0x00, 0x01, 0x08, 0x0a, 0xf3, 0x00,
  0xfe, 0x0c, 0xf8, 0x01, 0xfc, 0x00, 0xf7, 0x08, 0x04, 0x01, 0xec, 0x12,
  0x08, 0x07, 0x01, 0x02, 0xff, 0x03, 0xfa, 0x07, 0xfa, 0x00, 0xfb, 0xf6,
  0xfc, 0x0d, 0x05, 0xfd, 0xfc, 0xf3, 0x03, 0xfc, 0x0c, 0xf5, 0xfd, 0x06,
  0xf7, 0x03, 0xfd, 0xff, 0x0e, 0x00, 0xf8, 0x01, 0x0f, 0xf8, 0xfd, 0xf6,
  0x00, 0x03, 0xfd, 0x0d, 0xfa, 0x0d, 0xfd, 0x04, 0x02, 0xff, 0xfd, 0xf7,
  0xfb, 0xff, 0x0e, 0x03, 0x04, 0x0d, 0xf0, 0x00, 0x0d, 0x01, 0xf1, 0xff,
  0x00, 0xfc, 0xf7, 0x03, 0x04, 0xfb, 0xfc, 0xfa, 0xf9, 0x00, 0xfb, 0x03,
  0x06, 0x09, 0x01, 0x02, 0xff, 0xfe, 0xed, 0x0a, 0x07, 0x05, 0xff, 0xfb,
  0x02, 0x06, 0xfd, 0xfc, 0x0e, 0x0f, 0xff, 0xfa, 0x08, 0xfe, 0xf5, 0xf5,
  0x03, 0x02, 0x05, 0xf3, 0xf3, 0xfd, 0xfe, 0x09, 0xfe, 0x01, 0xfb, 0xf8,
  0x04, 0x01, 0x06, 0x05, 0x02, 0x01, 0xf9, 0xf5, 0xf7, 0x06, 0xfe, 0x07,
  0x0f, 0x08, 0x02, 0x03, 0x00, 0x08, 0xf2, 0x0a, 0x08, 0xf9, 0x06, 0x07,
  0xfd, 0xff, 0xf9, 0x08, 0x09, 0xfc, 0xf6, 0xff, 0x01, 0xfe, 0xf3, 0x09,
  0x0a, 0xff, 0x08, 0xfa, 0x07, 0xff, 0xf9, 0x00, 0x01, 0xfb, 0x03, 0x01,
  0xfb, 0xfe, 0xf6, 0x01, 0x0b, 0x02, 0x06, 0xf6, 0x0c, 0xfd, 0xf2, 0xf7,
  0x00, 0x0c, 0xf7, 0xfc, 0xf9, 0xfe, 0x02, 0xf8, 0x0e, 0xf4, 0x06, 0x00,
  0x0a, 0xf5, 0xf1, 0x07, 0x05, 0xf3, 0x07, 0x0a, 0x0a, 0xf4, 0xfb, 0x0a,
  0x00, 0xfa, 0xf7, 0xf8, 0xf5, 0x0c, 0xff, 0x09, 0x08, 0x0b, 0x0a, 0x02,
  0xfd, 0x00, 0xf9, 0x03, 0x05, 0x09, 0xff, 0xef, 0x07, 0x0b, 0x01, 0xf5,
  0x04, 0xfb, 0x0a, 0xf3, 0x06, 0x03, 0xf4, 0x07, 0x0f, 0xfc, 0x0e, 0xf9,
  0x06, 0x03, 0xec, 0x02, 0x09, 0x05, 0xfe, 0xf2, 0xf3, 0x03, 0xeb, 0x07,
  0x03, 0x08, 0xf6, 0xfb, 0xfe, 0x09, 0x08, 0x0e, 0x11, 0x08, 0x03, 0x02,
  0xff, 0x02, 0xf4, 0x00, 0x04, 0x0b, 0xfa, 0xf3, 0xff, 0x00, 0xf9, 0x01,
  0xfd, 0x0c, 0xff, 0xfc, 0x03, 0xff, 0xf8, 0xfc, 0x00, 0x04, 0x02, 0xf7,
  0xfa, 0xf2, 0xfc, 0xfa, 0x03, 0xfe, 0xf9, 0xf8, 0x00, 0x06, 0xec, 0x05,
  0xfc, 0xfc, 0x03, 0xfc, 0xfd, 0x0a, 0xfb, 0x08, 0x0e, 0x04, 0x04, 0x01,
  0x02, 0x06, 0xf8, 0x05, 0x03, 0xff, 0x02, 0xf1, 0x05, 0x06, 0xf7, 0xfc,
  0xfc, 0xfa, 0xf8, 0xf7, 0xff, 0x01, 0xf1, 0x0e, 0x0c, 0x04, 0x02, 0xfc,
  0x03, 0xf7, 0xec, 0x03, 0x02, 0xfd, 0x01, 0xf8, 0xff, 0x02, 0xf9, 0xfd,
  0x04, 0x08, 0xfb, 0xfd, 0x04, 0xfd, 0xf9, 0x0b, 0xf6, 0x01, 0x05, 0x02,
  0x05, 0xf5, 0xf8, 0x04, 0xfa, 0xfe, 0x02, 0x02, 0xff, 0x00, 0x0e, 0x02,
  0x09, 0x04, 0xfc, 0xff, 0x09, 0xfa, 0xf7, 0x0e, 0x0e, 0x02, 0x07, 0xfd,
  0x05, 0xfb, 0xfb, 0xf9, 0x07, 0xf2, 0x04, 0xf8, 0x05, 0x0c, 0xf4, 0x0c,
  0x00, 0x04, 0x00, 0xfb, 0xf6, 0xf7, 0xf3, 0x06, 0x09, 0xfc, 0x0c, 0x04,
  0x07, 0x04, 0xf0, 0xf8, 0x02, 0x09, 0x00, 0xfe, 0x06, 0xfd, 0x18, 0x06,
  0x0d, 0xf8, 0xfa, 0xfe, 0x05, 0x01, 0xff, 0x05, 0x09, 0xfa, 0x08, 0x01,
  0xf8, 0x06, 0x1e, 0x01, 0x0a, 0x00, 0x03, 0xff, 0x0b, 0x01, 0xff, 0x07,
  0x02, 0xfd, 0xf5, 0x08, 0xfa, 0x00, 0xf7, 0x06, 0x09, 0x06, 0xf9, 0x00,
  0xf5, 0xf8, 0xee, 0x00, 0x10, 0xfe, 0xf6, 0xfb, 0x03, 0xf8, 0xf6, 0x02,
  0x0e, 0xff, 0xf5, 0x03, 0xf8, 0x00, 0x03, 0x00, 0x0b, 0x11, 0x0b, 0x03,
  0xfb, 0x0c, 0xf9, 0xfa, 0xfd, 0xf8, 0x03, 0x08, 0x0c, 0xff, 0xf8, 0xfd,
  0x0a, 0xfb, 0xf8, 0xf2, 0xfa, 0x0b, 0xf9, 0xfc, 0x07, 0x0a, 0x0e, 0xfd,
  0x07, 0x09, 0xf2, 0xfd, 0x09, 0x06, 0xfe, 0x10, 0x0a, 0xf8, 0xf2, 0x08,
  0x0f, 0xf6, 0x03, 0xff, 0x05, 0xf7, 0x05, 0x0a, 0x05, 0xff, 0x03, 0xfe,
  0x03, 0xf7, 0xf6, 0x0d, 0x06, 0x10, 0x05, 0x00, 0xfb, 0x03, 0x0b, 0x07,
  0x08, 0x08, 0x03, 0xf9, 0xff, 0xf5, 0xf0, 0xfe, 0xfc, 0x07, 0xff, 0xf8,
  0x04, 0xf7, 0x01, 0x0a, 0xfb, 0xfb, 0x01, 0x04, 0xf4, 0x03, 0x0c, 0xf6,
  0x01, 0x01, 0x06, 0xff, 0x00, 0xfe, 0xe6, 0x08, 0x0f, 0x06, 0xf5, 0xfa,
  0xfa, 0xfb, 0xfc, 0x0d, 0xfa, 0xff, 0xfc, 0x06, 0xfc, 0x0b, 0xf5, 0x05,
  0x0c, 0xfd, 0xff, 0xff, 0xfb, 0xff, 0x1b, 0x08, 0x07, 0x05, 0xfa, 0xf4,
  0xf8, 0x07, 0x08, 0xfa, 0xfa, 0x00, 0xfe, 0x02, 0x0e, 0xfe, 0x01, 0xf8,
  0xfe, 0x05, 0x08, 0x04, 0xf5, 0xfc, 0xf7, 0x01, 0x07, 0xfd, 0x00, 0xfa,
  0x02, 0x08, 0xec, 0xfa, 0x0c, 0x08, 0xff, 0xf2, 0xfc, 0x08, 0x04, 0xfe,
  0x05, 0x0a, 0xfc, 0x0d, 0xfd, 0x04, 0xfa, 0x0b, 0x0b, 0x01, 0x0c, 0x00,
  0xf9, 0x0b, 0xf4, 0x0c, 0x09, 0x04, 0xfb, 0xf9, 0xf6, 0x0e, 0xf9, 0x0c,
  0x11, 0x00, 0x05, 0x03, 0x0e, 0xf9, 0xf4, 0xff, 0xfd, 0xf3, 0xfb, 0x00,
  0x00, 0xfd, 0xfe, 0x0c, 0xfc, 0xf9, 0xf6, 0xfd, 0xf8, 0xf8, 0xf6, 0x05,
  0xfa, 0x05, 0x04, 0x08, 0x00, 0xfb, 0x0f, 0x0b, 0x0f, 0x06, 0xfa, 0x00,
  0xf7, 0xf6, 0xf6, 0xfa, 0x0a, 0xf4, 0xfa, 0xfd, 0x09, 0x09, 0xf7, 0x01,
  0xf6, 0xf9, 0xfe, 0xf5, 0x03, 0x00, 0xf3, 0x07, 0x04, 0x00, 0xfc, 0xfb,
  0xff, 0xfb, 0x05, 0x06, 0xff, 0x02, 0x0c, 0x01, 0x01, 0xfa, 0xf2, 0x04,
  0x05, 0x07, 0x00, 0xf4, 0x02, 0x03, 0x06, 0x02, 0x05, 0x00, 0xf9, 0x03,
  0x05, 0xff, 0xed, 0xfc, 0x02, 0x07, 0x02, 0x02, 0xf7, 0x06, 0x11, 0xf5,
  0x08, 0x04, 0x04, 0x03, 0xfe, 0x07, 0xfc, 0x04, 0x07, 0xfe, 0xf7, 0x06,
  0x08, 0x07, 0x02, 0x0c, 0x08, 0x06, 0xf9, 0xf6, 0x05, 0xfe, 0xe9, 0xf9,
  0x01, 0x07, 0x0e, 0x07, 0x0a, 0x00, 0xf1, 0x0c, 0x08, 0xfa, 0x08, 0xfe,
  0xf8, 0x09, 0x04, 0xfc, 0x12, 0x05, 0x06, 0x00, 0x05, 0x0b, 0xf7, 0x02,
  0x0c, 0xfd, 0xfa, 0xfe, 0xf5, 0xf5, 0xff, 0x05, 0x07, 0x06, 0xfc, 0xfd,
  0xf4, 0x0a, 0xf7, 0x01, 0x06, 0x12, 0x04, 0xfd, 0x0a, 0x0a, 0x00, 0x00,
  0x04, 0x05, 0xfd, 0x0b, 0xfd, 0x00, 0x05, 0x06, 0x0a, 0xfc, 0xf8, 0xfd,
  0xff, 0x09, 0x00, 0x08, 0x04, 0xf8, 0xf6, 0x00, 0xfd, 0xfc, 0xf6, 0x01,
  0x03, 0x02, 0x08, 0xfe, 0x05, 0x0a, 0xf9, 0x04, 0x05, 0x00, 0x01, 0x01,
  0x08, 0xf0, 0xec, 0xfc, 0xf6, 0x04, 0xfa, 0xfa, 0xf4, 0x04, 0xf5, 0xf6,
  0x08, 0x02, 0x07, 0x06, 0x0a, 0x04, 0x0d, 0xf7, 0x10, 0x04, 0xfc, 0xed,
  0x00, 0x07, 0xed, 0x01, 0x12, 0xfd, 0xfc, 0xf8, 0x04, 0x06, 0xfa, 0xfd,
  0x01, 0x06, 0xfe, 0xfc, 0x0b, 0x0b, 0xee, 0x09, 0x04, 0x0a, 0x06, 0xee,
  0xf2, 0x00, 0x10, 0xfe, 0x0d, 0x0a, 0xfd, 0x04, 0x02, 0x02, 0xfd, 0x03,
  0x04, 0xff, 0x07, 0xfc, 0x05, 0x0b, 0x0a, 0xf9, 0x02, 0x03, 0x05, 0x03,
  0xf4, 0x08, 0xea, 0x08, 0x02, 0xf9, 0x01, 0xfd, 0x01, 0x04, 0xf3, 0x00,
  0x15, 0x09, 0xfa, 0xf6, 0x01, 0x10, 0xfe, 0x00, 0xf9, 0x06, 0x03, 0x0b,
  0xf5, 0x01, 0xee, 0x00, 0x02, 0x0b, 0xff, 0xf0, 0xfc, 0x0f, 0xff, 0x08,
  0x05, 0x06, 0x05, 0xfa, 0xfa, 0x0a, 0xe8, 0x03, 0x09, 0x00, 0xf2, 0x10,
  0x08, 0xfe, 0x04, 0x06, 0x09, 0xf7, 0x0b, 0x05, 0xf7, 0x0f, 0xf6, 0xf7,
  0x12, 0x05, 0x04, 0xfd, 0x05, 0x00, 0xfc, 0xfe, 0x09, 0x07, 0x01, 0x05,
  0x01, 0x05, 0x0c, 0x13, 0x09, 0x07, 0x01, 0xfa, 0x07, 0xfd, 0x05, 0x06,
  0x08, 0x01, 0xfb, 0xee, 0xf3, 0xf5, 0xed, 0x07, 0xfc, 0x07, 0xff, 0xfc,
  0x01, 0x08, 0xff, 0x0f, 0xff, 0x04, 0x01, 0x06, 0x01, 0x00, 0x01, 0xff,
  0x10, 0xff, 0xfb, 0xf9, 0xf6, 0x02, 0xea, 0x05, 0xff, 0x09, 0xfe, 0xfd,
  0xfa, 0xfa, 0x05, 0xf7, 0xfc, 0xfb, 0x03, 0x04, 0xfe, 0x02, 0xea, 0x05,
  0x06, 0x0f, 0xff, 0xf7, 0xfd, 0x07, 0x1a, 0xfe, 0xff, 0x0c, 0xff, 0xf1,
  0xf9, 0xf7, 0x01, 0x05, 0x00, 0xfc, 0xfe, 0x09, 0x10, 0xfc, 0x06, 0x07,
  0x09, 0x00, 0xfe, 0xf4, 0xfc, 0x05, 0xe9, 0xfe, 0x05, 0xff, 0x0a, 0xfe,
  0xf9, 0x06, 0xe8, 0x00, 0x0e, 0x05, 0xfb, 0xfc, 0xf9, 0x03, 0xf7, 0x03,
  0x04, 0x02, 0xfe, 0xfa, 0x05, 0x03, 0xeb, 0x0a, 0x06, 0x00, 0xf5, 0xfd,
  0x02, 0x08, 0x00, 0x06, 0x01, 0x02, 0xfc, 0xfb, 0x02, 0x00, 0xfc, 0xf9,
  0x12, 0x06, 0x00, 0xfb, 0x00, 0x01, 0xf2, 0xf5, 0x05, 0x12, 0x06, 0x12,
  0xf7, 0x03, 0x07, 0x01, 0xfa, 0x05, 0x0a, 0xf7, 0x02, 0xfa, 0xfb, 0x06,
  0x04, 0x06, 0xfe, 0xff, 0xfd, 0x01, 0x10, 0xfc, 0xfd, 0x09, 0x08, 0x06,
  0x03, 0xfe, 0x07, 0xf9, 0x0f, 0x0f, 0xfb, 0x03, 0x00, 0xfb, 0xf8, 0xf9,
  0xfe, 0xfe, 0x06, 0xf5, 0x02, 0x06, 0x03, 0xfb, 0x00, 0x0a, 0xf9, 0x01,
  0xfb, 0x02, 0x12, 0x00, 0xfd, 0x01, 0x03, 0x04, 0x03, 0xfa, 0xe3, 0xfc,
  0xfc, 0xfc, 0xf3, 0x0a, 0x05, 0x05, 0xfa, 0x05, 0x08, 0x00, 0xf4, 0x03,
  0xfe, 0xf4, 0xf0, 0xf3, 0x01, 0x0a, 0xf8, 0xff, 0x0b, 0x0e, 0x20, 0x00,
  0x04, 0x03, 0x0a, 0xf5, 0xfd, 0xf3, 0x02, 0x02, 0x00, 0x03, 0xfd, 0x03,
  0x0c, 0x02, 0x11, 0x04, 0x0b, 0xff, 0x07, 0x04, 0x0b, 0xf4, 0xe9, 0xfa,
  0xf4, 0x03, 0x00, 0x02, 0x0a, 0x05, 0xf5, 0xfb, 0xff, 0x03, 0xfa, 0x0b,
  0xfb, 0xf9, 0xf9, 0x08, 0xfa, 0x00, 0xf8, 0x05, 0xfc, 0x0a, 0xe8, 0xfa,
  0x06, 0x08, 0xf6, 0xf0, 0xfc, 0x07, 0xf8, 0x02, 0x0c, 0x01, 0xf6, 0xfa,
  0xf3, 0xfd, 0xfe, 0x07, 0x0c, 0x06, 0xf5, 0xfc, 0x08, 0x01, 0xf5, 0x05,
  0x01, 0x03, 0x05, 0x08, 0x0f, 0x08, 0xf8, 0xff, 0x09, 0x0b, 0xfb, 0x03,
  0x06, 0x02, 0xf3, 0xfc, 0xfc, 0x0e, 0xfd, 0xfe, 0xfa, 0x01, 0x0c, 0x02,
  0xfd, 0x09, 0x01, 0x04, 0xfe, 0x03, 0xfa, 0x0e, 0x0d, 0x09, 0x01, 0xfb,
  0xff, 0x04, 0xfa, 0x00, 0x06, 0xff, 0x09, 0xf9, 0x09, 0xfd, 0xfd, 0x0c,
  0xfb, 0x02, 0x0b, 0xf2, 0x0a, 0x00, 0x12, 0x06, 0x10, 0x07, 0x0a, 0xf9,
  0xf5, 0x02, 0x04, 0x07, 0xfd, 0x00, 0x09, 0x01, 0xf9, 0x01, 0xe7, 0xf8,
  0x08, 0xfc, 0x05, 0x0d, 0xfe, 0xfa, 0xf8, 0xfe, 0xfd, 0xfe, 0xfb, 0x00,
  0xfc, 0xf9, 0x08, 0x01, 0x0f, 0x11, 0xff, 0xfb, 0x08, 0x03, 0x11, 0xfe,
  0x00, 0x03, 0xf4, 0xf9, 0x05, 0x08, 0x19, 0xff, 0x08, 0x03, 0x04, 0xf4,
  0x0d, 0x0a, 0xdd, 0x05, 0x09, 0xfc, 0x0a, 0xff, 0xfb, 0xfd, 0xfc, 0xf9,
  0x0f, 0x07, 0xfd, 0x00, 0x05, 0x06, 0xf1, 0x00, 0x05, 0x00, 0x03, 0x08,
  0x07, 0xfe, 0xee, 0x04, 0x0b, 0xf7, 0x09, 0xf9, 0x08, 0x07, 0xf1, 0x0e,
  0x06, 0x09, 0xf4, 0x02, 0xfa, 0xff, 0xfe, 0xfd, 0x10, 0x02, 0xf6, 0x08,
  0xff, 0x06, 0x05, 0x0b, 0xfd, 0xfc, 0x05, 0xfe, 0x01, 0x03, 0x00, 0xfd,
  0xfb, 0xfe, 0x07, 0x08, 0xfa, 0xfe, 0xf5, 0x04, 0x08, 0x12, 0xf8, 0xff,
  0xff, 0x00, 0x05, 0x01, 0x04, 0xfb, 0x00, 0xf0, 0x09, 0xfe, 0xfb, 0xf8,
  0x09, 0xf7, 0xfd, 0x09, 0xfd, 0xf7, 0xe6, 0x09, 0xf8, 0x02, 0x09, 0x01,
  0x06, 0x0e, 0x14, 0x00, 0xfd, 0xfd, 0x06, 0xfc, 0x01, 0x02, 0x11, 0x05,
  0x01, 0x00, 0x06, 0xfa, 0xf8, 0x01, 0xef, 0xf5, 0xf2, 0x08, 0x00, 0x0a,
  0xfb, 0xf9, 0xe0, 0x0c, 0xfb, 0x03, 0x07, 0x07, 0xfd, 0xfd, 0xf4, 0x00,
  0xfc, 0x0e, 0x02, 0x00, 0xf7, 0xfc, 0xf7, 0xfb, 0x0e, 0x03, 0x04, 0xf8,
  0xfa, 0x03, 0x0d, 0xfb, 0xfa, 0x07, 0xfd, 0xf6, 0x0a, 0x05, 0x02, 0xfe,
  0xfc, 0x09, 0x09, 0xfa, 0x05, 0x05, 0xea, 0x07, 0x03, 0x08, 0xff, 0x05,
  0x04, 0x04, 0x01, 0xf8, 0x0f, 0x09, 0x05, 0x06, 0xf9, 0xfb, 0xf6, 0xff,
  0x0b, 0x06, 0x08, 0xfd, 0x08, 0x01, 0xfd, 0x04, 0x04, 0x05, 0x09, 0x08,
  0xfd, 0xf9, 0x05, 0x01, 0x04, 0xff, 0x0a, 0xfe, 0x0c, 0x06, 0x02, 0xf3,
  0xff, 0x01, 0xfa, 0xf5, 0x0c, 0xff, 0xf5, 0x03, 0x00, 0x00, 0x03, 0x09,
  0x01, 0xf9, 0x02, 0x07, 0x01, 0x08, 0x00, 0xfe, 0xf5, 0x01, 0xfe, 0x00,
  0xfb, 0x03, 0xf2, 0xf8, 0xf9, 0x05, 0x1e, 0x03, 0xff, 0x02, 0x0c, 0x07,
  0xfd, 0x0a, 0xf0, 0xf6, 0x07, 0x0d, 0xff, 0x03, 0x09, 0xfc, 0xe5, 0x03,
  0xf4, 0x06, 0x03, 0xf6, 0xfb, 0x00, 0x10, 0xf8, 0x05, 0xfb, 0xff, 0x02,
  0x06, 0xf6, 0xf7, 0xfd, 0x05, 0xfc, 0x0d, 0xf7, 0xfb, 0xff, 0x03, 0x08,
  0xfd, 0x00, 0xfd, 0xf5, 0x0b, 0x03, 0xeb, 0x03, 0x02, 0x01, 0x0a, 0x11,
  0xfc, 0xf9, 0xe6, 0x07, 0xf5, 0xf4, 0x06, 0x02, 0x05, 0x0c, 0xfb, 0xfc,
  0x0d, 0xfa, 0xf9, 0x03, 0x0b, 0x01, 0x12, 0x04, 0x04, 0x07, 0x03, 0xfc,
  0xfc, 0xfa, 0xfb, 0xf9, 0x01, 0xf8, 0xfd, 0xf8, 0xf8, 0xfe, 0xf8, 0x07,
  0x07, 0x0b, 0xff, 0x05, 0x01, 0xfa, 0xff, 0xf8, 0x08, 0x04, 0xfd, 0x02,
  0xf9, 0xfa, 0xe4, 0x01, 0x0c, 0x0d, 0x01, 0xf8, 0x0c, 0xff, 0x09, 0x06,
  0x0a, 0x0d, 0x02, 0xf6, 0x07, 0x05, 0x09, 0xfa, 0x05, 0x0e, 0x03, 0xfa,
  0x05, 0x06, 0x03, 0x02, 0x07, 0x05, 0x09, 0x07, 0xfe, 0x08, 0xef, 0x06,
  0x07, 0x0b, 0xf4, 0x07, 0x05, 0x05, 0xf9, 0x04, 0x04, 0x03, 0xf6, 0x0c,
  0xfb, 0x06, 0xfa, 0x0d, 0x0b, 0x0b, 0x01, 0xf8, 0x01, 0x04, 0x17, 0x0b,
  0x06, 0xf9, 0xf4, 0xff, 0xfb, 0xfe, 0xec, 0x09, 0xf3, 0xfb, 0xf8, 0x01,
  0xf7, 0xfc, 0xf6, 0x05, 0x0a, 0x00, 0xfb, 0x07, 0x05, 0xf2, 0x21, 0xf8,
  0x04, 0x03, 0x07, 0xf7, 0xf4, 0x0a, 0x02, 0xf9, 0x03, 0xfc, 0x06, 0x0b,
  0xfd, 0x02, 0x26, 0xfe, 0x08, 0x04, 0xf7, 0x09, 0x0b, 0xfc, 0xf3, 0xf1,
  0xf8, 0x02, 0x05, 0x08, 0x01, 0xfd, 0x06, 0x10, 0xf0, 0xf4, 0x00, 0xf8,
  0x01, 0xf5, 0xe7, 0x0b, 0x0d, 0xfd, 0x03, 0xf6, 0x03, 0x01, 0x0b, 0x06,
  0xfb, 0x0a, 0xf7, 0x04, 0x08, 0xf6, 0xf5, 0x02, 0x05, 0xfe, 0xfa, 0xf7,
  0x0b, 0x07, 0x03, 0x0d, 0x0c, 0x0a, 0xfd, 0x06, 0x00, 0xfa, 0x09, 0xfb,
  0x09, 0x07, 0xf5, 0x13, 0x06, 0x08, 0xf9, 0xf6, 0x07, 0x0d, 0x09, 0x06,
  0xff, 0xfb, 0x0b, 0xff, 0xff, 0x0d, 0xf6, 0x04, 0x00, 0xff, 0xf5, 0xfb,
  0x04, 0x13, 0x0b, 0x10, 0x08, 0x08, 0x06, 0x05, 0xfa, 0x04, 0x02, 0x06,
  0x0b, 0x09, 0xf8, 0xf9, 0x01, 0x02, 0x08, 0xfb, 0x0a, 0x01, 0xf6, 0x04,
  0x01, 0x01, 0xf8, 0xf3, 0x06, 0xfd, 0x0e, 0x08, 0x04, 0xfe, 0x01, 0xed,
  0x09, 0xfd, 0x12, 0x09, 0x0f, 0x0d, 0x00, 0xf5, 0x06, 0x09, 0xf8, 0xfc,
  0xfe, 0xff, 0xf9, 0x0f, 0x06, 0x04, 0x18, 0xff, 0xfd, 0x04, 0x03, 0x02,
  0xf4, 0xff, 0x16, 0x03, 0x02, 0x04, 0xf8, 0x0b, 0x0a, 0x01, 0xf3, 0x00,
  0xf4, 0xfb, 0xfd, 0xff, 0x08, 0x03, 0x2e, 0xf7, 0xf4, 0x02, 0xf5, 0x00,
  0xfd, 0x09, 0xf5, 0x05, 0x0d, 0xfe, 0xfd, 0x06, 0x00, 0xfc, 0x09, 0x06,
  0x06, 0xf3, 0x07, 0xf0, 0xfc, 0xfc, 0xee, 0x08, 0x08, 0x06, 0x09, 0xfc,
  0xfc, 0x07, 0xf9, 0x02, 0x03, 0xfa, 0x0a, 0x06, 0xf7, 0x00, 0xf9, 0x01,
  0x02, 0x0f, 0x07, 0x04, 0x08, 0xfe, 0x03, 0x0b, 0xff, 0x08, 0x05, 0x07,
  0x0e, 0x00, 0x0c, 0xf8, 0x04, 0x03, 0xfd, 0x0c, 0xff, 0x00, 0xf5, 0xf7,
  0x06, 0x10, 0x06, 0xfd, 0xf7, 0x08, 0x02, 0x07, 0x09, 0x0c, 0x02, 0x07,
  0x08, 0x03, 0xe3, 0xf4, 0xfa, 0x0c, 0xf2, 0x14, 0x02, 0x06, 0x08, 0xfc,
  0x06, 0x0a, 0x07, 0x11, 0xf2, 0xfc, 0x07, 0x0f, 0xfb, 0x01, 0x05, 0xf7,
  0x00, 0xff, 0xff, 0x04, 0x03, 0xf9, 0x01, 0x04, 0xfc, 0xfb, 0x0a, 0xfe,
  0x0b, 0xfc, 0x0b, 0x04, 0xf5, 0x03, 0x18, 0xfe, 0x07, 0x04, 0xfc, 0xfd,
  0x0c, 0xff, 0xee, 0x09, 0xfd, 0xfd, 0x02, 0xf5, 0xff, 0xfc, 0x17, 0xf5,
  0x0a, 0xfd, 0x01, 0xfe, 0xfb, 0xf7, 0x10, 0x08, 0xfc, 0x05, 0x00, 0xfe,
  0xf3, 0xfa, 0xed, 0x09, 0xf6, 0xf7, 0x0e, 0xfa, 0xf8, 0x03, 0x36, 0x06,
  0xfe, 0x07, 0x07, 0x0e, 0x06, 0xfc, 0xf5, 0x07, 0xf9, 0xf4, 0x04, 0xf6,
  0x07, 0x01, 0x1d, 0x12, 0xfe, 0xfc, 0x0b, 0xfe, 0xfc, 0xfc, 0xed, 0xf6,
  0x07, 0x02, 0x08, 0xf8, 0x02, 0xfd, 0xef, 0x06, 0x06, 0xff, 0x03, 0xff,
  0xf9, 0xf6, 0xf4, 0x04, 0x04, 0xf8, 0x00, 0x02, 0x0b, 0xfd, 0x06, 0x03,
  0xfd, 0x01, 0x06, 0x04, 0x0e, 0x01, 0xf8, 0x05, 0x02, 0x07, 0xfd, 0xff,
  0x01, 0xfb, 0xf5, 0x04, 0x00, 0x01, 0x01, 0x00, 0xf2, 0xfe, 0x0a, 0xfd,
  0xfa, 0xfc, 0x02, 0xf9, 0xfd, 0x00, 0xf4, 0xfb, 0x0d, 0x0e, 0xf5, 0x05,
  0xf8, 0x04, 0x02, 0x00, 0xfc, 0x03, 0x04, 0x05, 0xf5, 0xfa, 0xf9, 0x01,
  0xf7, 0xfb, 0x03, 0xf1, 0xfd, 0x02, 0xf1, 0x09, 0x14, 0xf7, 0xfb, 0xfa,
  0x03, 0xfa, 0xfd, 0x0b, 0x04, 0x09, 0x01, 0x03, 0x0b, 0xf4, 0x0d, 0x03,
  0xfc, 0x01, 0xfb, 0xfd, 0x0f, 0xf9, 0xf6, 0xf8, 0x01, 0xff, 0x05, 0x05,
  0x0a, 0xf3, 0x10, 0xfd, 0x05, 0xfb, 0x01, 0xfb, 0xf1, 0xfa, 0x1a, 0xfa,
  0x06, 0xfc, 0xf9, 0x07, 0x02, 0xfe, 0xef, 0x05, 0xfb, 0xfc, 0xfa, 0xf0,
  0xf7, 0x02, 0x3e, 0x00, 0xf6, 0xfb, 0x01, 0x17, 0x03, 0xff, 0xf3, 0x06,
  0xfb, 0x00, 0xfd, 0x08, 0x00, 0xfb, 0x13, 0x06, 0xff, 0xf8, 0xfc, 0xf5,
  0x05, 0x02, 0xfb, 0x04, 0x04, 0xfc, 0xf2, 0xfd, 0x00, 0x03, 0xe8, 0x03,
  0x05, 0xfc, 0x0d, 0xfd, 0x0b, 0xf8, 0xfa, 0xfd, 0xf9, 0x08, 0x01, 0xfb,
  0xf9, 0x04, 0x02, 0x01, 0xff, 0x0d, 0x01, 0xfa, 0x0c, 0xf4, 0x05, 0xf7,
  0xf7, 0x03, 0x0c, 0x0a, 0xfc, 0xfd, 0xf5, 0xf7, 0xf2, 0xfb, 0xf5, 0xff,
  0x0d, 0xf4, 0x07, 0xfa, 0x05, 0xfe, 0xf8, 0x0d, 0xf8, 0x04, 0xfb, 0x0a,
  0x01, 0x0c, 0x06, 0x07, 0x01, 0xfc, 0x03, 0xf9, 0x01, 0x09, 0x0c, 0x02,
  0x0b, 0xf9, 0xee, 0x01, 0xfc, 0xf8, 0x00, 0xf9, 0x0e, 0x09, 0xfd, 0x07,
  0x04, 0xfc, 0xfc, 0x01, 0x0f, 0xfe, 0x0e, 0xf8, 0x13, 0x04, 0x0c, 0x08,
  0xf8, 0xfc, 0x06, 0xfa, 0xfa, 0xf8, 0x00, 0x0e, 0x06, 0x08, 0x10, 0x0b,
  0xf6, 0xfb, 0xff, 0xfb, 0xfc, 0x02, 0x10, 0xfd, 0x02, 0xfd, 0xf6, 0xff,
  0x03, 0xfe, 0x05, 0x03, 0xf9, 0xf5, 0xfa, 0xfe, 0xfc, 0xfa, 0xf5, 0xff,
  0xf8, 0xf7, 0x06, 0xfe, 0x00, 0x07, 0x42, 0xf8, 0xf9, 0xfd, 0x02, 0x0a,
  0xfc, 0x02, 0xf0, 0xff, 0xf6, 0xfb, 0x02, 0x06, 0xfa, 0xfc, 0x0f, 0xf9,
  0xfb, 0xfd, 0xf7, 0xf7, 0xf8, 0xfc, 0xdd, 0xf7, 0xf1, 0xfd, 0x04, 0x07,
  0x06, 0xf8, 0xf4, 0xf4, 0x00, 0xf9, 0xfb, 0xf9, 0x07, 0x04, 0xf1, 0x07,
  0xfe, 0x00, 0xfe, 0xf7, 0x02, 0x00, 0x07, 0xfe, 0xf9, 0xff, 0x02, 0x01,
  0xfa, 0x04, 0xff, 0xfc, 0xf9, 0xfb, 0x04, 0x0b, 0xfb, 0xf3, 0xf2, 0xf2,
  0xfa, 0x01, 0xfa, 0xfb, 0xfe, 0x03, 0x08, 0x0c, 0xfb, 0x00, 0xf9, 0x03,
  0xf6, 0x03, 0xf0, 0xf9, 0x01, 0xff, 0x01, 0x0b, 0x02, 0xf3, 0xee, 0xf4,
  0x0b, 0x05, 0x09, 0x03, 0xf1, 0xf9, 0xfa, 0xfb, 0xfe, 0x08, 0xfa, 0xfd,
  0x06, 0x07, 0xee, 0x02, 0x03, 0xfb, 0x00, 0x0a, 0xf8, 0x08, 0x02, 0x06,
  0x03, 0xf6, 0xff, 0x1b, 0x04, 0x02, 0xf7, 0xff, 0x04, 0xfe, 0xfd, 0x0b,
  0x05, 0xfa, 0x04, 0x05, 0xfe, 0x01, 0xf6, 0x08, 0x00, 0xfc, 0x0e, 0x07,
  0x02, 0x09, 0x07, 0x02, 0x02, 0xf3, 0x05, 0xf7, 0xfc, 0xfd, 0xf4, 0x03,
  0xf4, 0xf3, 0xf4, 0x05, 0x08, 0xfd, 0x05, 0xfc, 0xf8, 0x03, 0x3d, 0x02,
  0xf9, 0x05, 0xfd, 0x07, 0xfa, 0xfd, 0xed, 0x08, 0x03, 0xf8, 0xfc, 0x09,
  0x01, 0x01, 0x26, 0xfc, 0xfb, 0x01, 0xfd, 0xf4, 0x02, 0xff, 0xe4, 0xfc,
  0x02, 0xf8, 0xfd, 0x06, 0x03, 0xf3, 0xeb, 0x0d, 0xfd, 0x01, 0xfa, 0xfa,
  0x01, 0x03, 0xdd, 0xf8, 0xfb, 0x0b, 0xfb, 0xf4, 0x00, 0xfb, 0xfe, 0xfc,
  0xf5, 0xf7, 0x08, 0xf7, 0xfe, 0x02, 0xf4, 0xf5, 0xf7, 0x04, 0x03, 0xfc,
  0xff, 0xf5, 0xea, 0xf9, 0xf3, 0xfb, 0xfe, 0xfa, 0x09, 0x05, 0xf1, 0x01,
  0xfd, 0xfc, 0xff, 0x07, 0xfc, 0xf4, 0xdc, 0x04, 0xfc, 0x06, 0x09, 0xfe,
  0x0a, 0x03, 0xdc, 0xfc, 0xfe, 0xf7, 0x03, 0xfc, 0xf4, 0xff, 0xf5, 0x0b,
  0x00, 0xfe, 0x06, 0xfd, 0xf8, 0x06, 0xfe, 0x0c, 0x02, 0x0d, 0xfc, 0x02,
  0x05, 0x03, 0x0f, 0xfe, 0x04, 0x04, 0x09, 0x1a, 0x00, 0x00, 0xe5, 0x05,
  0xff, 0x09, 0x02, 0x07, 0xff, 0x06, 0x0d, 0xfe, 0xf8, 0xff, 0xff, 0xfa,
  0x01, 0xf6, 0x0c, 0xf4, 0xff, 0xf6, 0xfb, 0xf6, 0xfb, 0x06, 0xf6, 0x07,
  0xf9, 0xf5, 0x03, 0x04, 0xff, 0xfe, 0xe5, 0xf9, 0xfd, 0xfd, 0xfb, 0xfe,
  0x02, 0x00, 0x2d, 0x00, 0xf9, 0xfe, 0x07, 0x0c, 0xfc, 0x05, 0xec, 0x03,
  0xfd, 0xf7, 0x01, 0x01, 0xfd, 0x05, 0x2a, 0xfc, 0x01, 0x03, 0x01, 0xf2,
  0x0d, 0xf8, 0xde, 0x09, 0xf6, 0xf7, 0xf7, 0xf4, 0xfe, 0xfb, 0xf3, 0xfc,
  0xf9, 0x05, 0xfa, 0xf8, 0xf7, 0x00, 0xe1, 0x01, 0xfa, 0xfe, 0xfc, 0x06,
  0x03, 0x0b, 0xec, 0xfc, 0xfa, 0x00, 0xfa, 0xf4, 0x05, 0xf7, 0xf9, 0xf7,
  0xfc, 0x02, 0xfd, 0x02, 0x05, 0x07, 0xee, 0x02, 0xfe, 0xf8, 0x0c, 0x01,
  0xfb, 0x05, 0xef, 0xf5, 0xee, 0xf1, 0xf6, 0x00, 0xf6, 0x04, 0xf3, 0x07,
  0x00, 0xfa, 0xf6, 0xfb, 0xf7, 0x00, 0xd7, 0xfb, 0xfa, 0xf7, 0x07, 0x04,
  0x09, 0x04, 0xeb, 0x04, 0xfe, 0xff, 0x06, 0xfe, 0x06, 0x08, 0x02, 0x02,
  0xfd, 0x04, 0x01, 0x0e, 0xfd, 0x02, 0xf7, 0x03, 0xf9, 0x0a, 0xfd, 0x1d,
  0xf8, 0x00, 0xe0, 0x03, 0xfb, 0x08, 0x07, 0x0c, 0x01, 0xfd, 0x19, 0x02,
  0xf4, 0x01, 0x06, 0xfc, 0xf7, 0x0c, 0xf6, 0xff, 0xfa, 0x00, 0xfa, 0x02,
  0x0b, 0x04, 0xe1, 0xfe, 0xff, 0x07, 0x04, 0xff, 0xfc, 0x08, 0xf7, 0x03,
  0xfb, 0xf6, 0x0a, 0xf0, 0x03, 0x01, 0x17, 0xfb, 0xf9, 0x01, 0xf4, 0x0c,
  0x00, 0xfd, 0xef, 0xf6, 0x09, 0xfb, 0xf7, 0x07, 0x06, 0xfd, 0x12, 0xfb,
  0xf6, 0x04, 0xff, 0x01, 0xfd, 0x01, 0xef, 0x0a, 0x08, 0xfb, 0x0a, 0xf1,
  0xfa, 0xf3, 0xee, 0xf6, 0xfb, 0x07, 0xfa, 0xfa, 0x0b, 0xf9, 0xe1, 0x08,
  0xfe, 0xfd, 0xf5, 0xf4, 0x06, 0x02, 0xef, 0xf6, 0x00, 0x05, 0xf7, 0x03,
  0xfe, 0xfe, 0xf6, 0x0b, 0xf9, 0x05, 0xf9, 0x01, 0xf8, 0x01, 0xe8, 0x08,
  0xff, 0xfd, 0x05, 0xf9, 0xf5, 0xf4, 0xef, 0x03, 0xfb, 0xee, 0x01, 0x07,
  0xfe, 0x02, 0xee, 0xf9, 0x02, 0xf4, 0x00, 0x03, 0x00, 0xfd, 0xda, 0xfc,
  0x06, 0xf8, 0x0a, 0x0a, 0xf7, 0x05, 0xfb, 0xfd, 0xf5, 0xfd, 0xf5, 0x00,
  0xa2, 0xfe, 0xff, 0xff, 0x04, 0x00, 0x00, 0x00, 0x0c, 0x00, 0x00, 0x00,
  0x6b, 0x00, 0x00, 0x00, 0x4f, 0x01, 0x00, 0x00, 0x46, 0xfe, 0xff, 0xff,
  0x24, 0xfc, 0xff, 0xff, 0x0f, 0x00, 0x00, 0x00, 0x54, 0x4f, 0x43, 0x4f,
  0x20, 0x43, 0x6f, 0x6e, 0x76, 0x65, 0x72, 0x74, 0x65, 0x64, 0x2e, 0x00,
  0x01, 0x00, 0x00, 0x00, 0x04, 0x00, 0x00, 0x00, 0x24, 0xfb, 0xff, 0xff,
  0x68, 0x01, 0x00, 0x00, 0x5c, 0x01, 0x00, 0x00, 0x50, 0x01, 0x00, 0x00,
  0x04, 0x00, 0x00, 0x00, 0x04, 0x00, 0x00, 0x00, 0xf4, 0x00, 0x00, 0x00,
  0x90, 0x00, 0x00, 0x00, 0x48, 0x00, 0x00, 0x00, 0x04, 0x00, 0x00, 0x00,
  0xce, 0xff, 0xff, 0xff, 0x00, 0x00, 0x00, 0x09, 0x03, 0x00, 0x00, 0x00,
  0x1c, 0x00, 0x00, 0x00, 0x10, 0x00, 0x00, 0x00, 0x04, 0x00, 0x00, 0x00,
  0x1a, 0xff, 0xff, 0xff, 0x00, 0x00, 0x80, 0x3f, 0x01, 0x00, 0x00, 0x00,
  0x09, 0x00, 0x00, 0x00, 0x01, 0x00, 0x00, 0x00, 0x06, 0x00, 0x00, 0x00,
  0x00, 0x00, 0x0e, 0x00, 0x18, 0x00, 0x08, 0x00, 0x0c, 0x00, 0x10, 0x00,
  0x07, 0x00, 0x14, 0x00, 0x0e, 0x00, 0x00, 0x00, 0x00, 0x00, 0x00, 0x08,
  0x01, 0x00, 0x00, 0x00, 0x18, 0x00, 0x00, 0x00, 0x0c, 0x00, 0x00, 0x00,
  0x04, 0x00, 0x00, 0x00, 0xc4, 0xfc, 0xff, 0xff, 0x01, 0x00, 0x00, 0x00,
  0x06, 0x00, 0x00, 0x00, 0x03, 0x00, 0x00, 0x00, 0x02, 0x00, 0x00, 0x00,
  0x07, 0x00, 0x00, 0x00, 0x01, 0x00, 0x00, 0x00, 0x00, 0x00, 0x0e, 0x00,
  0x16, 0x00, 0x00, 0x00, 0x08, 0x00, 0x0c, 0x00, 0x07, 0x00, 0x10, 0x00,
  0x0e, 0x00, 0x00, 0x00, 0x00, 0x00, 0x00, 0x02, 0x38, 0x00, 0x00, 0x00,
  0x2c, 0x00, 0x00, 0x00, 0x14, 0x00, 0x00, 0x00, 0x00, 0x00, 0x0e, 0x00,
  0x14, 0x00, 0x00, 0x00, 0x08, 0x00, 0x0c, 0x00, 0x10, 0x00, 0x07, 0x00,
  0x0e, 0x00, 0x00, 0x00, 0x00, 0x00, 0x00, 0x01, 0x02, 0x00, 0x00, 0x00,
  0x02, 0x00, 0x00, 0x00, 0x08, 0x00, 0x00, 0x00, 0x01, 0x00, 0x00, 0x00,
  0x02, 0x00, 0x00, 0x00, 0x03, 0x00, 0x00, 0x00, 0x04, 0x00, 0x00, 0x00,
  0x08, 0x00, 0x00, 0x00, 0x00, 0x00, 0x00, 0x00, 0x00, 0x00, 0x0e, 0x00,
  0x1a, 0x00, 0x08, 0x00, 0x0c, 0x00, 0x10, 0x00, 0x07, 0x00, 0x14, 0x00,
  0x0e, 0x00, 0x00, 0x00, 0x00, 0x00, 0x00, 0x11, 0x02, 0x00, 0x00, 0x00,
  0x38, 0x00, 0x00, 0x00, 0x2c, 0x00, 0x00, 0x00, 0x0c, 0x00, 0x00, 0x00,
  0x00, 0x00, 0x06, 0x00, 0x08, 0x00, 0x04, 0x00, 0x06, 0x00, 0x00, 0x00,
  0x04, 0x00, 0x00, 0x00, 0x04, 0x00, 0x00, 0x00, 0xff, 0xff, 0xff, 0xff,
  0x31, 0x00, 0x00, 0x00, 0x28, 0x00, 0x00, 0x00, 0x01, 0x00, 0x00, 0x00,
  0x01, 0x00, 0x00, 0x00, 0x04, 0x00, 0x00, 0x00, 0x02, 0x00, 0x00, 0x00,
  0x03, 0x00, 0x00, 0x00, 0x05, 0x00, 0x00, 0x00, 0x01, 0x00, 0x00, 0x00,
  0x09, 0x00, 0x00, 0x00, 0x01, 0x00, 0x00, 0x00, 0x03, 0x00, 0x00, 0x00,
  0x0a, 0x00, 0x00, 0x00, 0x34, 0x04, 0x00, 0x00, 0xcc, 0x03, 0x00, 0x00,
  0x4c, 0x03, 0x00, 0x00, 0xdc, 0x02, 0x00, 0x00, 0x60, 0x02, 0x00, 0x00,
  0x20, 0x02, 0x00, 0x00, 0xb0, 0x01, 0x00, 0x00, 0x44, 0x01, 0x00, 0x00,
  0x70, 0x00, 0x00, 0x00, 0x04, 0x00, 0x00, 0x00, 0x02, 0xfc, 0xff, 0xff,
  0x00, 0x00, 0x00, 0x09, 0x44, 0x00, 0x00, 0x00, 0x07, 0x00, 0x00, 0x00,
  0x28, 0x00, 0x00, 0x00, 0x04, 0x00, 0x00, 0x00, 0xf4, 0xfb, 0xff, 0xff,
  0x14, 0x00, 0x00, 0x00, 0x04, 0x00, 0x00, 0x00, 0x01, 0x00, 0x00, 0x00,
  0x80, 0xff, 0xff, 0xff, 0xff, 0xff, 0xff, 0xff, 0x01, 0x00, 0x00, 0x00,
  0x00, 0x00, 0x80, 0x3b, 0x0e, 0x00, 0x00, 0x00, 0x6c, 0x61, 0x62, 0x65,
  0x6c, 0x73, 0x5f, 0x73, 0x6f, 0x66, 0x74, 0x6d, 0x61, 0x78, 0x00, 0x00,
  0x02, 0x00, 0x00, 0x00, 0x01, 0x00, 0x00, 0x00, 0x03, 0x00, 0x00, 0x00,
  0x00, 0x00, 0x0e, 0x00, 0x1a, 0x00, 0x08, 0x00, 0x07, 0x00, 0x0c, 0x00,
  0x10, 0x00, 0x14, 0x00, 0x0e, 0x00, 0x00, 0x00, 0x00, 0x00, 0x00, 0x09,
  0xb4, 0x00, 0x00, 0x00, 0x08, 0x00, 0x00, 0x00, 0x94, 0x00, 0x00, 0x00,
  0x18, 0x00, 0x00, 0x00, 0x00, 0x00, 0x12, 0x00, 0x10, 0x00, 0x00, 0x00,
  0x00, 0x00, 0x04, 0x00, 0x08, 0x00, 0x00, 0x00, 0x00, 0x00, 0x0c, 0x00,
  0x12, 0x00, 0x00, 0x00, 0x50, 0x00, 0x00, 0x00, 0x08, 0x00, 0x00, 0x00,
  0x03, 0x00, 0x00, 0x00, 0x08, 0x00, 0x00, 0x00, 0x00, 0x00, 0x00, 0x00,
  0x00, 0x00, 0x00, 0x00, 0x00, 0x00, 0x00, 0x00, 0x00, 0x00, 0x00, 0x00,
  0x00, 0x00, 0x00, 0x00, 0x00, 0x00, 0x00, 0x00, 0x00, 0x00, 0x00, 0x00,
  0x00, 0x00, 0x00, 0x00, 0x00, 0x00, 0x00, 0x00, 0x00, 0x00, 0x00, 0x00,
  0x00, 0x00, 0x00, 0x00, 0x00, 0x00, 0x00, 0x00, 0x00, 0x00, 0x00, 0x00,
  0x00, 0x00, 0x00, 0x00, 0x00, 0x00, 0x00, 0x00, 0x00, 0x00, 0x00, 0x00,
  0x08, 0x00, 0x00, 0x00, 0x79, 0xde, 0xb2, 0x39, 0x7f, 0x2b, 0xc2, 0x39,
  0xb4, 0x38, 0x88, 0x3b, 0xa1, 0xf0, 0xd5, 0x39, 0xad, 0x2a, 0xfe, 0x39,
  0xa3, 0xba, 0xeb, 0x39, 0x4b, 0x29, 0x4a, 0x39, 0xa5, 0x2c, 0x4a, 0x3b,
  0x12, 0x00, 0x00, 0x00, 0x66, 0x69, 0x72, 0x73, 0x74, 0x5f, 0x77, 0x65,
  0x69, 0x67, 0x68, 0x74, 0x73, 0x2f, 0x72, 0x65, 0x61, 0x64, 0x00, 0x00,
  0x04, 0x00, 0x00, 0x00, 0x01, 0x00, 0x00, 0x00, 0x0a, 0x00, 0x00, 0x00,
  0x08, 0x00, 0x00, 0x00, 0x08, 0x00, 0x00, 0x00, 0x3a, 0xfd, 0xff, 0xff,
  0x00, 0x00, 0x00, 0x09, 0x54, 0x00, 0x00, 0x00, 0x02, 0x00, 0x00, 0x00,
  0x28, 0x00, 0x00, 0x00, 0x04, 0x00, 0x00, 0x00, 0x2c, 0xfd, 0xff, 0xff,
  0x14, 0x00, 0x00, 0x00, 0x04, 0x00, 0x00, 0x00, 0x01, 0x00, 0x00, 0x00,
  0x00, 0x00, 0x00, 0x00, 0x00, 0x00, 0x00, 0x00, 0x01, 0x00, 0x00, 0x00,
  0x33, 0x40, 0xaf, 0x3a, 0x1f, 0x00, 0x00, 0x00, 0x66, 0x69, 0x6e, 0x61,
  0x6c, 0x5f, 0x66, 0x63, 0x5f, 0x77, 0x65, 0x69, 0x67, 0x68, 0x74, 0x73,
  0x2f, 0x72, 0x65, 0x61, 0x64, 0x2f, 0x74, 0x72, 0x61, 0x6e, 0x73, 0x70,
  0x6f, 0x73, 0x65, 0x00, 0x02, 0x00, 0x00, 0x00, 0x03, 0x00, 0x00, 0x00,
  0xa0, 0x0f, 0x00, 0x00, 0xa2, 0xfd, 0xff, 0xff, 0x00, 0x00, 0x00, 0x09,
  0x58, 0x00, 0x00, 0x00, 0x04, 0x00, 0x00, 0x00, 0x44, 0x00, 0x00, 0x00,
  0x04, 0x00, 0x00, 0x00, 0x74, 0xfe, 0xff, 0xff, 0x30, 0x00, 0x00, 0x00,
  0x24, 0x00, 0x00, 0x00, 0x18, 0x00, 0x00, 0x00, 0x04, 0x00, 0x00, 0x00,
  0x01, 0x00, 0x00, 0x00, 0xfb, 0xff, 0xff, 0xff, 0xff, 0xff, 0xff, 0xff,
  0x00, 0x00, 0x00, 0x00, 0x01, 0x00, 0x00, 0x00, 0x88, 0x86, 0x3a, 0x3e,
  0x01, 0x00, 0x00, 0x00, 0xa8, 0x83, 0xc0, 0x41, 0x01, 0x00, 0x00, 0x00,
  0x5a, 0x14, 0xb3, 0xc1, 0x05, 0x00, 0x00, 0x00, 0x61, 0x64, 0x64, 0x5f,
  0x31, 0x00, 0x00, 0x00, 0x02, 0x00, 0x00, 0x00, 0x01, 0x00, 0x00, 0x00,
  0x03, 0x00, 0x00, 0x00, 0x0e, 0xfe, 0xff, 0xff, 0x00, 0x00, 0x00, 0x02,
  0x2c, 0x00, 0x00, 0x00, 0x06, 0x00, 0x00, 0x00, 0x10, 0x00, 0x00, 0x00,
  0x08, 0x00, 0x00, 0x00, 0x04, 0x00, 0x04, 0x00, 0x04, 0x00, 0x00, 0x00,
  0x0f, 0x00, 0x00, 0x00, 0x52, 0x65, 0x73, 0x68, 0x61, 0x70, 0x65, 0x5f,
  0x32, 0x2f, 0x73, 0x68, 0x61, 0x70, 0x65, 0x00, 0x01, 0x00, 0x00, 0x00,
  0x04, 0x00, 0x00, 0x00, 0x4a, 0xfe, 0xff, 0xff, 0x00, 0x00, 0x00, 0x09,
  0x5c, 0x00, 0x00, 0x00, 0x05, 0x00, 0x00, 0x00, 0x44, 0x00, 0x00, 0x00,
  0x04, 0x00, 0x00, 0x00, 0x1c, 0xff, 0xff, 0xff, 0x30, 0x00, 0x00, 0x00,
  0x24, 0x00, 0x00, 0x00, 0x18, 0x00, 0x00, 0x00, 0x04, 0x00, 0x00, 0x00,
  0x01, 0x00, 0x00, 0x00, 0x80, 0xff, 0xff, 0xff, 0xff, 0xff, 0xff, 0xff,
  0x00, 0x00, 0x00, 0x00, 0x01, 0x00, 0x00, 0x00, 0x41, 0x41, 0xd1, 0x3d,
  0x01, 0x00, 0x00, 0x00, 0x00, 0x70, 0xd0, 0x41, 0x01, 0x00, 0x00, 0x00,
  0x00, 0x00, 0x00, 0x00, 0x09, 0x00, 0x00, 0x00, 0x52, 0x65, 0x73, 0x68,
  0x61, 0x70, 0x65, 0x5f, 0x32, 0x00, 0x00, 0x00, 0x04, 0x00, 0x00, 0x00,
  0x01, 0x00, 0x00, 0x00, 0x31, 0x00, 0x00, 0x00, 0x28, 0x00, 0x00, 0x00,
  0x01, 0x00, 0x00, 0x00, 0xc2, 0xfe, 0xff, 0xff, 0x00, 0x00, 0x00, 0x09,
  0x58, 0x00, 0x00, 0x00, 0x0a, 0x00, 0x00, 0x00, 0x40, 0x00, 0x00, 0x00,
  0x04, 0x00, 0x00, 0x00, 0x94, 0xff, 0xff, 0xff, 0x2c, 0x00, 0x00, 0x00,
  0x20, 0x00, 0x00, 0x00, 0x14, 0x00, 0x00, 0x00, 0x04, 0x00, 0x00, 0x00,
  0x01, 0x00, 0x00, 0x00, 0x80, 0xff, 0xff, 0xff, 0xff, 0xff, 0xff, 0xff,
  0x01, 0x00, 0x00, 0x00, 0x41, 0x41, 0xd1, 0x3d, 0x01, 0x00, 0x00, 0x00,
  0x00, 0x70, 0xd0, 0x41, 0x01, 0x00, 0x00, 0x00, 0x00, 0x00, 0x00, 0x00,
  0x09, 0x00, 0x00, 0x00, 0x52, 0x65, 0x73, 0x68, 0x61, 0x70, 0x65, 0x5f,
  0x31, 0x00, 0x00, 0x00, 0x02, 0x00, 0x00, 0x00, 0x01, 0x00, 0x00, 0x00,
  0xa8, 0x07, 0x00, 0x00, 0x2e, 0xff, 0xff, 0xff, 0x00, 0x00, 0x00, 0x09,
  0x60, 0x00, 0x00, 0x00, 0x09, 0x00, 0x00, 0x00, 0x4c, 0x00, 0x00, 0x00,
  0x10, 0x00, 0x00, 0x00, 0x0c, 0x00, 0x14, 0x00, 0x04, 0x00, 0x08, 0x00,
  0x0c, 0x00, 0x10, 0x00, 0x0c, 0x00, 0x00, 0x00, 0x2c, 0x00, 0x00, 0x00,
  0x20, 0x00, 0x00, 0x00, 0x14, 0x00, 0x00, 0x00, 0x04, 0x00, 0x00, 0x00,
  0x01, 0x00, 0x00, 0x00, 0x80, 0xff, 0xff, 0xff, 0xff, 0xff, 0xff, 0xff,
  0x01, 0x00, 0x00, 0x00, 0xe4, 0x8c, 0x31, 0x3e, 0x01, 0x00, 0x00, 0x00,
  0x57, 0xdb, 0x30, 0x42, 0x01, 0x00, 0x00, 0x00, 0x00, 0x00, 0x00, 0x00,
  0x04, 0x00, 0x00, 0x00, 0x52, 0x65, 0x6c, 0x75, 0x00, 0x00, 0x00, 0x00,
  0x04, 0x00, 0x00, 0x00, 0x01, 0x00, 0x00, 0x00, 0x19, 0x00, 0x00, 0x00,
  0x14, 0x00, 0x00, 0x00, 0x08, 0x00, 0x00, 0x00, 0xaa, 0xff, 0xff, 0xff,
  0x00, 0x00, 0x00, 0x02, 0x44, 0x00, 0x00, 0x00, 0x01, 0x00, 0x00, 0x00,
  0x2c, 0x00, 0x00, 0x00, 0x04, 0x00, 0x00, 0x00, 0x9c, 0xff, 0xff, 0xff,
  0x18, 0x00, 0x00, 0x00, 0x04, 0x00, 0x00, 0x00, 0x01, 0x00, 0x00, 0x00,
  0x00, 0x00, 0x00, 0x00, 0x00, 0x00, 0x00, 0x00, 0x00, 0x00, 0x00, 0x00,
  0x01, 0x00, 0x00, 0x00, 0xad, 0x17, 0x73, 0x39, 0x0b, 0x00, 0x00, 0x00,
  0x4d, 0x61, 0x74, 0x4d, 0x75, 0x6c, 0x5f, 0x62, 0x69, 0x61, 0x73, 0x00,
  0x01, 0x00, 0x00, 0x00, 0x03, 0x00, 0x00, 0x00, 0x00, 0x00, 0x0e, 0x00,
  0x18, 0x00, 0x08, 0x00, 0x07, 0x00, 0x0c, 0x00, 0x10, 0x00, 0x14, 0x00,
  0x0e, 0x00, 0x00, 0x00, 0x00, 0x00, 0x00, 0x02, 0xa0, 0x00, 0x00, 0x00,
  0x03, 0x00, 0x00, 0x00, 0x88, 0x00, 0x00, 0x00, 0x10, 0x00, 0x00, 0x00,
  0x0c, 0x00, 0x0c, 0x00, 0x00, 0x00, 0x00, 0x00, 0x04, 0x00, 0x08, 0x00,
  0x0c, 0x00, 0x00, 0x00, 0x4c, 0x00, 0x00, 0x00, 0x04, 0x00, 0x00, 0x00,
  0x08, 0x00, 0x00, 0x00, 0x00, 0x00, 0x00, 0x00, 0x00, 0x00, 0x00, 0x00,
  0x00, 0x00, 0x00, 0x00, 0x00, 0x00, 0x00, 0x00, 0x00, 0x00, 0x00, 0x00,
  0x00, 0x00, 0x00, 0x00, 0x00, 0x00, 0x00, 0x00, 0x00, 0x00, 0x00, 0x00,
  0x00, 0x00, 0x00, 0x00, 0x00, 0x00, 0x00, 0x00, 0x00, 0x00, 0x00, 0x00,
  0x00, 0x00, 0x00, 0x00, 0x00, 0x00, 0x00, 0x00, 0x00, 0x00, 0x00, 0x00,
  0x00, 0x00, 0x00, 0x00, 0x00, 0x00, 0x00, 0x00, 0x08, 0x00, 0x00, 0x00,
  0x39, 0x35, 0x12, 0x38, 0x01, 0xb7, 0x1e, 0x38, 0x08, 0xb2, 0xde, 0x39,
  0xfc, 0xdf, 0x2e, 0x38, 0xa1, 0xc1, 0x4f, 0x38, 0x75, 0xaf, 0x40, 0x38,
  0x3e, 0x3f, 0xa5, 0x37, 0xfb, 0x41, 0xa5, 0x39, 0x0b, 0x00, 0x00, 0x00,
  0x43, 0x6f, 0x6e, 0x76, 0x32, 0x44, 0x5f, 0x62, 0x69, 0x61, 0x73, 0x00,
  0x01, 0x00, 0x00, 0x00, 0x08, 0x00, 0x00, 0x00, 0x04, 0x00, 0x00, 0x00,
  0x4c, 0x00, 0x00, 0x00, 0x30, 0x00, 0x00, 0x00, 0x1c, 0x00, 0x00, 0x00,
  0x04, 0x00, 0x00, 0x00, 0xe6, 0xff, 0xff, 0xff, 0x00, 0x00, 0x00, 0x19,
  0x02, 0x00, 0x00, 0x00, 0x00, 0x00, 0x06, 0x00, 0x06, 0x00, 0x05, 0x00,
  0x06, 0x00, 0x00, 0x00, 0x00, 0x16, 0x0a, 0x00, 0x0e, 0x00, 0x07, 0x00,
  0x00, 0x00, 0x08, 0x00, 0x0a, 0x00, 0x00, 0x00, 0x00, 0x00, 0x00, 0x09,
  0x04, 0x00, 0x00, 0x00, 0x00, 0x00, 0x0a, 0x00, 0x0c, 0x00, 0x07, 0x00,
  0x00, 0x00, 0x08, 0x00, 0x0a, 0x00, 0x00, 0x00, 0x00, 0x00, 0x00, 0x04,
  0x03, 0x00, 0x00, 0x00
};
unsigned int models_tiny_conv_silence_20_0_bgvol_0_1_model_tflite_len = 14704;
