unsigned char models_tiny_conv_silence_10_0_bgvol_0_3_model_tflite[] = {
  0x1c, 0x00, 0x00, 0x00, 0x54, 0x46, 0x4c, 0x33, 0x00, 0x00, 0x12, 0x00,
  0x1c, 0x00, 0x04, 0x00, 0x08, 0x00, 0x0c, 0x00, 0x10, 0x00, 0x14, 0x00,
  0x00, 0x00, 0x18, 0x00, 0x12, 0x00, 0x00, 0x00, 0x03, 0x00, 0x00, 0x00,
  0xf0, 0x38, 0x00, 0x00, 0x90, 0x32, 0x00, 0x00, 0x78, 0x32, 0x00, 0x00,
  0x3c, 0x00, 0x00, 0x00, 0x04, 0x00, 0x00, 0x00, 0x01, 0x00, 0x00, 0x00,
  0x0c, 0x00, 0x00, 0x00, 0x08, 0x00, 0x0c, 0x00, 0x04, 0x00, 0x08, 0x00,
  0x08, 0x00, 0x00, 0x00, 0x08, 0x00, 0x00, 0x00, 0x0b, 0x00, 0x00, 0x00,
  0x13, 0x00, 0x00, 0x00, 0x6d, 0x69, 0x6e, 0x5f, 0x72, 0x75, 0x6e, 0x74,
  0x69, 0x6d, 0x65, 0x5f, 0x76, 0x65, 0x72, 0x73, 0x69, 0x6f, 0x6e, 0x00,
  0x0c, 0x00, 0x00, 0x00, 0x30, 0x32, 0x00, 0x00, 0x14, 0x32, 0x00, 0x00,
  0x24, 0x03, 0x00, 0x00, 0xf4, 0x02, 0x00, 0x00, 0xec, 0x02, 0x00, 0x00,
  0xe4, 0x02, 0x00, 0x00, 0xc4, 0x02, 0x00, 0x00, 0xbc, 0x02, 0x00, 0x00,
  0x2c, 0x00, 0x00, 0x00, 0x24, 0x00, 0x00, 0x00, 0x1c, 0x00, 0x00, 0x00,
  0x04, 0x00, 0x00, 0x00, 0xba, 0xcc, 0xff, 0xff, 0x04, 0x00, 0x00, 0x00,
  0x05, 0x00, 0x00, 0x00, 0x31, 0x2e, 0x35, 0x2e, 0x30, 0x00, 0x00, 0x00,
  0x38, 0xca, 0xff, 0xff, 0x3c, 0xca, 0xff, 0xff, 0xd6, 0xcc, 0xff, 0xff,
  0x04, 0x00, 0x00, 0x00, 0x80, 0x02, 0x00, 0x00, 0xc5, 0xc4, 0xee, 0xf3,
  0xe2, 0x2a, 0xed, 0xd6, 0xfc, 0x02, 0x9f, 0x93, 0xdf, 0xf0, 0xfa, 0xd6,
  0x14, 0x9c, 0x01, 0xdc, 0xd2, 0x28, 0xd4, 0xa2, 0xc4, 0x10, 0x85, 0xd8,
  0xdc, 0xe8, 0xc7, 0xc1, 0x0b, 0xbb, 0xe2, 0x13, 0xe9, 0x22, 0xe9, 0xd4,
  0xff, 0x38, 0x90, 0xb3, 0xb4, 0xcf, 0xbe, 0x0e, 0x14, 0x07, 0xdc, 0xdb,
  0xd2, 0x1f, 0xd3, 0x0d, 0x09, 0x7a, 0x81, 0xd3, 0xb7, 0xcc, 0x96, 0xb1,
  0xd1, 0xd9, 0xfb, 0xfe, 0xee, 0x0d, 0xd3, 0xd9, 0x03, 0xea, 0xae, 0xc7,
  0xc6, 0xe9, 0x04, 0xe9, 0x01, 0xa8, 0x1a, 0xf8, 0x22, 0x28, 0x03, 0xc2,
  0xaf, 0xf1, 0x8f, 0xb2, 0xe2, 0xd9, 0xde, 0xa8, 0x23, 0xca, 0x0e, 0xd5,
  0x00, 0x3b, 0xd3, 0xd0, 0x25, 0x2c, 0xb1, 0xa1, 0xab, 0xd8, 0xc9, 0x2a,
  0x1b, 0x15, 0xf5, 0x2d, 0xb1, 0x21, 0xc6, 0xef, 0xf1, 0x7f, 0x93, 0xc9,
  0xc5, 0xd9, 0xaa, 0xc7, 0x09, 0x04, 0xf5, 0xef, 0xc6, 0xf9, 0xca, 0xe7,
  0x2b, 0xf1, 0x93, 0xd8, 0xbe, 0xe6, 0xff, 0xfe, 0xe8, 0xc9, 0xf8, 0x0e,
  0xe9, 0x21, 0x04, 0xef, 0xe6, 0xef, 0x8a, 0x93, 0xef, 0xe5, 0xe2, 0xcd,
  0x68, 0xeb, 0xf8, 0xf9, 0xf7, 0x4c, 0x07, 0xd7, 0x45, 0x26, 0x92, 0xdd,
  0xc3, 0xe3, 0xd4, 0x2d, 0xe6, 0x1e, 0x08, 0xdc, 0xb6, 0x2f, 0xa4, 0x02,
  0xc0, 0x50, 0xb3, 0xf7, 0xd9, 0xed, 0xa6, 0xbe, 0x1f, 0xe2, 0x01, 0x00,
  0xdb, 0xe3, 0xd8, 0xe9, 0x2f, 0xd3, 0x9e, 0xab, 0xc7, 0xe3, 0x00, 0x20,
  0xe8, 0xa8, 0x12, 0xef, 0xe2, 0x33, 0xfb, 0xea, 0x23, 0xdb, 0xa8, 0xb1,
  0xe2, 0xe4, 0xc0, 0xe5, 0x7f, 0xc6, 0x10, 0xef, 0xe9, 0x54, 0x06, 0xd0,
  0x45, 0x11, 0xa2, 0xcc, 0x96, 0xd3, 0xce, 0x40, 0xa9, 0x14, 0x04, 0x2d,
  0xb5, 0x25, 0xcc, 0xfe, 0xbe, 0x4d, 0xa7, 0xc4, 0xcd, 0xe7, 0xa3, 0xcf,
  0xf8, 0xed, 0x02, 0xdf, 0x0f, 0xc4, 0xf5, 0xc5, 0x27, 0xee, 0x9f, 0xc0,
  0xd0, 0xf1, 0xfe, 0x0c, 0xfc, 0xe8, 0xff, 0x02, 0xe1, 0x33, 0xcb, 0xdf,
  0x2b, 0x1a, 0x92, 0xb1, 0xa2, 0xde, 0xb0, 0xe5, 0x4b, 0x12, 0xfe, 0x07,
  0xba, 0x36, 0xf0, 0xb2, 0x18, 0x35, 0x9e, 0xc6, 0x81, 0xe6, 0xd7, 0xf4,
  0x9d, 0x56, 0xf1, 0xef, 0xa0, 0x17, 0xba, 0xed, 0xdd, 0x58, 0xa7, 0xd7,
  0xd2, 0xf2, 0x92, 0x91, 0xcf, 0x05, 0xe7, 0x1c, 0xe6, 0xac, 0xdb, 0xb9,
  0xfc, 0xca, 0x9f, 0x9b, 0x92, 0x01, 0xdf, 0x09, 0x06, 0xd8, 0x0e, 0xd4,
  0xe2, 0x3b, 0xc0, 0xd7, 0xff, 0xef, 0xac, 0xea, 0xb4, 0xea, 0xae, 0xc1,
  0x01, 0x18, 0x04, 0xe2, 0xd6, 0x2a, 0xf2, 0xb9, 0xf4, 0x17, 0xb0, 0xd7,
  0xb1, 0xf2, 0xfd, 0xc1, 0xe0, 0x53, 0xec, 0xf8, 0xc8, 0x0a, 0xc0, 0xe5,
  0x01, 0x28, 0xbe, 0xf0, 0xc7, 0xf0, 0xae, 0xc7, 0xe0, 0xda, 0xff, 0x0e,
  0xf3, 0x91, 0xec, 0xfc, 0xd3, 0x9b, 0xa7, 0xb3, 0xa9, 0x0a, 0xe4, 0x0f,
  0xf3, 0xdb, 0xe9, 0xea, 0xd8, 0x3e, 0xc5, 0xfc, 0xea, 0x9f, 0x98, 0x9e,
  0xba, 0x03, 0xab, 0xe9, 0xe9, 0xfa, 0x05, 0xfb, 0xf3, 0x18, 0xfd, 0xe7,
  0xf2, 0xb8, 0xba, 0xb2, 0xb3, 0xfb, 0x1e, 0xf5, 0x00, 0x1a, 0xf2, 0xe0,
  0xd1, 0x05, 0xe7, 0x07, 0xf6, 0xca, 0xad, 0xe6, 0xd2, 0x01, 0x81, 0xab,
  0x00, 0x19, 0xe7, 0x1b, 0xfc, 0x9b, 0xd1, 0x2d, 0xeb, 0xf8, 0xaa, 0xb9,
  0xdc, 0x08, 0xc5, 0x3a, 0xf0, 0x1d, 0x0f, 0x07, 0x08, 0x3c, 0xc0, 0x26,
  0x00, 0x1b, 0xc0, 0xd3, 0xce, 0x04, 0x98, 0xec, 0xf0, 0x48, 0xf7, 0x0d,
  0xe1, 0x0b, 0xee, 0x19, 0xe3, 0x28, 0xb5, 0xe4, 0xa6, 0x06, 0x2b, 0x0e,
  0x09, 0x64, 0xef, 0x1b, 0xd3, 0xff, 0xef, 0x42, 0xfa, 0x2e, 0xcb, 0x04,
  0xd7, 0xfa, 0xa5, 0x90, 0x08, 0xdd, 0xdb, 0xe9, 0x04, 0x81, 0xce, 0x6c,
  0x0b, 0x8f, 0xc3, 0xbc, 0xcb, 0x09, 0xcb, 0x53, 0xf3, 0xd0, 0x23, 0xf3,
  0xde, 0x3d, 0xcb, 0x5c, 0x04, 0xb2, 0xa2, 0x12, 0xe9, 0x25, 0xd0, 0x21,
  0xee, 0x01, 0xf5, 0xfa, 0xf4, 0x09, 0x17, 0x5b, 0xf6, 0xf8, 0xec, 0x01,
  0xcd, 0x1e, 0x13, 0x2a, 0x12, 0x49, 0xfb, 0x16, 0xcf, 0xe4, 0xe7, 0x7f,
  0x07, 0xf9, 0xc5, 0xf7, 0xea, 0x1f, 0xb6, 0xa8, 0xf5, 0xee, 0x07, 0x2b,
  0x0d, 0xaa, 0xfd, 0x66, 0x1b, 0xab, 0xb2, 0xf9, 0xcd, 0xfb, 0xdc, 0x37,
  0xff, 0xf6, 0x03, 0x32, 0xfe, 0x20, 0xcc, 0x3b, 0xfd, 0xbc, 0xda, 0x29,
  0x12, 0x30, 0xc0, 0x34, 0xed, 0x16, 0x11, 0x4d, 0xf8, 0x0a, 0x19, 0x4c,
  0x13, 0xe4, 0xd4, 0x31, 0xc5, 0x1d, 0x2b, 0x29, 0x0c, 0x25, 0xed, 0x74,
  0xb6, 0xed, 0xde, 0x69, 0x0c, 0xed, 0xca, 0x7f, 0xff, 0x2d, 0xb1, 0xb3,
  0xcc, 0xcc, 0xff, 0xff, 0x66, 0xcf, 0xff, 0xff, 0x04, 0x00, 0x00, 0x00,
  0x10, 0x00, 0x00, 0x00, 0xff, 0xff, 0xff, 0xff, 0x31, 0x00, 0x00, 0x00,
  0x28, 0x00, 0x00, 0x00, 0x01, 0x00, 0x00, 0x00, 0xec, 0xcc, 0xff, 0xff,
  0xf0, 0xcc, 0xff, 0xff, 0x8a, 0xcf, 0xff, 0xff, 0x04, 0x00, 0x00, 0x00,
  0x20, 0x00, 0x00, 0x00, 0xd6, 0xff, 0xff, 0xff, 0xd3, 0xff, 0xff, 0xff,
  0x6b, 0xff, 0xff, 0xff, 0x91, 0xff, 0xff, 0xff, 0xcc, 0xff, 0xff, 0xff,
  0x18, 0xff, 0xff, 0xff, 0xab, 0xff, 0xff, 0xff, 0xd4, 0xff, 0xff, 0xff,
  0xb6, 0xcf, 0xff, 0xff, 0x04, 0x00, 0x00, 0x00, 0xe0, 0x2e, 0x00, 0x00,
  0xfe, 0xe2, 0xed, 0xf8, 0x09, 0xfa, 0xfc, 0x04, 0xfb, 0xef, 0xff, 0x05,
  0x13, 0x48, 0xf7, 0x04, 0x02, 0x0f, 0x09, 0xee, 0x06, 0x2a, 0x03, 0x1c,
  0xfd, 0x03, 0x08, 0x0c, 0x06, 0xf0, 0x12, 0xf9, 0x03, 0x06, 0xf3, 0x0c,
  0x00, 0xf1, 0xfd, 0x09, 0xf6, 0x07, 0xed, 0xf4, 0x13, 0xdf, 0x09, 0x0c,
  0xf4, 0x02, 0xef, 0x01, 0x0f, 0xe8, 0xfa, 0x00, 0xfb, 0x01, 0xef, 0x07,
  0x02, 0xc0, 0xfb, 0x04, 0x0e, 0x06, 0x04, 0x01, 0xf2, 0xf4, 0xfd, 0x09,
  0x11, 0x08, 0xf1, 0xfd, 0xfb, 0x0a, 0x09, 0xfd, 0x08, 0x03, 0xf5, 0xfb,
  0xf4, 0x0f, 0xfc, 0x05, 0x0d, 0x09, 0xf9, 0xf4, 0x00, 0xe2, 0x04, 0xf2,
  0x1b, 0x0b, 0xf7, 0xef, 0xf0, 0xf6, 0xff, 0xed, 0x10, 0x0e, 0x02, 0x02,
  0xfe, 0xdd, 0xff, 0x10, 0x0a, 0x13, 0xfa, 0x04, 0x04, 0x1f, 0xf0, 0xed,
  0x04, 0x03, 0xf7, 0xf1, 0x0b, 0x0f, 0x02, 0x08, 0xff, 0x0a, 0x00, 0xf0,
  0x0a, 0x02, 0x09, 0xfe, 0x0d, 0x05, 0xeb, 0xfd, 0x05, 0xfe, 0xff, 0x25,
  0x08, 0xfe, 0xfb, 0xf9, 0x00, 0xe5, 0xff, 0x57, 0x03, 0x07, 0xfd, 0xfa,
  0x01, 0xf8, 0x07, 0x15, 0x3e, 0xfd, 0xe9, 0x0c, 0x00, 0xe3, 0x03, 0x05,
  0x7f, 0x0a, 0xf8, 0xea, 0x09, 0x49, 0x06, 0xe5, 0x0d, 0x09, 0x06, 0xf0,
  0x04, 0x1d, 0x00, 0xfe, 0x02, 0xf6, 0xf4, 0x03, 0x02, 0xff, 0x03, 0xf6,
  0x17, 0x07, 0x05, 0xf5, 0x00, 0xe9, 0x07, 0x0b, 0x06, 0xf9, 0xf7, 0x05,
  0x02, 0xed, 0x03, 0x0e, 0x01, 0x00, 0xf8, 0xfe, 0x0c, 0xea, 0x00, 0x1d,
  0xf0, 0x02, 0xf4, 0x04, 0x09, 0xd8, 0x00, 0x06, 0x08, 0x11, 0xfa, 0xee,
  0xfb, 0xdb, 0x00, 0x05, 0x04, 0x07, 0x05, 0x04, 0x03, 0xfa, 0xff, 0x03,
  0x01, 0xfb, 0x06, 0x06, 0x05, 0xf9, 0x01, 0x22, 0x04, 0x0c, 0xf8, 0xf4,
  0x0a, 0xe0, 0xfa, 0x0b, 0xce, 0xf7, 0xec, 0xec, 0x05, 0xcb, 0x0f, 0xfb,
  0xf6, 0x00, 0xf8, 0xfd, 0x0a, 0xd6, 0x06, 0xfb, 0xf7, 0x11, 0x06, 0xf2,
  0x10, 0xef, 0x0b, 0xd5, 0x0f, 0x0f, 0xec, 0x03, 0x07, 0x00, 0x0e, 0xf2,
  0x05, 0x08, 0xf5, 0x04, 0x04, 0xf3, 0x03, 0xf4, 0x35, 0x09, 0xf8, 0xff,
  0x0d, 0xf9, 0xfc, 0x19, 0x36, 0x08, 0xfc, 0x00, 0xf3, 0xe6, 0x07, 0x23,
  0x57, 0xf2, 0xf9, 0xf1, 0x05, 0xe3, 0x16, 0x03, 0x36, 0xf9, 0xf2, 0x00,
  0xfd, 0xc8, 0x0b, 0xee, 0x56, 0x1d, 0xf8, 0x0a, 0x0e, 0x34, 0x13, 0xf6,
  0x02, 0x09, 0xfc, 0x05, 0x02, 0x07, 0x01, 0x05, 0xf9, 0xf7, 0xfa, 0x0f,
  0x02, 0x04, 0xf9, 0x0e, 0x17, 0x04, 0xef, 0x0f, 0x10, 0xc9, 0x10, 0x03,
  0x09, 0x0a, 0xeb, 0xf9, 0x07, 0xe1, 0xf6, 0xfd, 0x02, 0xfe, 0xf5, 0xf3,
  0x02, 0xda, 0x17, 0x12, 0x05, 0xfa, 0xf9, 0xeb, 0xfb, 0xe8, 0x0b, 0x05,
  0xf8, 0x0e, 0xf0, 0xfc, 0x05, 0xda, 0xfd, 0x16, 0xea, 0xfe, 0x01, 0xfc,
  0x02, 0xd6, 0x14, 0x0c, 0x02, 0x04, 0xfb, 0x05, 0xfc, 0xd4, 0x04, 0x06,
  0xe0, 0xfb, 0xfc, 0x08, 0x15, 0xe8, 0xf3, 0x0b, 0xe5, 0xf5, 0xf5, 0x04,
  0x04, 0xc5, 0x05, 0xfe, 0xfb, 0xfa, 0xe7, 0xfd, 0x06, 0xd9, 0x11, 0xfa,
  0x11, 0x02, 0x03, 0x0e, 0x09, 0xe7, 0x01, 0xec, 0xfe, 0x06, 0xf5, 0x06,
  0x12, 0xe7, 0x03, 0x07, 0xfb, 0xf9, 0xf5, 0xea, 0x13, 0x0f, 0xfc, 0xf5,
  0x1a, 0xf2, 0x01, 0xef, 0x18, 0xec, 0x09, 0x05, 0x28, 0x0d, 0xf0, 0x00,
  0x01, 0xf0, 0x14, 0x0f, 0x3f, 0xf0, 0x03, 0x03, 0x19, 0xf6, 0x07, 0x08,
  0x21, 0x05, 0xfc, 0xf8, 0x1b, 0xe2, 0xef, 0xe9, 0x49, 0x2e, 0x12, 0xff,
  0x08, 0x30, 0x13, 0x09, 0x08, 0x09, 0xf6, 0xfa, 0x0c, 0x1a, 0x00, 0x0f,
  0xe7, 0xfd, 0xf4, 0xf2, 0x07, 0x0c, 0x10, 0x03, 0x15, 0x02, 0xf5, 0xfe,
  0x1d, 0xee, 0x03, 0x07, 0x10, 0xfd, 0xff, 0xef, 0x0a, 0xfa, 0xf5, 0x0a,
  0x10, 0x09, 0xf8, 0xf9, 0x07, 0xde, 0x02, 0x0b, 0xf0, 0x00, 0x03, 0xff,
  0x0d, 0xe9, 0x09, 0x0a, 0xe6, 0xf2, 0x05, 0xfd, 0x10, 0xf9, 0xff, 0x00,
  0xcf, 0x03, 0xff, 0x0d, 0x03, 0xe7, 0xff, 0xfc, 0xf8, 0xee, 0xef, 0xee,
  0x0a, 0xce, 0xfc, 0x02, 0xbe, 0x06, 0xf0, 0x02, 0xfc, 0x08, 0x05, 0x01,
  0xec, 0xf9, 0x01, 0xfe, 0x04, 0xf1, 0xfd, 0xfe, 0xde, 0xf7, 0xfd, 0xf2,
  0xfd, 0x0e, 0x0c, 0xfa, 0x02, 0xfb, 0xfd, 0xf5, 0x0c, 0xf7, 0x12, 0xff,
  0xfd, 0x00, 0xef, 0xfe, 0xf6, 0xfe, 0xfc, 0xf3, 0x00, 0x06, 0xf6, 0xfe,
  0x01, 0x12, 0x08, 0x08, 0x0e, 0xf0, 0xfb, 0xfb, 0x0d, 0x1b, 0xff, 0x00,
  0x16, 0x02, 0xf8, 0x0d, 0x0c, 0xfb, 0x0f, 0xeb, 0x48, 0xfa, 0xee, 0x0e,
  0x0c, 0xd2, 0x11, 0xf7, 0xfe, 0xf3, 0x00, 0x08, 0x01, 0x16, 0x08, 0xf2,
  0x35, 0x31, 0x04, 0xec, 0x00, 0x1e, 0xfc, 0xfb, 0xfd, 0xf4, 0x03, 0xfb,
  0x06, 0x17, 0x07, 0xf9, 0xd7, 0x0f, 0x00, 0xf4, 0x07, 0x04, 0x11, 0x10,
  0xee, 0x17, 0x0a, 0xff, 0x16, 0xeb, 0x0d, 0x02, 0xfa, 0x00, 0xf6, 0xf9,
  0x0a, 0xf8, 0x0c, 0xf7, 0xff, 0x0c, 0x0c, 0xf7, 0x08, 0xf2, 0xf7, 0x00,
  0xef, 0x12, 0xfb, 0x08, 0x05, 0xfc, 0x02, 0x0b, 0xca, 0xf4, 0x00, 0x04,
  0x0f, 0x01, 0xfe, 0xff, 0xde, 0xfa, 0xee, 0xef, 0x11, 0xea, 0x0b, 0x0d,
  0xe3, 0xe3, 0x03, 0xfb, 0x1b, 0xf1, 0x10, 0xec, 0xe1, 0xf0, 0x09, 0xec,
  0x0a, 0xf0, 0xf7, 0xf3, 0xee, 0xe5, 0xfc, 0xf6, 0x05, 0xef, 0xfe, 0x07,
  0xd8, 0xf4, 0xfd, 0xee, 0x01, 0x0d, 0x06, 0x05, 0xf1, 0xf6, 0x06, 0x05,
  0x08, 0x08, 0x04, 0x04, 0x00, 0x02, 0xff, 0xfa, 0xf9, 0x19, 0x0d, 0x08,
  0xef, 0xec, 0x03, 0x00, 0x0d, 0x1d, 0xfd, 0x04, 0x0c, 0xe5, 0xf5, 0xf0,
  0x14, 0x1d, 0x0a, 0xf7, 0x14, 0xf3, 0x00, 0xfa, 0x11, 0x19, 0x0a, 0xe7,
  0x3d, 0x10, 0x0d, 0x08, 0x10, 0xfc, 0x24, 0x0e, 0xf0, 0xf7, 0xf5, 0xf9,
  0x0b, 0x46, 0x14, 0x00, 0x22, 0x29, 0x08, 0xf4, 0x05, 0xef, 0x0e, 0xfb,
  0xfd, 0x0a, 0x16, 0xfc, 0x16, 0x04, 0x01, 0xfb, 0xf7, 0xf6, 0xf6, 0x01,
  0xfd, 0x01, 0x04, 0x02, 0xca, 0x02, 0x09, 0xf4, 0x0d, 0x07, 0x03, 0xf5,
  0xfd, 0x09, 0xfe, 0xf1, 0x15, 0x02, 0x07, 0x0e, 0x08, 0x0d, 0x06, 0x08,
  0x15, 0x00, 0x12, 0x04, 0xf6, 0xf6, 0x05, 0xf9, 0x11, 0xfb, 0x0d, 0xe9,
  0xd7, 0x00, 0x07, 0xfa, 0x15, 0xfa, 0x02, 0x01, 0xec, 0xfd, 0xf8, 0x04,
  0x15, 0xe0, 0x0b, 0xe8, 0xe0, 0xfa, 0xfc, 0xf3, 0x13, 0xf7, 0x0b, 0xf5,
  0x02, 0xf7, 0xf6, 0xf0, 0x07, 0xfc, 0x07, 0xff, 0x03, 0xf5, 0xf4, 0xf2,
  0x15, 0x19, 0x14, 0x07, 0xec, 0xe8, 0xf3, 0x02, 0x01, 0x0c, 0x10, 0x0c,
  0x0a, 0x04, 0xff, 0xf0, 0xff, 0x17, 0x01, 0x03, 0xde, 0x0c, 0xff, 0x0b,
  0x14, 0x19, 0xfb, 0x06, 0xfb, 0x02, 0x07, 0xf8, 0x0a, 0x25, 0x00, 0xfc,
  0xf7, 0xcd, 0xf8, 0x07, 0x0f, 0x19, 0x09, 0x10, 0x05, 0xfe, 0xf5, 0x00,
  0xf8, 0x1d, 0x12, 0xd3, 0x2a, 0x09, 0xf4, 0x07, 0x10, 0x04, 0x0a, 0x09,
  0xe6, 0xf7, 0x05, 0x0b, 0x00, 0x5e, 0xf5, 0xf4, 0x2a, 0x1e, 0x0d, 0xf5,
  0x0c, 0xe8, 0xfe, 0xff, 0xf6, 0xfb, 0xf9, 0x06, 0x03, 0x0c, 0x09, 0xf8,
  0xde, 0xff, 0x09, 0xf7, 0xf9, 0xf7, 0x00, 0x18, 0xe6, 0x0d, 0x0b, 0xf9,
  0x15, 0xf7, 0xfe, 0xfc, 0xfe, 0x14, 0x05, 0xf5, 0x13, 0xf9, 0x02, 0x10,
  0x08, 0x17, 0x01, 0xf9, 0x0f, 0x0a, 0x01, 0x01, 0xfb, 0x12, 0xfe, 0x0c,
  0xf7, 0x01, 0xf0, 0xf8, 0xeb, 0xfe, 0x0b, 0x04, 0x04, 0xee, 0xf6, 0xf8,
  0xd1, 0xfb, 0x0a, 0xfd, 0x1a, 0xe7, 0x03, 0xf9, 0xf0, 0xf3, 0xfb, 0xfd,
  0x01, 0xf6, 0x0a, 0xec, 0x02, 0xf5, 0xf2, 0xf4, 0x0f, 0x08, 0x06, 0x03,
  0xfc, 0xf1, 0xf6, 0x06, 0x09, 0x14, 0x10, 0x01, 0x02, 0xf4, 0x06, 0xf2,
  0x0a, 0x1a, 0x17, 0xfd, 0x15, 0xee, 0xf2, 0x05, 0xf8, 0x09, 0xf8, 0x0f,
  0xde, 0x0f, 0x0a, 0xfb, 0xfa, 0x0f, 0x0c, 0xf4, 0x08, 0xf3, 0x06, 0x01,
  0x12, 0x22, 0x06, 0x04, 0xfb, 0xe0, 0xfd, 0x02, 0x05, 0xfc, 0x0c, 0x11,
  0xfb, 0xfb, 0x00, 0x08, 0xfd, 0x0d, 0x08, 0xda, 0x16, 0xfb, 0xf2, 0x0f,
  0x0f, 0x11, 0x10, 0x15, 0xdb, 0xe6, 0x06, 0xf9, 0x1b, 0x64, 0x00, 0x0f,
  0x16, 0x1e, 0x08, 0x01, 0xfe, 0xf6, 0x0c, 0x0f, 0xed, 0x0e, 0x02, 0xff,
  0x19, 0x18, 0x07, 0x02, 0xf3, 0xfd, 0xfe, 0x00, 0x0c, 0xf5, 0x05, 0x0a,
  0xed, 0x07, 0x13, 0xfd, 0x07, 0x11, 0xfe, 0x12, 0xf5, 0x09, 0x07, 0xfc,
  0x01, 0x05, 0x08, 0x20, 0x07, 0x12, 0xfc, 0xf6, 0x1a, 0x06, 0xee, 0x12,
  0xde, 0x11, 0xf7, 0x07, 0x04, 0x15, 0x08, 0x03, 0xe1, 0xfe, 0x0c, 0xef,
  0x04, 0xff, 0xff, 0xf1, 0xed, 0x15, 0x03, 0xf0, 0x0e, 0xf6, 0x03, 0xf2,
  0xfc, 0xf6, 0x04, 0x02, 0x0a, 0xf5, 0xfb, 0xeb, 0x0b, 0xff, 0xff, 0x00,
  0xfa, 0x0b, 0x09, 0x0b, 0xfb, 0xea, 0x02, 0xfd, 0xf9, 0x1a, 0x0f, 0xfe,
  0xf6, 0x05, 0xfc, 0x0e, 0x13, 0x10, 0xf6, 0x0e, 0x0c, 0x03, 0x00, 0x01,
  0x12, 0x17, 0x00, 0x04, 0xd9, 0xf9, 0x07, 0xf7, 0x17, 0x06, 0xfe, 0xff,
  0xfa, 0xfc, 0x10, 0x0c, 0x12, 0x2d, 0x0f, 0xfc, 0xf2, 0xf3, 0xfa, 0x04,
  0x10, 0x05, 0x10, 0x1c, 0x08, 0xf4, 0xfd, 0x00, 0xff, 0x0b, 0x0f, 0xd8,
  0x0c, 0xf8, 0x01, 0xf0, 0xfd, 0x11, 0x1c, 0x31, 0xe7, 0xd9, 0x04, 0xfb,
  0x01, 0x4f, 0x0c, 0x07, 0x05, 0x32, 0x09, 0x00, 0x07, 0x0c, 0x1a, 0x0d,
  0xe7, 0x0c, 0x0b, 0x12, 0x05, 0x09, 0xf5, 0x0d, 0xd3, 0x0c, 0x0b, 0x06,
  0xfc, 0x08, 0x05, 0x0a, 0xec, 0x00, 0x11, 0xfc, 0x04, 0x05, 0x09, 0x05,
  0xfe, 0x12, 0xfc, 0xf4, 0x07, 0xf4, 0x07, 0xf9, 0xf2, 0xff, 0xff, 0xfb,
  0x00, 0x11, 0xfb, 0xfd, 0xbb, 0x15, 0xef, 0xfd, 0x13, 0x2c, 0xfd, 0x12,
  0x06, 0x0f, 0x0c, 0xfe, 0x0b, 0x00, 0xfb, 0xfd, 0xe4, 0x0f, 0x09, 0xf6,
  0x0e, 0xfa, 0x03, 0xff, 0x02, 0xfb, 0x13, 0x08, 0x06, 0x0b, 0x08, 0x03,
  0x1d, 0xf2, 0x06, 0xf4, 0x03, 0x0d, 0xfb, 0xfa, 0xf8, 0x04, 0xf7, 0xfc,
  0x0d, 0x0c, 0x12, 0x09, 0xff, 0xf9, 0xf7, 0xf7, 0x0a, 0x01, 0x0b, 0xfd,
  0x23, 0xfb, 0xf3, 0x02, 0xfd, 0x22, 0x01, 0x00, 0xcd, 0x0c, 0xfa, 0x0c,
  0x06, 0x06, 0xf2, 0xfe, 0xed, 0x19, 0x06, 0xf7, 0x0f, 0x20, 0xfc, 0x0c,
  0xfe, 0xf0, 0x07, 0xfd, 0x17, 0x18, 0x05, 0x25, 0xeb, 0xf7, 0x07, 0xfd,
  0x03, 0x0e, 0x03, 0xea, 0x01, 0xf9, 0xfd, 0xf8, 0x0c, 0x07, 0x0a, 0x33,
  0xee, 0xe8, 0x07, 0x15, 0x14, 0x50, 0xfa, 0x14, 0x09, 0x25, 0x02, 0x0a,
  0xf8, 0x22, 0x03, 0x03, 0xde, 0x06, 0xff, 0xfd, 0x0c, 0x14, 0xfe, 0x0a,
  0xdb, 0x1f, 0x0c, 0x03, 0x14, 0x0b, 0x0c, 0x06, 0xf6, 0xf4, 0x0a, 0xfb,
  0x0e, 0xf2, 0x10, 0xf2, 0xff, 0xf6, 0x04, 0xfa, 0xf9, 0xfe, 0x06, 0x10,
  0xf6, 0x15, 0x0b, 0x00, 0xfe, 0x0f, 0x0a, 0x0f, 0xc9, 0x06, 0xfd, 0x05,
  0xfc, 0x09, 0x0a, 0x0c, 0x03, 0x1b, 0x0e, 0xee, 0xfb, 0xfe, 0xfb, 0x12,
  0xe9, 0x06, 0x09, 0x04, 0x01, 0xfb, 0xf3, 0x0a, 0xfd, 0xf5, 0xfb, 0xf6,
  0x03, 0x1d, 0x05, 0xfd, 0x11, 0xfd, 0xf7, 0xf9, 0x0b, 0x01, 0xf2, 0x00,
  0x0d, 0xfe, 0xf9, 0x0a, 0xff, 0x16, 0x0a, 0x0f, 0xec, 0xf7, 0xf7, 0xef,
  0x0e, 0x04, 0xfd, 0xf7, 0x21, 0xf3, 0xf6, 0xfa, 0x08, 0x28, 0x0c, 0x17,
  0xc6, 0x0e, 0xf3, 0x06, 0x0b, 0xf5, 0x09, 0xf6, 0x0b, 0x07, 0x04, 0xf9,
  0x05, 0x37, 0x04, 0x0b, 0xf3, 0xfe, 0x0e, 0xfb, 0x13, 0x1c, 0x10, 0x1b,
  0xde, 0x0d, 0xf2, 0xfc, 0xfd, 0x28, 0xfc, 0xd7, 0x07, 0x0a, 0x0a, 0xfc,
  0x11, 0x01, 0x00, 0x15, 0xed, 0xf1, 0x0f, 0x06, 0x06, 0x34, 0xff, 0x09,
  0x12, 0x1f, 0xfc, 0xfc, 0xf8, 0x1f, 0x03, 0x0d, 0xd6, 0x03, 0x0f, 0x10,
  0xff, 0x01, 0xf0, 0x12, 0xd3, 0x31, 0x0e, 0xfb, 0xff, 0xfd, 0x0e, 0x0b,
  0xe8, 0xe6, 0x06, 0x08, 0x08, 0xf6, 0xf6, 0x01, 0xe9, 0xf6, 0x0a, 0xf8,
  0x1a, 0x09, 0xed, 0xf4, 0xd4, 0x19, 0x02, 0x00, 0x08, 0x0e, 0xf4, 0x02,
  0xc9, 0x13, 0x08, 0x0a, 0xf6, 0x12, 0xff, 0xf9, 0x04, 0x0c, 0x03, 0xfe,
  0x10, 0xf3, 0xee, 0x0f, 0xeb, 0x1d, 0x02, 0x10, 0x0a, 0xf9, 0xf5, 0x14,
  0x0c, 0xf7, 0xfc, 0xfe, 0xfa, 0x1e, 0xfc, 0x12, 0xfb, 0x08, 0xfd, 0xff,
  0x15, 0xf6, 0xf9, 0x15, 0x11, 0x0a, 0x05, 0x05, 0x10, 0x12, 0xf8, 0x20,
  0xf3, 0xe8, 0xfd, 0xf2, 0xf8, 0xf6, 0xf4, 0x02, 0x08, 0xe9, 0xfe, 0xf8,
  0xfb, 0x16, 0x04, 0x0a, 0xcd, 0x08, 0xfa, 0x08, 0x00, 0xf7, 0x04, 0x01,
  0x10, 0x0e, 0xf4, 0xff, 0x08, 0x2b, 0x0a, 0x0a, 0xf2, 0x0d, 0x0a, 0xff,
  0x0a, 0x0d, 0xff, 0x06, 0xde, 0xf5, 0x01, 0xf8, 0x0b, 0x0e, 0xfc, 0xd4,
  0xee, 0xfb, 0x04, 0x00, 0x0c, 0x14, 0x02, 0x1b, 0xe3, 0xf4, 0x08, 0x12,
  0x00, 0x2e, 0xf8, 0x0b, 0x12, 0x05, 0x0a, 0x0c, 0x08, 0x3c, 0xf3, 0x19,
  0xef, 0x04, 0xf8, 0x07, 0x12, 0xe4, 0x04, 0x12, 0xd7, 0x27, 0x03, 0xfc,
  0x09, 0xf5, 0xfc, 0x15, 0xe8, 0xec, 0x0d, 0x00, 0x0e, 0xde, 0xf6, 0x02,
  0xec, 0xf4, 0x08, 0xf5, 0x02, 0x06, 0xee, 0xf5, 0xca, 0x1a, 0x01, 0x0c,
  0x09, 0x1a, 0xf9, 0xe7, 0xdb, 0x0a, 0xff, 0x15, 0xf8, 0x06, 0x03, 0xfe,
  0x14, 0x15, 0xf8, 0x07, 0xfb, 0xde, 0xfc, 0xef, 0xec, 0x17, 0xff, 0xfb,
  0xff, 0xf8, 0x12, 0x0a, 0x0a, 0xfd, 0xf1, 0x05, 0x07, 0x28, 0x0e, 0xfb,
  0xf2, 0x14, 0xfe, 0x04, 0xf4, 0x03, 0x01, 0x0e, 0x04, 0x16, 0x0b, 0x05,
  0xfc, 0x20, 0x0b, 0x10, 0xe4, 0xf5, 0xfa, 0x04, 0x06, 0xf2, 0x07, 0x0c,
  0x02, 0xfc, 0x05, 0x10, 0x07, 0x1a, 0x06, 0x11, 0xdc, 0x0c, 0xff, 0x05,
  0x04, 0xe1, 0x02, 0xf7, 0xf9, 0x11, 0x07, 0x0d, 0xf4, 0x36, 0x0d, 0xf8,
  0x00, 0x09, 0xfb, 0x02, 0x0b, 0x12, 0x01, 0x14, 0xd8, 0x0c, 0xf7, 0xf9,
  0x10, 0x32, 0x10, 0xcf, 0xdc, 0x00, 0xf6, 0x0c, 0x09, 0x18, 0x02, 0x04,
  0xe8, 0xfa, 0xf7, 0xfe, 0x0b, 0x22, 0xf3, 0xfc, 0xf9, 0x04, 0x05, 0x0c,
  0xfa, 0x43, 0xf5, 0x08, 0xde, 0x04, 0x06, 0x0e, 0x0c, 0xe8, 0xfc, 0xff,
  0xe4, 0x2e, 0x08, 0xfe, 0x0c, 0x09, 0xf6, 0x00, 0xd9, 0x05, 0x16, 0xfc,
  0x11, 0xdc, 0x05, 0x0b, 0xf3, 0xe7, 0x0a, 0xed, 0x02, 0xf8, 0xf7, 0x09,
  0xd5, 0x24, 0xfd, 0xfa, 0x0d, 0x24, 0x07, 0xee, 0xe0, 0x1b, 0xfd, 0x13,
  0xf6, 0x09, 0xf4, 0xf0, 0x0c, 0xfe, 0xf7, 0x01, 0xfd, 0xde, 0xfa, 0xe8,
  0xfa, 0x18, 0x05, 0xf8, 0x03, 0xeb, 0x06, 0xf8, 0xff, 0xf9, 0x07, 0xf9,
  0xfa, 0x38, 0xf6, 0x0a, 0xfc, 0x24, 0x0b, 0xf8, 0x12, 0xf2, 0xfc, 0x0b,
  0x1a, 0x10, 0x03, 0xf6, 0xfa, 0x0a, 0x0e, 0x29, 0xc8, 0xf9, 0xfa, 0xfc,
  0xff, 0xf8, 0x09, 0x16, 0xff, 0xf0, 0x08, 0x02, 0xf5, 0x22, 0x0c, 0x13,
  0xe2, 0x17, 0x03, 0x03, 0xff, 0xea, 0x02, 0x10, 0xf3, 0x08, 0xf9, 0xf8,
  0xfc, 0x20, 0xff, 0xfa, 0x14, 0x0b, 0x09, 0x07, 0x04, 0x08, 0xfd, 0xfe,
  0xda, 0x02, 0xf8, 0xf0, 0xfb, 0x25, 0xf9, 0xcc, 0xd9, 0xff, 0x0b, 0xfb,
  0x08, 0x13, 0x02, 0x17, 0xbc, 0xf3, 0xf1, 0xf6, 0xfd, 0x24, 0x00, 0xf3,
  0xf1, 0x07, 0x0a, 0x05, 0x0c, 0x32, 0xff, 0xe7, 0xe9, 0x11, 0x04, 0x01,
  0x00, 0xee, 0x00, 0x06, 0xde, 0x15, 0x11, 0x08, 0xfa, 0xfa, 0xfc, 0xf5,
  0xed, 0x00, 0x0d, 0x10, 0x06, 0xed, 0x01, 0x0d, 0xf7, 0xec, 0x01, 0x0d,
  0xf5, 0xfd, 0x06, 0x0d, 0xd1, 0x1b, 0x00, 0x0b, 0x09, 0x0f, 0xf0, 0xec,
  0xde, 0x17, 0xff, 0x0b, 0x05, 0xf2, 0xf9, 0x00, 0x0c, 0x0a, 0x0b, 0xf1,
  0x07, 0xf1, 0xf7, 0x04, 0xe9, 0x17, 0xf4, 0xf9, 0x04, 0xd7, 0xf0, 0x05,
  0x05, 0x09, 0xf3, 0x01, 0x01, 0x29, 0x0e, 0x08, 0xec, 0x11, 0x06, 0xea,
  0x03, 0xdf, 0x0e, 0x07, 0x08, 0xfa, 0x0f, 0xf2, 0x0c, 0x00, 0x0d, 0x22,
  0xcf, 0x01, 0xfb, 0x02, 0x07, 0xd1, 0x00, 0xee, 0x02, 0xed, 0xf8, 0x03,
  0x0b, 0x1c, 0x03, 0x02, 0xe3, 0x11, 0x03, 0xf8, 0x09, 0xef, 0x0f, 0xff,
  0xff, 0x04, 0x00, 0x05, 0x0a, 0x19, 0x07, 0xf4, 0x08, 0x13, 0xfb, 0xfd,
  0x0b, 0x0c, 0x0d, 0x0c, 0xdc, 0xf9, 0xff, 0x07, 0xf0, 0x22, 0x07, 0xcb,
  0xe3, 0x01, 0x05, 0xf8, 0xfb, 0x0d, 0x12, 0x07, 0xaa, 0x05, 0x04, 0x01,
  0x06, 0x24, 0x02, 0xf4, 0xff, 0x14, 0x10, 0x07, 0x01, 0x17, 0x13, 0xf2,
  0xd8, 0x06, 0x01, 0xf9, 0xfd, 0x0d, 0xfb, 0x04, 0xe4, 0x07, 0x10, 0x04,
  0x06, 0xea, 0xff, 0xfb, 0xec, 0xfe, 0x02, 0xf2, 0xfe, 0xf7, 0x0a, 0x10,
  0xe5, 0x0a, 0x02, 0x03, 0xfd, 0x06, 0xff, 0x29, 0xe6, 0x21, 0x00, 0x16,
  0x01, 0x05, 0x00, 0xee, 0xea, 0x27, 0xfb, 0x03, 0xf8, 0x02, 0xfd, 0x05,
  0x12, 0xf3, 0x0e, 0xf5, 0x08, 0xf2, 0xfc, 0xf4, 0xee, 0x17, 0xf7, 0x06,
  0x04, 0xd3, 0xf9, 0xf1, 0x0c, 0x00, 0xfa, 0x09, 0x13, 0x14, 0x00, 0x05,
  0xf8, 0x0b, 0x08, 0x09, 0xff, 0xd8, 0xf4, 0xf2, 0xfd, 0x0f, 0xfb, 0x0f,
  0x0a, 0x09, 0xff, 0x0f, 0xe2, 0x06, 0x06, 0xf9, 0x0c, 0xd0, 0x08, 0xfd,
  0xf3, 0xfb, 0x05, 0xf0, 0x02, 0x17, 0x08, 0x05, 0xe6, 0x12, 0xf7, 0xfc,
  0x02, 0x05, 0x16, 0xff, 0xea, 0x17, 0x02, 0xf7, 0x0f, 0x0c, 0xff, 0xee,
  0xf2, 0x26, 0x0f, 0x03, 0xfb, 0xfd, 0x05, 0xf8, 0xcb, 0xec, 0x00, 0x03,
  0xfa, 0x26, 0x0d, 0xd7, 0xd7, 0x03, 0x0d, 0x06, 0x0e, 0x16, 0x0a, 0x0c,
  0xb9, 0xed, 0x0a, 0x02, 0xfd, 0x1b, 0x10, 0xfc, 0xe5, 0x13, 0x07, 0x0d,
  0x00, 0x26, 0x06, 0xf3, 0xd7, 0x15, 0x14, 0xfb, 0x0c, 0xf7, 0x02, 0x04,
  0xe4, 0x10, 0xfd, 0x00, 0x06, 0x00, 0xf8, 0x06, 0xee, 0xfc, 0x09, 0xf7,
  0xfb, 0xfe, 0xee, 0x0b, 0xf8, 0x0d, 0x07, 0x0a, 0x09, 0x07, 0xfb, 0x2d,
  0xe0, 0x24, 0x13, 0xfc, 0xfd, 0x0d, 0xf6, 0xf2, 0xd4, 0x12, 0x06, 0x01,
  0x04, 0xef, 0xff, 0xf3, 0x17, 0x0a, 0xf7, 0x03, 0x00, 0xf5, 0x00, 0xf7,
  0xe2, 0x0d, 0xfa, 0xf7, 0xfb, 0xd6, 0x00, 0xdc, 0x00, 0xfd, 0x0a, 0xfd,
  0xf9, 0x00, 0x08, 0x16, 0xf0, 0x1e, 0x0f, 0x0b, 0x07, 0xdc, 0x0b, 0xf0,
  0xfc, 0x03, 0x04, 0xef, 0xfa, 0xf5, 0x06, 0x12, 0xe0, 0x1b, 0x0c, 0x04,
  0x04, 0xdd, 0xf0, 0xf4, 0xee, 0x19, 0xf6, 0xf8, 0x06, 0x14, 0xf9, 0x15,
  0xf6, 0xfa, 0x07, 0x08, 0x13, 0x0e, 0xf9, 0x0d, 0xe7, 0x11, 0xf6, 0xff,
  0xfb, 0x07, 0x01, 0xed, 0xe2, 0x22, 0x04, 0x05, 0x08, 0x08, 0x0e, 0x0d,
  0xd9, 0xfb, 0x0b, 0x0e, 0x08, 0x1a, 0x13, 0xd0, 0xdf, 0xf1, 0x14, 0xfe,
  0x15, 0x2d, 0x03, 0x0b, 0xd1, 0xf9, 0xf4, 0x06, 0x07, 0x30, 0x06, 0xf0,
  0xef, 0x0b, 0x09, 0x06, 0x10, 0x25, 0x15, 0xec, 0xcb, 0x16, 0x0c, 0x03,
  0x14, 0xfe, 0xf9, 0xfa, 0xe4, 0x1a, 0xf4, 0xf6, 0x04, 0x02, 0xf7, 0x0c,
  0xe8, 0x01, 0x00, 0xfd, 0x15, 0x07, 0xf3, 0x13, 0x05, 0x1f, 0xf7, 0x00,
  0xf5, 0xee, 0x05, 0x1f, 0xec, 0x18, 0x01, 0xf0, 0xf9, 0xfb, 0x04, 0xed,
  0xd9, 0x05, 0xfa, 0x04, 0xf9, 0xe6, 0xfa, 0xe9, 0x0b, 0x03, 0xf6, 0xfb,
  0x04, 0xf4, 0x09, 0xfc, 0xef, 0x11, 0x0b, 0x0d, 0x05, 0xe2, 0xf4, 0xe5,
  0xf1, 0x08, 0x13, 0x00, 0xf3, 0xe8, 0x02, 0x0b, 0xe2, 0x24, 0x05, 0x00,
  0x02, 0xd5, 0xff, 0xf9, 0xfb, 0x05, 0x07, 0xf7, 0x05, 0xf6, 0xff, 0x12,
  0xe3, 0x0f, 0xf7, 0x0e, 0xfb, 0xef, 0xfa, 0xfb, 0xf1, 0x10, 0xfc, 0xf9,
  0xf0, 0x10, 0x04, 0xf2, 0xfb, 0xfd, 0xfc, 0xf6, 0x0b, 0xf9, 0x0a, 0x0d,
  0xe4, 0x04, 0x02, 0x03, 0x05, 0x00, 0xff, 0xfe, 0xd0, 0x12, 0x04, 0x05,
  0x0c, 0x0f, 0x0b, 0x0a, 0xcf, 0xfa, 0xf4, 0x03, 0x01, 0x0e, 0xf0, 0xd3,
  0xd7, 0x07, 0x0a, 0xfe, 0x16, 0x42, 0x08, 0x06, 0xc6, 0xf5, 0xf9, 0x00,
  0x0b, 0x3a, 0x02, 0xf7, 0xe0, 0x18, 0x04, 0x0c, 0x01, 0x2f, 0x0c, 0xf4,
  0xcb, 0x03, 0x06, 0x0f, 0x06, 0x05, 0xf8, 0xfe, 0xe1, 0x09, 0xfd, 0x00,
  0xf7, 0xf3, 0xfa, 0xf7, 0xee, 0x11, 0xfe, 0xf8, 0xf3, 0x1f, 0xfd, 0xf9,
  0x04, 0x27, 0xf7, 0x0a, 0xf1, 0xf2, 0x08, 0xee, 0xf8, 0x17, 0xfc, 0xfe,
  0xf8, 0xff, 0xf9, 0xf4, 0xd9, 0x16, 0x02, 0x04, 0x10, 0xdd, 0x06, 0xe0,
  0xf7, 0xfc, 0x06, 0x01, 0xf0, 0xff, 0xf8, 0x08, 0x00, 0x19, 0x0b, 0xfa,
  0xf9, 0xec, 0xf3, 0xfa, 0xf6, 0xf3, 0x06, 0xf8, 0xfa, 0xeb, 0x03, 0x1a,
  0x02, 0x0f, 0x07, 0x04, 0x07, 0xc2, 0x0e, 0xfb, 0xe4, 0x0f, 0xf7, 0xf1,
  0x11, 0x0b, 0x06, 0x12, 0xf2, 0x26, 0xfc, 0xf5, 0x07, 0xfc, 0x09, 0xf8,
  0xfc, 0x1f, 0x04, 0xf5, 0xfe, 0xf0, 0x0b, 0xfd, 0xf6, 0x0b, 0x04, 0xfd,
  0xf6, 0xfc, 0x18, 0xe2, 0xf0, 0x08, 0x0a, 0xf6, 0x08, 0x08, 0xfe, 0x01,
  0xca, 0x0a, 0x03, 0xff, 0x0f, 0x28, 0x04, 0x00, 0xd2, 0xe5, 0x05, 0xec,
  0x07, 0x05, 0xfe, 0xd0, 0xd1, 0x07, 0xfb, 0xfb, 0xf7, 0x45, 0x08, 0xee,
  0xc6, 0xf0, 0xfc, 0x09, 0x13, 0x2b, 0x03, 0xfe, 0xee, 0x0e, 0x0e, 0x05,
  0x07, 0x1f, 0xfe, 0x01, 0xc3, 0x0b, 0x07, 0x06, 0xfb, 0x0b, 0xfc, 0xf4,
  0xdf, 0x03, 0x11, 0xe6, 0x01, 0x08, 0xf6, 0x07, 0xea, 0x27, 0xf3, 0xf1,
  0x0b, 0x11, 0x0c, 0xf9, 0xf8, 0x18, 0x08, 0xf0, 0xfe, 0xf1, 0xf6, 0xfa,
  0xdd, 0x10, 0xff, 0x03, 0xf9, 0xfe, 0xff, 0x05, 0xdc, 0x05, 0xfa, 0x07,
  0xf9, 0xf9, 0xf3, 0xe2, 0xd9, 0x0f, 0x0b, 0xf8, 0xfa, 0x10, 0xf1, 0x07,
  0xf0, 0x21, 0xf6, 0xfb, 0x01, 0xed, 0x00, 0x04, 0xf3, 0x15, 0x08, 0x00,
  0xfa, 0xe9, 0x00, 0x0e, 0xf8, 0x09, 0xfd, 0xfa, 0x05, 0xda, 0xfe, 0x00,
  0xf3, 0x02, 0x06, 0xfd, 0x05, 0x03, 0x03, 0x0f, 0xe7, 0x20, 0x0e, 0x06,
  0x06, 0x01, 0xf9, 0xf5, 0xf8, 0x1a, 0x01, 0x01, 0x01, 0x04, 0x08, 0xf9,
  0x01, 0x10, 0x04, 0x00, 0xfc, 0x00, 0x03, 0xfd, 0xf1, 0x00, 0xff, 0x08,
  0x06, 0x19, 0x0d, 0x01, 0xdd, 0x17, 0x02, 0x09, 0xfa, 0x1b, 0x02, 0x0b,
  0xd4, 0xea, 0x04, 0xfd, 0xf8, 0x12, 0x03, 0xe5, 0xd7, 0x06, 0x08, 0x01,
  0x14, 0x55, 0x15, 0xf8, 0xd9, 0xf6, 0x0a, 0x05, 0xf0, 0x2c, 0xf8, 0x1c,
  0xe5, 0x1d, 0x01, 0xfe, 0x0b, 0x2c, 0xfc, 0x0d, 0xc5, 0x1f, 0x10, 0x02,
  0x03, 0x0e, 0xf6, 0x07, 0xdb, 0x12, 0x18, 0xea, 0x08, 0x00, 0xf3, 0x07,
  0xea, 0x1a, 0x00, 0x03, 0xf4, 0x14, 0xfe, 0x0c, 0xf5, 0x2b, 0xfd, 0xfb,
  0x0a, 0xef, 0xf8, 0x0b, 0xd8, 0x1a, 0x0d, 0x0a, 0xf9, 0xff, 0xfb, 0xe6,
  0xdc, 0x0a, 0x01, 0xf9, 0xfb, 0xff, 0x01, 0xd8, 0xea, 0x01, 0x00, 0x09,
  0xed, 0x08, 0x00, 0x0d, 0xf2, 0x12, 0x04, 0xfc, 0x0d, 0xe7, 0xfb, 0xf7,
  0xfb, 0x0c, 0x04, 0xf9, 0xfc, 0xf3, 0x06, 0x09, 0xfe, 0x0e, 0x03, 0x09,
  0xfb, 0xc4, 0x05, 0x09, 0xf6, 0x09, 0x09, 0xfc, 0x0f, 0x03, 0x0d, 0x00,
  0xee, 0x09, 0x0d, 0x05, 0xf5, 0xfd, 0x05, 0xd7, 0xf8, 0x23, 0xf4, 0x01,
  0xfe, 0xfe, 0x0e, 0xfb, 0xff, 0x11, 0x13, 0xfe, 0xfc, 0x0f, 0x0d, 0xfb,
  0x05, 0xe7, 0x09, 0x04, 0x0a, 0x15, 0x02, 0x07, 0xed, 0x22, 0x02, 0xfc,
  0x0d, 0x2c, 0x0c, 0x03, 0xd0, 0xe9, 0xfa, 0x0c, 0xfd, 0xfb, 0x0b, 0xe2,
  0xd5, 0x01, 0x00, 0x0d, 0x0a, 0x3a, 0x03, 0xe8, 0xd6, 0x10, 0xf9, 0x0c,
  0x01, 0x33, 0x0e, 0x1a, 0xd3, 0x1a, 0x02, 0xff, 0xef, 0x30, 0xfe, 0x0c,
  0xbe, 0x1f, 0x0c, 0x08, 0x08, 0x0e, 0xef, 0x11, 0xe6, 0x05, 0x08, 0xe7,
  0x0b, 0x17, 0xfd, 0x11, 0xee, 0x29, 0x00, 0xe9, 0xfe, 0xf0, 0x04, 0xeb,
  0xf2, 0x22, 0x06, 0x0a, 0x08, 0xf7, 0xf5, 0xf1, 0xe0, 0x29, 0x05, 0xf5,
  0xef, 0x00, 0xf7, 0xdc, 0xc9, 0x11, 0xfb, 0xfc, 0xf9, 0x0f, 0xfb, 0xce,
  0xfb, 0xfe, 0x08, 0xf4, 0x0c, 0xfd, 0x0a, 0x04, 0xed, 0x1c, 0x11, 0xf1,
  0xfa, 0xe1, 0xfe, 0xf0, 0x03, 0x12, 0x0c, 0xf5, 0x04, 0xec, 0x00, 0xf2,
  0xf3, 0x24, 0x07, 0xf8, 0x01, 0xb9, 0x16, 0x08, 0xee, 0x12, 0xfe, 0xfe,
  0xfb, 0x04, 0x08, 0x05, 0xf2, 0x0d, 0xff, 0x03, 0xfa, 0x10, 0x00, 0xf1,
  0xf6, 0x18, 0x0a, 0xfd, 0x02, 0x11, 0x00, 0x01, 0x06, 0x1d, 0xf9, 0x06,
  0x04, 0xf7, 0x0c, 0xfb, 0x0d, 0xf5, 0x00, 0x0e, 0x0a, 0xf1, 0x08, 0xf6,
  0xf1, 0x1f, 0xfb, 0xfe, 0xfd, 0x22, 0x04, 0x01, 0xe2, 0xf0, 0x09, 0x07,
  0xfd, 0x0d, 0xf1, 0xf7, 0xcc, 0xfd, 0x0b, 0x04, 0x14, 0x64, 0x09, 0xf5,
  0xd3, 0x03, 0x01, 0x02, 0x11, 0x3c, 0xff, 0x0a, 0xd3, 0x2a, 0x0c, 0x01,
  0xfa, 0x42, 0xf2, 0x22, 0xc1, 0x15, 0x01, 0xf7, 0xfa, 0x15, 0xef, 0x24,
  0xe4, 0x0b, 0x12, 0x00, 0xff, 0x07, 0x05, 0x27, 0xe5, 0x26, 0x03, 0xfb,
  0xff, 0x03, 0xfd, 0x10, 0x04, 0x0e, 0x0d, 0xf2, 0xe9, 0xf8, 0xf3, 0x0c,
  0xdf, 0x25, 0x09, 0x04, 0xf8, 0x05, 0x00, 0x02, 0xd0, 0x09, 0x06, 0xf4,
  0xfc, 0x0e, 0x09, 0xe3, 0x03, 0xec, 0x06, 0xfe, 0x0c, 0x06, 0xfd, 0x06,
  0xf3, 0x0e, 0xf6, 0x08, 0x00, 0xe3, 0xf6, 0x05, 0x02, 0x08, 0x07, 0xfa,
  0xf7, 0xec, 0xfa, 0xe5, 0x11, 0x17, 0x08, 0xe9, 0xfd, 0xcb, 0xf3, 0x04,
  0xf2, 0x15, 0x02, 0x00, 0x10, 0x06, 0xf9, 0xf6, 0xf8, 0x05, 0xf8, 0xfe,
  0x01, 0x01, 0x03, 0xf5, 0xe8, 0x07, 0x00, 0xfe, 0xf6, 0x1c, 0xf0, 0xfa,
  0x02, 0x07, 0x0e, 0x0b, 0x04, 0x0f, 0x04, 0x11, 0x26, 0x0f, 0xf8, 0x0d,
  0xfe, 0xf0, 0x03, 0xe8, 0xf6, 0x0c, 0x0c, 0x09, 0xf6, 0x23, 0xf2, 0x0e,
  0xd2, 0x0c, 0x10, 0x15, 0xfc, 0x02, 0xfc, 0xf3, 0xcf, 0x0c, 0xfb, 0xf7,
  0x02, 0x66, 0xf3, 0xf6, 0xce, 0xea, 0xfc, 0xf6, 0xfd, 0x45, 0x01, 0xfb,
  0xb4, 0x19, 0xfa, 0xfc, 0xf7, 0x21, 0xf0, 0x01, 0xc3, 0x16, 0x00, 0xfd,
  0xf4, 0x06, 0xe9, 0x0d, 0xd6, 0xfb, 0x0f, 0x01, 0xf0, 0x02, 0xf2, 0x11,
  0xe4, 0x0e, 0x0d, 0x01, 0xf2, 0xd2, 0xfa, 0x12, 0x01, 0xe9, 0x00, 0x02,
  0x03, 0xfa, 0xf0, 0x0e, 0xed, 0x25, 0x10, 0x04, 0xff, 0xff, 0xf8, 0xf5,
  0xf5, 0x03, 0xf3, 0xf8, 0xf8, 0x13, 0x0c, 0xfa, 0xfa, 0xfd, 0xf8, 0xeb,
  0x08, 0x01, 0xfb, 0xeb, 0x02, 0xf9, 0xfb, 0xfc, 0x0e, 0xe2, 0x01, 0x05,
  0xfc, 0x14, 0xff, 0x07, 0xfa, 0xf1, 0xff, 0xf1, 0x00, 0x17, 0x0d, 0x07,
  0x09, 0xd0, 0xfb, 0xee, 0x07, 0x15, 0xfe, 0x03, 0xfc, 0xf3, 0xfb, 0xfa,
  0x0d, 0x00, 0x02, 0x01, 0xfd, 0xff, 0xfd, 0xef, 0x0a, 0xf0, 0x09, 0xec,
  0xf1, 0x0e, 0xf1, 0xf5, 0x19, 0xfb, 0x02, 0x0d, 0x01, 0x0e, 0x0d, 0xfa,
  0x16, 0x05, 0x10, 0x06, 0x09, 0x05, 0xf9, 0xf1, 0xe7, 0xf4, 0x0d, 0xfe,
  0xfc, 0x13, 0x10, 0xfb, 0xd5, 0xf2, 0x0b, 0x00, 0x0c, 0xfd, 0xf4, 0xed,
  0xf1, 0xf7, 0x01, 0x03, 0xfb, 0x64, 0xf4, 0xf3, 0xd9, 0x11, 0xf9, 0x0b,
  0x02, 0x16, 0x12, 0x02, 0xc0, 0x24, 0x04, 0x02, 0xfa, 0x14, 0x03, 0x04,
  0xd1, 0x00, 0xfc, 0xf7, 0xef, 0xf6, 0xf5, 0xf0, 0xde, 0x0a, 0x14, 0xf5,
  0x07, 0x01, 0x00, 0xf2, 0xf3, 0x19, 0x0c, 0xf0, 0x02, 0xed, 0xf8, 0xfd,
  0x01, 0xf8, 0x04, 0xef, 0x09, 0xfd, 0x0c, 0xfb, 0xf7, 0x1b, 0xfd, 0x12,
  0xf3, 0xf1, 0xf0, 0xf7, 0xe4, 0x05, 0xfa, 0x05, 0x0c, 0xf0, 0x0b, 0xfc,
  0x0f, 0xdb, 0xfa, 0xf7, 0x0a, 0xf0, 0x03, 0xff, 0x16, 0x0c, 0x00, 0xf8,
  0xfa, 0x01, 0xf4, 0xf9, 0x05, 0x0b, 0xfe, 0xfc, 0x0f, 0x01, 0xea, 0xf6,
  0x1e, 0x0e, 0x10, 0xfd, 0xff, 0xfc, 0x0a, 0xff, 0x0a, 0x2b, 0x00, 0xfa,
  0xfd, 0x08, 0xf0, 0x08, 0x10, 0xe8, 0x07, 0xff, 0x07, 0xee, 0xfd, 0x02,
  0xf8, 0xe9, 0x01, 0xf6, 0xf8, 0x07, 0xf9, 0x04, 0x26, 0x05, 0xf5, 0x02,
  0xfb, 0x26, 0xfa, 0x0b, 0x1b, 0x06, 0x01, 0xfe, 0x0a, 0x06, 0x11, 0xf9,
  0x0a, 0xe0, 0x07, 0xf8, 0x01, 0x04, 0x05, 0x09, 0xe1, 0x01, 0x01, 0x0e,
  0xff, 0x22, 0xff, 0x07, 0xf1, 0x0a, 0x00, 0xf9, 0x0a, 0x4c, 0xf8, 0xf5,
  0xda, 0xf0, 0xf9, 0x09, 0xfa, 0x0c, 0xf8, 0xf5, 0xbe, 0xf7, 0x0c, 0x05,
  0xf8, 0x12, 0xfa, 0x0b, 0xcb, 0xee, 0xfa, 0x12, 0x02, 0xe4, 0xf4, 0x0e,
  0xe6, 0xfa, 0x08, 0x07, 0xe8, 0xfd, 0xf7, 0xf0, 0xe1, 0xfb, 0x10, 0xed,
  0x0d, 0xf6, 0xf4, 0x01, 0xfa, 0xcf, 0x02, 0x0f, 0xf1, 0x0d, 0xf5, 0x0b,
  0xfc, 0x0e, 0xfe, 0xff, 0xff, 0xf5, 0xfa, 0x0e, 0xd7, 0xfb, 0xfb, 0x03,
  0x11, 0xfd, 0xf5, 0x16, 0x06, 0xdc, 0x02, 0x0c, 0xff, 0xed, 0xf8, 0x08,
  0x22, 0x01, 0xfd, 0x12, 0x0e, 0xfe, 0xfd, 0xfd, 0xfa, 0x08, 0xfa, 0xf7,
  0xf7, 0x10, 0xf8, 0x04, 0x0e, 0xf6, 0xf3, 0x13, 0x11, 0xfc, 0x0a, 0x03,
  0x0c, 0xfd, 0x0d, 0x0d, 0xff, 0x0a, 0xf7, 0xf8, 0x14, 0x06, 0x0a, 0x10,
  0x02, 0xfa, 0xfc, 0x03, 0x04, 0xf4, 0x0c, 0xee, 0xfe, 0x09, 0xff, 0x02,
  0x17, 0xe6, 0xfd, 0x01, 0x09, 0x30, 0x03, 0xff, 0x12, 0xe9, 0x06, 0x04,
  0xf2, 0x23, 0x16, 0xfd, 0xf8, 0xd9, 0xf4, 0xf4, 0x06, 0x09, 0x0f, 0x08,
  0xf5, 0xea, 0xfc, 0xf7, 0x0f, 0x39, 0xf7, 0x0e, 0xfe, 0xf6, 0x07, 0xfe,
  0xf9, 0x41, 0xed, 0xfe, 0xeb, 0x1a, 0x04, 0x12, 0x03, 0x20, 0x04, 0x0b,
  0xf7, 0xff, 0x06, 0x0e, 0xfe, 0x1b, 0xfb, 0x12, 0x0d, 0x0b, 0xfe, 0x0e,
  0xf5, 0xec, 0x00, 0x0c, 0xf6, 0xfc, 0x0b, 0x0c, 0xf6, 0x03, 0xfc, 0x1e,
  0xfc, 0xef, 0x0f, 0x02, 0xf9, 0xe3, 0xf7, 0x11, 0xee, 0xec, 0x03, 0xf6,
  0xfa, 0xfe, 0xf2, 0x17, 0xeb, 0xfe, 0xfd, 0xfa, 0x05, 0xf0, 0x06, 0x04,
  0xf9, 0xff, 0x0f, 0x00, 0xf6, 0x14, 0xf9, 0x03, 0xfc, 0xf1, 0xfa, 0xf8,
  0x09, 0xed, 0x05, 0x0e, 0xf2, 0xea, 0x07, 0x02, 0x03, 0xf9, 0x00, 0x13,
  0x00, 0x02, 0xfe, 0x09, 0xfb, 0xf9, 0x02, 0x02, 0x08, 0x01, 0x03, 0xf9,
  0xfa, 0x15, 0x12, 0x18, 0xf5, 0x0b, 0x0e, 0x07, 0xfd, 0x0f, 0xf5, 0x1b,
  0x09, 0xfe, 0x03, 0x0b, 0x0c, 0x04, 0xfb, 0x07, 0xfd, 0xef, 0x11, 0x0b,
  0x07, 0xd0, 0x12, 0x27, 0xfc, 0xf8, 0xfa, 0x04, 0x0b, 0xbd, 0xf9, 0xfa,
  0xfe, 0x0b, 0x04, 0x06, 0x06, 0xf0, 0xf7, 0x16, 0x01, 0xfc, 0x06, 0x01,
  0x07, 0x09, 0xf8, 0xe3, 0x00, 0xf7, 0x00, 0xfe, 0xfe, 0x15, 0xea, 0xab,
  0xfc, 0x02, 0x08, 0xfc, 0xf2, 0x0c, 0x04, 0xd7, 0x8e, 0x36, 0x06, 0x0f,
  0x05, 0x2d, 0xfe, 0x12, 0xda, 0xfb, 0x02, 0xfe, 0x06, 0xf0, 0xf9, 0x23,
  0x02, 0xfb, 0x0f, 0x14, 0x03, 0xf2, 0x0e, 0x01, 0x20, 0xec, 0x17, 0x02,
  0x0d, 0xe9, 0xfa, 0x03, 0xfa, 0xf9, 0x00, 0x0b, 0x0d, 0xe3, 0xfc, 0xfc,
  0x01, 0xf8, 0x0a, 0xfb, 0x05, 0xed, 0x0f, 0x03, 0x0e, 0x0b, 0x13, 0x03,
  0x09, 0xf3, 0x03, 0xe6, 0x04, 0xf7, 0x17, 0x01, 0xfc, 0xf6, 0x04, 0x0d,
  0xfe, 0x02, 0xff, 0xf9, 0xfd, 0xe7, 0x02, 0xed, 0x01, 0x05, 0x01, 0x01,
  0xf0, 0xe4, 0xfd, 0x05, 0xfc, 0xee, 0x05, 0x0e, 0x03, 0xef, 0x10, 0xfa,
  0xf9, 0x09, 0x14, 0x13, 0x02, 0x07, 0x01, 0xf7, 0x46, 0xf4, 0x0b, 0xf7,
  0xfe, 0x0c, 0x0a, 0x1c, 0x0d, 0xf9, 0xf4, 0x07, 0xf7, 0x0d, 0xed, 0x17,
  0x28, 0xee, 0x0f, 0x07, 0x08, 0xd8, 0x09, 0x21, 0xfa, 0x09, 0x09, 0x06,
  0xfe, 0xcd, 0x05, 0x03, 0xf2, 0x06, 0xf7, 0x12, 0xfd, 0x04, 0xf0, 0x08,
  0xdc, 0x08, 0x09, 0x05, 0x00, 0xfb, 0x08, 0x0a, 0xbb, 0x08, 0x06, 0xf7,
  0xff, 0x01, 0xf0, 0xbb, 0xa4, 0x04, 0x13, 0x12, 0xe9, 0x1b, 0xfc, 0x0f,
  0xc3, 0x2b, 0x0b, 0x0b, 0x04, 0x12, 0xf0, 0x0f, 0xc9, 0xf0, 0x0f, 0x0f,
  0x05, 0xba, 0xfc, 0xf4, 0x02, 0xfe, 0x07, 0x02, 0xfd, 0xeb, 0xee, 0xeb,
  0xeb, 0xed, 0x0e, 0xfe, 0xea, 0xef, 0xfd, 0xf3, 0xce, 0x09, 0x16, 0x0f,
  0xee, 0x18, 0x00, 0xf6, 0xe2, 0xed, 0x0d, 0xff, 0xf6, 0x11, 0xfd, 0xf4,
  0xf5, 0xf7, 0x04, 0xfb, 0xf3, 0x18, 0xfc, 0xff, 0xf7, 0xf2, 0x0f, 0x01,
  0xf9, 0x0d, 0xf4, 0xf6, 0xef, 0xfa, 0xff, 0x07, 0xf7, 0x00, 0x01, 0x09,
  0x0d, 0xfb, 0xf5, 0x09, 0xf6, 0x09, 0x07, 0xed, 0x06, 0xff, 0x06, 0x01,
  0xe9, 0x05, 0xf2, 0xfc, 0x1e, 0x09, 0x03, 0x05, 0xf2, 0x04, 0xf2, 0x12,
  0x1d, 0xf4, 0x14, 0x01, 0x00, 0x01, 0x00, 0x10, 0xff, 0xee, 0x05, 0x02,
  0xf9, 0x0a, 0xf2, 0x06, 0xee, 0xf3, 0x12, 0x0a, 0xec, 0x0d, 0x04, 0x17,
  0xf7, 0x01, 0x07, 0x03, 0xfb, 0x03, 0xfc, 0xfa, 0xfa, 0x0d, 0x16, 0x0e,
  0xf3, 0xf4, 0x0a, 0x06, 0xe7, 0xfc, 0x08, 0x14, 0xf2, 0xe4, 0x12, 0x0c,
  0xe8, 0x05, 0x07, 0x05, 0x04, 0xe5, 0xe8, 0xf1, 0xdc, 0x09, 0x0e, 0x0a,
  0xf5, 0xf8, 0xfd, 0x0b, 0xdc, 0x22, 0x03, 0x09, 0xfa, 0x1f, 0x02, 0xfb,
  0xa9, 0xeb, 0x07, 0x0b, 0xfc, 0xd1, 0xf3, 0x0b, 0xfa, 0xf0, 0xfc, 0xfd,
  0xfc, 0xf8, 0x07, 0xfe, 0x1a, 0xf7, 0x03, 0xfe, 0xf1, 0x0f, 0x01, 0xf2,
  0xe7, 0xec, 0xf6, 0xf8, 0x01, 0x22, 0xfb, 0xf6, 0xec, 0x01, 0x14, 0x0c,
  0xf5, 0x1c, 0xf3, 0x08, 0xe0, 0xfd, 0x07, 0xf4, 0xff, 0x1e, 0xfa, 0xe7,
  0x0d, 0x03, 0x09, 0xf1, 0xef, 0x07, 0xfc, 0x01, 0x12, 0xf5, 0xff, 0xf7,
  0x03, 0x06, 0xf3, 0xf9, 0x1c, 0xf4, 0x0a, 0x04, 0xf8, 0x0c, 0x02, 0x0a,
  0xfd, 0x06, 0xfc, 0xf7, 0xf1, 0x34, 0x05, 0xf9, 0x21, 0x0f, 0x02, 0xfd,
  0xf2, 0x00, 0x0c, 0xf7, 0x03, 0x03, 0x0c, 0x00, 0xf9, 0x11, 0xee, 0xfa,
  0x34, 0xf6, 0x0f, 0x06, 0xf7, 0xfd, 0xfb, 0xfa, 0xec, 0x00, 0x18, 0x0a,
  0x04, 0x0b, 0x0a, 0x05, 0xf9, 0xf8, 0x03, 0xfa, 0xf8, 0xf9, 0xf4, 0x12,
  0xf0, 0xff, 0x0c, 0x16, 0xfa, 0xf1, 0xf3, 0xff, 0xeb, 0x1b, 0x05, 0x17,
  0xf2, 0xea, 0xf5, 0x09, 0xe6, 0xf8, 0x12, 0xf7, 0xf7, 0xfa, 0xe9, 0x0e,
  0xc9, 0x05, 0x13, 0xed, 0x08, 0x26, 0xf7, 0xf1, 0x0d, 0x28, 0x12, 0x0d,
  0x03, 0xfa, 0x09, 0x09, 0xbc, 0xda, 0xfb, 0x0b, 0x06, 0xeb, 0xf1, 0x03,
  0x06, 0xf8, 0xfc, 0xfe, 0xf5, 0xfa, 0x09, 0x07, 0x21, 0xfa, 0x0a, 0xfb,
  0xed, 0x05, 0xff, 0x08, 0x0c, 0x01, 0xfd, 0x08, 0xf2, 0x1c, 0xf3, 0xf8,
  0xfe, 0x04, 0x00, 0x11, 0x01, 0x16, 0x0a, 0x03, 0xec, 0xf4, 0x0b, 0x0a,
  0xf7, 0x19, 0x0b, 0xff, 0x04, 0x0f, 0xfc, 0xfe, 0xf6, 0xff, 0xf2, 0xfd,
  0x2a, 0x06, 0xfd, 0x09, 0x08, 0xfb, 0x03, 0x04, 0x18, 0xf6, 0x0a, 0xf4,
  0x00, 0x0e, 0x01, 0xee, 0x2b, 0x0a, 0x07, 0x12, 0xf6, 0x20, 0x08, 0xee,
  0x20, 0x05, 0xfc, 0x0f, 0x02, 0x13, 0xf7, 0xfe, 0x12, 0x0a, 0x0d, 0x05,
  0xfa, 0x19, 0xfd, 0xed, 0x24, 0xf8, 0x0c, 0x05, 0xfa, 0xed, 0xf1, 0xf2,
  0xfc, 0xf2, 0x11, 0xff, 0x09, 0x11, 0xfe, 0x00, 0x0a, 0x04, 0x00, 0xf3,
  0xef, 0x01, 0x04, 0xfe, 0x03, 0x00, 0xf6, 0x03, 0xfe, 0xee, 0x09, 0xe9,
  0xfb, 0x27, 0x04, 0x00, 0xf5, 0xfd, 0xec, 0xf5, 0xed, 0xff, 0x0e, 0xf9,
  0x01, 0x01, 0xf3, 0x17, 0xd6, 0x06, 0xfd, 0x07, 0xf8, 0x11, 0xee, 0xea,
  0x1a, 0x1e, 0x0f, 0x08, 0x01, 0xe4, 0x0e, 0x0e, 0xd3, 0xdd, 0xfe, 0xf1,
  0xf5, 0x10, 0xf2, 0x0b, 0x13, 0x09, 0x10, 0xf4, 0xef, 0x0c, 0xf2, 0x06,
  0x1b, 0x00, 0xfc, 0x02, 0x03, 0x07, 0xf8, 0x07, 0x1d, 0x0a, 0xf4, 0xf5,
  0xfe, 0x0e, 0xff, 0xfc, 0x03, 0xfc, 0x04, 0x03, 0xe9, 0x06, 0xf1, 0xf5,
  0xe6, 0xf8, 0x05, 0xfa, 0xf6, 0x0a, 0x05, 0x00, 0xfa, 0x08, 0x0e, 0x0f,
  0xee, 0x12, 0xf7, 0x0d, 0x26, 0x0c, 0x0e, 0xfd, 0xff, 0xfe, 0xfc, 0x01,
  0x0f, 0xfc, 0x03, 0xf5, 0x01, 0x08, 0x03, 0x02, 0x20, 0x0f, 0xfe, 0x0c,
  0xeb, 0x1f, 0x03, 0x0d, 0xfe, 0x08, 0x03, 0xfe, 0xec, 0x16, 0x0d, 0xfa,
  0x0a, 0x17, 0xfc, 0xfd, 0xe8, 0x13, 0xfe, 0x09, 0x17, 0x05, 0x01, 0xfa,
  0x01, 0x09, 0x01, 0x06, 0xf0, 0x15, 0xfa, 0x14, 0xf1, 0xfa, 0x0e, 0xf1,
  0x0a, 0x11, 0xfb, 0xf9, 0xfb, 0x05, 0xfb, 0x06, 0xf6, 0xf8, 0x03, 0xf8,
  0xe5, 0xf1, 0xff, 0xf3, 0xec, 0x1f, 0x05, 0xfd, 0xf5, 0x10, 0xf8, 0xe5,
  0xeb, 0x0b, 0x0b, 0x08, 0xed, 0xff, 0xf2, 0x19, 0xcf, 0xf4, 0xff, 0x06,
  0xf5, 0x0c, 0xe7, 0xfd, 0x1f, 0x13, 0x08, 0x0f, 0xf8, 0xd3, 0xf9, 0xfd,
  0xed, 0xcb, 0x03, 0xfe, 0xf5, 0x1f, 0xfe, 0xfb, 0xfd, 0x14, 0xf7, 0xf9,
  0xf4, 0xf5, 0xf5, 0x00, 0x14, 0xf6, 0x04, 0x0a, 0x06, 0x11, 0xfe, 0xf9,
  0x12, 0xf8, 0xfd, 0xfb, 0xf9, 0x06, 0x02, 0xf3, 0x04, 0xfb, 0x01, 0xfe,
  0xf9, 0x13, 0xfe, 0xe6, 0xeb, 0xf7, 0xf6, 0xf3, 0xf1, 0x19, 0xf5, 0xea,
  0x10, 0xfc, 0xf3, 0x0d, 0x02, 0x17, 0x05, 0x03, 0x18, 0x01, 0x02, 0x00,
  0xf0, 0x17, 0x09, 0x05, 0x1e, 0x0b, 0x00, 0x0f, 0xed, 0x30, 0x00, 0x17,
  0x0e, 0x15, 0xfb, 0x05, 0xf2, 0x1e, 0xfd, 0x13, 0xf3, 0x04, 0x0d, 0x03,
  0x07, 0x06, 0xfd, 0xfa, 0x02, 0x07, 0x00, 0x15, 0xfa, 0x0c, 0x09, 0xf9,
  0xfe, 0x00, 0x08, 0x01, 0xf0, 0xfc, 0x0b, 0x0a, 0xe8, 0x00, 0x0b, 0x04,
  0xf2, 0x06, 0xfa, 0xfb, 0x1f, 0x0d, 0x03, 0x02, 0xf2, 0xf5, 0x0e, 0xfb,
  0xec, 0x0b, 0x0e, 0x05, 0xeb, 0xf3, 0xfe, 0xfd, 0xf4, 0x2d, 0xfd, 0x18,
  0xfe, 0x0d, 0xfe, 0xe4, 0xea, 0xf9, 0x09, 0x00, 0xfb, 0x1a, 0x00, 0x13,
  0xd8, 0x07, 0xf9, 0xf6, 0xfc, 0x04, 0xf0, 0xde, 0x28, 0x1d, 0x07, 0xfb,
  0xfe, 0xc9, 0x05, 0xf1, 0xeb, 0xd6, 0x06, 0x03, 0x09, 0x16, 0x02, 0xf2,
  0x13, 0x01, 0xfc, 0xf9, 0xec, 0x04, 0xf6, 0xfa, 0x14, 0x0a, 0x0c, 0x0a,
  0x03, 0x18, 0xf4, 0xe6, 0xf9, 0xf7, 0xee, 0xf5, 0xf9, 0x0b, 0xfd, 0xff,
  0x04, 0xf3, 0x02, 0x0a, 0xfb, 0x15, 0xfd, 0xea, 0xea, 0xfa, 0xf2, 0xff,
  0xf2, 0x0e, 0x15, 0xec, 0x2d, 0x0a, 0xf7, 0xf3, 0xf7, 0xf9, 0x02, 0x00,
  0x08, 0xee, 0xfb, 0x00, 0x05, 0x0a, 0xf6, 0x19, 0x09, 0x09, 0xfe, 0x06,
  0x02, 0x2a, 0x00, 0x16, 0xec, 0x0d, 0xff, 0x08, 0xf3, 0x1e, 0xfd, 0x0c,
  0xfc, 0x02, 0x05, 0x02, 0xfc, 0x10, 0x0e, 0xe7, 0x05, 0x13, 0x03, 0xf7,
  0x07, 0x00, 0xf0, 0xfa, 0xf6, 0x01, 0x00, 0x0b, 0xf7, 0x05, 0x04, 0xf6,
  0xea, 0x10, 0x0d, 0x10, 0xf3, 0xf3, 0xf0, 0xee, 0x1e, 0x06, 0x05, 0xf7,
  0x09, 0x05, 0xf6, 0xfb, 0x00, 0xff, 0x0c, 0x05, 0xf7, 0xec, 0x05, 0x0b,
  0x04, 0x0a, 0xf9, 0x17, 0xfa, 0xf7, 0x0a, 0xdb, 0xe6, 0x04, 0x16, 0xfc,
  0xfb, 0xf5, 0xf7, 0x13, 0xf6, 0x07, 0x0c, 0xff, 0xe6, 0x0c, 0xe8, 0xd6,
  0x1a, 0x14, 0xf2, 0xfd, 0x04, 0xd6, 0x01, 0xf5, 0xea, 0xd5, 0xf6, 0xef,
  0xfd, 0x1a, 0xf1, 0x04, 0x16, 0xfb, 0xf9, 0xfa, 0xec, 0x02, 0x09, 0x05,
  0x1b, 0x04, 0xfa, 0xfb, 0xfc, 0x08, 0xfa, 0x00, 0x02, 0x06, 0xfc, 0x03,
  0xf3, 0x01, 0xfb, 0x13, 0xff, 0xf4, 0x00, 0x0b, 0xfb, 0x10, 0xef, 0xf7,
  0x00, 0xeb, 0x0a, 0xfd, 0xfc, 0xff, 0x0d, 0x05, 0x1b, 0x02, 0x04, 0x03,
  0xfc, 0xff, 0x0e, 0xfb, 0xee, 0xf0, 0xfd, 0xf2, 0xfa, 0x0b, 0x0d, 0xfb,
  0x0e, 0xff, 0xf6, 0xfc, 0xf9, 0x20, 0x04, 0x11, 0xfc, 0x0f, 0xf3, 0x0b,
  0xf5, 0x04, 0x00, 0x16, 0x00, 0xf9, 0x00, 0xf8, 0xf1, 0x15, 0xfb, 0x0b,
  0xe6, 0x09, 0xf6, 0xff, 0x04, 0x0d, 0xfc, 0x09, 0x00, 0xfc, 0x04, 0xf4,
  0xf1, 0x10, 0x0b, 0x04, 0xf5, 0x0d, 0x0e, 0x00, 0x01, 0xe7, 0xf6, 0xed,
  0x20, 0x0b, 0x0e, 0xfd, 0xf7, 0xf4, 0x0a, 0x04, 0xfa, 0xfc, 0xfa, 0xf6,
  0xfb, 0xe4, 0xff, 0xef, 0xee, 0x09, 0x16, 0x11, 0xfe, 0x0b, 0x0f, 0xe2,
  0x00, 0x00, 0x0b, 0xf5, 0xf2, 0xf2, 0xee, 0x19, 0xee, 0xfa, 0x00, 0xfa,
  0xf5, 0xfd, 0xf7, 0xdf, 0x06, 0x18, 0xf6, 0xf7, 0x03, 0xcb, 0xfe, 0xed,
  0xe0, 0xe7, 0xf6, 0xf7, 0xf4, 0xfd, 0x04, 0xe2, 0x18, 0x12, 0xfd, 0x00,
  0xfa, 0xfe, 0x11, 0x01, 0x10, 0xf2, 0x0f, 0x11, 0xfe, 0x10, 0x02, 0xe6,
  0x0b, 0x14, 0xf3, 0x06, 0xee, 0x01, 0xff, 0xfa, 0x0a, 0x01, 0xed, 0x03,
  0xf2, 0x29, 0xfd, 0xf9, 0x12, 0x07, 0xff, 0xff, 0xfd, 0x05, 0x06, 0xfc,
  0x22, 0xf9, 0x09, 0xf9, 0xfb, 0x02, 0x08, 0xf8, 0xf3, 0x04, 0xfb, 0x0a,
  0xf8, 0x1a, 0x0d, 0xf3, 0x10, 0xfd, 0xf9, 0x00, 0x08, 0x13, 0x02, 0xf7,
  0x03, 0x14, 0x13, 0x02, 0xfa, 0xff, 0x02, 0xfd, 0x0a, 0xed, 0xfe, 0x0e,
  0xf2, 0xfa, 0xfe, 0xf3, 0xf3, 0xf1, 0x01, 0x14, 0xff, 0x0b, 0xfd, 0xf0,
  0x05, 0x0b, 0x0e, 0x03, 0xfc, 0x05, 0x01, 0xf1, 0xf4, 0x20, 0x06, 0x05,
  0xf6, 0xf4, 0x01, 0xef, 0x0e, 0xfb, 0x10, 0xfa, 0xfc, 0xf7, 0xff, 0x0f,
  0xe5, 0xf3, 0x09, 0x0c, 0xf4, 0xdd, 0x01, 0xf0, 0xfb, 0x0f, 0x01, 0xff,
  0xf8, 0xf8, 0x0e, 0xef, 0xf4, 0xfc, 0x09, 0x0c, 0xf1, 0xf0, 0xf8, 0x27,
  0xfa, 0xf1, 0x0f, 0x02, 0xf3, 0xec, 0x06, 0xd9, 0x04, 0xfd, 0x04, 0xfc,
  0x01, 0xd2, 0x0a, 0xf7, 0xfc, 0xf4, 0xf1, 0x04, 0xfc, 0xef, 0x0a, 0xf7,
  0x1b, 0x00, 0xf8, 0xfb, 0xfa, 0x14, 0xff, 0xfe, 0x14, 0xe2, 0xf5, 0x03,
  0xec, 0x05, 0x05, 0x0d, 0x12, 0x10, 0xee, 0xf9, 0xfb, 0x1c, 0xf4, 0xfd,
  0x03, 0x18, 0x07, 0xf0, 0xf8, 0x11, 0x12, 0x02, 0x21, 0xf2, 0x0b, 0xfe,
  0xff, 0xfe, 0x05, 0x12, 0x1e, 0x00, 0x0a, 0x06, 0x07, 0xe9, 0x0a, 0xf2,
  0xfc, 0xe7, 0x07, 0x06, 0xf0, 0x09, 0x0c, 0xfd, 0x15, 0xff, 0xfb, 0x0a,
  0xfc, 0x12, 0xf5, 0xf0, 0x09, 0x14, 0xf9, 0x0e, 0xf2, 0xee, 0x01, 0xf0,
  0x0a, 0xf1, 0xf9, 0xf6, 0x01, 0xf9, 0x0e, 0xf8, 0xff, 0xe1, 0xfa, 0xf7,
  0xf0, 0xec, 0xed, 0xf2, 0x1b, 0xfe, 0x08, 0x03, 0xfc, 0x1a, 0x02, 0xf7,
  0xfa, 0xff, 0x06, 0x0a, 0xfa, 0xec, 0x02, 0xf5, 0x20, 0x00, 0x03, 0x0e,
  0xf5, 0x27, 0x08, 0x14, 0xec, 0x02, 0x03, 0x03, 0xfa, 0xdd, 0x06, 0x05,
  0xfb, 0xf8, 0x12, 0xf8, 0xfe, 0xfe, 0x0c, 0xe9, 0x04, 0xf9, 0x05, 0xfa,
  0xf9, 0xda, 0xf8, 0x2c, 0x02, 0xee, 0x0b, 0x0c, 0xff, 0xef, 0xf3, 0xdc,
  0x09, 0x11, 0x07, 0xfd, 0x02, 0xe5, 0x01, 0xf6, 0xfd, 0xef, 0xf6, 0xfa,
  0x02, 0xec, 0xff, 0xf0, 0x1e, 0xfa, 0x00, 0xfc, 0xf5, 0x21, 0xf3, 0xf2,
  0x1d, 0xd3, 0xf2, 0xeb, 0xf8, 0x13, 0x13, 0xff, 0x12, 0x05, 0xfd, 0xec,
  0x01, 0x28, 0xf9, 0xf9, 0x01, 0x08, 0xf6, 0xfd, 0x06, 0x03, 0x04, 0xff,
  0x1d, 0xe8, 0x08, 0xf8, 0x0b, 0xee, 0x05, 0x08, 0x17, 0x07, 0x07, 0x09,
  0xfe, 0x03, 0x0a, 0x07, 0xfc, 0x00, 0xfb, 0xfe, 0xfa, 0x2b, 0x0c, 0xff,
  0x0c, 0xf4, 0x04, 0xff, 0xf4, 0x0d, 0x08, 0xec, 0xf6, 0x14, 0xfd, 0xf5,
  0x0a, 0xde, 0xfc, 0xf8, 0x0a, 0xf8, 0xf0, 0xf1, 0xf6, 0xfa, 0xf9, 0xfd,
  0xf1, 0xec, 0xf5, 0xfb, 0x03, 0xe0, 0xf3, 0xfd, 0x0f, 0x0d, 0x07, 0x00,
  0xec, 0x1e, 0x01, 0xfc, 0x09, 0x0b, 0xf9, 0x07, 0xf7, 0xe6, 0xfc, 0xef,
  0x14, 0x01, 0xfd, 0xf8, 0x0d, 0x1b, 0xfc, 0xff, 0xed, 0x13, 0xff, 0xfc,
  0xe9, 0xdd, 0xf4, 0xf9, 0xef, 0x05, 0x06, 0x14, 0xfe, 0xf0, 0xff, 0xf4,
  0x06, 0xf8, 0x03, 0xf9, 0x08, 0xf2, 0x0b, 0x2d, 0x06, 0xfe, 0xf5, 0xf6,
  0xf8, 0xf1, 0xfc, 0xef, 0x1d, 0x07, 0xef, 0x13, 0x00, 0xe7, 0xef, 0xf1,
  0xf9, 0xfc, 0x06, 0x0d, 0xf7, 0xfd, 0x07, 0xfc, 0x1e, 0x06, 0x02, 0xfd,
  0x02, 0x1b, 0x15, 0x03, 0x17, 0xe7, 0xf0, 0xf5, 0x09, 0x0d, 0x05, 0xf6,
  0x0f, 0x10, 0xf6, 0x07, 0x05, 0x30, 0xf5, 0xe9, 0x12, 0x18, 0xf6, 0x09,
  0x07, 0x05, 0x01, 0xf6, 0x1d, 0xdb, 0x02, 0xf9, 0xf3, 0xde, 0x06, 0x0f,
  0x17, 0xfb, 0xfc, 0x07, 0xfd, 0x11, 0x0a, 0x0c, 0xf2, 0xfd, 0xfd, 0x0d,
  0xf6, 0x2a, 0x02, 0x15, 0x15, 0xef, 0xfa, 0x04, 0xef, 0x14, 0xfc, 0x03,
  0xf3, 0x03, 0x04, 0x05, 0x06, 0xd6, 0x05, 0xef, 0x1f, 0xe2, 0xfb, 0xff,
  0xf3, 0x02, 0xef, 0x0a, 0xfa, 0xf3, 0xff, 0x0c, 0x07, 0xf0, 0x08, 0xde,
  0x19, 0x0c, 0x12, 0x0d, 0xfe, 0x2f, 0xfd, 0xf8, 0xf9, 0x0e, 0x10, 0x04,
  0x00, 0xe7, 0x08, 0xee, 0x14, 0xfa, 0x09, 0xf7, 0xf5, 0x14, 0xff, 0xf0,
  0xfd, 0x02, 0xf5, 0x05, 0xff, 0xe2, 0xf6, 0xfa, 0xfd, 0xf7, 0x01, 0x0b,
  0xf4, 0xf1, 0x0c, 0xf9, 0x0e, 0x0a, 0x08, 0xfa, 0xff, 0xe0, 0xff, 0x1a,
  0x10, 0x03, 0x11, 0x11, 0xf8, 0xee, 0xff, 0xee, 0x26, 0x0c, 0xf7, 0x00,
  0xf4, 0xe0, 0x12, 0x1e, 0xfc, 0xf9, 0xed, 0xf7, 0x00, 0xec, 0xf9, 0x12,
  0x17, 0xfc, 0xed, 0x0b, 0xf1, 0x12, 0xfe, 0xe8, 0x16, 0xea, 0x00, 0xfb,
  0x0b, 0x1c, 0xf5, 0x00, 0x06, 0x0b, 0xfd, 0xfc, 0x05, 0x1f, 0xf6, 0xf9,
  0x0e, 0x04, 0x0a, 0xf1, 0x03, 0x0b, 0xf4, 0xf2, 0x1c, 0xe9, 0x0d, 0xf4,
  0xf7, 0xff, 0x05, 0x13, 0x01, 0xec, 0x03, 0xf9, 0xf1, 0xfd, 0x0d, 0x01,
  0xec, 0xfd, 0xee, 0xfd, 0x03, 0x25, 0x08, 0x13, 0x17, 0xf9, 0xed, 0x0b,
  0xf8, 0x3c, 0x00, 0xfc, 0x07, 0x0f, 0x0e, 0xf4, 0xfe, 0xf8, 0xf8, 0xf0,
  0x12, 0xe0, 0x00, 0x19, 0xf7, 0x0f, 0x09, 0xff, 0x04, 0xf7, 0xee, 0x10,
  0x02, 0x07, 0x0a, 0xf3, 0x14, 0x06, 0x11, 0xfd, 0xfe, 0x2b, 0x08, 0xf6,
  0x07, 0xf8, 0x02, 0x1a, 0xf1, 0xf7, 0xf8, 0xe2, 0x0e, 0x02, 0x12, 0xf8,
  0xf9, 0x1d, 0x01, 0xfe, 0x0e, 0x0d, 0x0d, 0x05, 0xf3, 0xf4, 0xf3, 0x00,
  0x14, 0xe8, 0x07, 0x04, 0xf4, 0xf5, 0x04, 0xf4, 0x16, 0xf6, 0x0d, 0x11,
  0x04, 0xe2, 0xf7, 0x1b, 0x14, 0x02, 0x00, 0x05, 0xeb, 0x0c, 0xfe, 0xff,
  0x14, 0x0e, 0x01, 0xf8, 0x0c, 0x08, 0x01, 0x14, 0x07, 0xfd, 0xfd, 0xff,
  0x0e, 0xfa, 0x08, 0x1e, 0x19, 0xf6, 0xfe, 0x06, 0xfa, 0x03, 0x08, 0xe2,
  0x0e, 0xfe, 0xe9, 0xf4, 0xfd, 0x24, 0x0b, 0xf9, 0x13, 0x0c, 0xf8, 0x00,
  0x08, 0x11, 0x0a, 0xe5, 0x0c, 0xfe, 0x06, 0xfa, 0x09, 0x0e, 0x14, 0xde,
  0x25, 0xd8, 0xef, 0x02, 0x0d, 0x14, 0x03, 0x1b, 0x19, 0xf1, 0xfe, 0x00,
  0x05, 0x0b, 0x09, 0x06, 0xef, 0x00, 0x05, 0x00, 0x0c, 0x0e, 0x0c, 0x06,
  0x1b, 0xf5, 0x13, 0x07, 0xf7, 0x2b, 0x0e, 0x1f, 0x04, 0x0b, 0xf7, 0x01,
  0xf5, 0xf8, 0xf3, 0xe2, 0x0b, 0xdd, 0x06, 0x08, 0x05, 0x24, 0xfe, 0xfd,
  0x08, 0xfc, 0xea, 0xfe, 0xef, 0x03, 0xf2, 0xec, 0x18, 0xfd, 0x04, 0x11,
  0xfa, 0x2f, 0xff, 0xeb, 0x10, 0x02, 0x04, 0xf5, 0xf6, 0x0f, 0xed, 0xda,
  0x17, 0xfe, 0x12, 0xf6, 0x01, 0x01, 0x07, 0x06, 0x03, 0x13, 0x05, 0x01,
  0xf2, 0xf9, 0x0a, 0xff, 0x12, 0xeb, 0xf6, 0xfa, 0xfc, 0x05, 0xfa, 0xf7,
  0xfe, 0x05, 0xff, 0x00, 0xfa, 0xf0, 0x06, 0x24, 0x1b, 0xf5, 0x05, 0xfe,
  0xfd, 0xf0, 0x00, 0xfe, 0x24, 0x1c, 0xfa, 0x06, 0x0e, 0xe1, 0x09, 0x01,
  0x01, 0xf4, 0xec, 0x06, 0x0a, 0xf3, 0x04, 0x13, 0x07, 0xe4, 0x01, 0xfd,
  0x02, 0xfe, 0x12, 0xfa, 0x16, 0xfc, 0x03, 0xfc, 0x07, 0x16, 0x00, 0xf8,
  0xfc, 0x0e, 0x05, 0xff, 0xfa, 0x0d, 0x05, 0xd8, 0x08, 0xe9, 0xff, 0x0c,
  0x00, 0xff, 0xfc, 0xe0, 0x11, 0xe7, 0xfd, 0xff, 0xf9, 0xef, 0x06, 0x02,
  0x25, 0xf5, 0xff, 0xfa, 0xf3, 0x09, 0x03, 0x03, 0xe8, 0x06, 0x08, 0x01,
  0xff, 0x05, 0x0c, 0x03, 0x03, 0xf0, 0x0d, 0x03, 0xfe, 0x1f, 0x14, 0x20,
  0x00, 0x00, 0xf7, 0x06, 0x06, 0x02, 0x01, 0x05, 0x09, 0xe4, 0x00, 0xfa,
  0xeb, 0x21, 0x07, 0x0a, 0x11, 0x0a, 0xfa, 0xf2, 0x05, 0x0b, 0xf7, 0xde,
  0x12, 0xe9, 0x05, 0x02, 0x07, 0x3f, 0xfc, 0x05, 0x06, 0xfe, 0x05, 0x0d,
  0x05, 0xfd, 0xf0, 0xfa, 0x0b, 0x0a, 0xf9, 0xfc, 0xf1, 0xf2, 0xf8, 0xef,
  0x0d, 0xfe, 0x0c, 0x05, 0x00, 0x00, 0xf8, 0x0b, 0x24, 0xf0, 0xfe, 0x09,
  0x03, 0x01, 0x00, 0xfe, 0x0c, 0x05, 0x05, 0x01, 0xfa, 0xf9, 0xf8, 0x32,
  0x1f, 0x08, 0x08, 0x0e, 0xf3, 0xd0, 0xef, 0xed, 0x28, 0x09, 0xf1, 0x06,
  0x02, 0xe3, 0xfa, 0x12, 0xfe, 0xf4, 0xeb, 0x0d, 0x01, 0xfc, 0xf9, 0x06,
  0x18, 0xfb, 0xe5, 0x05, 0x04, 0x0d, 0x0f, 0x05, 0x1f, 0x11, 0xf5, 0x09,
  0x07, 0x18, 0x09, 0x01, 0xf8, 0xfa, 0x02, 0xf6, 0xfa, 0xeb, 0x0a, 0x05,
  0x00, 0xf4, 0x04, 0x0b, 0x0a, 0x07, 0x03, 0xe1, 0x1f, 0xd4, 0x0b, 0x12,
  0x08, 0x09, 0xfb, 0x0d, 0x1c, 0xeb, 0x02, 0xff, 0x02, 0x11, 0x04, 0x1a,
  0xf8, 0x17, 0x06, 0xfa, 0xef, 0x11, 0x06, 0x13, 0x0e, 0xec, 0xfd, 0xf5,
  0x00, 0x15, 0x1a, 0x0e, 0x08, 0x06, 0xf4, 0x0d, 0x0c, 0x17, 0xf5, 0xf2,
  0x0c, 0xee, 0xef, 0xfa, 0xf9, 0x28, 0x0b, 0xf8, 0x19, 0x04, 0x12, 0xff,
  0xf8, 0x0d, 0xf4, 0xec, 0x08, 0xe6, 0xf5, 0x01, 0xfd, 0x2e, 0xfe, 0xff,
  0x03, 0xf4, 0xf2, 0x0a, 0x0a, 0xff, 0x01, 0xfd, 0x00, 0xf0, 0xf2, 0x05,
  0xf6, 0xf9, 0x03, 0x11, 0x14, 0x07, 0xf4, 0xfc, 0xf4, 0xfa, 0x01, 0xfc,
  0x29, 0xf3, 0x0a, 0xf9, 0x04, 0xf9, 0x06, 0xfc, 0x0b, 0x05, 0x0c, 0x0f,
  0xed, 0x05, 0xfd, 0x08, 0x30, 0xf7, 0xff, 0x05, 0xf7, 0xe0, 0x04, 0xf3,
  0x20, 0x14, 0xf9, 0x02, 0xf2, 0xe3, 0x07, 0x02, 0x06, 0xee, 0xfd, 0x0a,
  0xfe, 0xf3, 0x08, 0x08, 0x27, 0xf4, 0xf5, 0x01, 0x05, 0x10, 0xfc, 0x01,
  0x21, 0x03, 0xfa, 0xf9, 0x0d, 0x18, 0x0e, 0xee, 0xfc, 0xf2, 0x06, 0x01,
  0x01, 0xf3, 0xff, 0xef, 0xff, 0xe9, 0xfa, 0x0d, 0xf8, 0x06, 0xfb, 0xff,
  0x20, 0xe6, 0x0e, 0x04, 0xf7, 0x14, 0x10, 0x00, 0x25, 0xf5, 0x00, 0x00,
  0xfd, 0x25, 0x08, 0x28, 0x05, 0xfe, 0xf0, 0x07, 0x0b, 0x01, 0x0d, 0xeb,
  0x06, 0xf2, 0xfd, 0xff, 0x06, 0x15, 0x01, 0x0c, 0xf4, 0xf1, 0x04, 0x08,
  0x04, 0x18, 0x08, 0xea, 0x12, 0xfa, 0x06, 0x02, 0x05, 0x32, 0x04, 0xf6,
  0x11, 0x02, 0xfd, 0x04, 0xf7, 0x03, 0x04, 0xdf, 0x12, 0xe1, 0xfc, 0x00,
  0xf7, 0x18, 0x05, 0x13, 0xf8, 0xdf, 0x03, 0x01, 0xfe, 0x06, 0x06, 0xfb,
  0x09, 0xfa, 0xfe, 0xee, 0x06, 0xf9, 0x03, 0x0d, 0x1a, 0x00, 0x0c, 0x00,
  0xfd, 0x01, 0x0b, 0xfa, 0x26, 0xf0, 0xff, 0x10, 0xf5, 0xe1, 0x0d, 0x0d,
  0x1a, 0x21, 0xf6, 0x11, 0xfd, 0x00, 0x13, 0x12, 0x22, 0xfa, 0x0e, 0x0d,
  0xf4, 0xd8, 0xff, 0x12, 0x11, 0x0c, 0xff, 0xf7, 0x04, 0xed, 0x03, 0xfc,
  0x04, 0xf4, 0xf8, 0xfe, 0xfc, 0x06, 0xfd, 0x0b, 0x33, 0xf7, 0x06, 0x01,
  0x0f, 0x00, 0x1c, 0x0f, 0x22, 0x06, 0xf5, 0x1d, 0x06, 0x10, 0xf8, 0xf4,
  0x03, 0xee, 0x0b, 0x10, 0xfb, 0xef, 0x07, 0xf8, 0xfc, 0xd0, 0x00, 0xfe,
  0x05, 0x07, 0x0a, 0x11, 0x0f, 0xf6, 0x02, 0x07, 0x07, 0x06, 0x04, 0x18,
  0x1e, 0xfc, 0x01, 0xf8, 0x05, 0x15, 0x09, 0x1c, 0x15, 0xff, 0xff, 0x0e,
  0xfe, 0xfa, 0x1b, 0xed, 0x09, 0xeb, 0xfe, 0xfc, 0xf2, 0x0e, 0x09, 0x16,
  0x06, 0xf8, 0xf1, 0x13, 0xef, 0x20, 0x06, 0xf6, 0x0b, 0xf6, 0xfb, 0xff,
  0xff, 0x29, 0xff, 0xea, 0x10, 0xff, 0xf3, 0xfb, 0x00, 0x07, 0xef, 0xfe,
  0x01, 0xe0, 0xff, 0xf6, 0x0b, 0x0e, 0x01, 0xfc, 0xf0, 0xf2, 0xf5, 0xfc,
  0xf9, 0x19, 0x07, 0x06, 0x07, 0xeb, 0x08, 0x12, 0xfd, 0xf8, 0x02, 0x02,
  0x1a, 0x0f, 0xf9, 0x05, 0xf8, 0xf7, 0x05, 0xff, 0x21, 0xfe, 0x0c, 0xff,
  0xf5, 0xec, 0xf9, 0x05, 0x1a, 0x16, 0x10, 0x06, 0xf7, 0x03, 0x18, 0x22,
  0x17, 0xfe, 0xf5, 0xf5, 0xf6, 0xd9, 0x07, 0x0e, 0x0d, 0x02, 0xfb, 0xf0,
  0x08, 0xdb, 0x02, 0xf3, 0x09, 0xfe, 0x0b, 0x04, 0xf0, 0xfb, 0xff, 0xe3,
  0x2d, 0xeb, 0xfe, 0x08, 0xf3, 0xfd, 0x1c, 0x01, 0x16, 0x06, 0xfc, 0x02,
  0x14, 0x13, 0x0a, 0xe6, 0x07, 0xeb, 0xf6, 0x18, 0xf9, 0xf0, 0x0a, 0xee,
  0x00, 0xdd, 0xf5, 0x0a, 0x09, 0x06, 0x10, 0xfa, 0x13, 0xf0, 0xfb, 0x06,
  0x09, 0x13, 0x00, 0x09, 0x17, 0xf6, 0x0f, 0x06, 0xf8, 0x17, 0x13, 0x2f,
  0x0f, 0x05, 0xff, 0x00, 0x02, 0x13, 0x11, 0xfc, 0x05, 0xf4, 0xf2, 0xfc,
  0x00, 0x1c, 0x11, 0xfe, 0x06, 0xf4, 0x03, 0x05, 0xf5, 0x10, 0x01, 0x00,
  0x0b, 0x04, 0x0c, 0xf9, 0x03, 0x2a, 0x0f, 0xf7, 0x10, 0xf5, 0x07, 0xf4,
  0x06, 0x04, 0xf5, 0xf0, 0x05, 0xe1, 0x02, 0x11, 0xfa, 0x0d, 0xf9, 0x0c,
  0x0c, 0xe2, 0x0a, 0x0a, 0xfb, 0x01, 0x01, 0x06, 0xf3, 0xec, 0x0e, 0xf8,
  0x0a, 0x06, 0xfe, 0xfd, 0xfe, 0x13, 0x01, 0xfa, 0xf6, 0xf5, 0x01, 0x01,
  0x09, 0xed, 0x04, 0x02, 0xfa, 0xdf, 0xff, 0x03, 0x26, 0x16, 0x06, 0xfe,
  0xfc, 0x22, 0x06, 0x0f, 0x26, 0xf9, 0x12, 0x12, 0xfd, 0xd4, 0xf9, 0xf1,
  0x17, 0x00, 0x05, 0x0c, 0x10, 0xe7, 0x05, 0xd7, 0x0d, 0xf6, 0xfb, 0x02,
  0x11, 0xde, 0x01, 0xed, 0x2d, 0xed, 0xfa, 0x0e, 0x03, 0xed, 0x15, 0xf5,
  0x16, 0x15, 0xff, 0x10, 0x06, 0xfb, 0x0d, 0xf3, 0xfe, 0xe7, 0xfd, 0x02,
  0x05, 0x09, 0x13, 0x0a, 0x03, 0xf9, 0x03, 0x07, 0xf4, 0x1a, 0x00, 0x04,
  0x15, 0xea, 0xfb, 0x04, 0x06, 0x10, 0x14, 0x12, 0x21, 0xef, 0xfa, 0x08,
  0x03, 0x00, 0x05, 0x33, 0x0a, 0x1a, 0xf2, 0xf5, 0x14, 0x00, 0x01, 0xf1,
  0x03, 0xed, 0x0c, 0x0d, 0xfe, 0x11, 0x0c, 0x07, 0x05, 0x01, 0xfe, 0x0a,
  0x0c, 0x19, 0x12, 0xfe, 0xfd, 0x03, 0xf7, 0x06, 0xfa, 0x49, 0x00, 0xf0,
  0x03, 0xef, 0xfa, 0x0b, 0xf9, 0xf7, 0x03, 0x01, 0x05, 0x07, 0xfd, 0x01,
  0xf4, 0x00, 0x02, 0x08, 0x0e, 0xfd, 0x0d, 0xf7, 0x01, 0xfa, 0x05, 0x01,
  0xe6, 0xfb, 0xfd, 0x08, 0xf0, 0xf5, 0x06, 0x06, 0xf9, 0x03, 0x0a, 0x06,
  0xfb, 0x15, 0xf8, 0x00, 0x09, 0xfd, 0xfd, 0xfc, 0x07, 0xe7, 0x05, 0xe9,
  0x24, 0x07, 0xfc, 0x0c, 0x06, 0x08, 0x08, 0x12, 0x1d, 0xfe, 0x03, 0x0d,
  0x02, 0xcf, 0x12, 0x08, 0x15, 0x0b, 0x03, 0x0d, 0x03, 0xde, 0x07, 0xef,
  0x15, 0xf1, 0xf5, 0xf4, 0xf6, 0xf9, 0x01, 0xf5, 0x2a, 0xe7, 0xe9, 0xed,
  0x05, 0xff, 0x0f, 0x0b, 0x0c, 0x18, 0xfb, 0x14, 0x05, 0x08, 0x08, 0xef,
  0x19, 0xf2, 0xf8, 0x0c, 0xf6, 0x03, 0x0b, 0x04, 0x08, 0xfe, 0x0b, 0x0e,
  0x0e, 0x1e, 0x1e, 0xfc, 0x0c, 0xe4, 0x08, 0x05, 0x02, 0x19, 0x0c, 0x26,
  0x33, 0xe4, 0x06, 0x08, 0x0f, 0x03, 0x03, 0x2c, 0x0a, 0x12, 0x08, 0xfe,
  0x04, 0x23, 0x06, 0xff, 0xfb, 0xf6, 0x07, 0x1a, 0x10, 0x21, 0x06, 0x12,
  0x00, 0xf4, 0xf6, 0x13, 0x0d, 0x1f, 0x00, 0x2d, 0xf4, 0xf7, 0xfd, 0x05,
  0x04, 0x44, 0x10, 0x09, 0x10, 0xe9, 0xf7, 0x0d, 0xfc, 0x01, 0xef, 0x11,
  0x14, 0x02, 0x02, 0x0e, 0x0a, 0x1d, 0x05, 0x10, 0x10, 0x00, 0xef, 0xf6,
  0xfa, 0xdb, 0x05, 0x08, 0xf8, 0xf4, 0xf4, 0xfb, 0x02, 0xf9, 0xef, 0xf5,
  0xe7, 0x0a, 0x12, 0x05, 0xeb, 0xfe, 0x04, 0x13, 0x09, 0xfe, 0x11, 0xff,
  0x0f, 0xfe, 0xff, 0xf1, 0x1d, 0x0b, 0x0f, 0x09, 0xf3, 0x0c, 0xff, 0x2e,
  0x1f, 0xfe, 0x06, 0x05, 0x01, 0xb5, 0x1b, 0x0f, 0x1f, 0x07, 0xf3, 0xf7,
  0x0f, 0xe4, 0x02, 0xf3, 0x23, 0x06, 0xf3, 0xf9, 0x0b, 0x18, 0xff, 0xf7,
  0x37, 0xf8, 0xed, 0xfb, 0xfb, 0x1a, 0x11, 0xfb, 0x29, 0x10, 0xfe, 0x0b,
  0xfc, 0x07, 0x08, 0xea, 0x0e, 0x00, 0x09, 0x07, 0x0c, 0x2c, 0x0a, 0xfd,
  0xfe, 0x07, 0xfb, 0xfb, 0xf8, 0x19, 0x0f, 0x0e, 0x10, 0xe6, 0x03, 0xfd,
  0x09, 0x01, 0xfd, 0x0d, 0x20, 0xfd, 0xfb, 0x06, 0xfa, 0x04, 0x0f, 0x16,
  0x12, 0x02, 0x03, 0x0a, 0xf3, 0x07, 0x05, 0x12, 0x0c, 0x07, 0x06, 0x01,
  0xfb, 0x29, 0x05, 0x0f, 0x0e, 0xeb, 0xf0, 0x08, 0x0c, 0x23, 0x06, 0x11,
  0x02, 0x02, 0xf2, 0x00, 0xff, 0x2e, 0x0a, 0x16, 0xfa, 0xee, 0xfb, 0xf9,
  0x10, 0x1a, 0xfd, 0x0b, 0x0a, 0x16, 0x0a, 0xf3, 0xfe, 0x10, 0x04, 0x0c,
  0x07, 0x0c, 0x0a, 0x05, 0x12, 0xff, 0x0d, 0x0b, 0xf8, 0x0e, 0xf8, 0xfc,
  0x00, 0xed, 0xf3, 0x1b, 0xf4, 0x01, 0x02, 0xf4, 0x06, 0x00, 0x04, 0x09,
  0xf7, 0x05, 0x03, 0x00, 0xf4, 0xf6, 0x07, 0xfb, 0x15, 0x01, 0xf5, 0x01,
  0x04, 0xf7, 0xfe, 0x2b, 0x0e, 0xff, 0x11, 0xee, 0xed, 0xc5, 0xff, 0x08,
  0x12, 0x07, 0xf6, 0x12, 0xff, 0xff, 0x0e, 0x04, 0x29, 0xe8, 0x0d, 0xf8,
  0x10, 0xef, 0x0b, 0x03, 0x3a, 0xf3, 0x05, 0x02, 0xf9, 0x16, 0x05, 0xf3,
  0x24, 0x0f, 0xec, 0x15, 0x0c, 0x02, 0x07, 0x0d, 0x1a, 0xf6, 0x00, 0xf0,
  0x11, 0x25, 0x02, 0x09, 0x00, 0x15, 0x06, 0xfc, 0x0a, 0x08, 0x0b, 0xf0,
  0x02, 0xec, 0x08, 0xf9, 0xff, 0x09, 0x19, 0x04, 0x0e, 0x09, 0x02, 0x09,
  0x15, 0x1a, 0x05, 0x04, 0x00, 0x1e, 0xf3, 0xfd, 0x15, 0x03, 0xfa, 0xfb,
  0x00, 0x06, 0x00, 0xfd, 0xf5, 0xf8, 0xfd, 0xf3, 0x06, 0x0b, 0xf2, 0x06,
  0x01, 0x0b, 0x01, 0xf0, 0xfc, 0x02, 0x00, 0xfb, 0x0d, 0x25, 0xf7, 0x09,
  0xf1, 0x04, 0x08, 0xee, 0x0c, 0x13, 0xfb, 0xf8, 0xf2, 0x0c, 0xfa, 0x10,
  0xf9, 0x0e, 0x00, 0xfe, 0xff, 0x15, 0x08, 0xf7, 0xff, 0xfb, 0xfd, 0x01,
  0xfb, 0x0f, 0x03, 0xfc, 0x07, 0xe9, 0x0d, 0xf3, 0xee, 0x09, 0x07, 0xfa,
  0x10, 0xe7, 0xff, 0x0f, 0x00, 0x1e, 0xf8, 0xf5, 0xf9, 0xfb, 0xf3, 0xf7,
  0x10, 0x09, 0xf7, 0x02, 0x04, 0xe4, 0xfa, 0xf3, 0x0b, 0x05, 0xf9, 0x0b,
  0x04, 0xc2, 0x0e, 0x0a, 0xf3, 0xe1, 0xf3, 0xfa, 0x08, 0x03, 0x09, 0xfc,
  0x1e, 0xf3, 0x05, 0xfe, 0x0b, 0xfe, 0x0c, 0xf8, 0x09, 0xef, 0xf0, 0x09,
  0x0e, 0x1f, 0x15, 0x0e, 0x0d, 0x08, 0xfe, 0x0e, 0x03, 0x03, 0x0d, 0xfe,
  0x11, 0xdf, 0x08, 0x07, 0x03, 0x0a, 0x15, 0xf4, 0xf1, 0x1a, 0x06, 0x05,
  0x0d, 0xf6, 0x00, 0x02, 0xfe, 0xf4, 0xf5, 0x05, 0x0b, 0xf7, 0x06, 0x00,
  0xf3, 0xfd, 0x03, 0x0e, 0xf4, 0x19, 0x04, 0xf3, 0xf9, 0xff, 0x05, 0x04,
  0x08, 0x05, 0x09, 0x0b, 0xef, 0xe2, 0x07, 0x02, 0xf9, 0xf8, 0x11, 0x00,
  0xfc, 0xe3, 0xff, 0xf6, 0xff, 0xfe, 0xff, 0xfa, 0xf6, 0xfa, 0x04, 0x04,
  0xf5, 0x05, 0x15, 0xf3, 0xe6, 0xf1, 0xf6, 0x0a, 0x09, 0xf7, 0xff, 0xfe,
  0xe1, 0xfc, 0xff, 0xf0, 0xf3, 0xfe, 0xfb, 0xf3, 0xf6, 0x0a, 0xff, 0xf7,
  0xfb, 0xe2, 0xff, 0x11, 0xf3, 0xff, 0xfc, 0xf6, 0xfa, 0xe7, 0xfe, 0xfc,
  0xe9, 0xf4, 0x04, 0x0f, 0xf7, 0xdc, 0xfa, 0xfd, 0xe9, 0x1d, 0xed, 0x09,
  0x03, 0xf1, 0xf7, 0x01, 0x01, 0x10, 0x07, 0x0a, 0x04, 0xe8, 0x01, 0x04,
  0xf8, 0x11, 0xf7, 0xfc, 0xfb, 0xbb, 0x08, 0xfd, 0xff, 0xe4, 0x01, 0xf6,
  0x0a, 0xd4, 0xfa, 0xf6, 0xfc, 0x02, 0x07, 0xf7, 0xf7, 0x9b, 0xed, 0xe9,
  0xfc, 0xfe, 0x04, 0xf3, 0xfa, 0xf2, 0xfb, 0xf2, 0x0d, 0xff, 0x00, 0xfb,
  0xf9, 0x16, 0xff, 0xe6, 0xf4, 0x04, 0x08, 0xf4, 0x0b, 0x2d, 0xf7, 0xf1,
  0x0c, 0xff, 0xfb, 0xfa, 0xf3, 0x1b, 0x05, 0xf1, 0xfe, 0x11, 0x09, 0xec,
  0xfb, 0x11, 0xfa, 0xd7, 0xfc, 0xff, 0x06, 0xfd, 0x02, 0x27, 0xfe, 0xea,
  0x0a, 0xf5, 0xff, 0x04, 0xed, 0x1f, 0xff, 0xe5, 0x05, 0xfe, 0xfa, 0xf9,
  0xf3, 0x0d, 0x03, 0xec, 0x0d, 0xff, 0xfe, 0xf0, 0x0e, 0xf2, 0xf8, 0xfa,
  0xf8, 0xfd, 0x00, 0xfd, 0x0f, 0x02, 0x04, 0xf1, 0xf2, 0xf0, 0x0c, 0xf8,
  0x0a, 0x03, 0xf5, 0xf2, 0xf3, 0xf6, 0x05, 0x11, 0xfd, 0x06, 0xfc, 0xe6,
  0xf2, 0x09, 0xfa, 0xfe, 0xff, 0x18, 0xf9, 0xeb, 0xfb, 0xfc, 0xfa, 0x10,
  0xfd, 0x16, 0xf4, 0xf3, 0xf5, 0x0a, 0x02, 0x01, 0x05, 0x0e, 0x02, 0xf3,
  0x00, 0xfd, 0xf7, 0xfc, 0x0c, 0x03, 0x01, 0xf3, 0xf3, 0xff, 0xfb, 0xfe,
  0xfa, 0x05, 0xfc, 0xfc, 0xfa, 0xfa, 0x08, 0xfa, 0x11, 0xf7, 0x07, 0xf8,
  0x1d, 0xe0, 0x0f, 0x02, 0xf7, 0x10, 0x06, 0x05, 0xb9, 0xf6, 0xf3, 0x0c,
  0x09, 0xcb, 0x02, 0xf7, 0xe3, 0xfa, 0xf3, 0x02, 0x04, 0x05, 0xf6, 0xf1,
  0xde, 0x0a, 0xfc, 0xee, 0xfb, 0x31, 0x08, 0xef, 0xf2, 0x04, 0xf6, 0x02,
  0xfa, 0x2f, 0x01, 0xfe, 0xf0, 0xfd, 0xfc, 0x02, 0x00, 0x34, 0xfa, 0xf5,
  0xf2, 0x01, 0xfa, 0xf7, 0xf4, 0x36, 0xf6, 0xee, 0x07, 0xfc, 0xf4, 0xf3,
  0xfb, 0x32, 0x02, 0xf9, 0x02, 0x08, 0x10, 0x03, 0x0d, 0x30, 0x03, 0xf3,
  0xf0, 0x09, 0x00, 0x0c, 0x0b, 0x19, 0x05, 0x03, 0x02, 0x0b, 0x01, 0xf5,
  0xfe, 0x1f, 0x0c, 0x00, 0xed, 0x0c, 0x03, 0xfa, 0x07, 0x28, 0x04, 0xfd,
  0xdb, 0xf0, 0xfb, 0x02, 0xfc, 0x0f, 0xff, 0xfe, 0xe9, 0x02, 0xfe, 0xfc,
  0xf2, 0x1c, 0x0c, 0xf2, 0xea, 0xfc, 0x15, 0xfd, 0x06, 0x33, 0xf8, 0x00,
  0xf2, 0x05, 0x07, 0xf5, 0x05, 0x29, 0xf8, 0xf1, 0xfb, 0xfa, 0x08, 0xf7,
  0x02, 0x2e, 0x09, 0xf3, 0x07, 0x06, 0xf3, 0xfa, 0x05, 0x0d, 0x02, 0xf1,
  0xfc, 0x06, 0x0e, 0x03, 0xf7, 0x04, 0xf6, 0x16, 0x1a, 0xfb, 0xff, 0xf6,
  0x00, 0xf0, 0xfc, 0xfa, 0xfe, 0xdc, 0x00, 0x01, 0x07, 0x2f, 0x0f, 0x03,
  0xdf, 0xf5, 0xfa, 0x04, 0x0f, 0x0a, 0x06, 0xf9, 0x0c, 0x05, 0x04, 0xfc,
  0x05, 0x1e, 0xf8, 0x01, 0xf9, 0xf5, 0x01, 0x00, 0xfe, 0x0d, 0x0c, 0xfe,
  0x01, 0xfb, 0x04, 0x0a, 0xf8, 0x28, 0x07, 0x00, 0x0e, 0xf4, 0x00, 0x09,
  0xfa, 0x11, 0xee, 0xfe, 0x17, 0xfc, 0xfd, 0xf4, 0x0f, 0x26, 0x06, 0x04,
  0x13, 0x0c, 0xed, 0x04, 0xfb, 0x1d, 0x00, 0xfe, 0x03, 0x09, 0xf6, 0x0a,
  0xfa, 0x28, 0x01, 0xfa, 0xfe, 0x05, 0x02, 0xfc, 0x03, 0x1c, 0xf8, 0x0e,
  0xfd, 0x03, 0xfd, 0xfb, 0x0a, 0x23, 0xef, 0xf4, 0x07, 0xfb, 0xee, 0x04,
  0xfe, 0x10, 0x05, 0xf6, 0x07, 0x0d, 0xfe, 0xf7, 0xfa, 0x12, 0x03, 0x08,
  0xfc, 0xfd, 0x08, 0x00, 0xfa, 0x1b, 0xf7, 0xf8, 0x04, 0x0c, 0x01, 0x0a,
  0xf8, 0x28, 0xf8, 0xf3, 0x0c, 0x05, 0xfe, 0xf9, 0x09, 0x16, 0x0a, 0x03,
  0xfc, 0x0f, 0xf6, 0xfb, 0xfb, 0x1a, 0xf7, 0xfa, 0x18, 0x08, 0xf0, 0xf4,
  0xf8, 0x1c, 0xf9, 0xf3, 0xdf, 0xf3, 0xf7, 0xf6, 0x09, 0x22, 0xf4, 0x08,
  0xe9, 0xf2, 0xef, 0x01, 0xfc, 0x16, 0x11, 0xf2, 0x0b, 0xd0, 0x00, 0xf6,
  0x02, 0xfb, 0xfe, 0xff, 0xf4, 0x08, 0xf0, 0x06, 0x06, 0x00, 0xf1, 0x0b,
  0xf9, 0xfe, 0x06, 0x01, 0x0c, 0x02, 0xeb, 0xf8, 0x0b, 0x09, 0xf4, 0xf7,
  0xfc, 0x00, 0xfb, 0x0b, 0x0d, 0x03, 0x12, 0xff, 0x03, 0xff, 0xfd, 0x0c,
  0x10, 0xf4, 0x00, 0x08, 0x03, 0xfe, 0x02, 0xfe, 0x13, 0x0e, 0x0d, 0xee,
  0xfc, 0x03, 0xf4, 0x0b, 0x14, 0xf3, 0xfc, 0xf3, 0xfc, 0x10, 0xf5, 0x12,
  0x19, 0xf5, 0xf0, 0xf8, 0xfa, 0xfe, 0x06, 0xf8, 0x05, 0x05, 0xfa, 0xfe,
  0xf5, 0xfe, 0xec, 0xf9, 0x08, 0x0c, 0xfa, 0xfb, 0xf9, 0xf7, 0xe9, 0xf8,
  0x0f, 0x03, 0x00, 0x04, 0xf6, 0xf7, 0xfb, 0x04, 0x00, 0x07, 0x04, 0x03,
  0x02, 0xf1, 0xf7, 0x0d, 0xfe, 0x02, 0x11, 0x01, 0x06, 0x07, 0xfa, 0x01,
  0x07, 0xfe, 0xf7, 0xfb, 0x05, 0xfd, 0x0e, 0x01, 0x0c, 0x02, 0x14, 0x07,
  0x03, 0x0b, 0x08, 0xfe, 0x15, 0xf3, 0xfd, 0x02, 0x02, 0xfc, 0xf5, 0x08,
  0x1f, 0xfa, 0xf2, 0x04, 0xfd, 0xee, 0x03, 0xfc, 0x0c, 0x0e, 0x02, 0x07,
  0x02, 0xec, 0x02, 0x00, 0xfb, 0xff, 0x06, 0x01, 0x0d, 0xfa, 0x04, 0x05,
  0x07, 0xe7, 0xf8, 0xe7, 0x08, 0xe2, 0x04, 0x0b, 0xf1, 0xff, 0xfd, 0x08,
  0xf8, 0xf8, 0xff, 0x0d, 0xf8, 0xf4, 0x08, 0x08, 0x0e, 0x04, 0x00, 0xf7,
  0xfd, 0x12, 0x02, 0x04, 0xf5, 0xeb, 0xee, 0xfd, 0x05, 0x08, 0xf7, 0xfb,
  0xfb, 0x07, 0x02, 0xef, 0x0b, 0x00, 0xf3, 0xec, 0xf2, 0xf5, 0x01, 0xf7,
  0x0e, 0x0c, 0xfa, 0xfc, 0xf5, 0xf6, 0xfe, 0x04, 0x0f, 0x08, 0xf7, 0x00,
  0xf1, 0xf4, 0x0b, 0xfe, 0xfe, 0xf7, 0x03, 0x02, 0x0e, 0xee, 0x05, 0xfc,
  0x0d, 0xea, 0x07, 0x04, 0x12, 0xf4, 0x00, 0xfd, 0xfb, 0xf2, 0xf8, 0xf8,
  0x00, 0x00, 0xff, 0x16, 0x15, 0x0d, 0xf8, 0x0f, 0x00, 0xef, 0xf5, 0xf8,
  0xfa, 0x01, 0x05, 0x04, 0x05, 0x01, 0xf9, 0xff, 0x03, 0xfc, 0x08, 0x0a,
  0x01, 0xec, 0x0a, 0xfc, 0x0e, 0x0a, 0x05, 0x02, 0xeb, 0xf8, 0xf9, 0xfc,
  0x16, 0x08, 0xfb, 0x06, 0xfa, 0xed, 0xfc, 0xfb, 0x07, 0x0e, 0x03, 0x0d,
  0xeb, 0xf7, 0xfc, 0x09, 0x1c, 0x0d, 0xfb, 0xf7, 0xf9, 0xdd, 0xfc, 0xef,
  0xfb, 0x01, 0xfd, 0x03, 0x07, 0xf2, 0xfb, 0x08, 0xfb, 0xf6, 0xf8, 0xf8,
  0xf1, 0xfa, 0x03, 0xfd, 0x03, 0xef, 0x05, 0xf7, 0x09, 0xdf, 0xed, 0xff,
  0xf2, 0x00, 0x07, 0x0d, 0x00, 0x04, 0x05, 0xff, 0xf7, 0x00, 0xfe, 0x0d,
  0xfa, 0xf0, 0xf3, 0x05, 0xf6, 0x00, 0xf9, 0xf9, 0xf7, 0xed, 0x04, 0xfc,
  0x02, 0xfb, 0x0c, 0xfe, 0x06, 0xfe, 0xf4, 0xf0, 0x0a, 0x04, 0x0b, 0xeb,
  0xf8, 0xf6, 0xf8, 0xfa, 0x02, 0xf9, 0x02, 0xfd, 0x01, 0xe9, 0xfb, 0x07,
  0x04, 0xf9, 0xf6, 0xf7, 0xf2, 0xf5, 0xfc, 0xff, 0x01, 0xf1, 0x00, 0xfd,
  0x05, 0xf5, 0x00, 0x0e, 0x03, 0xfc, 0x0a, 0x04, 0xfa, 0xf4, 0xef, 0xf6,
  0x01, 0xf4, 0xf7, 0x03, 0x09, 0xf6, 0xf5, 0x07, 0x0b, 0x04, 0x07, 0x0a,
  0x09, 0x09, 0xf7, 0xff, 0xf5, 0x06, 0x00, 0x00, 0x0b, 0xf3, 0xee, 0xf5,
  0x0f, 0xff, 0x04, 0xf3, 0x01, 0xef, 0xea, 0x08, 0x15, 0x00, 0x0a, 0x0b,
  0xfb, 0xf1, 0x05, 0x08, 0x07, 0xfc, 0xf6, 0xf3, 0x01, 0xf7, 0xea, 0x02,
  0x0b, 0xff, 0x06, 0x0c, 0xf0, 0x06, 0xf1, 0xf2, 0x18, 0x12, 0x0c, 0xf9,
  0x12, 0xed, 0xec, 0x0f, 0x09, 0x00, 0xf2, 0x03, 0xff, 0xfc, 0xf5, 0x12,
  0x16, 0xf1, 0xff, 0xfe, 0x04, 0xec, 0xf2, 0x01, 0xfb, 0xf0, 0xfe, 0xf7,
  0xf2, 0xe4, 0xfa, 0xee, 0xf9, 0xfb, 0xf7, 0x07, 0xf7, 0xf7, 0xf3, 0x0e,
  0xf5, 0x00, 0xfe, 0xf7, 0x0a, 0xe6, 0xfb, 0xfb, 0xf4, 0x0b, 0xf0, 0xf1,
  0x02, 0xe7, 0x00, 0x09, 0x11, 0x05, 0xfe, 0xfe, 0x05, 0xfd, 0xf9, 0x08,
  0x12, 0xfb, 0x01, 0xeb, 0xfd, 0xee, 0xf3, 0xfa, 0x0a, 0xf1, 0x0b, 0xef,
  0x0c, 0xe3, 0x04, 0xec, 0x0f, 0xfd, 0x05, 0xf4, 0xff, 0xff, 0x0a, 0xf8,
  0x09, 0x04, 0xf8, 0xfe, 0x06, 0xef, 0xff, 0xff, 0x02, 0xf6, 0x02, 0xff,
  0x02, 0xea, 0x0a, 0xf8, 0x00, 0x03, 0x02, 0xfb, 0xfb, 0xf7, 0x0c, 0x05,
  0xfc, 0xfc, 0x0d, 0x09, 0x0a, 0x0c, 0xfb, 0xff, 0xf3, 0x00, 0xff, 0x05,
  0x01, 0xfb, 0xf1, 0x06, 0xff, 0x02, 0x03, 0xfe, 0xfc, 0xf0, 0xfb, 0x02,
  0x06, 0xf7, 0xf7, 0xfd, 0xff, 0xf2, 0x02, 0xf7, 0x02, 0x08, 0x09, 0x05,
  0xee, 0xea, 0xf3, 0x0c, 0x0a, 0xf8, 0x03, 0xfb, 0x08, 0xfa, 0x08, 0x01,
  0x0e, 0x09, 0x03, 0x06, 0x02, 0xf0, 0xfb, 0x0b, 0xfe, 0xf7, 0x08, 0xfa,
  0x08, 0xf2, 0xfb, 0x00, 0xff, 0xf9, 0xf2, 0x04, 0x09, 0xf6, 0x00, 0x05,
  0x02, 0xf8, 0xf3, 0xfd, 0xf3, 0xd6, 0xf1, 0xf2, 0xf9, 0xfc, 0xf8, 0xf2,
  0x03, 0xf3, 0xfb, 0x0a, 0xf6, 0xfe, 0xf0, 0xf5, 0xf6, 0xf6, 0x01, 0x07,
  0x18, 0x09, 0x01, 0x05, 0x00, 0xf3, 0xed, 0xf1, 0x0d, 0x06, 0xfb, 0xf1,
  0x04, 0xec, 0xff, 0xfe, 0xf8, 0xf6, 0x05, 0x0a, 0xf7, 0xfe, 0xfd, 0x06,
  0x0d, 0xdd, 0xf7, 0xf3, 0xfb, 0xe7, 0x00, 0x07, 0x0e, 0xf6, 0x04, 0x06,
  0x0c, 0xee, 0xfe, 0xf7, 0x05, 0xf8, 0x07, 0x04, 0x08, 0xf9, 0xfa, 0x00,
  0x05, 0xfa, 0x06, 0xfa, 0x02, 0xf8, 0x06, 0xf0, 0x04, 0x02, 0xf8, 0x00,
  0x0b, 0xe6, 0x0a, 0x09, 0xf9, 0xfb, 0x06, 0xfd, 0x08, 0xe7, 0x05, 0x05,
  0x04, 0xff, 0x05, 0xff, 0xf5, 0xf6, 0xf6, 0xfa, 0x14, 0xf9, 0x0e, 0xf4,
  0xff, 0x03, 0xec, 0xf1, 0xf0, 0xfa, 0x0b, 0xfa, 0x03, 0xea, 0xf9, 0xf1,
  0xf6, 0xf8, 0xf4, 0xf1, 0xff, 0xea, 0x07, 0x07, 0xfd, 0xff, 0xf2, 0x09,
  0xfb, 0xea, 0xf5, 0xfa, 0x13, 0xff, 0x0e, 0x04, 0x03, 0xf0, 0x00, 0x0a,
  0x0b, 0x0f, 0x0d, 0x05, 0x01, 0xed, 0xf4, 0xfc, 0xfd, 0xff, 0xf1, 0xfd,
  0xf9, 0xfe, 0xfd, 0x07, 0x00, 0xf8, 0xfd, 0xf5, 0xf6, 0xe1, 0x0b, 0xfc,
  0x0c, 0xe8, 0x05, 0xf5, 0xef, 0xe8, 0xf8, 0x03, 0x02, 0x03, 0x08, 0xf7,
  0xfa, 0xeb, 0xf5, 0x0a, 0x07, 0x01, 0xee, 0x04, 0x01, 0xee, 0xf1, 0x0c,
  0x04, 0xfd, 0xf7, 0x08, 0x0c, 0xe4, 0xfd, 0x00, 0x06, 0xec, 0x04, 0x01,
  0xff, 0xe8, 0x0d, 0xf9, 0xfb, 0xf3, 0x06, 0x03, 0x0d, 0xf5, 0x05, 0xf8,
  0x10, 0x00, 0x0f, 0x06, 0xef, 0xea, 0xf5, 0x02, 0x09, 0x01, 0xf6, 0xfb,
  0xff, 0xed, 0xfe, 0xfa, 0x11, 0x01, 0xea, 0xf8, 0xf7, 0xe8, 0xff, 0xf4,
  0x0a, 0x07, 0xfc, 0xef, 0x10, 0xe6, 0xf5, 0xfe, 0x05, 0xf4, 0xfa, 0x03,
  0xf7, 0xf8, 0xf9, 0xfd, 0xfd, 0x00, 0x11, 0xfc, 0xf6, 0xfe, 0xf5, 0xf9,
  0x11, 0x04, 0x00, 0xfb, 0x00, 0xf1, 0xf6, 0xf6, 0xf3, 0xff, 0xf5, 0xf3,
  0xf3, 0xf3, 0xff, 0xfe, 0x0b, 0xf5, 0xf8, 0x08, 0x08, 0x07, 0xfa, 0x01,
  0x0f, 0xf9, 0xf8, 0xf6, 0x08, 0x0b, 0xfe, 0x0c, 0x00, 0xfa, 0x02, 0x09,
  0xf4, 0xf0, 0xf1, 0x02, 0x16, 0x00, 0x08, 0x05, 0x04, 0xf0, 0xf9, 0x02,
  0x01, 0x0e, 0x0d, 0x08, 0x0a, 0x08, 0xf4, 0x09, 0x0f, 0x08, 0xfb, 0xf3,
  0x04, 0xf6, 0xf1, 0xfa, 0x07, 0x00, 0xfd, 0x07, 0xfe, 0xe7, 0xf8, 0x10,
  0xfe, 0xf0, 0xf6, 0x01, 0xf1, 0xe8, 0xff, 0xf3, 0x0a, 0xfd, 0x09, 0xfd,
  0xf6, 0xfa, 0xf9, 0xfb, 0x04, 0xf8, 0x10, 0xf2, 0xff, 0xfd, 0xfd, 0xf2,
  0x03, 0xfe, 0x02, 0xff, 0x0d, 0xf9, 0xe9, 0xf3, 0xf1, 0xf2, 0xf6, 0xfc,
  0x00, 0xee, 0x05, 0x03, 0x0c, 0xf8, 0x03, 0xfa, 0xed, 0x01, 0xfb, 0x09,
  0xfd, 0xf1, 0x03, 0xfb, 0x06, 0xf7, 0xf2, 0x08, 0xfb, 0xfc, 0xf7, 0x04,
  0xfe, 0xf0, 0xf3, 0x13, 0x04, 0xfb, 0x03, 0x02, 0xf0, 0xff, 0x04, 0x00,
  0x06, 0xf5, 0xf8, 0x09, 0x02, 0xe7, 0xf1, 0xfd, 0x01, 0x08, 0x0c, 0x00,
  0xf3, 0xe4, 0xee, 0x0e, 0x0f, 0x12, 0xef, 0x01, 0x01, 0xed, 0x09, 0x02,
  0xf4, 0x19, 0xf3, 0x05, 0xfa, 0xea, 0xff, 0xf2, 0x0c, 0xff, 0xf6, 0xf2,
  0xfb, 0xf9, 0xfd, 0xfe, 0x12, 0xf0, 0xf2, 0xf6, 0x0a, 0x00, 0xf7, 0x0b,
  0x12, 0x0a, 0xec, 0xfa, 0x10, 0xf3, 0xf4, 0xf2, 0x1b, 0x00, 0xfb, 0xfa,
  0x06, 0x01, 0xff, 0x04, 0x0b, 0xff, 0xfc, 0x02, 0xfd, 0xfa, 0xec, 0x0d,
  0x09, 0x06, 0x0a, 0xed, 0x05, 0xee, 0x08, 0x08, 0x13, 0xf6, 0x0d, 0x0d,
  0x07, 0xe5, 0x05, 0x03, 0x00, 0x02, 0xf6, 0xff, 0xfd, 0xfb, 0x06, 0x06,
  0xfc, 0xed, 0xff, 0x04, 0x01, 0xf0, 0xec, 0xf5, 0xfc, 0xfe, 0xf6, 0x03,
  0x01, 0xf4, 0xf8, 0x0e, 0xf8, 0xed, 0x00, 0x01, 0x07, 0xfd, 0x00, 0xed,
  0x0e, 0xe9, 0x0a, 0xf9, 0x03, 0xf1, 0xfc, 0x09, 0x04, 0xf2, 0xf0, 0xf4,
  0xf0, 0xf7, 0x08, 0x0a, 0x0a, 0x01, 0x05, 0x07, 0x00, 0xf7, 0xfc, 0x0b,
  0x0d, 0xfc, 0x0b, 0xee, 0x05, 0xf9, 0x09, 0x04, 0x11, 0xfc, 0x02, 0xf5,
  0x06, 0xef, 0x09, 0xef, 0xf7, 0xf9, 0xfc, 0x01, 0x04, 0x09, 0xf5, 0xf3,
  0x04, 0x07, 0x0b, 0x0f, 0xfc, 0xf4, 0xec, 0x09, 0x07, 0xfb, 0x02, 0x08,
  0xf5, 0xf4, 0xf1, 0xfc, 0xf9, 0xf3, 0xfd, 0x07, 0xf8, 0xe9, 0xfa, 0x13,
  0x21, 0xe8, 0xed, 0xfc, 0xfa, 0x00, 0xf8, 0xfb, 0x13, 0xf8, 0x0d, 0xfd,
  0x03, 0xf0, 0x08, 0x0b, 0x14, 0xf2, 0xf8, 0xeb, 0x0c, 0xe7, 0x00, 0x02,
  0x0c, 0x0e, 0xf4, 0x0b, 0x04, 0xee, 0xfb, 0x0f, 0x02, 0x00, 0x0e, 0x08,
  0x00, 0xed, 0xf7, 0x02, 0xfe, 0xfb, 0x06, 0x04, 0x08, 0xfa, 0x02, 0x00,
  0x04, 0xfa, 0xf9, 0x0f, 0xf8, 0xdf, 0xf6, 0xfc, 0x03, 0xec, 0x02, 0xf3,
  0x00, 0xf8, 0xf6, 0xf9, 0x06, 0xf7, 0xf1, 0x01, 0x01, 0xf3, 0xf3, 0xfb,
  0xff, 0xed, 0x07, 0xf5, 0xf9, 0xf0, 0xeb, 0xfb, 0x0f, 0xfa, 0xff, 0xfe,
  0x0d, 0xfe, 0xfb, 0x08, 0x0c, 0xfd, 0xf9, 0x0e, 0x0c, 0xf0, 0xfd, 0x07,
  0x10, 0xeb, 0x08, 0x00, 0xfc, 0xe2, 0xfe, 0xf8, 0x0b, 0x07, 0x08, 0xf4,
  0xff, 0x01, 0x0a, 0xfe, 0x06, 0xf9, 0xee, 0x00, 0xfb, 0xfa, 0xec, 0x07,
  0xf7, 0x14, 0xf9, 0xf0, 0x06, 0x06, 0x05, 0x01, 0xe8, 0x04, 0xfe, 0xf9,
  0xfb, 0x00, 0x00, 0x10, 0xef, 0x03, 0x00, 0x00, 0x03, 0x01, 0xf7, 0x01,
  0x09, 0xfb, 0x01, 0xfc, 0x01, 0xf1, 0x09, 0x01, 0x09, 0x0d, 0xfb, 0xfa,
  0xf5, 0x00, 0xfa, 0x0c, 0x28, 0xf5, 0x05, 0x02, 0x10, 0xf7, 0x0b, 0x04,
  0xfc, 0xfa, 0xf6, 0xfe, 0x04, 0xf5, 0xfb, 0x15, 0xfb, 0xf3, 0xf7, 0xf8,
  0x01, 0xf8, 0xfe, 0x12, 0x18, 0xff, 0xf4, 0x01, 0xf5, 0xec, 0xf9, 0x0e,
  0x11, 0x03, 0xfd, 0xfe, 0xef, 0x03, 0xf3, 0x01, 0x03, 0x00, 0x05, 0x01,
  0x03, 0xee, 0x0c, 0xfb, 0x06, 0xfa, 0xfd, 0xf7, 0x00, 0xe7, 0x0a, 0x02,
  0xf7, 0xf3, 0x0a, 0xf8, 0x0f, 0xe9, 0xfc, 0xfc, 0x0c, 0xf7, 0xfb, 0xf6,
  0x03, 0xfb, 0x0b, 0x01, 0x0c, 0xfc, 0x00, 0xee, 0xff, 0x03, 0xf4, 0x07,
  0x0b, 0xf9, 0x08, 0x0e, 0xfe, 0xf5, 0xf6, 0xff, 0x10, 0xfb, 0x02, 0x04,
  0x01, 0xf7, 0xfb, 0xf5, 0x13, 0x00, 0xf8, 0x07, 0xf8, 0x01, 0xfa, 0x0e,
  0xf8, 0xeb, 0xf1, 0xf0, 0xfc, 0xfb, 0xf9, 0x04, 0x04, 0xfa, 0x07, 0xfe,
  0x00, 0x08, 0xf3, 0xfe, 0xfd, 0x01, 0x09, 0xf2, 0xfb, 0xec, 0x01, 0xef,
  0xf9, 0x00, 0xf5, 0xff, 0x09, 0xf4, 0xf5, 0xf9, 0xed, 0xfc, 0x02, 0xfa,
  0x00, 0xfc, 0x01, 0xf2, 0xfe, 0xfa, 0x04, 0xed, 0xff, 0x01, 0xf5, 0xfc,
  0x10, 0xf9, 0x03, 0xf6, 0xf0, 0xed, 0xfe, 0xff, 0x1f, 0x01, 0xff, 0x09,
  0x08, 0xfc, 0xf9, 0x0b, 0x03, 0xe6, 0xf5, 0xf8, 0x12, 0xf9, 0x05, 0xff,
  0xf0, 0xe1, 0xfa, 0x02, 0x10, 0xfb, 0xf9, 0xfd, 0x1c, 0x04, 0xff, 0xf7,
  0xfd, 0xf1, 0xf9, 0x04, 0x10, 0xfb, 0xed, 0xf4, 0xf7, 0xf6, 0xf9, 0x07,
  0x14, 0x04, 0x08, 0xfe, 0xfc, 0xe8, 0x0a, 0x04, 0x03, 0xf7, 0x0b, 0x05,
  0x09, 0xcb, 0x02, 0xf8, 0x0d, 0x02, 0xf6, 0x01, 0xee, 0xf6, 0xfd, 0xfd,
  0x02, 0xf1, 0xef, 0x02, 0x02, 0x01, 0xf8, 0xf7, 0x03, 0x03, 0x11, 0xf8,
  0xfa, 0xff, 0xfa, 0x15, 0x14, 0xf0, 0xfb, 0x03, 0x02, 0x03, 0x02, 0x06,
  0x0b, 0xfb, 0x08, 0x03, 0xeb, 0x02, 0x00, 0xfd, 0x13, 0x02, 0x09, 0xff,
  0xf8, 0xf2, 0x0f, 0xff, 0x00, 0xe9, 0x0d, 0xfb, 0x05, 0xe5, 0xf8, 0x00,
  0xfe, 0xfe, 0xf9, 0xf6, 0x05, 0x15, 0xf2, 0xf6, 0x0e, 0xfe, 0x03, 0x01,
  0xf8, 0xfc, 0xf4, 0xff, 0xfe, 0xf5, 0xfb, 0x06, 0xfb, 0xf4, 0x00, 0xfb,
  0xf4, 0x05, 0xfd, 0xef, 0xf0, 0x02, 0xfe, 0xfa, 0x0c, 0xfc, 0x05, 0x03,
  0xfc, 0xf5, 0x00, 0xf9, 0xf9, 0xec, 0xf7, 0xff, 0xf7, 0x03, 0x01, 0x0b,
  0x09, 0x00, 0xf9, 0x02, 0xf6, 0xfc, 0xf8, 0x07, 0x09, 0xf6, 0x11, 0xfc,
  0x00, 0xf6, 0xf5, 0xf4, 0xfe, 0xf8, 0x05, 0x02, 0xf6, 0xfe, 0xf4, 0x0d,
  0x11, 0x06, 0xff, 0x05, 0x03, 0xea, 0xff, 0x0f, 0x09, 0xf3, 0xf5, 0x02,
  0x08, 0xf0, 0x0e, 0x10, 0x18, 0xf4, 0x11, 0xfe, 0xf8, 0xeb, 0xf0, 0xf8,
  0x09, 0x09, 0xfe, 0xf4, 0x04, 0xdb, 0xfa, 0xfd, 0x10, 0xfb, 0xff, 0xf9,
  0xfd, 0x03, 0xf4, 0xf7, 0x07, 0xf9, 0xf7, 0x0d, 0xfc, 0xf4, 0xff, 0xf9,
  0x0c, 0xf7, 0xeb, 0xfc, 0xfd, 0xf3, 0xf3, 0x11, 0x19, 0xec, 0xee, 0x02,
  0x06, 0xf7, 0x0a, 0x07, 0x09, 0x01, 0x05, 0x01, 0xed, 0xfb, 0xfc, 0xf4,
  0x03, 0xf9, 0xfb, 0xf3, 0x0a, 0x01, 0x08, 0xf0, 0xfa, 0xf1, 0x0a, 0xfa,
  0xfe, 0xe2, 0xfc, 0xff, 0x0c, 0xfc, 0x03, 0xff, 0x00, 0xf8, 0xec, 0xf7,
  0x06, 0x08, 0x0d, 0xfe, 0x0a, 0xf1, 0x04, 0x08, 0xfd, 0xf9, 0xeb, 0x00,
  0x02, 0xff, 0xef, 0xf8, 0xfd, 0xf1, 0x09, 0xfb, 0xfc, 0xf5, 0xf8, 0x08,
  0x01, 0xf9, 0xf2, 0xf2, 0xfc, 0xf9, 0x01, 0x00, 0x00, 0xff, 0xff, 0x03,
  0x04, 0xe9, 0xf4, 0x02, 0xfe, 0xf4, 0xfc, 0x02, 0x00, 0xef, 0x0b, 0x0b,
  0x05, 0xf4, 0xf0, 0xfd, 0xf5, 0xf9, 0xfc, 0x08, 0x04, 0xf8, 0x08, 0xff,
  0x0a, 0x01, 0xfc, 0xfc, 0x1a, 0x08, 0x00, 0x01, 0x06, 0xf8, 0x12, 0x10,
  0x16, 0x0a, 0x0b, 0xfd, 0x0c, 0xf2, 0x05, 0xfd, 0x25, 0xf9, 0x0e, 0x04,
  0x05, 0xe3, 0x06, 0x01, 0x08, 0x04, 0x04, 0xf6, 0x0a, 0xd9, 0x08, 0xfb,
  0x16, 0xec, 0x02, 0x06, 0x00, 0xfa, 0x03, 0x06, 0x0b, 0xeb, 0xfb, 0xf3,
  0xf8, 0xe4, 0x0d, 0xed, 0x04, 0xf9, 0xf7, 0x03, 0x08, 0x00, 0x04, 0xff,
  0x11, 0xf6, 0xfc, 0x01, 0xfd, 0xfa, 0xf8, 0x05, 0x01, 0xf8, 0xfe, 0x06,
  0x08, 0xfb, 0x02, 0x0b, 0x0b, 0xf4, 0xff, 0x02, 0xed, 0x04, 0xfd, 0x0e,
  0xf5, 0xf0, 0x01, 0xf8, 0xf8, 0xe8, 0x04, 0x01, 0xfc, 0x00, 0x00, 0x04,
  0x09, 0xf4, 0xfa, 0x05, 0x05, 0xf6, 0xee, 0x05, 0x0e, 0x0b, 0xf4, 0x07,
  0x04, 0xfd, 0xfa, 0xfc, 0x05, 0xfa, 0x11, 0x01, 0xf9, 0xf6, 0x00, 0xf7,
  0xf8, 0x0b, 0xfd, 0x09, 0x04, 0x01, 0x03, 0x01, 0xfe, 0xfa, 0x01, 0xfc,
  0xf9, 0x0a, 0x07, 0x05, 0xfe, 0x08, 0x05, 0x00, 0xfc, 0xfb, 0xfb, 0x01,
  0xf8, 0x08, 0xff, 0x02, 0x02, 0xec, 0xf7, 0xf1, 0xf8, 0x03, 0x03, 0xfb,
  0x06, 0x08, 0xfc, 0xfe, 0x04, 0xfd, 0x0b, 0xfc, 0x1d, 0xf7, 0xf5, 0xfa,
  0xfc, 0xf4, 0xfd, 0x0f, 0x08, 0x0a, 0x00, 0x0c, 0x10, 0xe4, 0xf3, 0x13,
  0x17, 0xfa, 0xff, 0xf3, 0xfb, 0xee, 0x0e, 0xff, 0xfb, 0x03, 0xf2, 0xfe,
  0x04, 0xef, 0xf4, 0xf5, 0x0f, 0xfe, 0xff, 0xf8, 0xee, 0xed, 0x08, 0xf8,
  0x07, 0xf5, 0x09, 0xff, 0xf9, 0xdc, 0xfa, 0xfe, 0x04, 0xf3, 0xf3, 0x03,
  0x00, 0xed, 0xef, 0x07, 0x09, 0x00, 0x0b, 0x03, 0xf7, 0xfe, 0x01, 0x01,
  0x03, 0xee, 0xeb, 0x0e, 0x02, 0x04, 0x08, 0x04, 0x16, 0xfd, 0x07, 0x09,
  0xff, 0xf5, 0xfd, 0x10, 0x05, 0x01, 0xfa, 0x09, 0x05, 0x06, 0xf9, 0x05,
  0x02, 0xf4, 0x08, 0xf2, 0x03, 0xf2, 0xf5, 0xf1, 0x0b, 0xeb, 0x07, 0xef,
  0x08, 0x0b, 0xfa, 0xff, 0x17, 0x00, 0xf0, 0x03, 0x0c, 0x03, 0xf0, 0xfc,
  0x06, 0xf8, 0x06, 0xf8, 0xf2, 0x03, 0x06, 0x07, 0xfb, 0xf1, 0xed, 0xfd,
  0x01, 0x00, 0xec, 0x06, 0x0c, 0xf7, 0x08, 0x12, 0xf8, 0x07, 0xed, 0x04,
  0xfb, 0xff, 0xfb, 0x08, 0x05, 0xfd, 0xfa, 0x0a, 0x08, 0xf8, 0x0a, 0xef,
  0xfd, 0x0c, 0xf9, 0x0b, 0x1a, 0xf5, 0xff, 0x0c, 0x0e, 0xfe, 0x07, 0x10,
  0x10, 0x01, 0xf5, 0x0b, 0xf4, 0xf3, 0xf8, 0xf5, 0x13, 0xf3, 0xfc, 0x08,
  0xfa, 0xe1, 0xf0, 0xfd, 0x21, 0xfe, 0xf3, 0x06, 0xf9, 0xe7, 0x05, 0xf4,
  0xfa, 0xf1, 0xfa, 0xfd, 0x03, 0xd7, 0x02, 0xfc, 0x1e, 0xea, 0x02, 0xed,
  0xf8, 0xea, 0xf5, 0xef, 0x07, 0xfe, 0x01, 0x0a, 0x01, 0xf6, 0x04, 0x03,
  0x0a, 0xf4, 0xfe, 0xfa, 0x06, 0xea, 0x02, 0x07, 0xfb, 0xf5, 0xfe, 0x04,
  0xff, 0xf4, 0x0a, 0x09, 0xf6, 0x03, 0x01, 0x00, 0x01, 0xef, 0x05, 0x05,
  0x16, 0xfa, 0xfb, 0xf7, 0xf5, 0x02, 0x00, 0xfc, 0x01, 0xf7, 0x03, 0xf4,
  0x0d, 0xfd, 0xff, 0xed, 0xfe, 0xef, 0xfb, 0xfb, 0x0e, 0xff, 0xf5, 0xf7,
  0x02, 0xf4, 0xed, 0xf7, 0x04, 0x0a, 0xfd, 0xfe, 0x12, 0xf7, 0x0a, 0x0a,
  0xf1, 0x13, 0x01, 0xf8, 0xfe, 0xf6, 0x0b, 0xf0, 0x04, 0xed, 0xf7, 0x0d,
  0x06, 0x09, 0xf5, 0xfe, 0xf7, 0xf3, 0xfb, 0x02, 0x14, 0xf3, 0xfa, 0x05,
  0x0a, 0xef, 0xf9, 0xf4, 0x05, 0xf0, 0x0e, 0xef, 0xf6, 0xfe, 0x01, 0x01,
  0xf5, 0xee, 0x02, 0x0a, 0xfa, 0x01, 0xff, 0x01, 0x18, 0xf0, 0xea, 0xfa,
  0xfd, 0xfa, 0x02, 0x04, 0x20, 0xfd, 0x05, 0x01, 0xfb, 0xec, 0xfd, 0x16,
  0x07, 0xf8, 0xf4, 0xf4, 0x02, 0xdf, 0xf6, 0x0d, 0x26, 0x07, 0xfb, 0x00,
  0x0f, 0xfa, 0x03, 0xf6, 0x09, 0xf6, 0x05, 0x05, 0x0e, 0xe7, 0x08, 0x0a,
  0x15, 0xf2, 0x03, 0x01, 0x03, 0xf3, 0xf9, 0xee, 0x18, 0xf0, 0x03, 0xf9,
  0x13, 0xfb, 0xfe, 0xf6, 0x12, 0xf9, 0x06, 0xff, 0x02, 0x07, 0x02, 0x0c,
  0x14, 0xf5, 0xfd, 0x04, 0xfb, 0xff, 0x10, 0x04, 0x0a, 0x0d, 0xfe, 0x0a,
  0xed, 0xf8, 0x08, 0xf9, 0x0e, 0xef, 0xeb, 0xee, 0xf3, 0xe9, 0xf1, 0x01,
  0x0b, 0xfc, 0x01, 0xfc, 0x01, 0xf6, 0x02, 0xfc, 0x10, 0xf6, 0x03, 0xfc,
  0xf4, 0xf6, 0xfa, 0xff, 0x11, 0x02, 0x0a, 0xfa, 0xfe, 0xf6, 0x05, 0x0b,
  0x07, 0xf7, 0x00, 0x01, 0x07, 0xff, 0x09, 0x12, 0xf5, 0xef, 0x06, 0xf5,
  0x01, 0xf4, 0xfb, 0x16, 0x06, 0xf7, 0xf4, 0xf1, 0x0e, 0xf4, 0xfa, 0x10,
  0x16, 0xfe, 0xf7, 0x03, 0xf9, 0xe6, 0xf9, 0xfa, 0x00, 0x03, 0x02, 0xfa,
  0xf4, 0x02, 0xf6, 0xf9, 0x0b, 0xf8, 0xfa, 0xf6, 0x0b, 0xf3, 0xf5, 0x0c,
  0x13, 0xfc, 0xfc, 0x08, 0xfb, 0xf8, 0xfe, 0x06, 0x1f, 0x0f, 0xff, 0xff,
  0xfd, 0xe9, 0x02, 0x0c, 0x02, 0x04, 0xfe, 0xfc, 0xfe, 0xe3, 0x09, 0x16,
  0x29, 0xf7, 0x0e, 0xfa, 0x06, 0xe5, 0xed, 0xf4, 0x0d, 0xfc, 0x03, 0xf3,
  0xfe, 0xe0, 0xf4, 0x06, 0x16, 0xf6, 0x02, 0x06, 0x07, 0xf2, 0x03, 0x01,
  0xfd, 0xe0, 0xf9, 0x08, 0xf5, 0xe9, 0x06, 0xf5, 0x19, 0xfc, 0x01, 0xfe,
  0xf5, 0x01, 0x02, 0x0b, 0x0d, 0xfe, 0x01, 0xf7, 0x02, 0xff, 0x00, 0x00,
  0x0b, 0xf0, 0x0c, 0xf2, 0xff, 0x06, 0xf7, 0x01, 0xfb, 0xee, 0x03, 0xfb,
  0xf0, 0xf9, 0x0b, 0x04, 0x07, 0xf8, 0xf4, 0x10, 0x02, 0xfe, 0xff, 0xfd,
  0x06, 0xf8, 0x00, 0xf3, 0x11, 0xf9, 0xfc, 0xf1, 0x10, 0xf3, 0x0c, 0xff,
  0xf2, 0x03, 0x02, 0xfb, 0x0c, 0xf2, 0x04, 0xf7, 0x02, 0xfd, 0xff, 0xfa,
  0xff, 0xec, 0x08, 0xfc, 0xf1, 0xe6, 0xfc, 0x05, 0x10, 0x02, 0x02, 0x01,
  0x08, 0xf2, 0xfc, 0x0c, 0xff, 0xf4, 0xf9, 0x09, 0x12, 0xe9, 0xf5, 0xf7,
  0xf4, 0xf4, 0x00, 0x07, 0x03, 0xfe, 0x03, 0x09, 0x18, 0xf4, 0xfa, 0xf8,
  0x0e, 0x09, 0xfa, 0x08, 0x0e, 0x04, 0xfd, 0x01, 0x09, 0xf5, 0xfa, 0x00,
  0x23, 0x0c, 0xef, 0x0e, 0x01, 0xeb, 0x06, 0xf2, 0x15, 0x0e, 0x03, 0xf8,
  0x04, 0xde, 0x06, 0xfe, 0x21, 0xeb, 0x04, 0x06, 0x0c, 0xf8, 0x03, 0xed,
  0x1b, 0xfb, 0xfb, 0x05, 0x05, 0xe1, 0xf1, 0x0a, 0x24, 0x01, 0xfd, 0xfc,
  0x04, 0xfe, 0x0a, 0xec, 0xff, 0xe7, 0xf4, 0x05, 0xed, 0xee, 0xff, 0x04,
  0x0a, 0xf4, 0xf9, 0xf7, 0xf4, 0xff, 0x0c, 0xfb, 0xf7, 0xf1, 0xfd, 0x05,
  0x09, 0x10, 0x00, 0xfe, 0x09, 0x06, 0xfc, 0x00, 0x0a, 0xee, 0xfc, 0x07,
  0xfc, 0xf0, 0xfc, 0x00, 0xf8, 0xfb, 0xf3, 0xf7, 0xf1, 0xfa, 0xff, 0xff,
  0xf3, 0xf7, 0xf3, 0xfd, 0x11, 0xf8, 0xf6, 0x00, 0x01, 0xf8, 0xfe, 0xfe,
  0xfa, 0xf7, 0xfe, 0x08, 0x0b, 0xf9, 0x04, 0x0b, 0x09, 0xf6, 0xf6, 0x01,
  0xfc, 0xf7, 0x04, 0x06, 0x04, 0x07, 0xf2, 0x05, 0x06, 0xff, 0xfe, 0x14,
  0x04, 0xf9, 0xff, 0xf8, 0xf6, 0xff, 0xf8, 0x08, 0x00, 0xf2, 0xfb, 0x01,
  0xfa, 0x05, 0xf7, 0x06, 0x0a, 0xf6, 0x05, 0xfb, 0x10, 0x0b, 0xfe, 0x0e,
  0x0b, 0x05, 0xec, 0x05, 0xf3, 0xf2, 0xf5, 0x06, 0x18, 0xf4, 0xef, 0x03,
  0x04, 0x08, 0x0c, 0x13, 0x19, 0xfc, 0xf2, 0xfc, 0x02, 0xfc, 0x03, 0x0a,
  0x0a, 0xf9, 0x05, 0xf5, 0x01, 0xc8, 0xff, 0x0a, 0x1f, 0xf1, 0x06, 0x05,
  0xfc, 0xdb, 0x0a, 0xe5, 0x1a, 0xf9, 0x07, 0xf9, 0xf2, 0xbd, 0xf0, 0xf4,
  0x1c, 0x00, 0xfe, 0xfb, 0x06, 0xe9, 0x10, 0xe9, 0x04, 0x01, 0xf9, 0x03,
  0x02, 0xfd, 0xf1, 0xed, 0x15, 0xea, 0xf3, 0xf6, 0x04, 0xfb, 0xfe, 0xea,
  0xfa, 0xee, 0x00, 0x01, 0x05, 0xf1, 0xf6, 0xed, 0x18, 0xf0, 0x03, 0xf3,
  0xf2, 0xeb, 0x07, 0xee, 0x04, 0xf3, 0xfb, 0x06, 0xf2, 0xde, 0x04, 0xe5,
  0x08, 0xf6, 0xff, 0xee, 0x04, 0xe5, 0xfd, 0xdf, 0xf9, 0xf2, 0x01, 0xf0,
  0x0f, 0xeb, 0xf6, 0xef, 0x03, 0x01, 0xfa, 0x07, 0x07, 0x03, 0xeb, 0xe1,
  0x11, 0xf8, 0xf4, 0xfc, 0xf9, 0xf5, 0x0e, 0xf8, 0x02, 0xf7, 0x0a, 0xf7,
  0x00, 0xe6, 0xee, 0xf5, 0xf8, 0x09, 0xf5, 0xfe, 0x0f, 0xf4, 0x0b, 0xe9,
  0xfc, 0xf7, 0xfe, 0xff, 0xf9, 0xfd, 0x09, 0xfa, 0x06, 0xef, 0xfa, 0x02,
  0x01, 0xef, 0xfc, 0x0a, 0xfa, 0x09, 0x0a, 0x05, 0xf6, 0xef, 0x05, 0x08,
  0x0c, 0xfa, 0x02, 0xfd, 0x00, 0xe7, 0x0f, 0xff, 0x1d, 0x08, 0xfd, 0x04,
  0x05, 0xf0, 0x07, 0xf7, 0xff, 0x04, 0x04, 0xfd, 0x03, 0xda, 0x03, 0xf8,
  0x1f, 0x01, 0x03, 0x02, 0xff, 0xf3, 0xef, 0x02, 0x10, 0xf0, 0x12, 0xf5,
  0xfc, 0xbb, 0x02, 0xf6, 0x15, 0xfe, 0x06, 0xf2, 0x06, 0xe6, 0xfa, 0xeb,
  0x0e, 0xe4, 0xf8, 0x05, 0x01, 0xf7, 0x04, 0xed, 0x05, 0x0b, 0xff, 0xf9,
  0xfe, 0xee, 0xf0, 0xf2, 0x00, 0xf2, 0x02, 0xfd, 0xfe, 0x06, 0xf7, 0xe4,
  0x0b, 0xfc, 0x05, 0x01, 0xf4, 0xf6, 0x0d, 0xf7, 0x0b, 0xec, 0x02, 0x00,
  0xef, 0xf0, 0xf0, 0xe9, 0xf7, 0x06, 0x02, 0xff, 0x09, 0x01, 0xfa, 0xfb,
  0x05, 0xfb, 0x00, 0xfc, 0xf4, 0x00, 0xf6, 0xf1, 0x10, 0x00, 0xfb, 0x00,
  0xfe, 0x01, 0x08, 0xe4, 0x14, 0xf1, 0xfe, 0x00, 0x0b, 0xfb, 0xf2, 0xf4,
  0xfa, 0xff, 0x08, 0xf4, 0xf5, 0xe8, 0xff, 0xe7, 0xed, 0xfd, 0xed, 0x02,
  0xf5, 0xee, 0xed, 0xfd, 0xf5, 0x0c, 0xfe, 0x04, 0xf9, 0xfa, 0x07, 0xf6,
  0xf9, 0x01, 0xf4, 0x01, 0x0b, 0xf1, 0xf4, 0xf8, 0x00, 0x00, 0x01, 0xfd,
  0x0b, 0xf0, 0xfd, 0xf7, 0xfc, 0xf9, 0xfb, 0xff, 0xf9, 0xf5, 0x07, 0x01,
  0x0e, 0xf1, 0xec, 0x03, 0x08, 0xf1, 0xfb, 0xe0, 0xf8, 0x05, 0x0c, 0xef,
  0xf5, 0xe4, 0xf9, 0x01, 0x21, 0xf1, 0xfd, 0xf4, 0x05, 0xfd, 0x0f, 0xf4,
  0x10, 0xf4, 0xff, 0xf5, 0x01, 0xe7, 0x01, 0xfd, 0x09, 0x01, 0x0f, 0xff,
  0x07, 0xf6, 0xf4, 0xff, 0x01, 0xfb, 0x10, 0xef, 0x01, 0x03, 0x01, 0xfd,
  0x0a, 0xfd, 0xf4, 0x01, 0x0a, 0xfa, 0x05, 0xfe, 0x03, 0xed, 0xf0, 0xfa,
  0xf6, 0x04, 0xfd, 0x0c, 0x04, 0xe9, 0xf2, 0xfe, 0xf6, 0xf8, 0xef, 0xf5,
  0x04, 0xfd, 0xfd, 0xf5, 0x02, 0x01, 0xf4, 0x0f, 0xf2, 0xf1, 0xf2, 0xff,
  0xfd, 0x06, 0xf8, 0x06, 0xfa, 0xef, 0x03, 0xfa, 0xeb, 0xec, 0x02, 0xf6,
  0x02, 0xf8, 0xfa, 0x08, 0x08, 0x04, 0xea, 0x09, 0x04, 0xfd, 0xf6, 0x09,
  0xf7, 0xf6, 0x05, 0x00, 0xfc, 0xf0, 0x0b, 0xfd, 0xf8, 0xf8, 0x01, 0x08,
  0xec, 0xf8, 0x0e, 0xfe, 0x02, 0x02, 0xfb, 0xf3, 0xfd, 0xf9, 0x00, 0x12,
  0x03, 0x06, 0x05, 0xfd, 0xf0, 0xfe, 0x07, 0xfe, 0xf5, 0xfd, 0xed, 0x02,
  0xef, 0x05, 0x05, 0x03, 0xfa, 0xf1, 0xfb, 0x03, 0x11, 0xf6, 0xfc, 0xf9,
  0x09, 0xff, 0x02, 0xfe, 0x14, 0xff, 0xfb, 0x00, 0xec, 0xfe, 0xfa, 0x02,
  0x00, 0xfd, 0xf4, 0xfd, 0xfb, 0xfa, 0xf3, 0xf7, 0x25, 0x26, 0x04, 0xfb,
  0x11, 0xfd, 0xf6, 0xfd, 0x35, 0x0b, 0x01, 0x04, 0xf7, 0xf4, 0xfd, 0x14,
  0x1c, 0x0b, 0xfa, 0x03, 0xfb, 0x01, 0x0b, 0x10, 0x18, 0x14, 0x05, 0x03,
  0xf5, 0xf2, 0xee, 0xfd, 0x22, 0x1c, 0x04, 0x0d, 0xfa, 0x00, 0xf3, 0x11,
  0x18, 0x2d, 0x02, 0x04, 0xfd, 0x08, 0xf4, 0x07, 0x1c, 0x15, 0x02, 0xf7,
  0xf2, 0xf5, 0xfa, 0x0b, 0x1d, 0x1c, 0xf5, 0x08, 0xfd, 0xfe, 0xf7, 0x05,
  0x07, 0x0a, 0xf4, 0x06, 0xfb, 0xf7, 0xf8, 0xf7, 0x14, 0x14, 0xf2, 0xf3,
  0x00, 0x07, 0x08, 0xfd, 0x20, 0x1e, 0xf7, 0x04, 0xfa, 0x05, 0xf3, 0xff,
  0x0d, 0x08, 0x0e, 0xfb, 0xf8, 0xfe, 0xf0, 0x08, 0x07, 0x05, 0xee, 0x00,
  0xff, 0xf9, 0x03, 0xf5, 0x06, 0x0f, 0x02, 0xfc, 0xfe, 0xf4, 0xef, 0xfe,
  0x14, 0x1f, 0x01, 0x03, 0x02, 0x02, 0xf2, 0x05, 0xf4, 0x19, 0x0c, 0x10,
  0xfd, 0x05, 0x03, 0x08, 0xfa, 0x25, 0x05, 0xfc, 0xf5, 0xf5, 0x08, 0xf5,
  0x12, 0x1a, 0x0f, 0x06, 0xfa, 0xfa, 0x07, 0xfd, 0x17, 0xfe, 0xfe, 0x03,
  0x01, 0xfa, 0xfe, 0xfd, 0xec, 0x11, 0x00, 0x08, 0x08, 0xfe, 0xff, 0x00,
  0xa2, 0xfe, 0xff, 0xff, 0x04, 0x00, 0x00, 0x00, 0x0c, 0x00, 0x00, 0x00,
  0x08, 0xef, 0xff, 0xff, 0x04, 0xf4, 0xff, 0xff, 0xf4, 0x1c, 0x00, 0x00,
  0x24, 0xfc, 0xff, 0xff, 0x0f, 0x00, 0x00, 0x00, 0x54, 0x4f, 0x43, 0x4f,
  0x20, 0x43, 0x6f, 0x6e, 0x76, 0x65, 0x72, 0x74, 0x65, 0x64, 0x2e, 0x00,
  0x01, 0x00, 0x00, 0x00, 0x04, 0x00, 0x00, 0x00, 0x24, 0xfb, 0xff, 0xff,
  0x68, 0x01, 0x00, 0x00, 0x5c, 0x01, 0x00, 0x00, 0x50, 0x01, 0x00, 0x00,
  0x04, 0x00, 0x00, 0x00, 0x04, 0x00, 0x00, 0x00, 0xf4, 0x00, 0x00, 0x00,
  0x90, 0x00, 0x00, 0x00, 0x48, 0x00, 0x00, 0x00, 0x04, 0x00, 0x00, 0x00,
  0xce, 0xff, 0xff, 0xff, 0x00, 0x00, 0x00, 0x09, 0x03, 0x00, 0x00, 0x00,
  0x1c, 0x00, 0x00, 0x00, 0x10, 0x00, 0x00, 0x00, 0x04, 0x00, 0x00, 0x00,
  0x1a, 0xff, 0xff, 0xff, 0x00, 0x00, 0x80, 0x3f, 0x01, 0x00, 0x00, 0x00,
  0x09, 0x00, 0x00, 0x00, 0x01, 0x00, 0x00, 0x00, 0x06, 0x00, 0x00, 0x00,
  0x00, 0x00, 0x0e, 0x00, 0x18, 0x00, 0x08, 0x00, 0x0c, 0x00, 0x10, 0x00,
  0x07, 0x00, 0x14, 0x00, 0x0e, 0x00, 0x00, 0x00, 0x00, 0x00, 0x00, 0x08,
  0x01, 0x00, 0x00, 0x00, 0x18, 0x00, 0x00, 0x00, 0x0c, 0x00, 0x00, 0x00,
  0x04, 0x00, 0x00, 0x00, 0xc4, 0xfc, 0xff, 0xff, 0x01, 0x00, 0x00, 0x00,
  0x06, 0x00, 0x00, 0x00, 0x03, 0x00, 0x00, 0x00, 0x02, 0x00, 0x00, 0x00,
  0x07, 0x00, 0x00, 0x00, 0x01, 0x00, 0x00, 0x00, 0x00, 0x00, 0x0e, 0x00,
  0x16, 0x00, 0x00, 0x00, 0x08, 0x00, 0x0c, 0x00, 0x07, 0x00, 0x10, 0x00,
  0x0e, 0x00, 0x00, 0x00, 0x00, 0x00, 0x00, 0x02, 0x38, 0x00, 0x00, 0x00,
  0x2c, 0x00, 0x00, 0x00, 0x14, 0x00, 0x00, 0x00, 0x00, 0x00, 0x0e, 0x00,
  0x14, 0x00, 0x00, 0x00, 0x08, 0x00, 0x0c, 0x00, 0x10, 0x00, 0x07, 0x00,
  0x0e, 0x00, 0x00, 0x00, 0x00, 0x00, 0x00, 0x01, 0x02, 0x00, 0x00, 0x00,
  0x02, 0x00, 0x00, 0x00, 0x08, 0x00, 0x00, 0x00, 0x01, 0x00, 0x00, 0x00,
  0x02, 0x00, 0x00, 0x00, 0x03, 0x00, 0x00, 0x00, 0x04, 0x00, 0x00, 0x00,
  0x08, 0x00, 0x00, 0x00, 0x00, 0x00, 0x00, 0x00, 0x00, 0x00, 0x0e, 0x00,
  0x1a, 0x00, 0x08, 0x00, 0x0c, 0x00, 0x10, 0x00, 0x07, 0x00, 0x14, 0x00,
  0x0e, 0x00, 0x00, 0x00, 0x00, 0x00, 0x00, 0x11, 0x02, 0x00, 0x00, 0x00,
  0x38, 0x00, 0x00, 0x00, 0x2c, 0x00, 0x00, 0x00, 0x0c, 0x00, 0x00, 0x00,
  0x00, 0x00, 0x06, 0x00, 0x08, 0x00, 0x04, 0x00, 0x06, 0x00, 0x00, 0x00,
  0x04, 0x00, 0x00, 0x00, 0x04, 0x00, 0x00, 0x00, 0xff, 0xff, 0xff, 0xff,
  0x31, 0x00, 0x00, 0x00, 0x28, 0x00, 0x00, 0x00, 0x01, 0x00, 0x00, 0x00,
  0x01, 0x00, 0x00, 0x00, 0x04, 0x00, 0x00, 0x00, 0x02, 0x00, 0x00, 0x00,
  0x03, 0x00, 0x00, 0x00, 0x05, 0x00, 0x00, 0x00, 0x01, 0x00, 0x00, 0x00,
  0x09, 0x00, 0x00, 0x00, 0x01, 0x00, 0x00, 0x00, 0x03, 0x00, 0x00, 0x00,
  0x0a, 0x00, 0x00, 0x00, 0x34, 0x04, 0x00, 0x00, 0xcc, 0x03, 0x00, 0x00,
  0x4c, 0x03, 0x00, 0x00, 0xdc, 0x02, 0x00, 0x00, 0x60, 0x02, 0x00, 0x00,
  0x20, 0x02, 0x00, 0x00, 0xb0, 0x01, 0x00, 0x00, 0x44, 0x01, 0x00, 0x00,
  0x70, 0x00, 0x00, 0x00, 0x04, 0x00, 0x00, 0x00, 0x02, 0xfc, 0xff, 0xff,
  0x00, 0x00, 0x00, 0x09, 0x44, 0x00, 0x00, 0x00, 0x07, 0x00, 0x00, 0x00,
  0x28, 0x00, 0x00, 0x00, 0x04, 0x00, 0x00, 0x00, 0xf4, 0xfb, 0xff, 0xff,
  0x14, 0x00, 0x00, 0x00, 0x04, 0x00, 0x00, 0x00, 0x01, 0x00, 0x00, 0x00,
  0x80, 0xff, 0xff, 0xff, 0xff, 0xff, 0xff, 0xff, 0x01, 0x00, 0x00, 0x00,
  0x00, 0x00, 0x80, 0x3b, 0x0e, 0x00, 0x00, 0x00, 0x6c, 0x61, 0x62, 0x65,
  0x6c, 0x73, 0x5f, 0x73, 0x6f, 0x66, 0x74, 0x6d, 0x61, 0x78, 0x00, 0x00,
  0x02, 0x00, 0x00, 0x00, 0x01, 0x00, 0x00, 0x00, 0x03, 0x00, 0x00, 0x00,
  0x00, 0x00, 0x0e, 0x00, 0x1a, 0x00, 0x08, 0x00, 0x07, 0x00, 0x0c, 0x00,
  0x10, 0x00, 0x14, 0x00, 0x0e, 0x00, 0x00, 0x00, 0x00, 0x00, 0x00, 0x09,
  0xb4, 0x00, 0x00, 0x00, 0x08, 0x00, 0x00, 0x00, 0x94, 0x00, 0x00, 0x00,
  0x18, 0x00, 0x00, 0x00, 0x00, 0x00, 0x12, 0x00, 0x10, 0x00, 0x00, 0x00,
  0x00, 0x00, 0x04, 0x00, 0x08, 0x00, 0x00, 0x00, 0x00, 0x00, 0x0c, 0x00,
  0x12, 0x00, 0x00, 0x00, 0x50, 0x00, 0x00, 0x00, 0x08, 0x00, 0x00, 0x00,
  0x03, 0x00, 0x00, 0x00, 0x08, 0x00, 0x00, 0x00, 0x00, 0x00, 0x00, 0x00,
  0x00, 0x00, 0x00, 0x00, 0x00, 0x00, 0x00, 0x00, 0x00, 0x00, 0x00, 0x00,
  0x00, 0x00, 0x00, 0x00, 0x00, 0x00, 0x00, 0x00, 0x00, 0x00, 0x00, 0x00,
  0x00, 0x00, 0x00, 0x00, 0x00, 0x00, 0x00, 0x00, 0x00, 0x00, 0x00, 0x00,
  0x00, 0x00, 0x00, 0x00, 0x00, 0x00, 0x00, 0x00, 0x00, 0x00, 0x00, 0x00,
  0x00, 0x00, 0x00, 0x00, 0x00, 0x00, 0x00, 0x00, 0x00, 0x00, 0x00, 0x00,
  0x08, 0x00, 0x00, 0x00, 0xe4, 0x95, 0x3d, 0x3b, 0x33, 0x1e, 0x8b, 0x3a,
  0x88, 0x27, 0xd5, 0x39, 0xaf, 0xf9, 0xac, 0x39, 0x3d, 0x63, 0x12, 0x3a,
  0x15, 0x07, 0x08, 0x3b, 0xdb, 0x9f, 0x2d, 0x3a, 0x6e, 0xb0, 0x58, 0x3a,
  0x12, 0x00, 0x00, 0x00, 0x66, 0x69, 0x72, 0x73, 0x74, 0x5f, 0x77, 0x65,
  0x69, 0x67, 0x68, 0x74, 0x73, 0x2f, 0x72, 0x65, 0x61, 0x64, 0x00, 0x00,
  0x04, 0x00, 0x00, 0x00, 0x01, 0x00, 0x00, 0x00, 0x0a, 0x00, 0x00, 0x00,
  0x08, 0x00, 0x00, 0x00, 0x08, 0x00, 0x00, 0x00, 0x3a, 0xfd, 0xff, 0xff,
  0x00, 0x00, 0x00, 0x09, 0x54, 0x00, 0x00, 0x00, 0x02, 0x00, 0x00, 0x00,
  0x28, 0x00, 0x00, 0x00, 0x04, 0x00, 0x00, 0x00, 0x2c, 0xfd, 0xff, 0xff,
  0x14, 0x00, 0x00, 0x00, 0x04, 0x00, 0x00, 0x00, 0x01, 0x00, 0x00, 0x00,
  0x00, 0x00, 0x00, 0x00, 0x00, 0x00, 0x00, 0x00, 0x01, 0x00, 0x00, 0x00,
  0x11, 0xc8, 0x83, 0x3a, 0x1f, 0x00, 0x00, 0x00, 0x66, 0x69, 0x6e, 0x61,
  0x6c, 0x5f, 0x66, 0x63, 0x5f, 0x77, 0x65, 0x69, 0x67, 0x68, 0x74, 0x73,
  0x2f, 0x72, 0x65, 0x61, 0x64, 0x2f, 0x74, 0x72, 0x61, 0x6e, 0x73, 0x70,
  0x6f, 0x73, 0x65, 0x00, 0x02, 0x00, 0x00, 0x00, 0x03, 0x00, 0x00, 0x00,
  0xa0, 0x0f, 0x00, 0x00, 0xa2, 0xfd, 0xff, 0xff, 0x00, 0x00, 0x00, 0x09,
  0x58, 0x00, 0x00, 0x00, 0x04, 0x00, 0x00, 0x00, 0x44, 0x00, 0x00, 0x00,
  0x04, 0x00, 0x00, 0x00, 0x74, 0xfe, 0xff, 0xff, 0x30, 0x00, 0x00, 0x00,
  0x24, 0x00, 0x00, 0x00, 0x18, 0x00, 0x00, 0x00, 0x04, 0x00, 0x00, 0x00,
  0x01, 0x00, 0x00, 0x00, 0xf2, 0xff, 0xff, 0xff, 0xff, 0xff, 0xff, 0xff,
  0x00, 0x00, 0x00, 0x00, 0x01, 0x00, 0x00, 0x00, 0x48, 0x29, 0xe3, 0x3d,
  0x01, 0x00, 0x00, 0x00, 0x20, 0xd1, 0x79, 0x41, 0x01, 0x00, 0x00, 0x00,
  0x1e, 0xbb, 0x4a, 0xc1, 0x05, 0x00, 0x00, 0x00, 0x61, 0x64, 0x64, 0x5f,
  0x31, 0x00, 0x00, 0x00, 0x02, 0x00, 0x00, 0x00, 0x01, 0x00, 0x00, 0x00,
  0x03, 0x00, 0x00, 0x00, 0x0e, 0xfe, 0xff, 0xff, 0x00, 0x00, 0x00, 0x02,
  0x2c, 0x00, 0x00, 0x00, 0x06, 0x00, 0x00, 0x00, 0x10, 0x00, 0x00, 0x00,
  0x08, 0x00, 0x00, 0x00, 0x04, 0x00, 0x04, 0x00, 0x04, 0x00, 0x00, 0x00,
  0x0f, 0x00, 0x00, 0x00, 0x52, 0x65, 0x73, 0x68, 0x61, 0x70, 0x65, 0x5f,
  0x32, 0x2f, 0x73, 0x68, 0x61, 0x70, 0x65, 0x00, 0x01, 0x00, 0x00, 0x00,
  0x04, 0x00, 0x00, 0x00, 0x4a, 0xfe, 0xff, 0xff, 0x00, 0x00, 0x00, 0x09,
  0x5c, 0x00, 0x00, 0x00, 0x05, 0x00, 0x00, 0x00, 0x44, 0x00, 0x00, 0x00,
  0x04, 0x00, 0x00, 0x00, 0x1c, 0xff, 0xff, 0xff, 0x30, 0x00, 0x00, 0x00,
  0x24, 0x00, 0x00, 0x00, 0x18, 0x00, 0x00, 0x00, 0x04, 0x00, 0x00, 0x00,
  0x01, 0x00, 0x00, 0x00, 0x80, 0xff, 0xff, 0xff, 0xff, 0xff, 0xff, 0xff,
  0x00, 0x00, 0x00, 0x00, 0x01, 0x00, 0x00, 0x00, 0x41, 0x41, 0xd1, 0x3d,
  0x01, 0x00, 0x00, 0x00, 0x00, 0x70, 0xd0, 0x41, 0x01, 0x00, 0x00, 0x00,
  0x00, 0x00, 0x00, 0x00, 0x09, 0x00, 0x00, 0x00, 0x52, 0x65, 0x73, 0x68,
  0x61, 0x70, 0x65, 0x5f, 0x32, 0x00, 0x00, 0x00, 0x04, 0x00, 0x00, 0x00,
  0x01, 0x00, 0x00, 0x00, 0x31, 0x00, 0x00, 0x00, 0x28, 0x00, 0x00, 0x00,
  0x01, 0x00, 0x00, 0x00, 0xc2, 0xfe, 0xff, 0xff, 0x00, 0x00, 0x00, 0x09,
  0x58, 0x00, 0x00, 0x00, 0x0a, 0x00, 0x00, 0x00, 0x40, 0x00, 0x00, 0x00,
  0x04, 0x00, 0x00, 0x00, 0x94, 0xff, 0xff, 0xff, 0x2c, 0x00, 0x00, 0x00,
  0x20, 0x00, 0x00, 0x00, 0x14, 0x00, 0x00, 0x00, 0x04, 0x00, 0x00, 0x00,
  0x01, 0x00, 0x00, 0x00, 0x80, 0xff, 0xff, 0xff, 0xff, 0xff, 0xff, 0xff,
  0x01, 0x00, 0x00, 0x00, 0x41, 0x41, 0xd1, 0x3d, 0x01, 0x00, 0x00, 0x00,
  0x00, 0x70, 0xd0, 0x41, 0x01, 0x00, 0x00, 0x00, 0x00, 0x00, 0x00, 0x00,
  0x09, 0x00, 0x00, 0x00, 0x52, 0x65, 0x73, 0x68, 0x61, 0x70, 0x65, 0x5f,
  0x31, 0x00, 0x00, 0x00, 0x02, 0x00, 0x00, 0x00, 0x01, 0x00, 0x00, 0x00,
  0xa8, 0x07, 0x00, 0x00, 0x2e, 0xff, 0xff, 0xff, 0x00, 0x00, 0x00, 0x09,
  0x60, 0x00, 0x00, 0x00, 0x09, 0x00, 0x00, 0x00, 0x4c, 0x00, 0x00, 0x00,
  0x10, 0x00, 0x00, 0x00, 0x0c, 0x00, 0x14, 0x00, 0x04, 0x00, 0x08, 0x00,
  0x0c, 0x00, 0x10, 0x00, 0x0c, 0x00, 0x00, 0x00, 0x2c, 0x00, 0x00, 0x00,
  0x20, 0x00, 0x00, 0x00, 0x14, 0x00, 0x00, 0x00, 0x04, 0x00, 0x00, 0x00,
  0x01, 0x00, 0x00, 0x00, 0x80, 0xff, 0xff, 0xff, 0xff, 0xff, 0xff, 0xff,
  0x01, 0x00, 0x00, 0x00, 0x2e, 0xc0, 0xf9, 0x3d, 0x01, 0x00, 0x00, 0x00,
  0x6e, 0xc6, 0xf8, 0x41, 0x01, 0x00, 0x00, 0x00, 0x00, 0x00, 0x00, 0x00,
  0x04, 0x00, 0x00, 0x00, 0x52, 0x65, 0x6c, 0x75, 0x00, 0x00, 0x00, 0x00,
  0x04, 0x00, 0x00, 0x00, 0x01, 0x00, 0x00, 0x00, 0x19, 0x00, 0x00, 0x00,
  0x14, 0x00, 0x00, 0x00, 0x08, 0x00, 0x00, 0x00, 0xaa, 0xff, 0xff, 0xff,
  0x00, 0x00, 0x00, 0x02, 0x44, 0x00, 0x00, 0x00, 0x01, 0x00, 0x00, 0x00,
  0x2c, 0x00, 0x00, 0x00, 0x04, 0x00, 0x00, 0x00, 0x9c, 0xff, 0xff, 0xff,
  0x18, 0x00, 0x00, 0x00, 0x04, 0x00, 0x00, 0x00, 0x01, 0x00, 0x00, 0x00,
  0x00, 0x00, 0x00, 0x00, 0x00, 0x00, 0x00, 0x00, 0x00, 0x00, 0x00, 0x00,
  0x01, 0x00, 0x00, 0x00, 0x86, 0x90, 0x00, 0x39, 0x0b, 0x00, 0x00, 0x00,
  0x4d, 0x61, 0x74, 0x4d, 0x75, 0x6c, 0x5f, 0x62, 0x69, 0x61, 0x73, 0x00,
  0x01, 0x00, 0x00, 0x00, 0x03, 0x00, 0x00, 0x00, 0x00, 0x00, 0x0e, 0x00,
  0x18, 0x00, 0x08, 0x00, 0x07, 0x00, 0x0c, 0x00, 0x10, 0x00, 0x14, 0x00,
  0x0e, 0x00, 0x00, 0x00, 0x00, 0x00, 0x00, 0x02, 0xa0, 0x00, 0x00, 0x00,
  0x03, 0x00, 0x00, 0x00, 0x88, 0x00, 0x00, 0x00, 0x10, 0x00, 0x00, 0x00,
  0x0c, 0x00, 0x0c, 0x00, 0x00, 0x00, 0x00, 0x00, 0x04, 0x00, 0x08, 0x00,
  0x0c, 0x00, 0x00, 0x00, 0x4c, 0x00, 0x00, 0x00, 0x04, 0x00, 0x00, 0x00,
  0x08, 0x00, 0x00, 0x00, 0x00, 0x00, 0x00, 0x00, 0x00, 0x00, 0x00, 0x00,
  0x00, 0x00, 0x00, 0x00, 0x00, 0x00, 0x00, 0x00, 0x00, 0x00, 0x00, 0x00,
  0x00, 0x00, 0x00, 0x00, 0x00, 0x00, 0x00, 0x00, 0x00, 0x00, 0x00, 0x00,
  0x00, 0x00, 0x00, 0x00, 0x00, 0x00, 0x00, 0x00, 0x00, 0x00, 0x00, 0x00,
  0x00, 0x00, 0x00, 0x00, 0x00, 0x00, 0x00, 0x00, 0x00, 0x00, 0x00, 0x00,
  0x00, 0x00, 0x00, 0x00, 0x00, 0x00, 0x00, 0x00, 0x08, 0x00, 0x00, 0x00,
  0xb2, 0xf7, 0x9a, 0x39, 0x3b, 0x6e, 0xe3, 0x38, 0x9b, 0x3b, 0x2e, 0x38,
  0xef, 0x63, 0x0d, 0x38, 0xaa, 0x50, 0x6f, 0x38, 0xe9, 0x60, 0x5e, 0x39,
  0xc3, 0xeb, 0x8d, 0x38, 0x46, 0x1f, 0xb1, 0x38, 0x0b, 0x00, 0x00, 0x00,
  0x43, 0x6f, 0x6e, 0x76, 0x32, 0x44, 0x5f, 0x62, 0x69, 0x61, 0x73, 0x00,
  0x01, 0x00, 0x00, 0x00, 0x08, 0x00, 0x00, 0x00, 0x04, 0x00, 0x00, 0x00,
  0x4c, 0x00, 0x00, 0x00, 0x30, 0x00, 0x00, 0x00, 0x1c, 0x00, 0x00, 0x00,
  0x04, 0x00, 0x00, 0x00, 0xe6, 0xff, 0xff, 0xff, 0x00, 0x00, 0x00, 0x19,
  0x02, 0x00, 0x00, 0x00, 0x00, 0x00, 0x06, 0x00, 0x06, 0x00, 0x05, 0x00,
  0x06, 0x00, 0x00, 0x00, 0x00, 0x16, 0x0a, 0x00, 0x0e, 0x00, 0x07, 0x00,
  0x00, 0x00, 0x08, 0x00, 0x0a, 0x00, 0x00, 0x00, 0x00, 0x00, 0x00, 0x09,
  0x04, 0x00, 0x00, 0x00, 0x00, 0x00, 0x0a, 0x00, 0x0c, 0x00, 0x07, 0x00,
  0x00, 0x00, 0x08, 0x00, 0x0a, 0x00, 0x00, 0x00, 0x00, 0x00, 0x00, 0x04,
  0x03, 0x00, 0x00, 0x00
};
unsigned int models_tiny_conv_silence_10_0_bgvol_0_3_model_tflite_len = 14704;
