unsigned char models_model_tflite[] = {
  0x20, 0x00, 0x00, 0x00, 0x54, 0x46, 0x4c, 0x33, 0x00, 0x00, 0x00, 0x00,
  0x00, 0x00, 0x12, 0x00, 0x1c, 0x00, 0x04, 0x00, 0x08, 0x00, 0x0c, 0x00,
  0x10, 0x00, 0x14, 0x00, 0x00, 0x00, 0x18, 0x00, 0x12, 0x00, 0x00, 0x00,
  0x03, 0x00, 0x00, 0x00, 0x94, 0x48, 0x00, 0x00, 0x34, 0x42, 0x00, 0x00,
  0x1c, 0x42, 0x00, 0x00, 0x3c, 0x00, 0x00, 0x00, 0x04, 0x00, 0x00, 0x00,
  0x01, 0x00, 0x00, 0x00, 0x0c, 0x00, 0x00, 0x00, 0x08, 0x00, 0x0c, 0x00,
  0x04, 0x00, 0x08, 0x00, 0x08, 0x00, 0x00, 0x00, 0x08, 0x00, 0x00, 0x00,
  0x0b, 0x00, 0x00, 0x00, 0x13, 0x00, 0x00, 0x00, 0x6d, 0x69, 0x6e, 0x5f,
  0x72, 0x75, 0x6e, 0x74, 0x69, 0x6d, 0x65, 0x5f, 0x76, 0x65, 0x72, 0x73,
  0x69, 0x6f, 0x6e, 0x00, 0x0c, 0x00, 0x00, 0x00, 0xd4, 0x41, 0x00, 0x00,
  0xb4, 0x41, 0x00, 0x00, 0x24, 0x03, 0x00, 0x00, 0xf4, 0x02, 0x00, 0x00,
  0xec, 0x02, 0x00, 0x00, 0xe4, 0x02, 0x00, 0x00, 0xdc, 0x02, 0x00, 0x00,
  0xd4, 0x02, 0x00, 0x00, 0xcc, 0x02, 0x00, 0x00, 0x3c, 0x00, 0x00, 0x00,
  0x1c, 0x00, 0x00, 0x00, 0x04, 0x00, 0x00, 0x00, 0x16, 0xbd, 0xff, 0xff,
  0x04, 0x00, 0x00, 0x00, 0x05, 0x00, 0x00, 0x00, 0x31, 0x2e, 0x35, 0x2e,
  0x30, 0x00, 0x00, 0x00, 0x2a, 0xbd, 0xff, 0xff, 0x04, 0x00, 0x00, 0x00,
  0x10, 0x00, 0x00, 0x00, 0xff, 0xff, 0xff, 0xff, 0x31, 0x00, 0x00, 0x00,
  0x28, 0x00, 0x00, 0x00, 0x01, 0x00, 0x00, 0x00, 0x46, 0xbd, 0xff, 0xff,
  0x04, 0x00, 0x00, 0x00, 0x80, 0x02, 0x00, 0x00, 0x02, 0xfa, 0xd2, 0x41,
  0x93, 0x9e, 0xa3, 0x0e, 0xe1, 0xf4, 0xec, 0x1a, 0x09, 0x84, 0x24, 0xea,
  0x32, 0x24, 0x8c, 0x4a, 0xec, 0x33, 0xce, 0x04, 0xd0, 0x12, 0x9e, 0xfb,
  0x2a, 0x88, 0x1d, 0xd1, 0x53, 0xfb, 0xa8, 0x08, 0xfb, 0x60, 0xd8, 0xd8,
  0xc7, 0x2b, 0xa8, 0xcb, 0x04, 0xc4, 0x12, 0xb0, 0x64, 0x01, 0x9d, 0x9e,
  0x9b, 0x29, 0x11, 0xb7, 0xe1, 0x02, 0xc4, 0xae, 0xc0, 0x3a, 0x1d, 0xa5,
  0xf2, 0x19, 0xa8, 0x3b, 0x87, 0xc9, 0xc4, 0x1c, 0xdd, 0x0e, 0xab, 0x26,
  0x11, 0x89, 0x1c, 0xd2, 0x29, 0x12, 0xbd, 0x55, 0xe3, 0x31, 0xdb, 0x02,
  0xd4, 0x24, 0xd6, 0x0f, 0x3a, 0x81, 0x1c, 0x03, 0x6b, 0xfd, 0xc2, 0x10,
  0x0a, 0x70, 0xdf, 0x14, 0xc5, 0x1e, 0xc6, 0xc4, 0xf5, 0xcf, 0x09, 0xbc,
  0x7f, 0x09, 0x96, 0xc1, 0xc6, 0x4f, 0x08, 0xe3, 0xd1, 0xed, 0xc2, 0xaa,
  0xa0, 0x3e, 0x22, 0xe8, 0xdf, 0xf4, 0xcb, 0x22, 0xb2, 0xce, 0xde, 0x11,
  0xe3, 0xfe, 0xa1, 0x1a, 0x16, 0xba, 0x0b, 0xa6, 0x16, 0xc7, 0xb3, 0x3a,
  0xee, 0x36, 0xe6, 0xde, 0xe6, 0x15, 0xba, 0x13, 0x32, 0x9e, 0x0b, 0xbd,
  0x4d, 0xef, 0xc3, 0x1f, 0x0e, 0x55, 0xf3, 0xd2, 0xdd, 0xfa, 0xbf, 0xd6,
  0xef, 0xe3, 0xf6, 0x99, 0x5c, 0xf6, 0xc9, 0x0a, 0xda, 0x4c, 0x08, 0xc3,
  0xdc, 0xc7, 0xca, 0xa9, 0xc9, 0x3c, 0x11, 0xc5, 0xdd, 0x84, 0xbd, 0x06,
  0xcd, 0xe3, 0xc9, 0xf0, 0xf1, 0xd0, 0xb2, 0x0c, 0x1c, 0xc7, 0x1e, 0xc6,
  0x14, 0xb7, 0x9a, 0x08, 0xf5, 0x0c, 0xdf, 0x15, 0xf1, 0xd9, 0x85, 0xfd,
  0x4e, 0x9f, 0x17, 0xc3, 0x35, 0xcd, 0xad, 0x36, 0x04, 0x50, 0xe7, 0xe8,
  0xe8, 0xe4, 0xaa, 0xdf, 0x13, 0xe3, 0x03, 0xc0, 0x27, 0xba, 0xca, 0x4c,
  0xcc, 0x43, 0x15, 0xca, 0xed, 0x91, 0xad, 0xc0, 0xd7, 0x28, 0x17, 0x91,
  0xe5, 0x81, 0xd1, 0xec, 0xfc, 0xcd, 0xbf, 0x24, 0xfa, 0xdf, 0xc7, 0xf6,
  0x1a, 0xce, 0x17, 0xba, 0x17, 0xc5, 0xa4, 0xee, 0xd1, 0xe5, 0xdb, 0xf5,
  0xfd, 0xb3, 0xc0, 0xe4, 0x6d, 0xa6, 0x16, 0xcf, 0x1e, 0xd3, 0xca, 0x36,
  0xdc, 0x47, 0xd0, 0x03, 0xe7, 0xf5, 0xae, 0xe6, 0x22, 0xf4, 0x14, 0xaf,
  0x0a, 0xf4, 0xa4, 0x6b, 0xa8, 0x48, 0x09, 0xb4, 0xf8, 0xe1, 0x88, 0xf4,
  0xce, 0x1e, 0x1f, 0xa8, 0xf0, 0xba, 0xb6, 0xcc, 0xf9, 0xdb, 0xd1, 0xd7,
  0x05, 0xe8, 0xa3, 0xdb, 0x22, 0xf3, 0x00, 0xe2, 0x0f, 0xed, 0xbe, 0xcf,
  0xd8, 0xfb, 0xe5, 0x0c, 0xf5, 0x01, 0xe7, 0xdc, 0x5c, 0xb5, 0x04, 0xd6,
  0x11, 0x0e, 0x8c, 0x2e, 0xda, 0x56, 0xd6, 0xeb, 0xf2, 0xff, 0xed, 0xf4,
  0x19, 0xfa, 0xfd, 0xb4, 0xef, 0x48, 0xad, 0x5b, 0xb1, 0x3f, 0xfd, 0xcb,
  0x0b, 0x08, 0x97, 0x23, 0xda, 0x12, 0x21, 0xd5, 0x01, 0x24, 0xdc, 0xd2,
  0xee, 0xe4, 0xd2, 0xf6, 0x00, 0x13, 0xa5, 0xd6, 0x1e, 0x03, 0x05, 0xcb,
  0x0a, 0x0f, 0xfe, 0xe5, 0xe1, 0xf2, 0xd9, 0x05, 0xf7, 0x2c, 0xab, 0xec,
  0x41, 0xcc, 0xf5, 0xbc, 0x08, 0x50, 0xc9, 0x26, 0xe7, 0x4c, 0xe0, 0xf1,
  0xf5, 0xf4, 0xa2, 0xfd, 0x16, 0xfd, 0x07, 0x81, 0xe3, 0x6f, 0xf9, 0x3e,
  0xa2, 0x4a, 0x07, 0xe2, 0x0f, 0xff, 0xa6, 0x11, 0xff, 0xf0, 0x32, 0xae,
  0x19, 0x30, 0xca, 0xde, 0xff, 0xe7, 0xb9, 0xf8, 0xfe, 0x2b, 0xc9, 0xe5,
  0x04, 0x06, 0xdd, 0xb5, 0x0c, 0xfd, 0xdb, 0xf9, 0xea, 0xf3, 0xb1, 0x04,
  0xfa, 0x4a, 0xdd, 0x00, 0x3d, 0xc3, 0xd9, 0xcb, 0x07, 0x33, 0xd5, 0x1b,
  0x00, 0x62, 0xee, 0xdd, 0xf4, 0xf3, 0x9f, 0x1e, 0xe9, 0xf4, 0xf7, 0xc4,
  0xc9, 0x5c, 0xd7, 0x0b, 0xcd, 0x41, 0x10, 0xc1, 0x1b, 0xf8, 0xf8, 0x2c,
  0xe9, 0xdb, 0x20, 0xc6, 0x21, 0x16, 0xf7, 0xd7, 0xf9, 0xd0, 0x81, 0x04,
  0x05, 0x47, 0x81, 0xd6, 0xdc, 0xe0, 0x9e, 0xd3, 0xff, 0x00, 0xd1, 0x00,
  0xe1, 0xb3, 0x93, 0xf5, 0xec, 0x25, 0xe3, 0x01, 0xc2, 0xd5, 0xa5, 0xcb,
  0xf8, 0xd2, 0xd6, 0xfc, 0xbb, 0x70, 0xc9, 0xe1, 0xee, 0xe6, 0xfe, 0x20,
  0xc8, 0xec, 0xd7, 0x9c, 0xb1, 0x07, 0xf2, 0xdf, 0xc2, 0x4c, 0x11, 0xa6,
  0x10, 0xdf, 0xc7, 0x1e, 0xdb, 0xca, 0xfa, 0xd6, 0x0a, 0x0e, 0xec, 0x89,
  0xed, 0xc9, 0xe1, 0xcf, 0x02, 0x63, 0xd1, 0xbe, 0xb5, 0xdb, 0x96, 0xc7,
  0xf8, 0xdd, 0x18, 0xd4, 0xcb, 0xa1, 0xc2, 0xc7, 0xd8, 0x12, 0xf3, 0xdf,
  0x81, 0xe1, 0xaf, 0xa8, 0x06, 0xad, 0xc1, 0x9d, 0xa5, 0x64, 0xc2, 0xad,
  0xe4, 0xd2, 0xde, 0xff, 0xfc, 0xcd, 0xe3, 0x9f, 0xd6, 0xae, 0xdd, 0x81,
  0xa5, 0x41, 0x0c, 0xfc, 0x03, 0xc5, 0xd2, 0xbb, 0x07, 0xb9, 0x11, 0xa9,
  0x3c, 0xbd, 0xff, 0xff, 0x40, 0xbd, 0xff, 0xff, 0x44, 0xbd, 0xff, 0xff,
  0x48, 0xbd, 0xff, 0xff, 0x4c, 0xbd, 0xff, 0xff, 0xe6, 0xbf, 0xff, 0xff,
  0x04, 0x00, 0x00, 0x00, 0x20, 0x00, 0x00, 0x00, 0xe4, 0x03, 0x00, 0x00,
  0x11, 0x07, 0x00, 0x00, 0xe6, 0xff, 0xff, 0xff, 0x6b, 0xfa, 0xff, 0xff,
  0x00, 0x00, 0x00, 0x00, 0xc1, 0x02, 0x00, 0x00, 0xd7, 0xfe, 0xff, 0xff,
  0x00, 0x00, 0x00, 0x00, 0x12, 0xc0, 0xff, 0xff, 0x04, 0x00, 0x00, 0x00,
  0x80, 0x3e, 0x00, 0x00, 0x18, 0x11, 0xfb, 0x04, 0x3a, 0x05, 0x0b, 0x00,
  0x16, 0xf0, 0x03, 0x02, 0xfc, 0x0c, 0x0f, 0x0b, 0x1f, 0xda, 0x01, 0x04,
  0x09, 0x0e, 0xf8, 0x0c, 0x1a, 0xca, 0xff, 0x00, 0xfb, 0x04, 0xff, 0xff,
  0x1b, 0xdf, 0x07, 0x08, 0x04, 0xff, 0x07, 0x02, 0x0b, 0xd6, 0x07, 0x03,
  0xfb, 0x07, 0xfc, 0x13, 0x19, 0xe8, 0x05, 0x06, 0xf2, 0x12, 0x01, 0x0b,
  0x1a, 0xf1, 0xf9, 0x00, 0x11, 0x05, 0xfc, 0x00, 0x0e, 0xe8, 0xff, 0x04,
  0x0d, 0xfc, 0x03, 0x08, 0x18, 0xea, 0xf8, 0x02, 0xfc, 0xfa, 0xfd, 0x01,
  0x03, 0xe5, 0x03, 0xfe, 0x05, 0x11, 0x0f, 0xfc, 0x19, 0xe1, 0x07, 0x05,
  0x01, 0xff, 0x05, 0x09, 0x1f, 0xdc, 0x06, 0x05, 0xfe, 0x06, 0x0e, 0xfa,
  0x02, 0xec, 0x0b, 0x14, 0xfb, 0x00, 0x00, 0x00, 0x11, 0xd9, 0xff, 0x06,
  0x02, 0xfb, 0x01, 0x08, 0x0e, 0xde, 0x02, 0x03, 0x05, 0x10, 0x0a, 0xfa,
  0x03, 0xe5, 0x01, 0x03, 0xfc, 0x0c, 0x06, 0x00, 0x14, 0xe5, 0x0a, 0x03,
  0x0d, 0x03, 0x02, 0x08, 0x06, 0xf4, 0xff, 0x08, 0xf4, 0xfe, 0xfe, 0x06,
  0x1d, 0xce, 0x08, 0x00, 0xfa, 0xfd, 0xfc, 0x0a, 0x0f, 0x03, 0x08, 0x01,
  0x3b, 0xfe, 0xe9, 0x10, 0xfc, 0xde, 0xfd, 0xf9, 0x09, 0x0f, 0xf4, 0xfb,
  0x0e, 0xd3, 0xf6, 0x03, 0xfc, 0x13, 0x02, 0xf0, 0x06, 0xe1, 0x02, 0x06,
  0x00, 0x1a, 0x03, 0x00, 0x18, 0xdc, 0x0a, 0x02, 0x04, 0x0b, 0x02, 0x00,
  0x02, 0xeb, 0x08, 0xfe, 0xf9, 0x0b, 0xfe, 0xf3, 0x16, 0xea, 0x0d, 0xed,
  0x07, 0x10, 0xf6, 0x07, 0x0b, 0xec, 0x06, 0xf5, 0x07, 0x05, 0x09, 0xf8,
  0x11, 0xf4, 0xfd, 0x02, 0x08, 0xfa, 0x00, 0xf4, 0xff, 0xe9, 0xfa, 0xf8,
  0xfb, 0x0c, 0xfe, 0x03, 0x1a, 0xe9, 0x10, 0xfb, 0x01, 0x0b, 0x0f, 0xf2,
  0x19, 0xed, 0x04, 0x03, 0x05, 0x00, 0xfc, 0xfa, 0x16, 0xee, 0x0c, 0xfc,
  0xfa, 0x1d, 0xfe, 0xfc, 0x01, 0xef, 0xfa, 0x06, 0x08, 0x05, 0x04, 0xfa,
  0x13, 0xf3, 0x01, 0xf6, 0x0b, 0x12, 0xff, 0xfb, 0x08, 0xf0, 0x05, 0x02,
  0xfe, 0xf9, 0xff, 0x03, 0x14, 0xfa, 0x01, 0x16, 0x06, 0x08, 0xfb, 0xfa,
  0x17, 0xec, 0x0d, 0x06, 0x06, 0xff, 0x0c, 0x00, 0x01, 0xef, 0xfb, 0xfb,
  0x00, 0xf4, 0xfd, 0xfc, 0x13, 0xde, 0x04, 0xfb, 0xe1, 0x03, 0xfe, 0xf6,
  0x1b, 0x1e, 0x00, 0x07, 0x46, 0xf9, 0xf6, 0xf0, 0x14, 0x13, 0xf9, 0x11,
  0x15, 0x17, 0xe0, 0x03, 0x03, 0x09, 0x03, 0x00, 0x05, 0x14, 0x05, 0x04,
  0x11, 0x06, 0xf6, 0x0d, 0xff, 0x15, 0x03, 0x03, 0x09, 0x01, 0x0e, 0x0c,
  0x06, 0x0b, 0x0a, 0x05, 0x0c, 0x0a, 0x02, 0x05, 0x04, 0x16, 0xff, 0xf6,
  0x0b, 0xfe, 0x0c, 0x08, 0x07, 0x04, 0x0b, 0x06, 0xfc, 0x0d, 0xf6, 0x0d,
  0x06, 0x05, 0xfb, 0xfc, 0x0f, 0x04, 0x01, 0x02, 0xfa, 0x07, 0x06, 0x01,
  0x17, 0x06, 0x06, 0xff, 0xf7, 0x12, 0xfe, 0xff, 0x11, 0x13, 0xfe, 0x0c,
  0x05, 0x03, 0x03, 0xee, 0x0d, 0x05, 0x08, 0x02, 0x04, 0x15, 0x04, 0x01,
  0x0f, 0x01, 0xf5, 0xf4, 0x05, 0x12, 0x08, 0x04, 0x16, 0x01, 0xf7, 0x0c,
  0x00, 0x08, 0x13, 0x02, 0x07, 0x0d, 0x03, 0x05, 0x05, 0x02, 0x03, 0xff,
  0x19, 0x02, 0x05, 0xee, 0x03, 0x05, 0x11, 0x04, 0x03, 0x09, 0x0d, 0xf2,
  0x05, 0x01, 0x15, 0x02, 0x08, 0x12, 0xfe, 0x03, 0x09, 0x04, 0x02, 0xf4,
  0x19, 0x01, 0xfc, 0xf1, 0xf6, 0x0b, 0xfc, 0xf7, 0x04, 0x0e, 0x08, 0x0b,
  0xdb, 0xf8, 0xf9, 0x0c, 0x00, 0x14, 0x0b, 0xfc, 0x4b, 0xf8, 0xf7, 0x0e,
  0xf8, 0x04, 0x09, 0x15, 0xf8, 0x10, 0xe4, 0xfd, 0xe8, 0xf1, 0x0c, 0x10,
  0x08, 0x0f, 0x06, 0xff, 0x00, 0x0a, 0x00, 0x0f, 0x08, 0x17, 0x0a, 0x02,
  0xfe, 0x01, 0x07, 0x04, 0x0e, 0x19, 0xf9, 0x03, 0xfb, 0x10, 0xff, 0xf2,
  0xfb, 0x18, 0xf8, 0x01, 0xfe, 0x09, 0xff, 0x04, 0xff, 0x12, 0xe4, 0xfd,
  0xfc, 0x0e, 0xfb, 0xf9, 0x03, 0x0f, 0xf1, 0x0e, 0xf9, 0x0f, 0x00, 0xff,
  0xff, 0xfe, 0xf9, 0x07, 0x0a, 0x03, 0x0c, 0x0a, 0x08, 0x15, 0x05, 0xf8,
  0x19, 0x11, 0x01, 0x0c, 0x10, 0xfb, 0x04, 0x0b, 0x0b, 0x04, 0x08, 0x09,
  0x05, 0x0f, 0x0b, 0xfe, 0x06, 0x0a, 0x0a, 0x00, 0x07, 0x0c, 0x01, 0x0d,
  0x0f, 0x00, 0x04, 0x0c, 0xfa, 0x0c, 0x04, 0xfd, 0x02, 0x07, 0xff, 0x13,
  0x05, 0x13, 0x08, 0xfa, 0x0d, 0x0f, 0x0e, 0x03, 0x08, 0x11, 0xff, 0x0c,
  0xf2, 0x05, 0xfc, 0x12, 0x11, 0x04, 0x0c, 0xf6, 0xfc, 0x11, 0x00, 0x00,
  0x02, 0x0f, 0xf8, 0x03, 0xfd, 0x14, 0x09, 0xfe, 0xf9, 0x06, 0xfe, 0x03,
  0x05, 0x02, 0x04, 0xfa, 0xf6, 0x00, 0xfb, 0xfe, 0xf6, 0xff, 0xf4, 0x08,
  0x35, 0xf3, 0xfe, 0xf9, 0xe8, 0x0b, 0x06, 0x08, 0x0c, 0x00, 0xf1, 0x03,
  0xde, 0xf5, 0x0e, 0x11, 0x04, 0x0a, 0xf1, 0xf9, 0xed, 0xf3, 0xfa, 0x05,
  0x0b, 0x12, 0xdc, 0x01, 0xf6, 0xfd, 0xfc, 0xf5, 0x00, 0x07, 0xd7, 0xf5,
  0xfd, 0xfe, 0xf6, 0x01, 0xfb, 0x0b, 0xe6, 0xfc, 0xf3, 0x06, 0x04, 0x10,
  0xf7, 0xff, 0xd6, 0x02, 0xfb, 0xfb, 0x06, 0xe4, 0x09, 0xfe, 0xe3, 0x0f,
  0xe6, 0x03, 0x08, 0xf3, 0x08, 0xf8, 0xe8, 0xfd, 0xee, 0x0b, 0xf8, 0x06,
  0x06, 0xf7, 0xf1, 0x05, 0x0f, 0xfe, 0x01, 0x01, 0x04, 0x12, 0xf5, 0xf1,
  0x10, 0xfa, 0x03, 0x07, 0xf5, 0xfe, 0xe2, 0x0e, 0x09, 0x03, 0xff, 0x03,
  0xfa, 0x09, 0xfe, 0xfb, 0x08, 0xff, 0x02, 0xfc, 0xf4, 0x14, 0x07, 0xf8,
  0x0f, 0x18, 0xf9, 0xfd, 0x05, 0xf5, 0xe4, 0x0c, 0x06, 0x0c, 0x0c, 0x05,
  0x03, 0x0f, 0xe6, 0x09, 0xfa, 0x0e, 0x12, 0x11, 0x05, 0x04, 0x06, 0xfd,
  0x0f, 0x0e, 0xfe, 0xff, 0x00, 0xff, 0xf2, 0x0b, 0xea, 0x0b, 0x04, 0x08,
  0x06, 0x08, 0x0a, 0xfb, 0x04, 0xf4, 0x03, 0x04, 0xfd, 0x0b, 0x02, 0x0a,
  0x07, 0xf5, 0x02, 0x09, 0x28, 0xea, 0x04, 0xfb, 0xdc, 0xf3, 0x03, 0x0f,
  0xf8, 0x11, 0xf4, 0x06, 0xdf, 0xe1, 0x04, 0x08, 0xfd, 0x05, 0xe8, 0xfc,
  0xf7, 0xf3, 0x06, 0xfa, 0xf3, 0x09, 0xe6, 0xfa, 0xf0, 0xf1, 0xf6, 0x03,
  0x04, 0xff, 0xdc, 0xfe, 0xff, 0xe0, 0xf8, 0x01, 0xfc, 0xfd, 0xec, 0x09,
  0xf7, 0xf5, 0x0d, 0xfd, 0xf4, 0x09, 0xca, 0xf6, 0xf8, 0x0e, 0x00, 0xf5,
  0x09, 0xec, 0xd6, 0xf7, 0xe8, 0x02, 0x04, 0xea, 0x16, 0x01, 0xd1, 0xf7,
  0x04, 0xfe, 0x0a, 0x00, 0xff, 0x10, 0xe1, 0xf8, 0x07, 0xff, 0xfe, 0x09,
  0xfa, 0x07, 0xeb, 0x01, 0x0d, 0xf4, 0x01, 0xfb, 0x08, 0x03, 0xf6, 0x02,
  0x11, 0xf1, 0x04, 0x00, 0xf2, 0xf9, 0x0b, 0x01, 0x06, 0x0e, 0x11, 0x09,
  0x04, 0xfe, 0x06, 0xfe, 0x1b, 0x0f, 0x04, 0xfb, 0xfd, 0x05, 0xe7, 0xf4,
  0x0f, 0x06, 0x04, 0x0e, 0x07, 0xfb, 0xec, 0x00, 0x11, 0x0f, 0x0b, 0xfa,
  0x00, 0xf3, 0xff, 0x06, 0x12, 0xfa, 0x08, 0x00, 0xf9, 0x05, 0xff, 0x07,
  0x09, 0x0b, 0xf8, 0x0f, 0xfa, 0x07, 0x04, 0xfe, 0x02, 0x10, 0xfc, 0x13,
  0x0b, 0xff, 0x01, 0xfe, 0xfc, 0x06, 0xfc, 0x08, 0x18, 0xe5, 0x00, 0x05,
  0xe2, 0xe7, 0xfe, 0xf7, 0xf6, 0x0a, 0xe9, 0x06, 0xdd, 0xeb, 0x0b, 0x03,
  0x0b, 0x00, 0xeb, 0xf9, 0xe4, 0xf8, 0x0b, 0xf8, 0xfe, 0xfe, 0xe9, 0x05,
  0xd9, 0xf5, 0x0c, 0x01, 0x07, 0x0c, 0xdd, 0x06, 0xfe, 0x04, 0x07, 0xf2,
  0xeb, 0xfa, 0xe9, 0x05, 0x0e, 0xf6, 0xff, 0xf3, 0xfe, 0xee, 0xd0, 0xfc,
  0xeb, 0x14, 0x03, 0xfc, 0x15, 0xef, 0xd4, 0x07, 0xec, 0x09, 0x0b, 0xf2,
  0xfe, 0xf6, 0xdd, 0x00, 0x00, 0xfc, 0xfc, 0x0a, 0xff, 0xfe, 0xf3, 0x05,
  0x1d, 0xfa, 0x0c, 0xf6, 0xf3, 0xfb, 0xfe, 0x02, 0x0c, 0xf9, 0x08, 0xfd,
  0xf8, 0xff, 0x01, 0x02, 0x13, 0x00, 0xf8, 0xf6, 0xee, 0x08, 0x2d, 0xfa,
  0x05, 0x0b, 0xf9, 0x00, 0xff, 0x00, 0x08, 0x03, 0x15, 0x14, 0x07, 0x08,
  0x02, 0x04, 0xeb, 0xf1, 0x0c, 0x06, 0xf8, 0x06, 0x01, 0xf5, 0xf7, 0xf8,
  0xfe, 0x0e, 0xfe, 0xf6, 0x02, 0xf6, 0xfc, 0x00, 0x15, 0xfa, 0xfc, 0xff,
  0xf3, 0x0c, 0xfd, 0x0c, 0xff, 0x20, 0xfe, 0x0c, 0x01, 0xf7, 0x16, 0x03,
  0xfe, 0x1c, 0x02, 0x09, 0x10, 0xf6, 0xf6, 0xf5, 0x09, 0x06, 0x10, 0xfe,
  0x16, 0xcb, 0x02, 0x10, 0xd8, 0xf0, 0x09, 0xf6, 0xfa, 0x02, 0xfb, 0x00,
  0xce, 0xe8, 0xfc, 0xfd, 0x0c, 0x12, 0xde, 0xfb, 0xd5, 0xef, 0xf5, 0x02,
  0xfe, 0x18, 0xf7, 0xfc, 0xde, 0xe9, 0x06, 0xf1, 0x0c, 0x01, 0xe8, 0xfe,
  0xf4, 0x03, 0xf8, 0xf0, 0x0c, 0xfe, 0xe0, 0x0b, 0x02, 0x17, 0xfb, 0x09,
  0xfb, 0xee, 0xc2, 0x02, 0xdc, 0x0c, 0x0b, 0xfa, 0x0d, 0xe4, 0xd7, 0x03,
  0xf1, 0x0d, 0x00, 0xf5, 0x1f, 0xfb, 0xd6, 0x07, 0xf5, 0x02, 0x00, 0xf1,
  0x11, 0x08, 0xdb, 0xfd, 0x1b, 0x0a, 0x02, 0x0b, 0xed, 0x02, 0xfd, 0x02,
  0x16, 0xfa, 0xf9, 0xf1, 0xe2, 0xff, 0xfe, 0xfd, 0x0c, 0xf3, 0x05, 0xfc,
  0xf6, 0x01, 0x28, 0xf7, 0x11, 0x15, 0xf4, 0x0c, 0x07, 0x02, 0x15, 0xf3,
  0x0a, 0x14, 0x0c, 0x03, 0x01, 0xf0, 0xf7, 0x05, 0xf8, 0x0b, 0x0c, 0xf6,
  0x13, 0xeb, 0xf2, 0xfb, 0xf5, 0x0c, 0x02, 0xff, 0x0b, 0xf2, 0x00, 0x02,
  0x03, 0x06, 0x16, 0x0a, 0xd9, 0xec, 0x09, 0xfc, 0x0c, 0x1f, 0xfd, 0x0a,
  0xf6, 0xfa, 0x05, 0xfe, 0xf9, 0x1f, 0x08, 0x0b, 0x08, 0xfc, 0x01, 0xf3,
  0xfa, 0x10, 0x09, 0x0e, 0x10, 0xbd, 0xfb, 0x03, 0xdc, 0xec, 0x05, 0x02,
  0x01, 0x09, 0xfe, 0x0d, 0xe3, 0xed, 0x00, 0x06, 0x03, 0xff, 0xee, 0xfe,
  0xdb, 0xee, 0x12, 0xfc, 0x01, 0x0f, 0xf4, 0x03, 0xe5, 0xf6, 0x01, 0xf6,
  0x00, 0x04, 0xf0, 0x08, 0xec, 0x05, 0x06, 0xf5, 0x11, 0x03, 0xe5, 0x04,
  0x0f, 0x0c, 0xfe, 0xfa, 0x01, 0xee, 0xce, 0x05, 0xe8, 0x15, 0xf6, 0xfd,
  0x11, 0xe4, 0xd6, 0x02, 0xfa, 0x06, 0x03, 0xf1, 0x13, 0xfa, 0xd9, 0xfb,
  0xf1, 0x05, 0xfc, 0x02, 0x07, 0xfd, 0xd8, 0x0a, 0x21, 0xfa, 0x07, 0xf0,
  0xfa, 0x01, 0xf2, 0x03, 0x14, 0x0b, 0xf5, 0xf0, 0xef, 0xf9, 0xfa, 0x0f,
  0x1c, 0xfa, 0x01, 0xff, 0xee, 0xeb, 0x20, 0x01, 0x08, 0x03, 0xfa, 0x01,
  0x0e, 0xee, 0x11, 0x0b, 0x1a, 0xfc, 0xfa, 0x09, 0x07, 0xe8, 0xfd, 0xfe,
  0x14, 0x0a, 0x0c, 0xf3, 0xfa, 0xf4, 0xf5, 0xfe, 0x07, 0x12, 0x05, 0x0d,
  0x03, 0xfa, 0x01, 0xf8, 0x09, 0x06, 0xfa, 0xf3, 0xd7, 0xff, 0xf0, 0x07,
  0x0d, 0x1d, 0xf9, 0x05, 0x04, 0x05, 0x04, 0xfd, 0xf6, 0x10, 0x0c, 0x06,
  0x16, 0x04, 0x08, 0x00, 0x0a, 0x17, 0x04, 0xfb, 0x16, 0xc2, 0xff, 0xf5,
  0xe3, 0x02, 0x02, 0xfe, 0xf8, 0x03, 0xef, 0x06, 0xd7, 0xe8, 0xff, 0x0c,
  0x11, 0xfe, 0xe2, 0xf8, 0xdd, 0xf8, 0xf8, 0xf8, 0x0e, 0x18, 0xee, 0xff,
  0xec, 0x03, 0x06, 0xf7, 0x0f, 0x00, 0xff, 0xf6, 0xdb, 0x0e, 0x10, 0xfa,
  0x26, 0xfe, 0xed, 0xff, 0x05, 0xfe, 0x02, 0xfd, 0x01, 0xfe, 0xc4, 0xf3,
  0xed, 0x09, 0x05, 0x01, 0x17, 0xef, 0xd6, 0xff, 0xf1, 0x08, 0xf6, 0xf1,
  0x11, 0xf0, 0xd2, 0xf2, 0xf7, 0xfc, 0xf7, 0xe4, 0xfb, 0xf6, 0xe0, 0x05,
  0x0a, 0x01, 0x02, 0x04, 0xf0, 0xfc, 0xf5, 0x06, 0x13, 0x06, 0x02, 0xf8,
  0xf5, 0xf0, 0x02, 0xf5, 0x16, 0x12, 0xf5, 0xfb, 0xee, 0xf5, 0x39, 0x03,
  0x03, 0x04, 0x01, 0x14, 0x12, 0xef, 0x20, 0x0a, 0x1a, 0x0c, 0x01, 0x0c,
  0x04, 0xf4, 0xf5, 0xfa, 0x11, 0x08, 0xfe, 0xf0, 0x00, 0xec, 0xf0, 0x02,
  0xfd, 0x19, 0x0f, 0xfc, 0x08, 0xf5, 0x0d, 0x01, 0x05, 0x10, 0xfc, 0x04,
  0xe2, 0x02, 0xe9, 0xfc, 0x12, 0x1a, 0x05, 0x13, 0x03, 0xf5, 0x13, 0x02,
  0xf5, 0x1a, 0xf5, 0x16, 0x09, 0x02, 0x13, 0x02, 0xfd, 0x1f, 0xf9, 0x05,
  0x18, 0xbf, 0x04, 0x06, 0xe3, 0x01, 0x04, 0xfa, 0xee, 0x16, 0xf9, 0x00,
  0xcd, 0xef, 0xfc, 0x09, 0x00, 0xf9, 0xdf, 0x02, 0xd9, 0xf3, 0xff, 0x0e,
  0xfc, 0x19, 0xf9, 0xfc, 0xd8, 0x02, 0xf7, 0xfb, 0xfb, 0x07, 0xe6, 0x02,
  0xe0, 0x1b, 0x05, 0xf5, 0x16, 0xf6, 0xeb, 0x0b, 0xf0, 0x04, 0xfe, 0x04,
  0x04, 0xf2, 0xd6, 0x08, 0xe9, 0x0f, 0x11, 0x02, 0x0e, 0xea, 0xe0, 0xfd,
  0x04, 0x1b, 0x01, 0xea, 0x08, 0xf1, 0xe0, 0x01, 0x0c, 0x0e, 0xfc, 0xfc,
  0xf4, 0xf8, 0xee, 0xf7, 0x20, 0x08, 0x06, 0xf3, 0xfa, 0x03, 0x05, 0xf2,
  0x0a, 0x09, 0x02, 0xf9, 0xf1, 0xe0, 0x07, 0xfe, 0x06, 0x17, 0x08, 0x05,
  0xe6, 0xec, 0x23, 0xff, 0xfc, 0x17, 0x04, 0x00, 0x04, 0xed, 0x10, 0xf6,
  0x14, 0x22, 0xfb, 0xfe, 0x11, 0xee, 0xf2, 0xf6, 0x10, 0x1d, 0x0a, 0xe5,
  0x04, 0xfa, 0xf9, 0xfa, 0xff, 0x19, 0x06, 0xfc, 0xfa, 0xf5, 0x06, 0x00,
  0x05, 0x13, 0xff, 0xfb, 0xe5, 0xfb, 0xe8, 0x03, 0x0c, 0x0f, 0x03, 0x0b,
  0xfb, 0xf8, 0xff, 0x0d, 0xe5, 0x0e, 0xfa, 0x13, 0x00, 0xf1, 0x12, 0xfe,
  0xf5, 0x1e, 0x0a, 0xfa, 0x20, 0xb4, 0x15, 0xf4, 0xe1, 0xfd, 0x07, 0xf2,
  0xef, 0x09, 0xf8, 0x03, 0xd7, 0xf4, 0x0a, 0x0d, 0xf6, 0x05, 0xea, 0x02,
  0xdd, 0xf8, 0xf7, 0x01, 0x03, 0x13, 0xe3, 0xfa, 0xd3, 0x05, 0xff, 0x06,
  0x03, 0x14, 0xe9, 0xf5, 0xdb, 0x11, 0xf7, 0x0b, 0x20, 0xff, 0xe7, 0xfd,
  0xf4, 0x01, 0x0a, 0x10, 0x03, 0xf5, 0xdd, 0xf7, 0xde, 0x0d, 0x03, 0x04,
  0x13, 0xf7, 0xe0, 0xff, 0xe6, 0x1a, 0x05, 0xee, 0x0c, 0xee, 0xe5, 0xf8,
  0x09, 0x1e, 0x08, 0xfb, 0xfb, 0xfc, 0xf0, 0xf5, 0x25, 0x07, 0xfa, 0xf9,
  0x11, 0x11, 0xf4, 0x09, 0x12, 0x10, 0x02, 0x01, 0xf4, 0xe7, 0xfd, 0xfa,
  0xfd, 0x19, 0x06, 0x02, 0xe4, 0xf4, 0x16, 0xfd, 0x01, 0x19, 0x07, 0xf9,
  0x09, 0xf3, 0x04, 0x05, 0x12, 0x24, 0x10, 0xfd, 0x0a, 0xf1, 0xf8, 0xf2,
  0x14, 0x21, 0x00, 0xf8, 0x08, 0xf1, 0x01, 0x0d, 0xfb, 0x23, 0x05, 0xfd,
  0xf8, 0xfb, 0x0c, 0x04, 0x01, 0x0c, 0x02, 0x03, 0xf6, 0xfa, 0xf1, 0xf9,
  0xfe, 0x0e, 0x12, 0x01, 0xee, 0x05, 0x11, 0x02, 0xe4, 0x05, 0x02, 0x02,
  0x06, 0x00, 0x03, 0xfd, 0x02, 0x15, 0xf8, 0x03, 0x1f, 0xc2, 0x0d, 0x05,
  0xe8, 0xfd, 0xfc, 0x01, 0xeb, 0x10, 0x0f, 0xfe, 0xd6, 0xf8, 0xfc, 0xff,
  0xf2, 0x14, 0xdd, 0x05, 0xd0, 0x00, 0x05, 0x07, 0x0a, 0x10, 0xda, 0xfb,
  0xde, 0x02, 0x05, 0xf3, 0x0b, 0x00, 0xe3, 0xf6, 0xd6, 0x0c, 0x0a, 0x0a,
  0x1f, 0x06, 0xed, 0xf9, 0xe7, 0x05, 0xfd, 0x04, 0xfe, 0xe8, 0xc8, 0xf5,
  0xe1, 0x0f, 0x0c, 0xff, 0x0e, 0xf7, 0xf0, 0xf0, 0xef, 0x1b, 0x09, 0xe5,
  0x20, 0xf5, 0xdc, 0xfa, 0x11, 0x18, 0x07, 0xf3, 0xfa, 0xf9, 0xf4, 0x01,
  0x1e, 0x02, 0x04, 0x07, 0xf7, 0x11, 0x06, 0xf5, 0x07, 0x22, 0x05, 0x03,
  0x05, 0xd6, 0x03, 0x01, 0xff, 0x29, 0xfd, 0xff, 0xfb, 0xf7, 0x1c, 0x03,
  0xff, 0x1f, 0x08, 0x09, 0x06, 0x08, 0x0a, 0xfd, 0x11, 0x2c, 0x09, 0xfc,
  0xfd, 0xea, 0xff, 0xfa, 0x18, 0x1b, 0x02, 0xfc, 0x07, 0xef, 0xfa, 0x0d,
  0x03, 0x1a, 0xfa, 0x02, 0x00, 0xfd, 0x0b, 0xee, 0x04, 0x08, 0x0d, 0x02,
  0xed, 0x00, 0xfa, 0xfb, 0x02, 0x16, 0xf8, 0x04, 0xf6, 0xf0, 0x0e, 0x05,
  0xde, 0x0d, 0xf5, 0x02, 0x05, 0xf7, 0xfe, 0xf7, 0xf5, 0x26, 0x02, 0x0d,
  0x1c, 0xc9, 0x11, 0x09, 0xe3, 0xf5, 0x0b, 0xf7, 0xf5, 0x12, 0xfd, 0xfe,
  0xd3, 0xf4, 0x0f, 0xf7, 0x00, 0x04, 0xe2, 0xf9, 0xd7, 0x00, 0x01, 0x06,
  0x09, 0x1d, 0xdc, 0x0a, 0xe3, 0x04, 0x0b, 0xed, 0xfe, 0x11, 0xd2, 0xfc,
  0xd0, 0x0a, 0xfe, 0x06, 0x1f, 0x05, 0xe8, 0x02, 0xe3, 0x12, 0x04, 0xf7,
  0x10, 0xf9, 0xe1, 0x06, 0xda, 0x06, 0x11, 0xff, 0x09, 0xe8, 0xea, 0x00,
  0xf7, 0x1e, 0x09, 0xf4, 0x25, 0xf6, 0xdd, 0xee, 0x06, 0x13, 0x08, 0xe3,
  0x07, 0xeb, 0xf1, 0x09, 0x25, 0x0a, 0xfd, 0x00, 0xf8, 0xfc, 0x0c, 0x03,
  0x02, 0x17, 0xfb, 0xf8, 0x06, 0xdb, 0xfe, 0xf1, 0xfd, 0x1b, 0x0c, 0xfd,
  0x07, 0xf8, 0x15, 0x05, 0x0f, 0x1a, 0x06, 0x00, 0x0b, 0xff, 0x0c, 0xf7,
  0x0c, 0x08, 0xfc, 0x0c, 0xfd, 0xee, 0x04, 0xfb, 0x0a, 0x15, 0xff, 0x01,
  0xff, 0xeb, 0xfc, 0xfe, 0xf9, 0x1a, 0xff, 0xf0, 0xfd, 0xec, 0x09, 0x08,
  0x0a, 0x28, 0x0a, 0x00, 0xf2, 0xf3, 0x03, 0x04, 0x11, 0x0d, 0x00, 0x0e,
  0xf1, 0x0e, 0x01, 0xf9, 0xd5, 0x0f, 0x03, 0x02, 0xfe, 0x00, 0xfe, 0x02,
  0x06, 0x16, 0x04, 0x08, 0x1e, 0xb6, 0x0d, 0x07, 0xe4, 0x09, 0x0a, 0x01,
  0xf6, 0x1a, 0x05, 0x00, 0xc6, 0xf8, 0x07, 0x01, 0xf5, 0x00, 0xe8, 0xf3,
  0xd3, 0x05, 0x02, 0xfa, 0x10, 0x15, 0xd0, 0xf2, 0xe5, 0xf6, 0xfe, 0xf0,
  0x0a, 0x0b, 0xcd, 0x04, 0xcc, 0x0d, 0x09, 0xf8, 0x18, 0xfd, 0xde, 0xfd,
  0xe5, 0x17, 0x02, 0x06, 0x0f, 0xe6, 0xdd, 0xfa, 0xd9, 0x17, 0x02, 0x08,
  0x24, 0xf1, 0xe9, 0x0a, 0xf8, 0x1a, 0xfb, 0xf0, 0x2e, 0x06, 0xda, 0xfa,
  0x09, 0x17, 0x07, 0xeb, 0x05, 0x00, 0xf9, 0xfa, 0x16, 0x13, 0xfc, 0x06,
  0xff, 0x01, 0xfa, 0xfe, 0x0a, 0x1c, 0x0b, 0xf6, 0xfe, 0xe5, 0xe9, 0xef,
  0xf9, 0x22, 0xfb, 0x0c, 0x02, 0x04, 0x1d, 0xfa, 0x06, 0x12, 0x04, 0x09,
  0x10, 0xfe, 0x01, 0xff, 0xfc, 0x08, 0x04, 0x12, 0xff, 0xf3, 0x05, 0xf9,
  0x03, 0x15, 0x0e, 0x07, 0xfd, 0xf4, 0xee, 0x04, 0xfe, 0x28, 0x04, 0x02,
  0xeb, 0xf3, 0xfb, 0xfc, 0x01, 0x22, 0x07, 0xfc, 0x00, 0xfb, 0x01, 0x02,
  0x01, 0x10, 0x03, 0x07, 0xf2, 0x02, 0x0a, 0x00, 0xca, 0x15, 0x0b, 0x04,
  0x10, 0xff, 0xf2, 0x07, 0x03, 0x24, 0xf5, 0xfb, 0x12, 0xca, 0x11, 0x00,
  0xde, 0x09, 0x05, 0xf9, 0xf3, 0x17, 0x08, 0x02, 0xc9, 0x0c, 0xfe, 0x0e,
  0xfd, 0x16, 0xe2, 0xff, 0xd3, 0x06, 0x0b, 0xed, 0x13, 0x11, 0xd3, 0xfb,
  0xe9, 0xfa, 0x03, 0xf4, 0x09, 0x01, 0xca, 0x04, 0xcf, 0x07, 0x0e, 0xfd,
  0x16, 0xfb, 0xe8, 0xf6, 0xe2, 0x0c, 0x17, 0xf5, 0x1d, 0xe1, 0xd4, 0x0a,
  0xcf, 0x1c, 0x03, 0x05, 0x24, 0x03, 0xdd, 0xfc, 0xf2, 0x1a, 0x0d, 0xe7,
  0x27, 0xf0, 0xd9, 0x09, 0x0c, 0x11, 0xfb, 0xf9, 0xfe, 0xfc, 0xe8, 0x08,
  0x2d, 0x09, 0x08, 0x02, 0x0e, 0xf7, 0xf4, 0x04, 0x13, 0x0f, 0xfe, 0xfd,
  0x09, 0xfa, 0xfc, 0x09, 0xff, 0x19, 0x0a, 0x0a, 0xfa, 0xfa, 0x1f, 0xf9,
  0xfb, 0x21, 0x04, 0x0e, 0xfe, 0x0b, 0x11, 0x01, 0xef, 0x17, 0x02, 0xff,
  0x06, 0xfe, 0x00, 0xfb, 0xf8, 0x12, 0x02, 0xf3, 0xf8, 0xe7, 0xfd, 0xfd,
  0x04, 0x32, 0xf9, 0xf9, 0xf2, 0xea, 0xf9, 0xf9, 0x07, 0x25, 0xfd, 0xfe,
  0xf3, 0xf4, 0xfe, 0xfe, 0x07, 0x1b, 0x0b, 0x14, 0xf7, 0x02, 0x04, 0xfc,
  0xca, 0x1c, 0x04, 0x0f, 0x07, 0x05, 0x0e, 0x00, 0xfa, 0x20, 0x0b, 0xfe,
  0x13, 0xc7, 0x0f, 0x0f, 0xe9, 0x08, 0x0a, 0xf4, 0x01, 0x11, 0x0b, 0xfe,
  0xcd, 0x09, 0x01, 0xff, 0xe8, 0x06, 0xf8, 0x04, 0xca, 0x10, 0xf6, 0xec,
  0x0b, 0x14, 0xc0, 0xfc, 0xf0, 0x11, 0x03, 0xef, 0xfc, 0x0c, 0xc3, 0x01,
  0xd1, 0x02, 0x13, 0xff, 0x07, 0x09, 0xd6, 0xf5, 0xf4, 0xfd, 0xf9, 0xf5,
  0x04, 0xf5, 0xcd, 0xf8, 0xe7, 0x0a, 0x0e, 0xff, 0x20, 0xfd, 0xe4, 0xf7,
  0xfe, 0x1f, 0x0b, 0xe3, 0x0e, 0xfb, 0xc9, 0xfc, 0x05, 0x24, 0x01, 0xf1,
  0xfe, 0xee, 0xe6, 0xf9, 0x19, 0x09, 0x04, 0x05, 0xf7, 0x04, 0xf2, 0xfc,
  0x07, 0x0e, 0xf8, 0xf5, 0x06, 0xfe, 0xf8, 0xfd, 0xea, 0x15, 0x0e, 0x0e,
  0xf3, 0x08, 0x21, 0x04, 0xe8, 0x1a, 0xf8, 0x1d, 0xfe, 0x03, 0x00, 0xfd,
  0x06, 0x0f, 0x11, 0x06, 0x15, 0xf1, 0xfc, 0xf6, 0xfb, 0x1f, 0x02, 0xef,
  0xf4, 0xf5, 0x01, 0xf4, 0x10, 0x31, 0x07, 0xfb, 0xf0, 0xe4, 0x09, 0xf2,
  0xf4, 0x23, 0xfa, 0xfb, 0xf3, 0x00, 0xfe, 0xf7, 0x09, 0x16, 0x02, 0xf8,
  0xff, 0x0b, 0xfc, 0xfc, 0xc3, 0x0c, 0x04, 0x11, 0xfe, 0x0d, 0x02, 0xec,
  0xec, 0x18, 0x00, 0x0a, 0x0d, 0xc5, 0x09, 0xff, 0xec, 0x04, 0x06, 0x04,
  0xf6, 0x21, 0x0a, 0x05, 0xc7, 0x02, 0xff, 0x00, 0xe3, 0xff, 0xec, 0x06,
  0xc2, 0x06, 0x03, 0xf4, 0x06, 0x20, 0xd1, 0x0b, 0xe0, 0x10, 0x06, 0xf0,
  0xfd, 0x14, 0xa9, 0xfc, 0xd1, 0x02, 0x11, 0xef, 0x12, 0x07, 0xc9, 0x0c,
  0xea, 0xfd, 0x10, 0xff, 0x11, 0xf6, 0xd5, 0xf1, 0xe8, 0x0b, 0x07, 0xf1,
  0x2c, 0x00, 0xd8, 0xfc, 0xf2, 0x12, 0x02, 0xe9, 0x1c, 0xfd, 0xcf, 0xfe,
  0x0a, 0x13, 0xfd, 0xfc, 0xff, 0xff, 0xf5, 0xfd, 0x1b, 0x15, 0x07, 0xfb,
  0xf7, 0x08, 0xee, 0x0c, 0x12, 0x19, 0xf9, 0xfc, 0xfb, 0xfd, 0xfc, 0xf8,
  0xf6, 0x21, 0x13, 0x0c, 0xf6, 0x01, 0x1c, 0x03, 0xf7, 0x13, 0x0b, 0x0f,
  0x01, 0xf5, 0x06, 0xfd, 0xfc, 0x10, 0x08, 0xf4, 0x01, 0xee, 0xfe, 0x03,
  0x09, 0x0f, 0x03, 0xf4, 0xf2, 0xef, 0x03, 0x0b, 0x09, 0x26, 0xfc, 0xee,
  0xf6, 0xf0, 0x08, 0x07, 0x0b, 0x26, 0xfe, 0x02, 0xe8, 0xfa, 0x09, 0x03,
  0x23, 0x17, 0x09, 0x04, 0x02, 0xfe, 0x07, 0xff, 0xd2, 0x06, 0xfc, 0x0a,
  0xff, 0x03, 0xfa, 0xfb, 0xef, 0x25, 0x01, 0x09, 0x14, 0xca, 0x0c, 0xfd,
  0xe1, 0x02, 0x00, 0xf4, 0xfc, 0x1a, 0x00, 0xfd, 0xc9, 0xfa, 0x03, 0x07,
  0xee, 0x03, 0xe9, 0x0d, 0xc6, 0x02, 0x14, 0xf7, 0x0d, 0x1e, 0xcf, 0x10,
  0xe2, 0x0a, 0x01, 0xfe, 0xf8, 0x11, 0xad, 0x07, 0xd3, 0x0a, 0x11, 0xeb,
  0x00, 0xf8, 0xd0, 0x07, 0xe2, 0x05, 0x06, 0xf9, 0x0f, 0x00, 0xc8, 0x08,
  0xdc, 0x09, 0x06, 0xf8, 0x25, 0xfb, 0xd0, 0xfa, 0xef, 0x0e, 0x09, 0xf2,
  0x0d, 0xec, 0xd1, 0x01, 0x10, 0x1c, 0x00, 0xfe, 0x08, 0xff, 0xe0, 0xfd,
  0x15, 0x0d, 0xfc, 0x00, 0xfe, 0x02, 0xe4, 0xf7, 0x0b, 0x23, 0x0b, 0xef,
  0xef, 0x02, 0xf3, 0xf8, 0xfa, 0x17, 0x03, 0x12, 0xf9, 0x05, 0x11, 0x06,
  0x01, 0x07, 0x10, 0x15, 0x02, 0x04, 0x07, 0xf8, 0xf7, 0x1e, 0xfa, 0xf6,
  0x07, 0xed, 0x02, 0x04, 0x00, 0x20, 0x07, 0xeb, 0xf1, 0xee, 0x0c, 0xf4,
  0x08, 0x1c, 0xfd, 0xfe, 0xf7, 0xf3, 0x17, 0x0c, 0x07, 0x17, 0x0d, 0xf7,
  0xeb, 0xfe, 0xfa, 0x01, 0x0b, 0x0e, 0x0d, 0x05, 0xfa, 0xfa, 0x08, 0xfd,
  0xd7, 0x18, 0xfb, 0x0b, 0x07, 0xf4, 0x08, 0x00, 0xdf, 0x0d, 0x03, 0x0a,
  0x16, 0xd5, 0x04, 0x01, 0xda, 0x0e, 0x01, 0xfe, 0xef, 0x07, 0xfc, 0x01,
  0xca, 0xfe, 0x08, 0x09, 0xe6, 0x1d, 0xed, 0xfc, 0xcb, 0x0f, 0x06, 0xe9,
  0x08, 0x1f, 0xc8, 0x07, 0xee, 0x0a, 0x04, 0x07, 0xfe, 0xfe, 0xba, 0x00,
  0xd2, 0x02, 0x02, 0xe9, 0xf3, 0xee, 0xd6, 0x03, 0xeb, 0x04, 0xfe, 0xf9,
  0x00, 0xf8, 0xcd, 0x05, 0xea, 0x01, 0xf7, 0x04, 0x16, 0xf7, 0xc9, 0x10,
  0xf0, 0x20, 0x0b, 0xf8, 0x09, 0xe5, 0xf0, 0xff, 0x11, 0x1d, 0x03, 0x04,
  0x0f, 0x01, 0xf1, 0x0a, 0x1a, 0x18, 0x0b, 0xf0, 0x02, 0xfa, 0x00, 0xfd,
  0x0b, 0x1f, 0xfe, 0xff, 0xf2, 0x03, 0xf6, 0x09, 0xf9, 0x18, 0xfe, 0x11,
  0xf3, 0x0a, 0x0c, 0xfa, 0xff, 0x05, 0x05, 0x17, 0xfc, 0x02, 0x0c, 0x00,
  0x02, 0x12, 0x04, 0x03, 0x08, 0xf9, 0x01, 0x05, 0x14, 0x0c, 0x04, 0xe5,
  0xf5, 0xf1, 0x09, 0xfc, 0x06, 0x30, 0x0e, 0xf1, 0xf6, 0xf5, 0x12, 0x06,
  0x00, 0x25, 0x09, 0x05, 0xeb, 0xf0, 0x08, 0xfe, 0x1c, 0x0e, 0x01, 0x01,
  0x05, 0x04, 0x0c, 0x03, 0xd4, 0x18, 0xf9, 0x08, 0x08, 0x00, 0xf6, 0xfa,
  0xe6, 0x21, 0xfb, 0x13, 0x18, 0xde, 0xff, 0xf6, 0xcd, 0x13, 0x0a, 0x05,
  0xf9, 0x1e, 0xfa, 0xf6, 0xce, 0xf9, 0x00, 0x04, 0xe0, 0x14, 0xe1, 0x03,
  0xbc, 0x00, 0x08, 0xf3, 0x07, 0x19, 0xd4, 0x03, 0xe2, 0x0b, 0xff, 0x06,
  0xfb, 0x05, 0xc1, 0xfa, 0xd6, 0x09, 0x10, 0xf3, 0x00, 0xf7, 0xe0, 0xfa,
  0xe4, 0x03, 0x00, 0xf6, 0x0d, 0xf8, 0xcf, 0xff, 0xf7, 0x05, 0x01, 0xfc,
  0x0c, 0xe5, 0xd3, 0x02, 0xf3, 0x10, 0xf6, 0xf1, 0xf9, 0xf2, 0xf4, 0xf7,
  0x0f, 0x20, 0x0c, 0x07, 0xff, 0xf2, 0xf3, 0x08, 0x15, 0x16, 0x08, 0x0b,
  0xf7, 0xfd, 0xf6, 0xf7, 0x0d, 0x1b, 0x06, 0xef, 0xe8, 0x07, 0x0d, 0xfb,
  0xfc, 0x16, 0xf9, 0xfe, 0xef, 0x07, 0x0c, 0x00, 0xf2, 0x15, 0xfe, 0x06,
  0x07, 0x08, 0x09, 0x0d, 0x10, 0x14, 0x0a, 0xf1, 0x0b, 0xfb, 0x05, 0xfd,
  0x0d, 0x13, 0x05, 0xf4, 0xe9, 0xf7, 0x0c, 0xfa, 0x04, 0x22, 0x0e, 0x08,
  0xf5, 0xf7, 0x11, 0x01, 0xff, 0x21, 0xfd, 0x06, 0xfa, 0xff, 0x06, 0x03,
  0x02, 0x15, 0xff, 0x1b, 0x02, 0x04, 0xfe, 0xf9, 0xcf, 0x0f, 0xf9, 0x0f,
  0x11, 0xff, 0xfe, 0x07, 0xd5, 0x30, 0x09, 0x0b, 0x19, 0xe5, 0x04, 0xf2,
  0xcc, 0x0e, 0xf5, 0xfb, 0xed, 0x0d, 0xe0, 0x05, 0xb2, 0xff, 0xfb, 0x03,
  0xd4, 0x1c, 0xda, 0x0c, 0xa8, 0x0f, 0x06, 0xf1, 0xf8, 0x1d, 0xcc, 0xf5,
  0xd9, 0xff, 0x04, 0xfd, 0xef, 0x07, 0xa9, 0x06, 0xd5, 0x16, 0x10, 0xf8,
  0xf5, 0xf6, 0xda, 0xf3, 0xe2, 0x01, 0x01, 0xfa, 0xff, 0xe3, 0xc6, 0x00,
  0xdf, 0x0b, 0x0b, 0xf9, 0x06, 0xe8, 0xbe, 0xfb, 0x03, 0x08, 0x02, 0xf5,
  0xf3, 0xf6, 0xd5, 0xf3, 0x13, 0x1b, 0x09, 0xfe, 0xf4, 0xef, 0xf8, 0x02,
  0x22, 0x0b, 0x0f, 0xff, 0xf0, 0xf6, 0xe6, 0x02, 0x11, 0x1d, 0x0f, 0xfd,
  0xd9, 0xfd, 0xf0, 0x02, 0xf3, 0x1c, 0xfe, 0x19, 0xf2, 0x0b, 0xff, 0xf3,
  0xfe, 0x0c, 0x06, 0x10, 0xfc, 0x0a, 0x0d, 0xf2, 0x0a, 0x10, 0x0f, 0xf9,
  0xfd, 0xf0, 0xf8, 0x05, 0x02, 0x16, 0x07, 0xf2, 0xe1, 0xe6, 0x14, 0x01,
  0xfa, 0x20, 0x0b, 0xfc, 0xf7, 0xfe, 0x13, 0x05, 0xf9, 0x24, 0x07, 0xff,
  0xf8, 0xef, 0x0a, 0x0a, 0xfd, 0x13, 0x04, 0x14, 0x04, 0x04, 0x06, 0x06,
  0xd4, 0x1c, 0x09, 0x07, 0x05, 0xf7, 0x0a, 0x05, 0xca, 0x1a, 0x03, 0xf3,
  0x0e, 0xed, 0xfd, 0xf7, 0xc3, 0x02, 0xf8, 0x0c, 0xe8, 0x0c, 0xd9, 0x09,
  0xc1, 0xf2, 0x0e, 0x15, 0xc0, 0x0e, 0xb4, 0xf8, 0xba, 0xf3, 0x00, 0x0b,
  0xe4, 0x08, 0xaa, 0x00, 0xe3, 0xf0, 0x05, 0x15, 0xe3, 0x08, 0xa1, 0x04,
  0xd0, 0xee, 0x12, 0xf4, 0xf8, 0xeb, 0xc1, 0x0b, 0xe6, 0x01, 0x14, 0xf5,
  0xf5, 0xe4, 0xae, 0xfe, 0xec, 0xfd, 0xfe, 0xe4, 0x00, 0xdc, 0xa5, 0x01,
  0xe8, 0x14, 0xff, 0xf5, 0xe4, 0xec, 0xcb, 0xfe, 0x07, 0x11, 0x01, 0x00,
  0x01, 0xe7, 0xdc, 0x02, 0x16, 0x0c, 0x06, 0xf8, 0xee, 0xee, 0xd0, 0xff,
  0x02, 0x0b, 0x09, 0xf3, 0xe0, 0x01, 0xd8, 0x08, 0xef, 0x07, 0x08, 0x10,
  0xf2, 0x06, 0xe7, 0xfc, 0xe8, 0x03, 0x09, 0x10, 0xf7, 0x00, 0xf7, 0x01,
  0xfb, 0x0f, 0x0b, 0xf3, 0xfb, 0xed, 0xe4, 0xfa, 0x14, 0x0e, 0x06, 0xd7,
  0xe2, 0xe7, 0xf2, 0x09, 0xf8, 0x1b, 0x0c, 0xee, 0xdf, 0xe9, 0xea, 0x08,
  0x02, 0x19, 0x01, 0x00, 0xf1, 0xf6, 0x04, 0x03, 0x0f, 0x15, 0x03, 0x02,
  0xff, 0x10, 0x01, 0xff, 0xe1, 0x1a, 0xfa, 0x02, 0x0e, 0x09, 0xeb, 0x05,
  0xd0, 0xfa, 0xfb, 0xdf, 0x24, 0xfb, 0x09, 0x02, 0xd0, 0xf1, 0xfc, 0x0d,
  0x10, 0x09, 0x0f, 0x03, 0xce, 0xf6, 0x02, 0x09, 0xe3, 0x15, 0x07, 0x0f,
  0xce, 0xd8, 0x0a, 0x0a, 0x0a, 0xf2, 0x14, 0x06, 0xfb, 0xe0, 0x03, 0x04,
  0xfb, 0xec, 0x0e, 0xf6, 0xd7, 0xf3, 0xff, 0xf3, 0x02, 0xf5, 0x0c, 0x04,
  0x03, 0x01, 0x11, 0xf8, 0x12, 0xdb, 0x0f, 0x0e, 0xe6, 0x10, 0x0c, 0xde,
  0x1b, 0xcd, 0x0d, 0x0b, 0xf7, 0x01, 0x02, 0xee, 0xf9, 0xea, 0x06, 0x02,
  0x20, 0x0f, 0x01, 0x02, 0x03, 0xdf, 0x05, 0xfa, 0x11, 0x0c, 0xf8, 0x0f,
  0x05, 0xda, 0x0d, 0xff, 0x15, 0x0d, 0x01, 0xfb, 0x0e, 0xe4, 0x0d, 0x03,
  0x03, 0x03, 0xfd, 0x13, 0xfe, 0x00, 0x0c, 0x08, 0xf3, 0x0a, 0xf6, 0x01,
  0x0b, 0x07, 0x11, 0xfe, 0xfa, 0x1d, 0xfd, 0x01, 0x04, 0xff, 0x19, 0xf8,
  0xfc, 0x1d, 0xfd, 0xde, 0xfd, 0xe2, 0x19, 0xff, 0xf2, 0x18, 0xfb, 0xe2,
  0xf2, 0xfa, 0x11, 0xfc, 0x09, 0x1b, 0xf7, 0xe9, 0x0a, 0xf2, 0x07, 0xf4,
  0x00, 0x2e, 0x02, 0xfc, 0x0e, 0x11, 0x03, 0xfa, 0xf1, 0x14, 0x06, 0x0c,
  0x0e, 0x02, 0xe8, 0x08, 0xd2, 0xc4, 0x03, 0x12, 0x4d, 0x0a, 0x04, 0x0d,
  0xd1, 0xbe, 0x00, 0x0c, 0x1f, 0x0d, 0xff, 0xfe, 0xc9, 0xc2, 0x03, 0xfa,
  0xf5, 0x03, 0x18, 0x0f, 0xcb, 0xbc, 0x05, 0xf2, 0x22, 0xfb, 0x0d, 0x02,
  0xe9, 0xbc, 0x07, 0xf5, 0x02, 0xfd, 0x14, 0xf4, 0xde, 0xc7, 0xfd, 0xec,
  0x14, 0xe7, 0x19, 0x08, 0xfd, 0xe2, 0x04, 0xca, 0x1d, 0xd3, 0x0d, 0x03,
  0xe9, 0xd6, 0xf9, 0xc9, 0x3b, 0xdb, 0x0f, 0x09, 0xee, 0xdc, 0xf9, 0xef,
  0x17, 0xf7, 0x16, 0xfa, 0x10, 0xe3, 0xfe, 0xee, 0x0c, 0xeb, 0x07, 0xf4,
  0x0e, 0xd9, 0x05, 0xfd, 0xfc, 0xf6, 0x0f, 0xf1, 0x13, 0xe4, 0x03, 0xfe,
  0x0e, 0xff, 0x04, 0xfc, 0xed, 0xee, 0x05, 0xfa, 0x01, 0x10, 0x0f, 0xf3,
  0xf1, 0xf3, 0x0b, 0xf7, 0x0d, 0x02, 0x0e, 0xf0, 0xf0, 0xf6, 0x0b, 0xea,
  0x15, 0xeb, 0x10, 0xfb, 0xfd, 0x0a, 0x04, 0xca, 0x0a, 0xdc, 0x15, 0xfb,
  0xf1, 0x05, 0xfa, 0xc5, 0xf3, 0xf2, 0x0a, 0x0a, 0xf2, 0x07, 0x04, 0xdf,
  0x0c, 0x00, 0x15, 0xff, 0xfc, 0xf6, 0x05, 0xfd, 0x09, 0x00, 0x0d, 0xf1,
  0xee, 0x00, 0xf2, 0x03, 0x0a, 0x09, 0x10, 0x0e, 0x04, 0x03, 0x03, 0xf6,
  0xd7, 0xfd, 0xfa, 0x02, 0x06, 0x02, 0xfc, 0xf7, 0x09, 0x0f, 0x00, 0x02,
  0xff, 0x07, 0xf7, 0x0c, 0x01, 0xfa, 0xf7, 0xf2, 0x00, 0x0e, 0x03, 0xfb,
  0xf8, 0xfd, 0x03, 0x07, 0xf5, 0x0b, 0x08, 0xf6, 0xfb, 0xf8, 0x06, 0x0d,
  0xe9, 0x06, 0xfb, 0xfe, 0xfd, 0x03, 0xf9, 0xf7, 0xff, 0x0b, 0xf8, 0x04,
  0x07, 0xf2, 0x01, 0xf8, 0x01, 0x09, 0x0b, 0x0c, 0x0c, 0xfd, 0xfc, 0xfe,
  0xf8, 0x0c, 0x05, 0x08, 0xff, 0xf5, 0xfc, 0xff, 0xf6, 0x0b, 0xff, 0x0a,
  0x09, 0xff, 0x06, 0x06, 0xfd, 0x06, 0xfe, 0xf2, 0xfe, 0xfb, 0x05, 0x02,
  0xfb, 0x08, 0xf2, 0xfe, 0x04, 0xf6, 0x07, 0x05, 0xfe, 0x05, 0x01, 0x07,
  0xf5, 0x00, 0x04, 0xf3, 0xff, 0x00, 0xfd, 0x05, 0x03, 0xff, 0x02, 0x04,
  0xfc, 0x03, 0x05, 0xfa, 0xff, 0xf6, 0xfe, 0xf8, 0xfe, 0xff, 0x03, 0xfc,
  0x01, 0x04, 0x01, 0xfd, 0x01, 0x08, 0x0c, 0xf0, 0x05, 0x09, 0xf7, 0xf8,
  0xfa, 0x0b, 0xfe, 0x05, 0x04, 0xfa, 0x0a, 0x08, 0xef, 0x02, 0x0b, 0x05,
  0xf2, 0xf7, 0xf1, 0x04, 0xf3, 0x15, 0xf9, 0x0a, 0xfe, 0xfb, 0x02, 0x0a,
  0xf9, 0xfe, 0xf6, 0xfa, 0xda, 0x02, 0x09, 0x0e, 0x05, 0x0a, 0xf2, 0x08,
  0xfe, 0x0a, 0xf5, 0x0b, 0xf2, 0x13, 0x00, 0xfd, 0xf4, 0xec, 0xee, 0xf8,
  0xf2, 0x1b, 0x10, 0xff, 0xf4, 0xf9, 0xf2, 0xfb, 0x1a, 0x0c, 0x0f, 0xfc,
  0xf9, 0xfa, 0xec, 0xfb, 0x17, 0x10, 0x0b, 0xf7, 0xf0, 0xff, 0xf4, 0x03,
  0x09, 0xfe, 0x07, 0x05, 0xfd, 0xf4, 0x05, 0x03, 0x05, 0x05, 0xfd, 0x10,
  0xfc, 0xfe, 0xf9, 0xfc, 0xf8, 0x0e, 0xf5, 0x1d, 0x07, 0x05, 0x0b, 0x05,
  0x13, 0x06, 0x06, 0x1b, 0xfe, 0xfd, 0xfc, 0xfb, 0x03, 0x06, 0x09, 0x11,
  0xf8, 0xfb, 0xfb, 0xf6, 0xf9, 0x10, 0xf3, 0x15, 0x0c, 0xf4, 0x09, 0x06,
  0xf3, 0x07, 0x05, 0x0d, 0xef, 0xf7, 0xfa, 0x05, 0x07, 0x09, 0x08, 0x13,
  0xff, 0xee, 0xf4, 0x04, 0x06, 0x03, 0xfc, 0xfe, 0x06, 0xee, 0xf1, 0xfa,
  0xf8, 0x0c, 0xf2, 0x00, 0x00, 0xfc, 0xfb, 0xfc, 0x01, 0x10, 0xfd, 0x04,
  0x01, 0xf7, 0xfc, 0x00, 0xfb, 0xfa, 0xfb, 0xf9, 0x0a, 0x00, 0x01, 0xfd,
  0x00, 0x0b, 0xf7, 0xf8, 0xfb, 0xf6, 0x0b, 0xfd, 0xf6, 0x0f, 0x02, 0x07,
  0x13, 0x03, 0x00, 0xf5, 0xf1, 0xfc, 0x11, 0xf9, 0xed, 0xfe, 0x09, 0xfa,
  0x03, 0x03, 0x08, 0xfd, 0xfa, 0xf1, 0xf7, 0xfd, 0xf3, 0x08, 0x00, 0x01,
  0x0f, 0xf2, 0xf2, 0x07, 0xf5, 0xfc, 0xf8, 0x08, 0x03, 0x00, 0xf8, 0x05,
  0xfb, 0xee, 0xfa, 0x02, 0x0b, 0xee, 0x05, 0xfe, 0x00, 0xf2, 0x01, 0xf9,
  0xf9, 0x01, 0x07, 0x00, 0xfa, 0xeb, 0xff, 0x02, 0xf2, 0xfd, 0x05, 0x07,
  0x08, 0xe0, 0xf9, 0x00, 0xfc, 0xf8, 0x00, 0xfe, 0x04, 0xed, 0xf7, 0x17,
  0xfd, 0x09, 0xfd, 0x03, 0x05, 0xff, 0x06, 0x09, 0x00, 0x06, 0xfb, 0xfb,
  0xfa, 0x06, 0xfa, 0xfc, 0x00, 0xf9, 0xf9, 0xfc, 0x08, 0x01, 0x03, 0xf6,
  0x01, 0x07, 0x09, 0x08, 0xf6, 0xfe, 0x02, 0x01, 0x00, 0xef, 0xfa, 0xfd,
  0x03, 0xfb, 0xf8, 0xee, 0x06, 0xf5, 0xfb, 0x0a, 0xf7, 0xfe, 0xf8, 0x0a,
  0xfd, 0xfe, 0xf6, 0x05, 0xf4, 0x06, 0x08, 0x13, 0xf6, 0xfd, 0xfd, 0xf8,
  0x00, 0xf8, 0x01, 0x06, 0x04, 0xee, 0xf7, 0xf6, 0xf6, 0x03, 0x03, 0xff,
  0xf4, 0xf8, 0xfc, 0xfc, 0xf8, 0xf4, 0x03, 0xfa, 0xfe, 0xf3, 0x00, 0x04,
  0xfb, 0x01, 0x03, 0xfe, 0x11, 0x05, 0x0d, 0x05, 0x05, 0xf8, 0x00, 0xfc,
  0xe0, 0x02, 0x07, 0x0d, 0x02, 0xf9, 0x06, 0xff, 0xe5, 0xfc, 0x04, 0x10,
  0x0e, 0xf8, 0x01, 0x06, 0x05, 0xe8, 0xef, 0x03, 0x02, 0xf1, 0x00, 0x0d,
  0x03, 0xf9, 0xf1, 0x05, 0x11, 0xf9, 0x00, 0x03, 0xfb, 0xfa, 0xf5, 0x01,
  0x00, 0xf9, 0xf7, 0xf3, 0x03, 0xeb, 0x02, 0x06, 0x07, 0xea, 0x03, 0x08,
  0xfe, 0x00, 0x01, 0xf4, 0x15, 0xee, 0x01, 0x17, 0x07, 0xf1, 0x1d, 0xfe,
  0x18, 0xfd, 0x01, 0x13, 0xed, 0x06, 0x0e, 0xfb, 0x14, 0x00, 0x06, 0x0a,
  0x07, 0x04, 0x02, 0x08, 0xfd, 0x09, 0x06, 0x06, 0x03, 0xf5, 0x01, 0x06,
  0x11, 0x06, 0x01, 0xf7, 0xf9, 0xfe, 0x0a, 0x0a, 0xf8, 0xf7, 0x07, 0x03,
  0xf3, 0xf9, 0x06, 0xfe, 0x08, 0xf2, 0x07, 0xef, 0xfb, 0xf8, 0xf8, 0x04,
  0xf9, 0x00, 0x02, 0x00, 0xfd, 0xfe, 0x0c, 0x0a, 0xff, 0xfe, 0xff, 0x0b,
  0x03, 0x03, 0x01, 0x04, 0x03, 0xec, 0xf4, 0x13, 0xf6, 0xf8, 0x12, 0xfd,
  0xe2, 0xfa, 0x08, 0xff, 0x0b, 0xf8, 0xfa, 0x02, 0xe7, 0xfc, 0x00, 0xf5,
  0xfe, 0xf8, 0xf9, 0x06, 0xf9, 0xf5, 0x0b, 0xfa, 0x03, 0x04, 0xfa, 0x00,
  0x03, 0xf0, 0xfa, 0x05, 0xe9, 0x02, 0xfe, 0x07, 0x02, 0x09, 0x09, 0xec,
  0xf1, 0x07, 0x0c, 0x0e, 0x1f, 0x00, 0xfc, 0x08, 0x08, 0xf9, 0xf9, 0x06,
  0x17, 0xf2, 0x08, 0x2a, 0x0f, 0xf4, 0x01, 0xf4, 0x20, 0xed, 0x00, 0x24,
  0x05, 0xe7, 0xfd, 0xf9, 0x13, 0xff, 0x09, 0x07, 0x05, 0xf8, 0xf2, 0xfe,
  0x0d, 0xf2, 0x0c, 0x13, 0xfa, 0xf1, 0x12, 0x01, 0x10, 0xef, 0xfd, 0x28,
  0x00, 0xf9, 0x21, 0xfc, 0x15, 0xf1, 0x07, 0x23, 0xfc, 0x08, 0x17, 0xff,
  0x16, 0x06, 0xf2, 0x11, 0xfe, 0xfd, 0x1b, 0xfe, 0x0a, 0x05, 0x03, 0x08,
  0x08, 0xfc, 0x02, 0x09, 0x10, 0xf6, 0x00, 0x06, 0xfc, 0xf6, 0x23, 0x04,
  0x05, 0xf8, 0x10, 0x09, 0xf9, 0x09, 0x1f, 0x0b, 0x05, 0xfb, 0x03, 0xef,
  0x06, 0xfe, 0x0a, 0x09, 0x06, 0xf2, 0x15, 0xff, 0xfc, 0xfa, 0x0b, 0xf8,
  0xf5, 0x06, 0x0d, 0x16, 0xf2, 0xfa, 0x15, 0xf8, 0x03, 0xec, 0xf3, 0x14,
  0xfc, 0xfe, 0x0e, 0xfe, 0xfc, 0x00, 0x0a, 0xfa, 0x02, 0x09, 0x03, 0xf6,
  0xf1, 0xff, 0xee, 0xed, 0x05, 0xf6, 0x00, 0x0f, 0xfa, 0xfc, 0xfa, 0xf7,
  0xf0, 0xf4, 0x05, 0x03, 0x06, 0x09, 0x00, 0xfe, 0x08, 0x06, 0x0d, 0x0c,
  0x02, 0x02, 0x00, 0xf4, 0xfb, 0x0b, 0xfa, 0x06, 0x28, 0x01, 0xfe, 0x06,
  0x1c, 0xf6, 0xff, 0xfc, 0x10, 0xf7, 0x0d, 0x37, 0x18, 0xf6, 0x12, 0xff,
  0x2b, 0xf5, 0x09, 0x23, 0x0f, 0xec, 0x06, 0xf6, 0x10, 0x0a, 0x0e, 0x07,
  0x1f, 0xde, 0xf1, 0x0b, 0x14, 0xfa, 0xf5, 0x19, 0x0b, 0xf4, 0x08, 0x06,
  0x20, 0xf7, 0xfd, 0x17, 0x0b, 0x01, 0x15, 0x03, 0x23, 0xf0, 0x02, 0x27,
  0xf7, 0x24, 0x0e, 0x09, 0x15, 0x01, 0xfd, 0x25, 0x1a, 0xf1, 0x08, 0x09,
  0x23, 0x0a, 0xfd, 0x07, 0x07, 0x02, 0x06, 0xf6, 0x10, 0xf6, 0xfc, 0x08,
  0xfa, 0xf6, 0x17, 0xf8, 0x10, 0xfe, 0xf7, 0x03, 0x00, 0x0e, 0x04, 0x0e,
  0xfe, 0xfa, 0x05, 0xf3, 0xfe, 0x00, 0xe6, 0x0a, 0xf9, 0x04, 0xfe, 0xfa,
  0xf0, 0xe7, 0x0a, 0xf7, 0xfb, 0x03, 0xf8, 0x14, 0x00, 0x02, 0x0e, 0xfc,
  0x12, 0xef, 0x07, 0x1b, 0xf9, 0x04, 0xfd, 0xff, 0xf0, 0x06, 0x0c, 0x0c,
  0x25, 0x08, 0x00, 0x0b, 0xea, 0x00, 0x0e, 0xf3, 0x12, 0xfd, 0xf6, 0x09,
  0xf8, 0x06, 0xfd, 0xfe, 0xf0, 0xff, 0x06, 0x02, 0x03, 0x03, 0x00, 0xfa,
  0x0a, 0x04, 0xf8, 0x0b, 0x0a, 0x11, 0x00, 0xf7, 0x11, 0x12, 0xfc, 0xfe,
  0x1f, 0xff, 0x04, 0x15, 0x11, 0xfb, 0xf8, 0x0e, 0x28, 0xf7, 0x07, 0x2b,
  0x1d, 0xe6, 0x1a, 0x00, 0x25, 0xf2, 0xf4, 0x2d, 0xf2, 0xf4, 0x05, 0x00,
  0x03, 0xfb, 0xff, 0x08, 0x27, 0xd6, 0xfa, 0x01, 0x0e, 0xed, 0xfe, 0x12,
  0x11, 0x01, 0x0b, 0x06, 0x2a, 0xef, 0x05, 0x15, 0xf0, 0x02, 0x14, 0x01,
  0x38, 0xf7, 0xf6, 0x21, 0xe0, 0x18, 0x17, 0xfc, 0x18, 0xf4, 0x03, 0x29,
  0x0f, 0x07, 0x13, 0xfb, 0x1d, 0x04, 0xfe, 0x17, 0x0c, 0xfb, 0xfb, 0x0a,
  0x09, 0xe6, 0x02, 0xf6, 0x08, 0xf1, 0x02, 0xff, 0x0e, 0xf0, 0xf9, 0xfc,
  0x0e, 0x0c, 0xfa, 0x0c, 0x05, 0xff, 0xfb, 0xf8, 0x02, 0xff, 0xe3, 0x06,
  0x08, 0x09, 0xfa, 0xff, 0xf9, 0x09, 0xfa, 0x05, 0xfe, 0xfe, 0xf9, 0x0b,
  0x01, 0x0f, 0xfc, 0xfc, 0x03, 0xff, 0x0b, 0x0c, 0x06, 0x0a, 0xf2, 0x00,
  0x05, 0xf9, 0x02, 0x04, 0x18, 0x09, 0xea, 0xfc, 0xf1, 0xff, 0xfd, 0xf9,
  0x1d, 0xfe, 0xf7, 0xf3, 0xf0, 0xf9, 0xf6, 0xee, 0xf5, 0xf8, 0xf4, 0x06,
  0x0b, 0xff, 0xfb, 0xf5, 0x05, 0x0f, 0x03, 0xf6, 0x0f, 0x01, 0xfd, 0xf6,
  0x06, 0x08, 0xfb, 0x07, 0x24, 0x07, 0xfb, 0x1e, 0x1e, 0xf6, 0xf3, 0x07,
  0x3b, 0xef, 0xff, 0x25, 0x08, 0xe1, 0x1b, 0xfe, 0x27, 0xe6, 0xfe, 0x2a,
  0x08, 0xf6, 0x02, 0x00, 0x10, 0xf2, 0x00, 0x1c, 0x35, 0xd8, 0x03, 0xfa,
  0x1e, 0xef, 0xfd, 0x1a, 0x09, 0xe0, 0xff, 0x07, 0x36, 0xe1, 0xf8, 0x1a,
  0x02, 0x10, 0x15, 0xfc, 0x32, 0xed, 0xf4, 0x25, 0xef, 0x10, 0x0e, 0xf6,
  0x1f, 0xf9, 0xf7, 0x26, 0x11, 0x07, 0x14, 0x05, 0x1a, 0xfc, 0xfb, 0x0f,
  0xfe, 0x08, 0x04, 0x06, 0x0b, 0xf1, 0xfd, 0x07, 0xf9, 0xf8, 0xf6, 0x00,
  0x1e, 0xec, 0xfd, 0x07, 0x18, 0x15, 0xeb, 0xf7, 0x12, 0x08, 0xf9, 0xfd,
  0x0d, 0x0d, 0xd7, 0xf5, 0x10, 0xfa, 0x06, 0x11, 0xef, 0x13, 0xf2, 0x00,
  0x06, 0xf7, 0xf4, 0x00, 0x0a, 0x1d, 0xee, 0x01, 0x0d, 0x0c, 0x07, 0x0f,
  0x07, 0x10, 0xf5, 0xfd, 0x09, 0x06, 0x08, 0x18, 0x26, 0x18, 0xed, 0xfb,
  0xfd, 0xf8, 0x00, 0xfa, 0xff, 0x09, 0xf2, 0x01, 0xea, 0x06, 0xfd, 0xf4,
  0xf3, 0x07, 0xfc, 0x03, 0x0d, 0xe5, 0xf5, 0xf9, 0x14, 0x0b, 0x05, 0xfe,
  0x15, 0xeb, 0xfe, 0x05, 0x0b, 0x14, 0xf8, 0xfb, 0x29, 0xfb, 0x05, 0x20,
  0xf8, 0xf3, 0xfa, 0x09, 0x44, 0xe4, 0xf2, 0x30, 0xfa, 0xf0, 0x1c, 0xfa,
  0x2e, 0xef, 0x0f, 0x2b, 0x03, 0xdd, 0x10, 0x04, 0x12, 0xf6, 0x10, 0x16,
  0x32, 0xdc, 0x02, 0x02, 0x03, 0xe7, 0xf7, 0x1b, 0x0f, 0xde, 0xfa, 0x06,
  0x2f, 0xe8, 0x07, 0x0b, 0x10, 0xfb, 0x05, 0xfe, 0x3d, 0xfb, 0xfa, 0x29,
  0xe8, 0x00, 0x06, 0x00, 0x25, 0xee, 0x05, 0x29, 0x06, 0x07, 0x16, 0xfc,
  0x18, 0xf4, 0xf0, 0x17, 0xfb, 0x09, 0xfc, 0xfa, 0x04, 0xef, 0xf5, 0x02,
  0xea, 0x06, 0xed, 0x02, 0x14, 0xe8, 0xf7, 0x0d, 0x0e, 0x10, 0xf8, 0x05,
  0x1b, 0xfc, 0xff, 0x13, 0x12, 0x0c, 0xed, 0xf8, 0x18, 0x05, 0xf8, 0x09,
  0xf3, 0x16, 0x00, 0x09, 0xfe, 0xf3, 0x02, 0x0e, 0xe3, 0x09, 0xe0, 0x0e,
  0x11, 0xf7, 0xfa, 0xfd, 0x0c, 0xfd, 0xf5, 0xfa, 0x14, 0x15, 0x07, 0x06,
  0x3d, 0x03, 0xf3, 0xfa, 0xfa, 0x03, 0x08, 0x02, 0xf6, 0xfb, 0xf6, 0x0b,
  0xf0, 0xf6, 0x07, 0xf5, 0xf1, 0xf5, 0xee, 0xf9, 0x1d, 0xf0, 0xf5, 0xf8,
  0x14, 0x19, 0xf7, 0x02, 0x17, 0xeb, 0x06, 0x09, 0x0f, 0x06, 0xf7, 0x02,
  0x26, 0xe9, 0x09, 0x25, 0xfc, 0xe0, 0xf9, 0x0f, 0x43, 0xec, 0x09, 0x2f,
  0x0d, 0xd6, 0x15, 0xfd, 0x29, 0xdf, 0xfe, 0x24, 0x09, 0xdf, 0x17, 0xf6,
  0x19, 0xf0, 0xf2, 0x1a, 0x24, 0xd6, 0x08, 0xf6, 0x11, 0xd5, 0x01, 0x1b,
  0x06, 0xce, 0xf6, 0x05, 0x32, 0xd9, 0xf1, 0x13, 0x07, 0x00, 0x0b, 0xfc,
  0x36, 0xee, 0x00, 0x29, 0xee, 0xfb, 0xfe, 0x06, 0x25, 0xec, 0xfe, 0x2d,
  0x06, 0xfc, 0x22, 0x02, 0x14, 0x01, 0x01, 0x0f, 0xff, 0x0d, 0xeb, 0x09,
  0x08, 0xe8, 0xf6, 0x03, 0xe7, 0x07, 0xf1, 0x10, 0x05, 0xe6, 0x09, 0xf7,
  0x02, 0x0e, 0xf8, 0x04, 0x0a, 0xf5, 0xfd, 0x09, 0x0a, 0x15, 0xf8, 0xfe,
  0x1e, 0xfc, 0xfb, 0x1a, 0xfe, 0x1f, 0xfd, 0x04, 0x03, 0xfe, 0xf6, 0x12,
  0xe8, 0x19, 0xf3, 0x08, 0x12, 0x06, 0xf9, 0x04, 0x0d, 0x12, 0xfa, 0x07,
  0x18, 0x14, 0xf1, 0x11, 0x3d, 0x06, 0xe8, 0x0d, 0x09, 0x06, 0x0a, 0x02,
  0xfc, 0x06, 0xf8, 0xff, 0xef, 0xfe, 0x08, 0xfa, 0xf1, 0xfd, 0xfa, 0xf5,
  0x0e, 0xf2, 0x0f, 0xf3, 0x0f, 0x16, 0xf8, 0x07, 0x1c, 0xf6, 0x02, 0x1d,
  0x13, 0x07, 0xef, 0x00, 0x23, 0xf2, 0x04, 0x2e, 0x08, 0xdb, 0x10, 0xfb,
  0x3d, 0xea, 0x04, 0x33, 0x0b, 0xe9, 0x02, 0xf5, 0x2d, 0xda, 0xfc, 0x28,
  0x1e, 0xea, 0x0e, 0xfe, 0x1f, 0xf1, 0x0a, 0x15, 0x2e, 0xd2, 0xfe, 0xfd,
  0x09, 0xdc, 0xf7, 0x22, 0x15, 0xc3, 0x02, 0xff, 0x2c, 0xe0, 0x00, 0x19,
  0x1e, 0xf8, 0x10, 0x00, 0x34, 0xd7, 0xf3, 0x1e, 0xe7, 0x04, 0xff, 0x0a,
  0x24, 0xe4, 0x08, 0x21, 0xe9, 0xfd, 0x0e, 0x00, 0x15, 0xf8, 0x02, 0x12,
  0x04, 0x09, 0xec, 0xfc, 0x0d, 0xed, 0x0d, 0x01, 0xf6, 0x0a, 0xe7, 0x11,
  0x05, 0xee, 0xf4, 0x04, 0xfd, 0x11, 0xf7, 0xfb, 0x11, 0xf9, 0x08, 0x08,
  0xff, 0x12, 0xf9, 0x04, 0x1a, 0xfa, 0xfe, 0x10, 0xef, 0x1b, 0x0a, 0x07,
  0x04, 0x0f, 0xf4, 0x07, 0xe0, 0x10, 0xf6, 0xf7, 0x1c, 0x04, 0x07, 0x10,
  0x04, 0x0d, 0xf0, 0x09, 0x14, 0x1c, 0xfa, 0x08, 0x2d, 0x09, 0xec, 0xfa,
  0x02, 0xfd, 0xf5, 0x05, 0x02, 0xfa, 0xed, 0xf8, 0xf1, 0xfa, 0x0c, 0xfc,
  0xf5, 0xfa, 0xfc, 0xf4, 0x0d, 0xe5, 0xfc, 0x0e, 0x0b, 0x1b, 0x00, 0xf9,
  0x18, 0xe5, 0xfa, 0x26, 0x23, 0x00, 0xf0, 0x04, 0x26, 0xef, 0x0d, 0x3d,
  0x03, 0xdc, 0x04, 0x06, 0x41, 0xe5, 0xfc, 0x38, 0x26, 0xe1, 0x03, 0xfc,
  0x26, 0xdf, 0xfb, 0x21, 0x17, 0xeb, 0x0e, 0xfd, 0x18, 0xe7, 0x00, 0x21,
  0x19, 0xd9, 0xec, 0x08, 0x05, 0xd8, 0x01, 0x24, 0x22, 0xc6, 0xfa, 0x06,
  0x32, 0xe7, 0x03, 0x1c, 0x1f, 0xff, 0x03, 0x05, 0x3c, 0xde, 0xf1, 0x19,
  0xd5, 0x05, 0xec, 0xf6, 0x19, 0xe8, 0xff, 0x29, 0xfe, 0x08, 0x0b, 0x05,
  0x1d, 0xeb, 0xfe, 0x0f, 0xfc, 0xf8, 0xf2, 0x08, 0xf5, 0xeb, 0xf6, 0xf8,
  0x08, 0x1b, 0xfb, 0xf8, 0xfc, 0xf4, 0xf8, 0x05, 0x05, 0x18, 0xf2, 0xf6,
  0x08, 0xed, 0x0c, 0x05, 0xfb, 0x16, 0xff, 0x06, 0x13, 0x03, 0x06, 0x14,
  0xf9, 0x0e, 0x04, 0xf8, 0x0a, 0x11, 0x06, 0x1d, 0xf4, 0x07, 0xfe, 0x09,
  0x1c, 0x03, 0xfb, 0x12, 0x09, 0x12, 0xee, 0x0a, 0x07, 0x0c, 0xfc, 0x0b,
  0x21, 0xff, 0xf0, 0xfe, 0xff, 0x09, 0xf8, 0x07, 0x01, 0xf6, 0xe9, 0x01,
  0xf2, 0xfd, 0x06, 0xf3, 0x02, 0xf3, 0xff, 0x02, 0x0c, 0xe8, 0x02, 0xfa,
  0x0b, 0x1c, 0xf9, 0x00, 0x13, 0xf2, 0x02, 0x34, 0x31, 0xff, 0xee, 0x05,
  0x28, 0xe2, 0xf7, 0x37, 0x15, 0xde, 0x09, 0x11, 0x38, 0xeb, 0x00, 0x32,
  0x1d, 0xdb, 0x0c, 0x03, 0x2b, 0xe8, 0xf4, 0x20, 0x1a, 0xf5, 0x16, 0xfb,
  0x23, 0xed, 0xfa, 0x16, 0x1b, 0xd1, 0xf4, 0x07, 0x18, 0xd5, 0x0b, 0x0e,
  0x25, 0xcc, 0xf2, 0x04, 0x29, 0xec, 0xfa, 0x1d, 0x20, 0x07, 0x10, 0x06,
  0x2b, 0xd9, 0x01, 0x17, 0xe9, 0xe7, 0x09, 0xfe, 0x26, 0xe7, 0xf1, 0x2a,
  0x03, 0x05, 0xf8, 0x10, 0x10, 0xf2, 0xfd, 0x12, 0xfe, 0xfc, 0xf0, 0xf9,
  0x14, 0xf7, 0x06, 0x01, 0x01, 0x08, 0xfc, 0x02, 0x07, 0xea, 0x08, 0x06,
  0xf7, 0x13, 0xf8, 0x06, 0x07, 0xe5, 0x04, 0x0b, 0x05, 0x19, 0xf3, 0x02,
  0x1c, 0x00, 0x0c, 0x0d, 0xee, 0x0d, 0x01, 0x08, 0x02, 0x02, 0x0d, 0x11,
  0xfa, 0x12, 0x00, 0xfe, 0x16, 0x07, 0xfd, 0x0f, 0x00, 0x10, 0xe4, 0xf1,
  0x08, 0x0f, 0xf9, 0x02, 0x11, 0xfc, 0xe7, 0x00, 0x04, 0xfc, 0x02, 0x01,
  0x05, 0x02, 0xf0, 0xfd, 0xfa, 0x0a, 0x0b, 0xea, 0x01, 0xf6, 0xf4, 0xfa,
  0x0d, 0xf1, 0xf5, 0xf5, 0x14, 0x12, 0xfb, 0xf6, 0x13, 0xe6, 0xf0, 0x35,
  0x17, 0xfe, 0xf2, 0x06, 0x26, 0xe1, 0x0c, 0x2a, 0x0f, 0xea, 0x0c, 0xf6,
  0x3e, 0xe7, 0x0d, 0x35, 0x1e, 0xdd, 0x18, 0x14, 0x32, 0xde, 0xfc, 0x23,
  0x0c, 0xf0, 0x20, 0xf7, 0x2d, 0xea, 0xf7, 0x10, 0x08, 0xbb, 0xed, 0x07,
  0x1a, 0xe8, 0xfa, 0x17, 0x1d, 0xdb, 0x02, 0xfe, 0x21, 0xe9, 0x06, 0x18,
  0x28, 0x0a, 0x05, 0x08, 0x29, 0xe7, 0xfe, 0x23, 0xee, 0xf6, 0xfc, 0xf0,
  0x1e, 0xe9, 0x04, 0x27, 0xef, 0x00, 0xfa, 0xf4, 0x0b, 0xee, 0xf8, 0x14,
  0x08, 0xea, 0xfb, 0xf6, 0xfe, 0xf5, 0xf6, 0x09, 0x00, 0x0e, 0xfe, 0x04,
  0xfe, 0xdf, 0xfe, 0x05, 0x05, 0x0f, 0xf8, 0x04, 0x14, 0xfb, 0xf6, 0x08,
  0xf9, 0x12, 0xf3, 0x00, 0x22, 0xfa, 0xf6, 0x14, 0xf5, 0x15, 0x01, 0x06,
  0x02, 0x09, 0x0b, 0x20, 0xf2, 0x0a, 0xf7, 0x05, 0x0d, 0x12, 0x05, 0x18,
  0x08, 0x06, 0xef, 0xf6, 0x07, 0x0f, 0x06, 0x15, 0x03, 0xee, 0xf0, 0xfc,
  0x07, 0x07, 0x00, 0x03, 0x02, 0xef, 0xd6, 0xf8, 0x01, 0x05, 0x02, 0xf0,
  0xfb, 0xf4, 0xdf, 0x04, 0x10, 0xe7, 0xfb, 0xf1, 0x0e, 0x05, 0xf4, 0xfd,
  0x21, 0xe1, 0x06, 0x1f, 0x1e, 0xfc, 0xef, 0xfa, 0x26, 0xe5, 0xf2, 0x32,
  0x17, 0x00, 0x08, 0x04, 0x40, 0xe5, 0xff, 0x33, 0x22, 0xdd, 0x1d, 0x05,
  0x3b, 0xea, 0x09, 0x24, 0x1b, 0xf5, 0x12, 0x0b, 0x1f, 0xea, 0xf9, 0x13,
  0x09, 0xce, 0xf4, 0x07, 0x1b, 0xe1, 0xf4, 0x15, 0x22, 0xd2, 0xf9, 0x01,
  0x27, 0xe7, 0xfb, 0x19, 0x26, 0xfe, 0x0e, 0x0c, 0x2b, 0xe9, 0x04, 0x23,
  0xdf, 0xf6, 0x09, 0x01, 0x20, 0xec, 0xfc, 0x1e, 0xfc, 0x04, 0xf4, 0xf5,
  0x15, 0xf7, 0xfc, 0x12, 0xfb, 0x02, 0xee, 0xfa, 0x04, 0xf0, 0xf4, 0xfe,
  0xff, 0xf9, 0xf5, 0x04, 0x09, 0xf1, 0xfd, 0x05, 0x07, 0xff, 0xfa, 0xf7,
  0x14, 0xfc, 0x07, 0x04, 0x04, 0x0a, 0xf3, 0xfb, 0x17, 0xfc, 0xf6, 0x1c,
  0xfc, 0x0b, 0x00, 0xfe, 0x03, 0x0f, 0xf6, 0x11, 0xfc, 0x06, 0xfc, 0x05,
  0x11, 0x03, 0xf9, 0x0c, 0x0b, 0x06, 0xf0, 0x03, 0xfc, 0x09, 0xf9, 0x11,
  0xfc, 0xf1, 0xe7, 0x0a, 0x12, 0x05, 0xf9, 0x04, 0x08, 0xe0, 0xe5, 0xf7,
  0xff, 0x05, 0xfd, 0xf4, 0x02, 0xf8, 0xe6, 0x05, 0x12, 0xe2, 0xf5, 0xe4,
  0x11, 0x12, 0xff, 0xff, 0x1b, 0xe7, 0xfa, 0x1b, 0x07, 0x04, 0xef, 0xfe,
  0x32, 0xe3, 0xf5, 0x2b, 0x21, 0xfd, 0xf9, 0x0d, 0x3e, 0xe2, 0x0e, 0x44,
  0x0a, 0xe8, 0x20, 0x05, 0x2f, 0xd2, 0xfa, 0x2d, 0x0a, 0xef, 0x11, 0xf8,
  0x2a, 0xf4, 0x09, 0x0e, 0x07, 0xd5, 0xf0, 0xf8, 0x18, 0xfa, 0xfa, 0x1c,
  0x33, 0xd0, 0x0c, 0xf5, 0x20, 0xe4, 0x01, 0x11, 0x1b, 0x01, 0x02, 0xfc,
  0x33, 0xe3, 0x01, 0x25, 0xfa, 0xf3, 0x02, 0xf8, 0x26, 0xfb, 0xf9, 0x28,
  0xfd, 0x03, 0xfd, 0x0f, 0x06, 0xeb, 0x07, 0x1a, 0xee, 0xf8, 0xfb, 0x05,
  0x0e, 0xf7, 0xf6, 0xfa, 0x00, 0xee, 0xfc, 0xf9, 0x01, 0xed, 0x07, 0xf7,
  0xe9, 0x10, 0xfa, 0xf2, 0x12, 0xf8, 0xf7, 0x02, 0x0d, 0x04, 0xf4, 0x0a,
  0x0a, 0xfc, 0xfd, 0x15, 0xe8, 0xff, 0xf4, 0xfb, 0x01, 0x13, 0x01, 0x16,
  0xfa, 0x06, 0xf6, 0xef, 0x07, 0x13, 0x02, 0x09, 0x00, 0x04, 0xe9, 0xfd,
  0xff, 0x0c, 0x03, 0x15, 0x07, 0xef, 0xe5, 0x05, 0x10, 0x08, 0xff, 0x08,
  0x04, 0xe0, 0xd6, 0x0a, 0x05, 0x11, 0xf8, 0xfd, 0x03, 0xf4, 0xe2, 0x01,
  0x11, 0xe5, 0xf9, 0xf0, 0x11, 0x14, 0xf9, 0x03, 0x21, 0xe9, 0x05, 0x1b,
  0x1b, 0xfc, 0xef, 0xf8, 0x2a, 0xdf, 0x09, 0x20, 0x22, 0xfe, 0x03, 0x07,
  0x44, 0xe1, 0x04, 0x26, 0x04, 0xda, 0x1a, 0xfb, 0x32, 0xe7, 0xf6, 0x1c,
  0x0a, 0xeb, 0x13, 0xfc, 0x29, 0xe9, 0xf2, 0x1a, 0x01, 0xd8, 0xee, 0xf7,
  0x0f, 0xe2, 0x04, 0x16, 0x38, 0xde, 0x0c, 0x07, 0x27, 0xef, 0xf1, 0x12,
  0x1a, 0xfe, 0x19, 0x0e, 0x3c, 0xe5, 0xf7, 0x1b, 0xe8, 0xfe, 0x04, 0xf0,
  0x1d, 0xe8, 0xfa, 0x26, 0xf7, 0x02, 0x0c, 0x08, 0x0d, 0xff, 0x00, 0x1d,
  0xf4, 0x11, 0xf2, 0x07, 0x05, 0xf6, 0x00, 0x06, 0x08, 0xf2, 0xfc, 0x00,
  0x10, 0xeb, 0x00, 0x02, 0xf7, 0x0c, 0xfa, 0xfb, 0x10, 0xfe, 0xfa, 0x0a,
  0x0d, 0x03, 0xf2, 0x05, 0x13, 0x01, 0xff, 0x1a, 0xe4, 0x04, 0xff, 0xff,
  0x06, 0x11, 0xff, 0x18, 0xfc, 0x0a, 0xf3, 0xf9, 0xfa, 0x0b, 0xee, 0x05,
  0xfa, 0x0d, 0xe2, 0xf4, 0x04, 0x04, 0x03, 0x02, 0x04, 0x00, 0xe9, 0x09,
  0x0d, 0x06, 0x0f, 0x07, 0x0b, 0xed, 0xd3, 0x02, 0xf5, 0x06, 0x01, 0xfc,
  0x04, 0xf6, 0xf2, 0xfa, 0x0b, 0xe2, 0xff, 0xf2, 0x04, 0x0b, 0xf1, 0xfc,
  0x23, 0xe8, 0xf5, 0x23, 0x0d, 0xf0, 0xe9, 0xf4, 0x27, 0xef, 0xfd, 0x28,
  0x26, 0xf2, 0xfe, 0xfb, 0x42, 0xf5, 0xfd, 0x39, 0x06, 0xc0, 0x16, 0xfa,
  0x27, 0xe7, 0xfe, 0x35, 0x12, 0xe4, 0x0a, 0x05, 0x29, 0xe5, 0x09, 0x09,
  0x13, 0xda, 0xf4, 0xf7, 0x1b, 0xf2, 0xfb, 0x00, 0x4d, 0xe2, 0x0f, 0xfb,
  0x2c, 0xed, 0x07, 0x18, 0x1b, 0xf3, 0x20, 0xf9, 0x2c, 0xf5, 0xfc, 0x26,
  0x08, 0xff, 0x04, 0xff, 0x21, 0xef, 0x03, 0x1f, 0xf6, 0xf6, 0x03, 0xf2,
  0x0c, 0xf9, 0xf9, 0x1b, 0xf2, 0x10, 0xfd, 0xf7, 0x02, 0xee, 0x07, 0x08,
  0x05, 0xfc, 0xf6, 0xf7, 0x1a, 0xef, 0xff, 0x08, 0xed, 0x0a, 0xfa, 0x08,
  0x11, 0xfd, 0x03, 0x10, 0x0d, 0xff, 0xe7, 0x01, 0x0c, 0x0b, 0xf9, 0x23,
  0xf8, 0x00, 0xf2, 0xf8, 0x08, 0x09, 0xff, 0x30, 0xfa, 0xff, 0xfb, 0xfd,
  0x08, 0x07, 0x04, 0x14, 0x01, 0x06, 0xeb, 0xfe, 0xfd, 0xfd, 0xfb, 0x0a,
  0x0b, 0x02, 0xe8, 0x0f, 0x17, 0x02, 0x01, 0x05, 0x06, 0xed, 0xd4, 0xfc,
  0x01, 0x04, 0xfe, 0xfd, 0x02, 0xf9, 0xeb, 0x04, 0x0f, 0xf0, 0xff, 0xee,
  0x08, 0x0c, 0xf3, 0x01, 0x13, 0xeb, 0xf8, 0x1e, 0x16, 0xf5, 0xef, 0x05,
  0x1f, 0xe7, 0x01, 0x26, 0x2c, 0xf3, 0xfc, 0x10, 0x41, 0xea, 0x01, 0x2c,
  0x0c, 0xe5, 0x0d, 0xf1, 0x2f, 0xe5, 0xfd, 0x28, 0x17, 0xea, 0x14, 0x0f,
  0x28, 0xe3, 0xfb, 0x14, 0x19, 0xe5, 0xf5, 0x10, 0x1c, 0xf5, 0x06, 0x07,
  0x3f, 0xdd, 0x0a, 0xfd, 0x2b, 0xf5, 0xfd, 0x15, 0x31, 0xf5, 0x1d, 0x0b,
  0x35, 0xe3, 0xfc, 0x21, 0xfe, 0x01, 0x08, 0x06, 0x10, 0xf4, 0xf5, 0x1c,
  0xf2, 0xef, 0xff, 0xfa, 0x04, 0xf2, 0x01, 0x26, 0xfd, 0x11, 0x02, 0xf7,
  0x04, 0xf0, 0xfe, 0x01, 0xfc, 0xf7, 0xf3, 0x00, 0x13, 0xf3, 0xfb, 0xfb,
  0x03, 0x09, 0xff, 0x05, 0x23, 0xfa, 0xfb, 0x0e, 0x02, 0xf3, 0xfd, 0x07,
  0x13, 0x00, 0x00, 0x1b, 0xf1, 0x0a, 0xf5, 0xf7, 0xfa, 0x12, 0x04, 0x1c,
  0xf2, 0x12, 0xf2, 0xfa, 0xf9, 0x00, 0xf6, 0x0a, 0x03, 0x08, 0xf0, 0x10,
  0xff, 0x05, 0x05, 0x14, 0x02, 0x02, 0xe8, 0xfd, 0x17, 0x01, 0x0d, 0x00,
  0x12, 0xef, 0xe2, 0xfb, 0xfd, 0x0a, 0xf7, 0xfa, 0x08, 0xfe, 0xef, 0xff,
  0x11, 0xf1, 0x09, 0xf0, 0x0a, 0x08, 0xf2, 0x05, 0x1b, 0xed, 0x09, 0x1f,
  0x1a, 0xfc, 0xf5, 0x08, 0x2d, 0xea, 0xf7, 0x23, 0x24, 0xe6, 0xf6, 0x0d,
  0x37, 0xfc, 0xfa, 0x37, 0x13, 0xde, 0x14, 0x01, 0x31, 0xde, 0xfe, 0x26,
  0x1d, 0xf9, 0x08, 0x0f, 0x2b, 0xf2, 0x10, 0x1a, 0x1e, 0xee, 0xef, 0x08,
  0x28, 0xfa, 0xfe, 0x09, 0x3b, 0xec, 0x10, 0x07, 0x2c, 0xec, 0xf4, 0x1a,
  0x3a, 0xf1, 0x0f, 0x04, 0x2c, 0xe1, 0xfd, 0x22, 0xf9, 0xfb, 0x09, 0xfa,
  0x1a, 0xfc, 0xf8, 0x18, 0xee, 0xf6, 0x03, 0xfe, 0x05, 0xf5, 0xf1, 0x0e,
  0x03, 0x03, 0x04, 0xee, 0x05, 0xf1, 0x02, 0x01, 0xfb, 0xf0, 0xf4, 0xf2,
  0x1c, 0xf0, 0xfa, 0x04, 0x0a, 0x10, 0xf4, 0xfd, 0x1b, 0xf6, 0xfd, 0xf9,
  0x02, 0xfb, 0xf0, 0x01, 0x14, 0x07, 0x05, 0x12, 0xee, 0x0b, 0xf5, 0xfd,
  0x09, 0x09, 0xff, 0x19, 0x02, 0x1c, 0xfe, 0xf9, 0x0a, 0x08, 0x05, 0x07,
  0xf6, 0x05, 0xf7, 0x06, 0x0a, 0x02, 0xf8, 0x09, 0x00, 0x0b, 0xe8, 0xf6,
  0x12, 0x0b, 0xf4, 0xfe, 0x09, 0xf6, 0xde, 0x01, 0x07, 0x0e, 0x0a, 0x00,
  0x02, 0xf4, 0xe7, 0x09, 0x15, 0xfa, 0x03, 0xe8, 0x07, 0x08, 0xe9, 0xfc,
  0x19, 0xea, 0x03, 0x27, 0x19, 0x04, 0xf2, 0xfc, 0x34, 0xed, 0xfa, 0x22,
  0x2c, 0xf6, 0xe8, 0x05, 0x41, 0xf0, 0x06, 0x3e, 0x0a, 0xeb, 0xfe, 0xfd,
  0x3a, 0xe5, 0xfb, 0x2b, 0x08, 0xfa, 0x01, 0x00, 0x2f, 0xf2, 0xfa, 0x1a,
  0x17, 0xeb, 0xe7, 0x00, 0x22, 0xf9, 0x02, 0x00, 0x3f, 0xe4, 0x07, 0xf2,
  0x1f, 0x06, 0x02, 0x0b, 0x45, 0xe1, 0x14, 0x00, 0x24, 0xed, 0xff, 0x14,
  0xf5, 0x01, 0x00, 0xf7, 0x14, 0xf1, 0x00, 0x27, 0xf1, 0xf7, 0x03, 0x04,
  0x02, 0x07, 0x03, 0x11, 0xf6, 0x0d, 0xfe, 0xee, 0x03, 0xfb, 0xee, 0x00,
  0x00, 0xe8, 0xf1, 0xfa, 0x17, 0xee, 0xfb, 0x09, 0x00, 0x18, 0xf0, 0x01,
  0x1e, 0x01, 0x05, 0xff, 0x02, 0x0b, 0xe5, 0xff, 0x0e, 0x01, 0xf3, 0x10,
  0xf2, 0xfe, 0xf7, 0xfa, 0x02, 0x04, 0xf7, 0x22, 0x00, 0x09, 0xf7, 0xf2,
  0x05, 0xfc, 0xfd, 0x08, 0xf6, 0x05, 0x02, 0x0a, 0x07, 0x09, 0xfe, 0x04,
  0xf5, 0x06, 0xe7, 0xf9, 0x12, 0x02, 0x07, 0x09, 0x05, 0xe5, 0xe0, 0xfc,
  0x0b, 0x0b, 0xf8, 0x01, 0x0a, 0xec, 0xe2, 0x00, 0x0f, 0xec, 0xf7, 0xe7,
  0xfd, 0xfd, 0xf3, 0xfd, 0x03, 0xef, 0xf5, 0x22, 0x0e, 0xfd, 0x02, 0xfa,
  0x1c, 0xf9, 0xff, 0x27, 0x1b, 0xf2, 0xfb, 0xf7, 0x37, 0xdf, 0x03, 0x35,
  0x06, 0xf9, 0xfe, 0x01, 0x32, 0xe5, 0x09, 0x22, 0x00, 0x04, 0x0c, 0xf6,
  0x29, 0xe7, 0x07, 0x10, 0x11, 0xf7, 0xf1, 0xfe, 0x21, 0xf8, 0xfb, 0xf7,
  0x3e, 0xe0, 0x1f, 0x04, 0x10, 0xff, 0xfe, 0x07, 0x3b, 0xf0, 0x20, 0x07,
  0x22, 0xee, 0xfe, 0x1a, 0x10, 0xf4, 0x0f, 0xfc, 0x0a, 0xf6, 0xfc, 0x21,
  0xf9, 0xf6, 0x0f, 0xff, 0x00, 0xfa, 0xfa, 0x19, 0xf5, 0xfa, 0x0e, 0xf1,
  0xf4, 0xfc, 0xff, 0xdd, 0xff, 0xea, 0x02, 0x09, 0x15, 0xff, 0xfe, 0x06,
  0x04, 0x08, 0xfd, 0xf4, 0x0a, 0xfe, 0xf7, 0x05, 0xe9, 0x06, 0xfe, 0x03,
  0x06, 0x0b, 0x04, 0x17, 0xf9, 0x03, 0x07, 0x0c, 0xfb, 0x17, 0xfd, 0x22,
  0xff, 0x0c, 0x02, 0xff, 0x04, 0xfa, 0xfa, 0x13, 0xff, 0x06, 0x04, 0xf4,
  0x06, 0x08, 0xff, 0x12, 0xf8, 0xfb, 0xf1, 0xfc, 0x0f, 0x0b, 0x0b, 0x00,
  0x11, 0xea, 0xef, 0xf9, 0x07, 0x06, 0x00, 0x00, 0xf6, 0xe7, 0xdd, 0xf5,
  0x11, 0xef, 0xf8, 0xde, 0x01, 0x03, 0xf6, 0x0c, 0x0f, 0xe4, 0x06, 0x00,
  0x05, 0xeb, 0x08, 0x06, 0x19, 0xee, 0x05, 0x16, 0x19, 0x04, 0x05, 0x02,
  0x30, 0xee, 0x07, 0x26, 0xff, 0xfd, 0x01, 0x03, 0x1c, 0xf5, 0x06, 0x19,
  0xfe, 0x05, 0x1c, 0xfc, 0x25, 0xfa, 0x06, 0x1c, 0x17, 0x01, 0x0a, 0xfa,
  0x0a, 0x0c, 0x0b, 0xf8, 0x4b, 0xe0, 0x1f, 0xfe, 0x11, 0x07, 0x09, 0x09,
  0x3d, 0xf1, 0x11, 0xfe, 0x24, 0xf0, 0xf4, 0x0e, 0x0e, 0xf9, 0x0d, 0x02,
  0x09, 0xec, 0xfb, 0x11, 0xf3, 0x00, 0x16, 0x00, 0x06, 0xfd, 0x03, 0x0d,
  0xf1, 0xf9, 0x04, 0xf3, 0x06, 0x07, 0x03, 0xe2, 0xfa, 0xd7, 0x0b, 0xf9,
  0x0f, 0x10, 0x04, 0x01, 0x0b, 0x0c, 0x09, 0xfc, 0x1a, 0x09, 0xf3, 0xfd,
  0xf6, 0xfe, 0x05, 0xff, 0x04, 0x17, 0x02, 0x07, 0xff, 0xfc, 0x07, 0x04,
  0x03, 0x0a, 0xfa, 0x16, 0x01, 0x0a, 0x0f, 0xf6, 0x06, 0x07, 0x01, 0x08,
  0x01, 0x01, 0x08, 0x07, 0xfb, 0x04, 0x09, 0x0a, 0x00, 0x05, 0x00, 0xfd,
  0x05, 0x00, 0xfe, 0x04, 0x02, 0xd3, 0xfb, 0x09, 0x02, 0x05, 0xf6, 0xf5,
  0x07, 0xeb, 0xf0, 0x06, 0x04, 0xf3, 0xf5, 0xfb, 0xf1, 0x06, 0xfd, 0xfb,
  0x06, 0xec, 0xfc, 0x15, 0xf3, 0x07, 0xf9, 0xfe, 0x16, 0xfa, 0x00, 0x1b,
  0xf6, 0x05, 0xf4, 0xfb, 0x13, 0xdb, 0x03, 0x25, 0xf5, 0xfa, 0xff, 0xfc,
  0x0c, 0xed, 0x05, 0x1a, 0xe5, 0x14, 0x05, 0xfb, 0x08, 0xf1, 0xfd, 0x29,
  0x04, 0xe7, 0xf5, 0x0b, 0x12, 0xfa, 0x05, 0xf1, 0x33, 0xeb, 0x0a, 0xfa,
  0x10, 0xf5, 0x10, 0x0d, 0x26, 0xf2, 0xfe, 0xf9, 0x11, 0xf9, 0x02, 0x02,
  0x02, 0xfc, 0x01, 0x08, 0xff, 0xef, 0x02, 0xff, 0x00, 0xff, 0xff, 0x00,
  0xec, 0xf7, 0x06, 0x0f, 0xfb, 0x04, 0xfa, 0xfa, 0xf9, 0xff, 0x04, 0xdf,
  0xfb, 0xd3, 0x03, 0x04, 0x06, 0x04, 0xfb, 0xef, 0x00, 0x08, 0xf7, 0x0c,
  0x0d, 0x02, 0xfe, 0x0b, 0x07, 0xfb, 0x06, 0x04, 0x0a, 0x03, 0x05, 0x0d,
  0x03, 0x00, 0x07, 0xf2, 0x05, 0x11, 0xfb, 0x1d, 0x0a, 0x0d, 0x0b, 0x06,
  0x04, 0x0c, 0x09, 0x17, 0xf8, 0x04, 0x04, 0x02, 0x03, 0x0b, 0x00, 0x00,
  0x02, 0xf7, 0x09, 0xf6, 0xfe, 0x00, 0x01, 0xfa, 0x08, 0xe0, 0x14, 0x05,
  0xf6, 0x02, 0xfa, 0x00, 0x05, 0xeb, 0x07, 0x07, 0x0d, 0x01, 0xf8, 0x0e,
  0xf4, 0x02, 0xfd, 0xf5, 0x12, 0xfd, 0x09, 0x1f, 0xf0, 0x13, 0xef, 0xfc,
  0x15, 0x00, 0x01, 0x1a, 0xfa, 0x09, 0xef, 0xfe, 0x01, 0xfb, 0xfe, 0x15,
  0xed, 0x00, 0xf3, 0x02, 0x05, 0xea, 0x00, 0x1f, 0xda, 0x16, 0xf9, 0xf2,
  0x1f, 0xfe, 0xfd, 0x14, 0x05, 0xe7, 0xf7, 0xf6, 0x19, 0xfa, 0xff, 0xed,
  0x41, 0xed, 0x00, 0x02, 0x0e, 0xfa, 0xfc, 0x0e, 0x1f, 0xee, 0xf4, 0x05,
  0x17, 0x04, 0x02, 0xf5, 0xfd, 0x01, 0xf5, 0x0c, 0x05, 0x0f, 0xf4, 0x07,
  0xf6, 0x11, 0xf3, 0x0b, 0xf8, 0xf7, 0x09, 0xfc, 0xec, 0xfc, 0xfe, 0xf7,
  0xf5, 0x19, 0x0d, 0xe3, 0xec, 0xee, 0xf7, 0xf5, 0x14, 0x00, 0xf7, 0xed,
  0x08, 0xfb, 0xf8, 0xf4, 0x09, 0x0c, 0xfd, 0x14, 0xff, 0x02, 0xff, 0xfd,
  0xff, 0x04, 0xfc, 0x1a, 0x00, 0xff, 0x02, 0x00, 0x00, 0x0e, 0x01, 0x17,
  0xf8, 0xfd, 0x12, 0x10, 0x04, 0x0a, 0x0e, 0x21, 0xee, 0xff, 0x02, 0xf8,
  0x08, 0x15, 0xff, 0xf5, 0x00, 0xfe, 0xff, 0x08, 0xff, 0xf4, 0xfe, 0x01,
  0xff, 0xe1, 0x0d, 0x0f, 0xe2, 0xef, 0xf2, 0x00, 0x03, 0xf1, 0x13, 0x0b,
  0xf6, 0xe8, 0xf6, 0xfc, 0x0a, 0x05, 0x08, 0xf9, 0xfe, 0x00, 0xf3, 0x08,
  0x09, 0xf6, 0xf7, 0x09, 0x07, 0x11, 0xfe, 0xfb, 0xfc, 0xf5, 0xf5, 0xff,
  0x03, 0x0b, 0xf3, 0x08, 0x0b, 0xfb, 0xf0, 0xfa, 0x00, 0x0c, 0x0f, 0x04,
  0x04, 0x05, 0x08, 0x05, 0xfb, 0x03, 0x01, 0x09, 0x06, 0xf5, 0xf0, 0x02,
  0xfc, 0x09, 0x02, 0xfa, 0x09, 0xf5, 0xff, 0xfc, 0xfc, 0x0a, 0xf0, 0x08,
  0x08, 0xf2, 0xff, 0xfc, 0xfc, 0x07, 0x06, 0x06, 0xff, 0xfa, 0xfd, 0xff,
  0xf3, 0x13, 0x02, 0x0b, 0x08, 0xf8, 0x07, 0xf8, 0x06, 0x06, 0x07, 0x04,
  0xfa, 0xf6, 0xf7, 0xfe, 0xfd, 0x07, 0x03, 0xfc, 0x0c, 0x08, 0x00, 0x06,
  0x07, 0x05, 0xf8, 0x04, 0x05, 0xf8, 0xf9, 0x06, 0x02, 0x06, 0x04, 0x05,
  0x05, 0xfd, 0x00, 0xf5, 0x05, 0xfe, 0xf1, 0x06, 0x02, 0x02, 0x0c, 0xf9,
  0x07, 0x08, 0xfc, 0xfa, 0xfd, 0x08, 0x04, 0xf5, 0x08, 0x02, 0xf1, 0xf5,
  0x06, 0xfc, 0x07, 0xf1, 0x01, 0x04, 0xf1, 0xfd, 0x01, 0xfe, 0xfa, 0xf6,
  0xf5, 0x14, 0xf1, 0x06, 0x06, 0x00, 0x05, 0x0d, 0x08, 0x15, 0x07, 0x0f,
  0xf2, 0xf5, 0x07, 0xfe, 0x11, 0xfa, 0x07, 0x08, 0x00, 0x04, 0x0c, 0x0e,
  0x0e, 0x00, 0x00, 0x08, 0xfb, 0xe7, 0xf9, 0xf6, 0x13, 0x07, 0xff, 0x00,
  0xfb, 0x06, 0xfb, 0x0c, 0x01, 0x0d, 0xfd, 0x02, 0x09, 0xf5, 0x02, 0x02,
  0xfb, 0x13, 0xf2, 0x06, 0x02, 0x06, 0xfd, 0x03, 0xf6, 0x09, 0x00, 0x05,
  0xfc, 0x0b, 0xfc, 0x00, 0xff, 0x0a, 0x07, 0x03, 0xf4, 0xf9, 0xfc, 0x02,
  0xfe, 0x09, 0xf7, 0x01, 0xfa, 0xfd, 0xf6, 0x09, 0xf7, 0x05, 0xf6, 0x06,
  0xf7, 0xfe, 0x04, 0xfa, 0x0b, 0x03, 0x08, 0xed, 0xf5, 0x02, 0xfb, 0x00,
  0xf7, 0x02, 0x02, 0x04, 0xf2, 0xff, 0xf2, 0x06, 0xef, 0x15, 0x10, 0xf6,
  0x02, 0xf3, 0xf3, 0x02, 0xf3, 0x14, 0xfe, 0x04, 0xf2, 0xf7, 0x00, 0x04,
  0x0d, 0x02, 0xfe, 0xf7, 0xf2, 0xf3, 0xff, 0xfe, 0x07, 0x05, 0x09, 0x0a,
  0x0d, 0xff, 0xf4, 0xfb, 0xfa, 0x0c, 0x00, 0x16, 0xf9, 0x0a, 0xff, 0x03,
  0x05, 0x0a, 0xfa, 0x00, 0xfe, 0x01, 0xfb, 0x0b, 0xff, 0x08, 0x04, 0x01,
  0x08, 0xfd, 0xfe, 0x13, 0x1e, 0x10, 0x09, 0x12, 0x0b, 0xfb, 0xff, 0xfc,
  0x05, 0x15, 0xfc, 0x0c, 0x19, 0xff, 0x08, 0xf6, 0xfe, 0xfe, 0xf9, 0x02,
  0x08, 0x03, 0x1c, 0xf3, 0x07, 0x0b, 0x02, 0x05, 0xfc, 0xee, 0x1a, 0xf6,
  0xf7, 0xf5, 0xff, 0xee, 0x03, 0xfd, 0x00, 0x08, 0xfb, 0x06, 0x07, 0xfb,
  0xf5, 0xf5, 0xff, 0x05, 0xf0, 0x0c, 0xfc, 0xf8, 0xf8, 0xfc, 0xf6, 0x06,
  0xf7, 0x00, 0x09, 0x05, 0xf9, 0x05, 0x09, 0xfb, 0xfc, 0x0b, 0x00, 0xf7,
  0xfb, 0xef, 0x0e, 0xfb, 0xf5, 0x10, 0x07, 0x08, 0xf4, 0xff, 0xf2, 0xfc,
  0xef, 0x18, 0xf4, 0x03, 0xfe, 0x0d, 0x01, 0xfd, 0xe3, 0x01, 0xfd, 0xf8,
  0xf8, 0x09, 0xf8, 0xfb, 0xe5, 0x11, 0xfb, 0x00, 0xfb, 0xf5, 0xfa, 0x09,
  0xd9, 0x03, 0xfa, 0xfa, 0x0b, 0x00, 0xf7, 0x0b, 0x00, 0x0e, 0x02, 0xfc,
  0x00, 0x09, 0x03, 0xff, 0x04, 0x03, 0xfa, 0x09, 0x01, 0xf9, 0xfd, 0xf2,
  0x08, 0xf6, 0xfd, 0xfd, 0xf8, 0x07, 0xef, 0x0c, 0xeb, 0xfc, 0x11, 0x06,
  0x05, 0xfa, 0xfb, 0x0d, 0x05, 0x04, 0xfd, 0xff, 0xf8, 0xfa, 0x02, 0xf7,
  0x14, 0x02, 0x02, 0x04, 0x07, 0xfb, 0x0d, 0xf8, 0x12, 0xfc, 0x06, 0x00,
  0x00, 0x0d, 0x05, 0x03, 0x04, 0xf5, 0xf0, 0x18, 0x10, 0x02, 0x06, 0x0d,
  0xfd, 0xff, 0x0d, 0x04, 0xf2, 0x0c, 0x13, 0x04, 0x02, 0xf2, 0x03, 0xff,
  0xf4, 0xf6, 0x08, 0x05, 0x00, 0xfd, 0x08, 0xf1, 0xf1, 0xf4, 0xfe, 0x11,
  0xfe, 0x02, 0x01, 0xff, 0xf7, 0x03, 0x0c, 0x03, 0xef, 0x01, 0xfa, 0x03,
  0xfe, 0x09, 0xfc, 0xf7, 0xfb, 0x02, 0x07, 0xf6, 0x00, 0x07, 0xff, 0x03,
  0x00, 0xfe, 0x0f, 0x06, 0x04, 0xf9, 0x00, 0x03, 0xea, 0x09, 0x0e, 0x02,
  0xf1, 0x0a, 0xf0, 0xfb, 0xfe, 0x0d, 0x07, 0xf5, 0x02, 0xf1, 0xeb, 0x07,
  0xfd, 0x06, 0x0b, 0x08, 0xfe, 0xf3, 0xf4, 0xfe, 0xea, 0x03, 0xf6, 0xfc,
  0x04, 0xf5, 0xfb, 0x00, 0xe0, 0xff, 0xfc, 0x09, 0xfe, 0x03, 0x06, 0xf7,
  0xf0, 0x01, 0xf2, 0xfd, 0x02, 0x01, 0xf8, 0x05, 0xfa, 0x07, 0x04, 0xf9,
  0xfa, 0xfa, 0xf1, 0x06, 0x0f, 0xf6, 0xf8, 0xfe, 0xfe, 0xfe, 0xf3, 0xfe,
  0xfd, 0x06, 0xf9, 0xef, 0xfe, 0xee, 0xfb, 0x00, 0x09, 0xf6, 0x03, 0xf2,
  0x08, 0xf1, 0x05, 0x0a, 0x10, 0xef, 0xf9, 0xf5, 0xfa, 0xef, 0xff, 0x00,
  0x1a, 0xe0, 0xf6, 0x0a, 0xfa, 0xfc, 0x00, 0x05, 0x04, 0xf4, 0xf3, 0x08,
  0x18, 0xf6, 0x0b, 0xfc, 0xf6, 0x01, 0x09, 0xfe, 0xe1, 0x0d, 0x0f, 0xff,
  0x0c, 0x09, 0xff, 0xef, 0xf7, 0xf7, 0x07, 0xf8, 0xfb, 0x08, 0x00, 0xf6,
  0xf2, 0x05, 0x12, 0x03, 0xfb, 0x12, 0xfd, 0xf2, 0xe8, 0xff, 0x37, 0x04,
  0xec, 0x05, 0x02, 0xf1, 0xfb, 0x01, 0x20, 0x0a, 0xf0, 0x0a, 0xfe, 0x00,
  0xea, 0xfd, 0x03, 0xff, 0x00, 0x01, 0x01, 0xfb, 0x01, 0xf8, 0xff, 0xf7,
  0xe8, 0x03, 0xf6, 0xf7, 0xf4, 0xef, 0xfa, 0xf9, 0xf3, 0x11, 0xfa, 0xf9,
  0xf7, 0xef, 0xf5, 0x0e, 0xfe, 0x0b, 0xfa, 0xf6, 0x02, 0xed, 0xfb, 0x01,
  0xf0, 0xff, 0xf7, 0x07, 0xf6, 0xfa, 0xfb, 0x01, 0xe3, 0xff, 0x04, 0x04,
  0xf8, 0x01, 0x04, 0xf9, 0xe5, 0x15, 0x01, 0xf4, 0x08, 0xfe, 0xef, 0x05,
  0xff, 0xf7, 0x0b, 0xff, 0x01, 0xff, 0x02, 0xf6, 0x05, 0xed, 0x00, 0xf5,
  0xed, 0xfc, 0xef, 0x0a, 0x09, 0x0b, 0x04, 0xef, 0x02, 0x05, 0x0d, 0x08,
  0x03, 0xfd, 0x00, 0xf3, 0x0b, 0x02, 0xf1, 0x0b, 0x07, 0x05, 0x05, 0xee,
  0xfa, 0xf5, 0x03, 0xfa, 0x22, 0xe1, 0x06, 0x13, 0xed, 0xfe, 0xfa, 0xf4,
  0x0c, 0xf9, 0x08, 0x0c, 0x14, 0x07, 0x0c, 0xf1, 0xff, 0xfe, 0xfd, 0x07,
  0xdd, 0x19, 0xf9, 0xf2, 0xfc, 0x12, 0x00, 0xff, 0x02, 0x00, 0x00, 0x00,
  0xe6, 0x11, 0xf9, 0xe5, 0xf3, 0x01, 0x25, 0xfa, 0xea, 0x0e, 0x06, 0xf5,
  0xf0, 0x02, 0x38, 0x02, 0xdb, 0x1a, 0x04, 0xea, 0xf4, 0x08, 0x26, 0xf4,
  0xe4, 0x02, 0x04, 0xef, 0xf7, 0x06, 0x03, 0xfc, 0xe2, 0x05, 0x07, 0xfa,
  0xf4, 0xf0, 0x1d, 0xfd, 0xde, 0x12, 0xf5, 0xf2, 0xf8, 0xf2, 0xf6, 0xff,
  0xed, 0x13, 0xf8, 0xe9, 0xf8, 0xf0, 0x03, 0x0a, 0xe6, 0x09, 0xf4, 0xf6,
  0xf3, 0xf4, 0x08, 0xfd, 0xd4, 0x08, 0x00, 0x03, 0xf0, 0x03, 0x14, 0xff,
  0xd6, 0x05, 0x04, 0xfc, 0xee, 0x01, 0x08, 0xfa, 0xdc, 0x08, 0x0e, 0xf7,
  0x08, 0xfd, 0xe7, 0x04, 0xf7, 0xf7, 0x00, 0x00, 0x03, 0xf8, 0xff, 0x08,
  0xf0, 0xee, 0xfd, 0xec, 0xe9, 0x01, 0xfb, 0x01, 0xf7, 0xfc, 0xfe, 0xfe,
  0xf6, 0xf9, 0x08, 0x0b, 0xfa, 0xff, 0xfd, 0xf4, 0xfa, 0xfb, 0xef, 0x03,
  0xe1, 0xf1, 0xff, 0xf9, 0x0a, 0xf5, 0xff, 0xf3, 0x19, 0xd6, 0xfb, 0x10,
  0xf1, 0x0d, 0x07, 0x10, 0x0f, 0xea, 0xf4, 0x12, 0x07, 0xff, 0x06, 0xf7,
  0xde, 0xf5, 0x06, 0xf2, 0xcd, 0x1c, 0xf2, 0x0a, 0x01, 0x17, 0xfa, 0x08,
  0xf9, 0xfc, 0x11, 0x0e, 0xd2, 0x09, 0xfb, 0xfb, 0xef, 0xf9, 0x2a, 0xf9,
  0xda, 0x11, 0x03, 0xec, 0xee, 0x09, 0x2f, 0x06, 0xe6, 0x21, 0xf0, 0xe9,
  0xf3, 0xfb, 0x29, 0x05, 0xd9, 0x00, 0xff, 0xfb, 0xf4, 0xf1, 0x0e, 0xf9,
  0xcd, 0x06, 0x06, 0xf5, 0xf6, 0xed, 0x1d, 0x06, 0xd0, 0x13, 0xff, 0xe8,
  0x04, 0xef, 0x0d, 0xf3, 0xd3, 0x0a, 0xfd, 0xeb, 0xe9, 0xdd, 0x0c, 0x02,
  0xdb, 0x12, 0xf7, 0xfa, 0xee, 0xeb, 0x1a, 0x00, 0xd1, 0x0d, 0xfb, 0xf5,
  0xf2, 0x02, 0x11, 0xff, 0xd8, 0x05, 0xff, 0x03, 0xe8, 0x01, 0x0f, 0x04,
  0xd4, 0x16, 0xfe, 0xf8, 0x0e, 0x01, 0xf5, 0xf8, 0xdb, 0xfb, 0xfd, 0x08,
  0xee, 0x02, 0x14, 0xf6, 0xe4, 0xe5, 0xfc, 0xf4, 0xd9, 0xf9, 0xf6, 0x12,
  0xeb, 0x04, 0x01, 0xf1, 0xfa, 0xff, 0x17, 0x05, 0xe9, 0xf9, 0xf4, 0xf4,
  0xf0, 0xf9, 0xf8, 0x12, 0xd4, 0xe4, 0x03, 0xfe, 0xfc, 0xf7, 0x17, 0x08,
  0xff, 0xd6, 0xfe, 0x07, 0xf3, 0xf7, 0x19, 0xfd, 0x0e, 0xd0, 0xf9, 0x12,
  0x11, 0x00, 0x04, 0xfe, 0xe5, 0xfa, 0xfc, 0x0a, 0xe9, 0x27, 0xef, 0x0a,
  0xf6, 0x0f, 0xf1, 0x03, 0xef, 0xef, 0x12, 0xf1, 0xcd, 0x07, 0x02, 0xf1,
  0xf9, 0xf4, 0x36, 0x00, 0xc5, 0x11, 0xfe, 0xef, 0xfe, 0xf9, 0x27, 0xfe,
  0xcd, 0x21, 0xfe, 0xf3, 0xfb, 0xfe, 0x19, 0x05, 0xda, 0x00, 0xf7, 0xf6,
  0xef, 0xea, 0x04, 0x0a, 0xd8, 0x0a, 0xfc, 0x09, 0x00, 0xf2, 0x1a, 0xf8,
  0xc4, 0x1b, 0x06, 0xf3, 0xf1, 0xe7, 0x18, 0xfe, 0xc3, 0x21, 0x09, 0xf5,
  0xec, 0xed, 0x13, 0xff, 0xda, 0x08, 0xf7, 0xf9, 0xcb, 0xeb, 0x13, 0x12,
  0xcd, 0x09, 0xfb, 0xfe, 0xee, 0xea, 0x35, 0xf3, 0xdc, 0x21, 0x00, 0xfe,
  0x00, 0x0b, 0x2d, 0xf6, 0xcd, 0x10, 0xf3, 0xff, 0x10, 0x08, 0x00, 0x01,
  0xd5, 0x05, 0x09, 0xf8, 0xdd, 0x0c, 0x19, 0x00, 0xdb, 0xe5, 0xf7, 0xef,
  0xd6, 0xef, 0x05, 0xf9, 0xde, 0xfb, 0xf1, 0xec, 0x0a, 0xfd, 0x1a, 0xfc,
  0xdf, 0xf1, 0xfd, 0xff, 0xf9, 0x00, 0x0f, 0x00, 0xcf, 0xdb, 0xf6, 0xff,
  0xea, 0xe6, 0x15, 0xfe, 0xf8, 0xdd, 0xfd, 0x02, 0xeb, 0xf3, 0x14, 0xfd,
  0x15, 0xf0, 0x00, 0x0f, 0x08, 0x01, 0x07, 0xf6, 0xca, 0xfb, 0xfc, 0x05,
  0xfc, 0x1e, 0xe7, 0x07, 0xf7, 0x22, 0xf9, 0xfc, 0xf3, 0xf2, 0x0e, 0xf8,
  0xd3, 0x1c, 0xf6, 0xef, 0xee, 0xfa, 0x36, 0x03, 0xc1, 0x31, 0x00, 0xfe,
  0x01, 0xfe, 0x1c, 0x06, 0xd6, 0x2c, 0xfb, 0xe8, 0x03, 0xf7, 0x21, 0xf5,
  0xd7, 0x07, 0xfb, 0xf9, 0xdc, 0xe3, 0x00, 0xfe, 0xe2, 0x1e, 0x01, 0x01,
  0x07, 0xee, 0x21, 0xf6, 0xd0, 0x19, 0x03, 0xee, 0xf2, 0xf8, 0x19, 0x0b,
  0xbe, 0x0d, 0x00, 0xf6, 0xd8, 0xef, 0x1a, 0x06, 0xc1, 0x1a, 0xfb, 0xeb,
  0xc8, 0xf3, 0x09, 0x0d, 0xbf, 0x0b, 0x02, 0xfa, 0xdb, 0xf5, 0x1c, 0xef,
  0xe2, 0x20, 0xff, 0x00, 0x0c, 0x04, 0x1e, 0xfc, 0xd1, 0x1e, 0xf9, 0xfe,
  0x16, 0xf2, 0x0b, 0x00, 0xe8, 0xf4, 0x0c, 0x03, 0xcd, 0xff, 0x1e, 0xf6,
  0xd5, 0xfb, 0x02, 0xe7, 0xe3, 0xf2, 0xfc, 0xfd, 0xd4, 0xef, 0xff, 0xee,
  0x1f, 0xe8, 0x1a, 0x08, 0xe6, 0xe3, 0xf4, 0x03, 0xf2, 0xf2, 0x08, 0xfe,
  0xc3, 0xe5, 0xf7, 0xf8, 0xe9, 0xf1, 0x27, 0xfd, 0xea, 0xee, 0xf5, 0xec,
  0xf4, 0xf3, 0x1e, 0x06, 0x26, 0xec, 0x05, 0x0c, 0x01, 0x00, 0x0f, 0xf6,
  0xd5, 0x02, 0xf8, 0xf6, 0x02, 0x29, 0xf4, 0x01, 0xf2, 0x16, 0xfa, 0xfb,
  0xf2, 0xf5, 0x0c, 0x00, 0xd8, 0x1c, 0x02, 0xec, 0xed, 0x0e, 0x2e, 0xfd,
  0xbe, 0x24, 0x02, 0xfa, 0xed, 0xf9, 0x1e, 0x10, 0xe8, 0x2d, 0xfc, 0xf4,
  0x06, 0xf4, 0x0e, 0xf7, 0xdc, 0x10, 0xf7, 0x00, 0xe1, 0xe6, 0x06, 0x04,
  0xe4, 0x16, 0xf9, 0xf4, 0x14, 0x02, 0x18, 0xfc, 0xcf, 0x24, 0xfc, 0xf4,
  0xf2, 0xf1, 0x19, 0xfc, 0xc8, 0x10, 0x0d, 0xf5, 0xd9, 0xf4, 0x19, 0x02,
  0xd6, 0x14, 0xf9, 0xf2, 0xcc, 0x04, 0x0c, 0xf9, 0xcb, 0x08, 0xf5, 0xf7,
  0xee, 0xea, 0x1c, 0xfd, 0xd8, 0x18, 0xfe, 0xf5, 0x02, 0x07, 0x28, 0x0b,
  0xd9, 0x13, 0xfd, 0x12, 0x13, 0xf8, 0x08, 0x01, 0xdc, 0xf8, 0xfa, 0xfa,
  0xe1, 0xf5, 0x0e, 0xf8, 0xd4, 0xe9, 0xf6, 0xf6, 0xe5, 0xf5, 0xf2, 0x0f,
  0xd5, 0xfb, 0xf7, 0xfe, 0x1d, 0xfa, 0x23, 0x0f, 0xde, 0xec, 0xf2, 0xf2,
  0xf3, 0xf2, 0x0c, 0x0b, 0xcd, 0xe6, 0xf6, 0xf6, 0xea, 0xef, 0x1b, 0xf5,
  0xd0, 0xfa, 0xee, 0xe9, 0x02, 0xed, 0x10, 0xfe, 0x31, 0xfd, 0xfc, 0x12,
  0x0b, 0xf9, 0x18, 0xfa, 0xd3, 0xf8, 0xfc, 0xff, 0xef, 0x26, 0xec, 0x09,
  0xe9, 0x0a, 0x08, 0xf8, 0xfd, 0xf9, 0x16, 0x06, 0xcc, 0x0f, 0x04, 0xf7,
  0xe9, 0xf4, 0x26, 0xf4, 0xb9, 0x25, 0xfb, 0xfc, 0xf0, 0xfc, 0x10, 0xfd,
  0xde, 0x23, 0xfb, 0xf5, 0xf7, 0xf7, 0x1b, 0xf8, 0xd9, 0x20, 0xf8, 0xef,
  0xd1, 0xf1, 0xfe, 0xfe, 0xe7, 0x28, 0x07, 0xf0, 0x19, 0x07, 0x19, 0xfe,
  0xcb, 0x15, 0xfb, 0xee, 0xf5, 0xf4, 0x0f, 0x0c, 0xd9, 0x03, 0x02, 0xf8,
  0xdb, 0xff, 0x19, 0xf9, 0xe4, 0x0a, 0xff, 0xf9, 0xdd, 0xee, 0x01, 0xf9,
  0xc9, 0x07, 0x04, 0xf3, 0xe4, 0xff, 0x23, 0x0e, 0xe1, 0x17, 0xf9, 0x04,
  0x05, 0x11, 0x27, 0x00, 0xef, 0x16, 0x05, 0x0e, 0x1e, 0xfb, 0x06, 0xfd,
  0xe3, 0xf1, 0xfa, 0xfa, 0xf7, 0xfc, 0x00, 0x00, 0xce, 0xd8, 0xf8, 0xf8,
  0xf7, 0xed, 0xed, 0x09, 0xd6, 0xf3, 0xf9, 0xf8, 0x0c, 0xea, 0x1f, 0x0e,
  0xd7, 0xd6, 0xfc, 0xfe, 0xed, 0xe5, 0x00, 0x01, 0xcd, 0xdc, 0x00, 0xe8,
  0xd7, 0xf5, 0x20, 0x02, 0xe8, 0xef, 0xf2, 0xff, 0xfd, 0xec, 0x04, 0xf8,
  0x30, 0xf6, 0x01, 0x04, 0x03, 0x03, 0xff, 0xff, 0xd0, 0xf5, 0xf7, 0x00,
  0xea, 0x24, 0xf2, 0xf7, 0xd9, 0x11, 0x07, 0xf0, 0xf5, 0xf8, 0x18, 0xf9,
  0xdd, 0x13, 0xfe, 0xe1, 0xf0, 0x04, 0x2c, 0x02, 0xc3, 0x23, 0x06, 0xef,
  0xe7, 0xfb, 0x03, 0x0e, 0xe0, 0x1f, 0xf9, 0xeb, 0x08, 0xf7, 0x15, 0x0a,
  0xda, 0x12, 0xfd, 0xf0, 0xe0, 0xea, 0x0d, 0x02, 0xf1, 0x19, 0xff, 0xf4,
  0x04, 0x0d, 0x1e, 0x03, 0xda, 0x05, 0x02, 0xee, 0xfc, 0xe7, 0x0c, 0xf8,
  0xe0, 0x06, 0xfe, 0xf4, 0xef, 0x05, 0x15, 0xf6, 0xe7, 0x0c, 0xfb, 0xf2,
  0xdb, 0xfb, 0x15, 0xf8, 0xda, 0x13, 0xfd, 0xea, 0xe1, 0xe6, 0x11, 0x07,
  0xe4, 0x06, 0xfa, 0xf9, 0xf3, 0x0b, 0x23, 0x03, 0xef, 0x0b, 0xfe, 0xf4,
  0x08, 0x08, 0xfe, 0xfe, 0xdc, 0xee, 0xfb, 0xf8, 0x15, 0xea, 0xfe, 0x06,
  0xd2, 0xe0, 0x02, 0xee, 0xee, 0xe4, 0xf0, 0x03, 0xed, 0xe4, 0x01, 0xf7,
  0x12, 0xf5, 0x1a, 0x02, 0xeb, 0xdc, 0xf9, 0xe4, 0xeb, 0xf6, 0x0d, 0x01,
  0xdd, 0xdd, 0x00, 0xe5, 0xe5, 0xf9, 0x15, 0xfd, 0xe4, 0xee, 0x00, 0x01,
  0x09, 0x05, 0x02, 0xfa, 0x2f, 0xf8, 0xf8, 0x00, 0x03, 0x07, 0x08, 0x04,
  0xcd, 0xfe, 0x02, 0x0d, 0xed, 0x20, 0xf2, 0x07, 0xe0, 0x14, 0x02, 0xfc,
  0xf9, 0xf0, 0x1f, 0x05, 0xe1, 0x1e, 0xff, 0xdb, 0xf0, 0xf5, 0x26, 0x05,
  0xc8, 0x15, 0x0b, 0xee, 0xde, 0xf8, 0x14, 0xfb, 0xcf, 0x26, 0x06, 0x0e,
  0xf2, 0xf3, 0x23, 0xfc, 0xd2, 0xfb, 0xfb, 0xf5, 0xeb, 0xfe, 0x17, 0x0c,
  0xf5, 0x18, 0xfe, 0xe9, 0x12, 0x03, 0x19, 0x01, 0xde, 0x09, 0xff, 0xf8,
  0xe9, 0xeb, 0x09, 0xff, 0xdc, 0xf8, 0xf8, 0xff, 0xe0, 0x07, 0x15, 0xfc,
  0xe3, 0x0b, 0x00, 0xf5, 0xe0, 0xfa, 0x07, 0xf7, 0xcd, 0x0c, 0x01, 0xeb,
  0xe5, 0xee, 0x0b, 0x0a, 0xe1, 0x05, 0xfb, 0xf2, 0xf7, 0x1a, 0x11, 0x0c,
  0xfb, 0x11, 0xfa, 0xf7, 0x13, 0x06, 0x09, 0xfb, 0xe4, 0xff, 0x04, 0xfa,
  0x02, 0xe9, 0x00, 0x0c, 0xdf, 0xf8, 0x05, 0xdb, 0xf5, 0xea, 0xf9, 0x07,
  0xe8, 0xf0, 0xf1, 0xf8, 0xff, 0xef, 0x14, 0x0b, 0xe5, 0xe9, 0xf7, 0xed,
  0xeb, 0xe7, 0x0a, 0x08, 0xf3, 0xea, 0xf1, 0xe3, 0xe1, 0xf0, 0x1a, 0xf7,
  0xed, 0xe9, 0xfe, 0xe9, 0x09, 0xfa, 0xfd, 0x09, 0x31, 0xf1, 0xf8, 0xfd,
  0xf1, 0x00, 0x19, 0x02, 0xcd, 0x0f, 0xfb, 0x0c, 0xef, 0x22, 0xf1, 0x05,
  0xda, 0x09, 0x08, 0xf5, 0xf3, 0xfc, 0x0f, 0x01, 0xd2, 0x1a, 0xfa, 0xe8,
  0xec, 0xf7, 0x23, 0x03, 0xc5, 0x1a, 0x0c, 0xf1, 0xe3, 0xf6, 0x0d, 0x01,
  0xd8, 0x0b, 0xf2, 0x0b, 0xea, 0xfa, 0x1a, 0xfd, 0xc0, 0x03, 0x0f, 0x03,
  0xf5, 0x04, 0x1d, 0x0c, 0xf6, 0x00, 0xfd, 0xf1, 0x02, 0x13, 0x2c, 0x00,
  0xeb, 0x05, 0x0a, 0xf2, 0xe9, 0xea, 0xfb, 0xf1, 0xdb, 0xf4, 0x0e, 0x11,
  0xef, 0xfd, 0x0d, 0xfa, 0xd9, 0x06, 0xfc, 0xee, 0xdb, 0x06, 0x1d, 0x04,
  0xcd, 0x0d, 0xfb, 0xf3, 0xf4, 0xf6, 0x0a, 0x0f, 0xed, 0xf9, 0x08, 0xf5,
  0xe3, 0x13, 0x1d, 0x00, 0x0d, 0x02, 0xf9, 0x01, 0x06, 0x0c, 0x05, 0x05,
  0xe5, 0xf8, 0x06, 0xf7, 0x02, 0xe8, 0x07, 0x00, 0xdd, 0xed, 0x0b, 0xf6,
  0x0b, 0xeb, 0xef, 0xfa, 0xe2, 0xf0, 0xfb, 0xf7, 0x0e, 0xee, 0x22, 0x08,
  0xed, 0xed, 0xfe, 0xfd, 0xeb, 0xfb, 0x1f, 0x06, 0xef, 0xe9, 0xf2, 0xf5,
  0xf0, 0x02, 0x1d, 0xfb, 0xea, 0xee, 0xfe, 0xf3, 0x10, 0xf0, 0x0c, 0x0d,
  0x2f, 0xec, 0xff, 0xfb, 0xf3, 0xfd, 0x1b, 0xef, 0xcc, 0xfd, 0x07, 0x18,
  0xf8, 0x1c, 0xf2, 0xfb, 0xd5, 0x11, 0x06, 0xff, 0xf6, 0xf8, 0x15, 0x03,
  0xe1, 0x15, 0xff, 0xee, 0xe7, 0xfd, 0x27, 0xf7, 0xc0, 0x13, 0x06, 0x00,
  0xf3, 0x04, 0x0c, 0xfe, 0xc2, 0x02, 0x0a, 0x19, 0xf1, 0xe6, 0x27, 0xfc,
  0xc3, 0x0d, 0x09, 0xf5, 0x06, 0x05, 0x21, 0x07, 0xe4, 0x15, 0xf5, 0xf5,
  0x16, 0x12, 0x1a, 0xff, 0xf5, 0x02, 0xf7, 0xee, 0xdc, 0xda, 0xf8, 0x02,
  0xcf, 0xfe, 0x00, 0xfd, 0xe4, 0xfa, 0x1a, 0x03, 0xc5, 0xfb, 0xfb, 0xfa,
  0xed, 0x1c, 0x0b, 0x04, 0xd4, 0x06, 0x00, 0xf4, 0xed, 0xf5, 0x08, 0xfb,
  0xee, 0x06, 0x00, 0xf7, 0xd7, 0x12, 0x12, 0x05, 0x0b, 0x0c, 0xfc, 0xef,
  0x00, 0x09, 0x19, 0x04, 0xea, 0xf8, 0xfd, 0x00, 0xed, 0xe4, 0x02, 0x05,
  0xe3, 0xf8, 0x05, 0xe0, 0xfa, 0xf6, 0x06, 0xf7, 0xed, 0xec, 0xfb, 0x00,
  0x08, 0xff, 0x1d, 0xf6, 0x04, 0xe0, 0xf6, 0x00, 0x00, 0xf6, 0x0b, 0xfe,
  0xfe, 0xec, 0xfd, 0xf1, 0xf0, 0xed, 0x08, 0xfb, 0xe7, 0xef, 0x01, 0xf0,
  0x09, 0x03, 0x0d, 0x00, 0x1d, 0xe7, 0xf4, 0xfc, 0xee, 0xf7, 0x1c, 0xfb,
  0xdb, 0xee, 0x07, 0x19, 0xf5, 0x25, 0xf2, 0xfa, 0xd3, 0x05, 0xff, 0x07,
  0xe8, 0x04, 0x18, 0x07, 0xce, 0x22, 0x09, 0xf2, 0xe5, 0xf7, 0x2d, 0xf1,
  0xb3, 0x13, 0x07, 0x1a, 0xfb, 0xf2, 0x15, 0x01, 0xc0, 0x0e, 0x04, 0x1a,
  0xe9, 0xfe, 0x2e, 0x04, 0xd1, 0x15, 0xf8, 0xf6, 0x06, 0xf5, 0x15, 0xf9,
  0xde, 0x0f, 0x01, 0xf7, 0x11, 0x20, 0x01, 0xfa, 0xf7, 0x0c, 0xf5, 0xe5,
  0xe1, 0xf4, 0xef, 0x0b, 0xd2, 0xf2, 0xf9, 0x06, 0xea, 0xf5, 0x16, 0x05,
  0xca, 0xf8, 0xff, 0xf7, 0xe8, 0x04, 0x19, 0x03, 0xd7, 0xf3, 0xf5, 0xeb,
  0x03, 0xfe, 0x0c, 0x04, 0xe3, 0xfc, 0xfc, 0xfb, 0xe6, 0x11, 0x2d, 0x03,
  0x08, 0xf6, 0x01, 0xf8, 0x07, 0xff, 0x0a, 0xf4, 0xdd, 0xff, 0x06, 0xea,
  0xe2, 0x05, 0x04, 0x04, 0xf5, 0xf7, 0x02, 0xe7, 0x08, 0xf7, 0x07, 0x06,
  0xfe, 0xec, 0xfa, 0xf7, 0x01, 0xfd, 0x1a, 0xf8, 0x08, 0xdd, 0xfa, 0xf5,
  0x07, 0x02, 0x0e, 0x0c, 0xef, 0xed, 0x0a, 0xf0, 0xfa, 0x02, 0x0a, 0x05,
  0xdd, 0xeb, 0xfb, 0xef, 0x14, 0xfd, 0x0d, 0xfc, 0x31, 0xe8, 0x03, 0x01,
  0xed, 0xfe, 0x0f, 0xff, 0xe1, 0xf2, 0xfc, 0x07, 0xfc, 0x1f, 0xff, 0xf7,
  0xda, 0xff, 0xf5, 0x08, 0xf3, 0xef, 0x11, 0xfd, 0xd5, 0x21, 0xff, 0xef,
  0xf9, 0xfa, 0x3b, 0xf5, 0xba, 0x12, 0xfd, 0x24, 0xf4, 0xfd, 0x27, 0x0a,
  0xc3, 0x11, 0x02, 0x06, 0xf7, 0xfb, 0x26, 0x06, 0xd2, 0x0a, 0xf2, 0xfd,
  0x0b, 0xfa, 0x15, 0x06, 0xe5, 0x0b, 0x02, 0x04, 0x21, 0x09, 0x10, 0x0e,
  0xf2, 0x0e, 0x0b, 0xeb, 0xe9, 0xf2, 0xf4, 0xfc, 0xd2, 0xf9, 0xf5, 0x02,
  0xfa, 0xfb, 0x15, 0x06, 0xc7, 0xf3, 0x09, 0xfe, 0xfb, 0x0e, 0x10, 0x04,
  0xf0, 0xff, 0xf8, 0xf6, 0xf7, 0x00, 0x1c, 0x08, 0xf1, 0xfa, 0x0c, 0xff,
  0xe1, 0x17, 0x1f, 0xf9, 0xeb, 0xfa, 0xfb, 0xf0, 0x08, 0xfc, 0x01, 0x0b,
  0xee, 0x00, 0x0e, 0xf8, 0xed, 0xf5, 0x0b, 0x04, 0x08, 0xfe, 0x00, 0xe2,
  0xf8, 0x03, 0x13, 0x01, 0x0b, 0xdd, 0x0c, 0xed, 0x16, 0xf4, 0x08, 0x06,
  0xf3, 0xeb, 0xf9, 0x06, 0x00, 0xf8, 0x07, 0x02, 0xea, 0xe4, 0xff, 0x02,
  0xf9, 0xf8, 0x0f, 0xfb, 0xd9, 0xf0, 0x0a, 0xf2, 0x04, 0xf4, 0x13, 0x0a,
  0x27, 0xea, 0x05, 0xee, 0xe3, 0x01, 0x15, 0x02, 0xd2, 0xea, 0xfd, 0x0d,
  0xef, 0x2f, 0xfc, 0x05, 0xcf, 0xfd, 0xfa, 0xfa, 0xee, 0xf4, 0x0c, 0x12,
  0xd4, 0x04, 0xf8, 0xf3, 0xea, 0xfb, 0x46, 0x05, 0xc5, 0x0d, 0xfe, 0x1b,
  0xf9, 0xf3, 0x31, 0x0b, 0xc5, 0x0f, 0xf7, 0xfe, 0xfc, 0x06, 0x39, 0xf8,
  0xda, 0x12, 0xfc, 0xf1, 0x16, 0xf0, 0x15, 0xf5, 0xe4, 0x1c, 0xf7, 0xf2,
  0x1f, 0x02, 0x0b, 0xfb, 0xdf, 0x02, 0x05, 0xe5, 0xe1, 0x06, 0xf4, 0xff,
  0xd5, 0xf0, 0xfa, 0xee, 0xf6, 0xee, 0x06, 0xfd, 0xdd, 0xf7, 0x06, 0xf5,
  0xf5, 0x14, 0x0f, 0x02, 0xf2, 0x01, 0xf4, 0xf6, 0xef, 0x01, 0x23, 0x08,
  0xec, 0xfc, 0xff, 0xfe, 0xeb, 0x0f, 0x21, 0xf9, 0xe2, 0x04, 0x02, 0xf3,
  0x00, 0xec, 0xf2, 0x03, 0xdc, 0xfe, 0x03, 0xe3, 0xec, 0x05, 0x0d, 0x00,
  0xee, 0xf7, 0xfd, 0xdd, 0xf5, 0xfd, 0x03, 0xf8, 0x00, 0xdf, 0x02, 0xe7,
  0x0c, 0xf1, 0x0c, 0x03, 0xf3, 0xdd, 0xfe, 0xff, 0xfe, 0xf8, 0xf7, 0x02,
  0xf1, 0xf3, 0xfa, 0xf2, 0x02, 0xf6, 0x11, 0x03, 0xd7, 0xe8, 0xfd, 0xf9,
  0x01, 0xf7, 0x10, 0xfe, 0x28, 0xdf, 0xf1, 0xf4, 0xe8, 0xf9, 0x22, 0x02,
  0xda, 0xe4, 0xfc, 0x0f, 0xf9, 0x1c, 0x0f, 0x09, 0xda, 0xfb, 0xfe, 0x01,
  0xff, 0xfa, 0x14, 0xfc, 0xdd, 0xef, 0x02, 0xf3, 0xfa, 0x10, 0x41, 0x04,
  0xc7, 0xf9, 0x0b, 0x1e, 0x0b, 0x00, 0x39, 0x10, 0xc3, 0x0b, 0x08, 0xf6,
  0xfd, 0x01, 0x3e, 0x05, 0xe1, 0x12, 0xf5, 0xf0, 0x18, 0xf0, 0x1b, 0xfb,
  0xd9, 0x10, 0x07, 0xf5, 0x20, 0x0d, 0x0f, 0xfc, 0xdd, 0x01, 0x04, 0xe6,
  0xe5, 0x08, 0xfd, 0x0b, 0xd9, 0xfd, 0x00, 0xe7, 0xf9, 0xff, 0x02, 0xfe,
  0xe9, 0x08, 0x06, 0xfb, 0xf7, 0x02, 0x11, 0x06, 0xe9, 0xf2, 0xfe, 0xf9,
  0x00, 0x03, 0x1d, 0x05, 0xfa, 0xf3, 0x02, 0xf4, 0xf6, 0x09, 0x1f, 0xfc,
  0xe2, 0x03, 0xfa, 0xef, 0x08, 0x03, 0xf4, 0xf8, 0xd7, 0xf9, 0x04, 0xed,
  0xf3, 0xfc, 0x0b, 0xff, 0xf5, 0xf2, 0xf8, 0xdf, 0x04, 0x05, 0xfb, 0xfa,
  0x02, 0xef, 0x05, 0xe1, 0x11, 0xf0, 0x04, 0xfe, 0xf9, 0xe4, 0xfb, 0xf9,
  0x09, 0xfc, 0xf2, 0x07, 0xe5, 0xe6, 0xf9, 0xe5, 0x07, 0xf2, 0x17, 0x00,
  0xd0, 0xe2, 0x02, 0xfa, 0xfd, 0xfc, 0x14, 0xff, 0x2a, 0xe4, 0x00, 0xf8,
  0xed, 0x03, 0x21, 0x05, 0xe1, 0xdf, 0x0e, 0x06, 0xf5, 0x20, 0x07, 0x10,
  0xdd, 0xf2, 0x09, 0x01, 0x08, 0x0a, 0x07, 0x00, 0xc3, 0xea, 0x01, 0xfd,
  0x07, 0x01, 0x40, 0x05, 0xc0, 0xe2, 0x0a, 0x17, 0x08, 0x07, 0x37, 0x04,
  0xc4, 0x02, 0x01, 0xfa, 0x0c, 0x12, 0x33, 0x0c, 0xcc, 0xfc, 0xf8, 0xed,
  0x1e, 0xfc, 0x19, 0x12, 0xdc, 0x0e, 0x02, 0xf2, 0x1c, 0x04, 0x1c, 0x0f,
  0xc5, 0x0d, 0x00, 0xdf, 0xf4, 0x02, 0xf9, 0x12, 0xd8, 0xf3, 0x03, 0xf3,
  0x0a, 0xef, 0x0f, 0x08, 0xf0, 0x02, 0x05, 0xf2, 0xf0, 0xfb, 0x13, 0x05,
  0xf0, 0xf5, 0x08, 0x08, 0xef, 0x17, 0x21, 0x02, 0xe3, 0xf9, 0xfc, 0xf3,
  0x06, 0x1f, 0x20, 0x0e, 0xda, 0xf7, 0x00, 0xf8, 0xfd, 0x01, 0xf7, 0x00,
  0xc0, 0xee, 0x09, 0xef, 0xfd, 0x03, 0x12, 0xf6, 0xf4, 0xe8, 0xfa, 0xe1,
  0xea, 0x06, 0xf5, 0xfb, 0xf0, 0xe4, 0xfe, 0xea, 0x14, 0xf7, 0x09, 0x05,
  0xe5, 0xf6, 0x02, 0x0d, 0x06, 0xfc, 0xf5, 0x02, 0xdc, 0xe7, 0x06, 0xf4,
  0x16, 0xfc, 0x16, 0xff, 0xd1, 0xe3, 0xf1, 0xf3, 0xf2, 0xf0, 0x16, 0x09,
  0x22, 0xdf, 0xf6, 0xf5, 0xed, 0x0b, 0x17, 0xff, 0xe4, 0xe4, 0x01, 0x02,
  0xf5, 0x0a, 0x0a, 0xfc, 0xe7, 0xfa, 0xf3, 0x02, 0xf9, 0x01, 0x0b, 0xf6,
  0xdb, 0xfe, 0x06, 0xef, 0xfe, 0x19, 0x41, 0xf6, 0xcb, 0xe7, 0x00, 0xfd,
  0xfc, 0x03, 0x43, 0x04, 0xb9, 0xfa, 0x03, 0x00, 0x01, 0x0c, 0x35, 0x0f,
  0xd2, 0x01, 0x0c, 0x00, 0x15, 0x0a, 0x07, 0xff, 0xcc, 0x08, 0xf4, 0x03,
  0x3a, 0xfe, 0x08, 0x06, 0xd3, 0xfe, 0xfe, 0xde, 0xfa, 0x0f, 0xf9, 0x07,
  0xd0, 0xf9, 0x06, 0xf1, 0x0b, 0xea, 0x01, 0xf8, 0xee, 0x04, 0x0f, 0xf0,
  0xf4, 0x08, 0x12, 0xff, 0xd7, 0xfb, 0x07, 0xfc, 0xfa, 0x17, 0x08, 0xfe,
  0xe5, 0xec, 0xf2, 0x00, 0x00, 0x26, 0x1c, 0x08, 0xcd, 0xf8, 0x03, 0xea,
  0x03, 0xf9, 0x03, 0x00, 0xc2, 0xfd, 0xf8, 0xf7, 0x17, 0x09, 0x0d, 0x04,
  0xdd, 0xe9, 0x06, 0xf6, 0xf6, 0x00, 0xea, 0x0c, 0xe1, 0xf7, 0xfd, 0xf3,
  0x02, 0xfe, 0xec, 0x05, 0xf0, 0xf0, 0x03, 0x08, 0x11, 0xfd, 0xf5, 0x03,
  0xf9, 0xdc, 0xfe, 0xf3, 0x19, 0xfc, 0x06, 0x03, 0xd4, 0xe4, 0x08, 0xf4,
  0xf1, 0x02, 0x1f, 0xff, 0x1d, 0xe2, 0xf2, 0xfb, 0xf5, 0x00, 0x16, 0x04,
  0xf1, 0xe7, 0x0c, 0x18, 0xff, 0x0a, 0x0d, 0x08, 0xfe, 0x01, 0x08, 0xfa,
  0xf8, 0x0c, 0x1d, 0x05, 0xf0, 0xf5, 0xf9, 0xe6, 0xfd, 0x1a, 0x39, 0xff,
  0xe0, 0x04, 0x02, 0x06, 0x09, 0xfc, 0x31, 0xf1, 0xd0, 0x0a, 0x01, 0x06,
  0x15, 0x0b, 0x35, 0xf5, 0xed, 0x0e, 0xff, 0x14, 0x19, 0x11, 0x11, 0x08,
  0xe7, 0xfd, 0xf3, 0xfb, 0x37, 0x0a, 0x11, 0x0f, 0xe4, 0x06, 0xfd, 0xeb,
  0x04, 0x09, 0x02, 0x0e, 0xec, 0xfb, 0xf4, 0xfa, 0x08, 0xee, 0x07, 0x0c,
  0xf9, 0xf8, 0x01, 0xf5, 0xff, 0x0b, 0x08, 0x11, 0xe4, 0x07, 0x05, 0xfd,
  0x01, 0x0e, 0x12, 0xff, 0xdf, 0xf8, 0xfb, 0x12, 0xfc, 0x31, 0x10, 0xff,
  0xd7, 0xfa, 0x06, 0xe8, 0x12, 0x05, 0x0f, 0x07, 0xe9, 0xec, 0xf9, 0xfc,
  0x0e, 0x03, 0x03, 0xf3, 0xfb, 0xe9, 0xfc, 0xfc, 0x0b, 0x0c, 0xfc, 0x0a,
  0xf4, 0xf1, 0xf9, 0xff, 0x08, 0xfb, 0xeb, 0x00, 0xee, 0xf5, 0xf6, 0x09,
  0x1b, 0x0c, 0xf6, 0xfc, 0x06, 0xf2, 0x06, 0xfd, 0x0c, 0x08, 0x03, 0x01,
  0xe9, 0xe0, 0x0f, 0xf2, 0xf9, 0x13, 0x0b, 0x05, 0x0f, 0xdd, 0x06, 0xf9,
  0xf1, 0x07, 0x20, 0x0b, 0x01, 0xf5, 0xf6, 0x03, 0xf2, 0x0c, 0x19, 0x0b,
  0x01, 0x04, 0x00, 0xfa, 0x14, 0x07, 0x1f, 0xfd, 0xf6, 0x09, 0x0c, 0x04,
  0x08, 0x1f, 0x3e, 0x01, 0xe7, 0x03, 0x05, 0x16, 0xf6, 0xf3, 0x38, 0x0a,
  0xda, 0xfa, 0x0e, 0x0a, 0x20, 0x05, 0x2c, 0x06, 0xea, 0x0a, 0xfc, 0xf9,
  0x16, 0x12, 0x0e, 0xfa, 0xef, 0x0a, 0x02, 0xf8, 0x41, 0x29, 0x17, 0xfc,
  0xfa, 0x04, 0xf8, 0xe8, 0x04, 0x0b, 0x0b, 0xf7, 0xfe, 0x04, 0x0a, 0x00,
  0x0c, 0xfd, 0x06, 0x06, 0xfe, 0x0b, 0xf4, 0xf4, 0x0c, 0xfd, 0x13, 0xfc,
  0xe9, 0xf9, 0xf6, 0xf8, 0x17, 0x24, 0x17, 0xfd, 0xd4, 0xee, 0xf8, 0x25,
  0x17, 0x2d, 0x22, 0x00, 0xdf, 0xf4, 0xf2, 0xf3, 0x13, 0xf4, 0x1d, 0x02,
  0xef, 0xf5, 0x02, 0x0e, 0x14, 0x14, 0x0b, 0x00, 0x01, 0xfb, 0xf5, 0x0d,
  0x14, 0x08, 0xf0, 0x02, 0xfe, 0xe5, 0xfc, 0x08, 0x1a, 0x16, 0xed, 0x03,
  0xed, 0xf1, 0xff, 0x07, 0x20, 0xfe, 0xf5, 0x05, 0x04, 0xe0, 0xfe, 0x05,
  0x13, 0x17, 0x0a, 0x0e, 0xf9, 0xe5, 0x00, 0x09, 0xeb, 0x0b, 0x05, 0x0e,
  0x16, 0xed, 0x03, 0x08, 0x07, 0xfe, 0x1b, 0x02, 0x09, 0xf2, 0x08, 0x06,
  0x02, 0x04, 0x19, 0xff, 0x03, 0x0a, 0xf1, 0x02, 0x11, 0xf5, 0x20, 0xfa,
  0x09, 0x15, 0xfe, 0x06, 0x09, 0x0d, 0x1e, 0x02, 0x06, 0x1a, 0xf4, 0x10,
  0xf9, 0x01, 0x21, 0xfe, 0xe7, 0x18, 0xff, 0x08, 0x1e, 0xea, 0x0f, 0x04,
  0xf5, 0x0f, 0xff, 0xf9, 0x1f, 0x0e, 0xf1, 0x10, 0xf3, 0x0f, 0xfb, 0xff,
  0x2c, 0x19, 0xfa, 0xfa, 0x15, 0xfe, 0xfc, 0xea, 0xe5, 0x1f, 0xf3, 0xf9,
  0x08, 0x04, 0x03, 0xf6, 0x0d, 0x00, 0xec, 0xfc, 0xf4, 0xfd, 0xfc, 0xfd,
  0xf8, 0x09, 0xf1, 0xfd, 0xfc, 0x06, 0xfd, 0x14, 0x03, 0x17, 0xfc, 0x09,
  0xea, 0xf0, 0x00, 0x1f, 0x00, 0x2a, 0xf6, 0xfc, 0xf1, 0xfa, 0xf2, 0x10,
  0xf1, 0xe9, 0x00, 0x01, 0xf4, 0xee, 0x0a, 0x0c, 0x01, 0x01, 0xf2, 0x02,
  0x10, 0x02, 0x08, 0x0f, 0xf8, 0x07, 0xe9, 0xf2, 0x04, 0xf7, 0x03, 0x05,
  0xf5, 0x0c, 0xe1, 0xf0, 0x0a, 0xe7, 0xf2, 0x13, 0x00, 0xff, 0xdf, 0xff,
  0x06, 0xd8, 0x08, 0x0f, 0xf5, 0x0f, 0xea, 0x0c, 0x07, 0xda, 0x05, 0x01,
  0xf6, 0xfa, 0xdf, 0xfb, 0x1b, 0xe3, 0x0e, 0x08, 0x00, 0x0b, 0xf5, 0x03,
  0x09, 0x1b, 0xfa, 0xed, 0xeb, 0xf5, 0x12, 0x07, 0x09, 0x2c, 0x03, 0xf2,
  0xfe, 0xf9, 0x12, 0xfa, 0x16, 0x32, 0xfc, 0x04, 0xed, 0x04, 0x25, 0xf1,
  0x03, 0x35, 0x04, 0x15, 0xdc, 0x04, 0x1f, 0x06, 0xef, 0x3d, 0xfa, 0x1f,
  0x11, 0xed, 0x19, 0x08, 0xfd, 0x2f, 0xfb, 0x00, 0x08, 0x04, 0x02, 0x06,
  0xef, 0x30, 0xf9, 0xfe, 0x1a, 0x17, 0xff, 0xfb, 0x0e, 0x33, 0x01, 0xfd,
  0xd1, 0xfb, 0xfb, 0x02, 0xfb, 0x15, 0x06, 0xed, 0x0a, 0xf8, 0xfc, 0x06,
  0xea, 0x26, 0x01, 0x06, 0xfa, 0x02, 0xf3, 0xfe, 0xf8, 0x1e, 0x0e, 0x13,
  0x07, 0x11, 0xfd, 0xfd, 0xf5, 0x17, 0x07, 0x34, 0xfe, 0x2a, 0xfd, 0x0c,
  0xf7, 0x0d, 0xf7, 0x1a, 0x02, 0xfd, 0x01, 0xf8, 0xf7, 0x16, 0x01, 0x12,
  0xfa, 0xfd, 0xf7, 0xfa, 0x09, 0x0c, 0x0a, 0x1b, 0x0a, 0x0a, 0xec, 0x06,
  0x0e, 0x1b, 0x06, 0x1e, 0xfc, 0x0f, 0xd9, 0x09, 0x07, 0x10, 0xf8, 0x21,
  0x1d, 0xf9, 0xe0, 0x02, 0xfa, 0x08, 0x0f, 0x26, 0x04, 0x12, 0xf6, 0xfe,
  0x0a, 0x13, 0xf4, 0x0d, 0xe0, 0x01, 0xc5, 0xfd, 0x24, 0x09, 0xf9, 0x0a,
  0xfb, 0x08, 0xd0, 0x06, 0xfa, 0x02, 0x07, 0xfa, 0xef, 0xff, 0x03, 0x01,
  0xf0, 0x05, 0x03, 0x00, 0x0e, 0xfe, 0xf9, 0x04, 0xed, 0x07, 0x0c, 0x00,
  0xff, 0x03, 0x0b, 0xff, 0xfd, 0x0e, 0x03, 0xfb, 0x0c, 0xfa, 0xf7, 0x0b,
  0xea, 0x0a, 0xf3, 0x0d, 0xf9, 0xfd, 0xf6, 0xfe, 0xf7, 0x06, 0xf9, 0xfa,
  0x01, 0xff, 0x01, 0x09, 0xe4, 0x0d, 0x00, 0x08, 0xfa, 0xf1, 0x06, 0x00,
  0xf5, 0x0f, 0x01, 0x02, 0x0b, 0xfb, 0xfe, 0x06, 0xee, 0x0c, 0xf2, 0xfd,
  0xfe, 0x08, 0xf3, 0x06, 0xf6, 0x16, 0x02, 0x00, 0x0a, 0xf6, 0xfb, 0x01,
  0xf5, 0x0d, 0xff, 0xfe, 0xf2, 0xf6, 0xf4, 0xfb, 0x07, 0x06, 0xf5, 0xef,
  0x03, 0xfa, 0x00, 0x06, 0xf8, 0x07, 0xfd, 0xf3, 0x00, 0xf5, 0xf6, 0x10,
  0xeb, 0x02, 0xfa, 0xff, 0x07, 0xfd, 0x03, 0x02, 0xf5, 0xfd, 0xf9, 0x0a,
  0xf9, 0xfc, 0xfd, 0xfd, 0xf9, 0xfd, 0xfc, 0x02, 0xfd, 0x00, 0xfe, 0xff,
  0xf2, 0x01, 0x06, 0xfe, 0xfb, 0x03, 0xfc, 0xfc, 0xfa, 0x08, 0x0a, 0x07,
  0x01, 0xfe, 0x05, 0x08, 0xf1, 0x03, 0x01, 0xfe, 0x05, 0xfb, 0x07, 0x02,
  0xf5, 0x15, 0x03, 0x0e, 0x02, 0x00, 0x06, 0xfe, 0xf9, 0x03, 0x07, 0x06,
  0xe8, 0xfe, 0xef, 0x0a, 0xf5, 0x0f, 0xf4, 0xf9, 0xfa, 0xf3, 0xfe, 0x0a,
  0x0e, 0x12, 0xff, 0x06, 0x02, 0x03, 0xf3, 0xfb, 0x0b, 0x12, 0x01, 0x0c,
  0x0b, 0xf6, 0xfa, 0xf0, 0xe2, 0x0e, 0xf9, 0x04, 0x01, 0x00, 0x07, 0xf7,
  0xf2, 0x0f, 0xee, 0x05, 0x0e, 0xec, 0x00, 0x02, 0xe2, 0x0d, 0xf7, 0x04,
  0xfe, 0xf6, 0x07, 0x0c, 0xf7, 0x0e, 0x02, 0x02, 0xf6, 0xf0, 0xf4, 0xf0,
  0xf9, 0x1b, 0x0a, 0xf1, 0x0e, 0xfa, 0x02, 0x06, 0xf5, 0x09, 0x00, 0xf1,
  0x02, 0xf9, 0xff, 0xf9, 0xf5, 0x0c, 0x08, 0xfa, 0x03, 0xf9, 0xf7, 0x06,
  0xf2, 0x0f, 0x0a, 0xed, 0xf9, 0xf0, 0xfb, 0x01, 0xfb, 0x08, 0x00, 0xf5,
  0x02, 0xf3, 0xfa, 0xfe, 0xe2, 0xfc, 0xff, 0xf2, 0x05, 0xfc, 0xfb, 0x05,
  0xfb, 0x07, 0xfa, 0x02, 0xf8, 0xfc, 0xfc, 0xf7, 0xf3, 0x02, 0xf8, 0xf2,
  0x03, 0xf8, 0x02, 0x03, 0x03, 0x0a, 0xee, 0xfe, 0x02, 0xfa, 0x01, 0xf5,
  0xf9, 0xf8, 0xfb, 0xff, 0x00, 0x05, 0x04, 0xf4, 0xe5, 0x0f, 0x02, 0xf9,
  0x0c, 0x05, 0xfb, 0x01, 0xf6, 0x12, 0x03, 0x01, 0xf9, 0x00, 0xf6, 0xfd,
  0xf5, 0xeb, 0x0a, 0xfe, 0xdf, 0xfa, 0xf0, 0x01, 0x0b, 0xf4, 0x08, 0x05,
  0x02, 0xfb, 0x00, 0xf3, 0xff, 0xfc, 0xf8, 0x0b, 0x05, 0xfc, 0x01, 0x03,
  0xff, 0xf9, 0x0d, 0x00, 0xfb, 0x0a, 0x0d, 0xfe, 0x01, 0xfb, 0xee, 0xfc,
  0xf7, 0xf6, 0xfd, 0x06, 0xf7, 0x10, 0x02, 0x03, 0x05, 0x03, 0x01, 0x09,
  0xf0, 0x03, 0x06, 0xfe, 0x02, 0xf6, 0x03, 0xf3, 0x00, 0xfb, 0xfc, 0xf7,
  0x01, 0xf5, 0xf3, 0xf9, 0xfd, 0x01, 0x02, 0x03, 0xfd, 0xfe, 0x00, 0x05,
  0x01, 0xf3, 0xf4, 0x05, 0x0d, 0xfb, 0xfc, 0xfd, 0xfb, 0x05, 0xf6, 0x0a,
  0x06, 0xfa, 0x03, 0x04, 0xf8, 0x00, 0xf4, 0x03, 0x08, 0x01, 0xec, 0xf8,
  0x02, 0x08, 0x04, 0xed, 0x09, 0x01, 0xf8, 0x09, 0xe8, 0x04, 0xf6, 0x02,
  0x01, 0x01, 0x01, 0xfa, 0x02, 0xf4, 0xf6, 0x0c, 0xff, 0x02, 0xfd, 0xf9,
  0xfd, 0xfb, 0xf9, 0xf1, 0xfe, 0x05, 0xf1, 0x02, 0x04, 0xfd, 0xea, 0x04,
  0xf8, 0x02, 0xf2, 0xef, 0xf2, 0xfb, 0xfd, 0xfe, 0xf5, 0x05, 0x0c, 0xf9,
  0x00, 0x18, 0x01, 0xfe, 0x04, 0x0f, 0x00, 0xf9, 0xf9, 0x0f, 0x02, 0xf9,
  0xeb, 0x05, 0x0c, 0x00, 0x04, 0xf2, 0x00, 0x00, 0xf9, 0xfe, 0x02, 0xfa,
  0x0a, 0xf9, 0xfe, 0xff, 0x0f, 0x09, 0x04, 0xfc, 0x10, 0x0f, 0xfc, 0x09,
  0x10, 0x01, 0x09, 0xfe, 0xf5, 0x0f, 0x04, 0xec, 0xfb, 0xfe, 0x09, 0x02,
  0xfd, 0x00, 0xf4, 0x00, 0x02, 0x06, 0x02, 0xf3, 0xf9, 0x01, 0xfb, 0x08,
  0x16, 0x08, 0x14, 0xf4, 0x06, 0x08, 0xf8, 0xf3, 0x16, 0xf4, 0x0f, 0x06,
  0x0e, 0x09, 0xfe, 0xef, 0x05, 0x0a, 0xf9, 0xfb, 0x03, 0x07, 0xfb, 0xf4,
  0x0d, 0xf7, 0x13, 0xf5, 0x07, 0xfb, 0xfb, 0xfb, 0xff, 0x05, 0x05, 0xff,
  0xfb, 0xf5, 0xf8, 0x0a, 0x0a, 0x04, 0x08, 0xf9, 0x04, 0xfe, 0xf9, 0x06,
  0x09, 0x02, 0xea, 0xed, 0x01, 0xfa, 0x04, 0xef, 0x07, 0x08, 0xf6, 0xfb,
  0x01, 0xf9, 0xf4, 0x04, 0x14, 0x05, 0xed, 0xf7, 0xfe, 0xfe, 0xfa, 0xfe,
  0xfa, 0x01, 0xf9, 0x01, 0xf4, 0xfc, 0xfd, 0xf8, 0x02, 0xf9, 0xef, 0x03,
  0xfe, 0xf6, 0xf5, 0xfb, 0x04, 0x10, 0xf2, 0xf4, 0xf8, 0x01, 0x01, 0xf4,
  0xfa, 0xef, 0xf3, 0x03, 0xed, 0x0a, 0x03, 0x07, 0x19, 0xf4, 0xf3, 0xf8,
  0xf8, 0x08, 0xef, 0xfa, 0xf8, 0x02, 0x06, 0x04, 0x09, 0xfe, 0x09, 0x01,
  0xfa, 0xfe, 0xfb, 0xff, 0x0f, 0xf1, 0xfe, 0x08, 0x25, 0x04, 0x0f, 0xf5,
  0x1e, 0x02, 0xfe, 0x0f, 0x10, 0x0c, 0xfc, 0xf9, 0xff, 0x04, 0xf9, 0xf2,
  0xfa, 0xf7, 0xe2, 0x04, 0x04, 0x0f, 0x03, 0xee, 0x05, 0x05, 0x01, 0x01,
  0x17, 0x0c, 0x03, 0x14, 0x01, 0x08, 0x2c, 0xfb, 0x08, 0x03, 0x00, 0x01,
  0x07, 0xfe, 0x19, 0xfd, 0x03, 0xfd, 0xf5, 0xf1, 0x03, 0xfb, 0x19, 0xfb,
  0xfb, 0x04, 0xf2, 0xf3, 0x0b, 0xf1, 0x0b, 0xf4, 0x00, 0xf5, 0xff, 0xf7,
  0xfa, 0x04, 0x10, 0xf1, 0xf6, 0x0f, 0xfa, 0x08, 0xf9, 0x0e, 0xff, 0xfe,
  0x13, 0xfd, 0xfd, 0x0a, 0x01, 0x07, 0xe5, 0xf1, 0x03, 0xf3, 0x05, 0xf7,
  0x19, 0xf7, 0xee, 0xf9, 0x06, 0xf6, 0xed, 0x12, 0x09, 0xf8, 0xfb, 0x06,
  0xf7, 0xfc, 0x08, 0x07, 0x07, 0xfd, 0x0e, 0x07, 0x03, 0xf5, 0xfe, 0xfa,
  0xff, 0x03, 0xec, 0xf8, 0xf4, 0xfc, 0x00, 0xfd, 0x0b, 0x12, 0xf8, 0x03,
  0x09, 0x0b, 0xfe, 0xfa, 0xfc, 0xf8, 0xfa, 0x05, 0xf6, 0x10, 0x07, 0xf5,
  0x12, 0xf3, 0xf8, 0x03, 0xfa, 0x0d, 0xfd, 0xf7, 0xf9, 0x0f, 0x07, 0xfb,
  0x13, 0xf9, 0xf8, 0x06, 0xfd, 0x03, 0x08, 0xfc, 0x0a, 0xf4, 0xf9, 0x01,
  0x19, 0xe7, 0x07, 0x09, 0x25, 0x05, 0x08, 0x03, 0x12, 0x03, 0xf5, 0x11,
  0x0e, 0x0c, 0xf8, 0xf0, 0xfc, 0x08, 0xcf, 0x02, 0x0c, 0x08, 0x02, 0xe9,
  0x10, 0xfe, 0xf1, 0xf9, 0x16, 0x17, 0xfa, 0x0c, 0xf3, 0x1d, 0x21, 0x04,
  0x11, 0x06, 0x01, 0xf7, 0x07, 0x12, 0x17, 0x06, 0x17, 0x07, 0xff, 0xef,
  0xf2, 0x01, 0x18, 0x04, 0xff, 0xf4, 0xff, 0xe9, 0x0c, 0xf1, 0x1f, 0xfa,
  0x11, 0xfd, 0xfd, 0xff, 0x0b, 0x04, 0x0d, 0x0a, 0x09, 0x0a, 0xff, 0x04,
  0x0b, 0x0f, 0x16, 0x00, 0x06, 0x00, 0xfb, 0xfe, 0x14, 0x0b, 0xee, 0x07,
  0xfa, 0x05, 0x09, 0xff, 0x0e, 0xf6, 0xfd, 0x09, 0x03, 0x00, 0xf6, 0x0f,
  0x02, 0xfd, 0x08, 0xfd, 0xfc, 0xfc, 0x03, 0x00, 0x0b, 0x0a, 0x21, 0x01,
  0x02, 0xfa, 0xfa, 0xf6, 0xfd, 0xed, 0x09, 0xf2, 0xf6, 0xf5, 0x00, 0x00,
  0x1c, 0x00, 0x04, 0x04, 0x00, 0x15, 0xf7, 0xfe, 0xf1, 0x07, 0x10, 0xf5,
  0xef, 0x06, 0xf6, 0xfe, 0x10, 0x02, 0xfe, 0xf4, 0xf4, 0x08, 0xf9, 0xfc,
  0xfb, 0xfa, 0xfc, 0x03, 0x11, 0x02, 0xfe, 0x0d, 0xf6, 0xfe, 0xff, 0xf2,
  0x13, 0xfb, 0x06, 0x13, 0x08, 0xec, 0x11, 0x0d, 0x1d, 0x08, 0x00, 0xf8,
  0xf0, 0x07, 0xf1, 0xf6, 0x15, 0x08, 0xf3, 0xde, 0x15, 0x09, 0xc6, 0xfa,
  0x0c, 0x10, 0xf9, 0xdf, 0x02, 0x0b, 0xf5, 0x04, 0x11, 0x09, 0x01, 0xfb,
  0xeb, 0x27, 0x21, 0x13, 0x10, 0x09, 0xef, 0xe2, 0xed, 0x27, 0x17, 0x08,
  0x16, 0xfb, 0xfa, 0xf4, 0x03, 0x15, 0x24, 0xf7, 0x09, 0x00, 0x04, 0xf4,
  0x0f, 0xf5, 0x0d, 0x0d, 0x00, 0xfe, 0x00, 0xdf, 0x0a, 0x03, 0xf9, 0xfe,
  0xfe, 0x0b, 0xf9, 0xee, 0x20, 0xfc, 0xe2, 0xed, 0x06, 0xff, 0x08, 0x0a,
  0x18, 0x03, 0xeb, 0xfc, 0x06, 0xfb, 0xf7, 0xf4, 0x06, 0xf5, 0xf8, 0xf2,
  0xfe, 0xf9, 0x10, 0x02, 0xff, 0xfb, 0xfa, 0x0d, 0x09, 0x01, 0xfc, 0x06,
  0x26, 0x12, 0x0d, 0xf7, 0x13, 0xfd, 0x07, 0x0e, 0xec, 0x0c, 0x16, 0xfc,
  0xfe, 0xfe, 0x01, 0x0a, 0x02, 0x04, 0x0c, 0x01, 0x12, 0x10, 0xfd, 0xf7,
  0x02, 0x02, 0xf4, 0xf3, 0x03, 0x0c, 0x04, 0xfa, 0x0b, 0x0e, 0xf7, 0x04,
  0xf1, 0xfc, 0xfe, 0xeb, 0xe7, 0xf3, 0xf3, 0x0c, 0x20, 0xfc, 0x00, 0x04,
  0xe5, 0x05, 0x08, 0x03, 0x1d, 0x05, 0xfa, 0x05, 0x14, 0xf7, 0xf9, 0xfa,
  0x1f, 0x05, 0x01, 0xe6, 0xfa, 0xf9, 0xef, 0xfd, 0x28, 0x0a, 0xfd, 0xe9,
  0xf7, 0x06, 0xda, 0x03, 0x0e, 0xf9, 0x0b, 0xe0, 0x04, 0x05, 0xf5, 0xf1,
  0x27, 0xfc, 0x02, 0x02, 0xeb, 0x41, 0x1c, 0xfb, 0x1b, 0xfb, 0xf8, 0xe7,
  0xf5, 0x34, 0x12, 0x0d, 0x22, 0xf6, 0xf9, 0xed, 0xfb, 0x1f, 0x0f, 0x0e,
  0x0e, 0xf8, 0x01, 0xf5, 0x18, 0x0a, 0x0a, 0x03, 0x04, 0x08, 0xfa, 0xe8,
  0x20, 0xfe, 0xf4, 0x0a, 0x05, 0x05, 0x02, 0xff, 0x21, 0x00, 0xde, 0x03,
  0x0a, 0xf9, 0xff, 0x0a, 0x24, 0x0c, 0xe9, 0x04, 0x11, 0xf9, 0xf5, 0x00,
  0xf1, 0xfa, 0xe3, 0xfb, 0x02, 0x01, 0xf6, 0xfc, 0x00, 0x00, 0xf2, 0xf6,
  0x04, 0xf9, 0xfc, 0x00, 0x20, 0x01, 0x01, 0x01, 0x13, 0xf3, 0xfe, 0xf2,
  0xf5, 0x09, 0x09, 0x08, 0x02, 0xf5, 0x04, 0x08, 0x03, 0x03, 0x11, 0x05,
  0x12, 0x09, 0xf4, 0xfa, 0x0e, 0x06, 0xf7, 0xf8, 0x01, 0x07, 0xf5, 0xff,
  0x05, 0xfa, 0xeb, 0x02, 0xeb, 0x0d, 0xf8, 0xf6, 0xe7, 0xfe, 0xf7, 0x10,
  0x1c, 0x02, 0xfb, 0x10, 0xeb, 0x02, 0x05, 0xfa, 0x1d, 0xff, 0xfd, 0x02,
  0x0f, 0xfe, 0x00, 0x08, 0x32, 0x0a, 0xfe, 0xed, 0xfc, 0xf9, 0xec, 0xfd,
  0x39, 0x01, 0xfa, 0xde, 0xfa, 0x09, 0xdd, 0x00, 0x1f, 0xfc, 0xfd, 0xe2,
  0x03, 0x13, 0xe0, 0x08, 0x22, 0xf2, 0xfd, 0xf5, 0xd7, 0x3d, 0x16, 0xf9,
  0x0e, 0x0e, 0xfd, 0xec, 0xe4, 0x43, 0x0f, 0x03, 0x25, 0xf7, 0xfc, 0xf1,
  0xee, 0x2c, 0x17, 0xf4, 0x1a, 0xfa, 0xfc, 0xfc, 0x16, 0x22, 0x04, 0xf7,
  0x14, 0x0a, 0xf9, 0xec, 0x21, 0x08, 0x08, 0xfe, 0x09, 0xf7, 0x01, 0x07,
  0x2f, 0xf9, 0xef, 0x00, 0xed, 0xf2, 0xfc, 0x06, 0x1a, 0xee, 0xda, 0xf2,
  0x15, 0xf3, 0x03, 0xf4, 0x01, 0xea, 0xd5, 0xfe, 0x1a, 0xff, 0x0b, 0xfe,
  0x10, 0xfa, 0xf2, 0x09, 0x07, 0xf8, 0x00, 0x07, 0x2d, 0x0c, 0x11, 0x05,
  0x0a, 0xf6, 0x0a, 0x0c, 0xf8, 0x04, 0xf7, 0x00, 0xf9, 0xfc, 0xfd, 0x0f,
  0x10, 0x0e, 0x03, 0xf4, 0x24, 0x14, 0xfc, 0x01, 0xfb, 0x02, 0xf4, 0x04,
  0x06, 0x05, 0x03, 0x03, 0x06, 0x19, 0xf8, 0x00, 0xf1, 0xfa, 0xf9, 0xf3,
  0xe5, 0x0c, 0xfa, 0x0b, 0x2b, 0xf6, 0x02, 0x03, 0xdc, 0x10, 0xff, 0xff,
  0x24, 0xfc, 0x00, 0xf8, 0x03, 0x05, 0xf5, 0x08, 0x26, 0x04, 0xfb, 0xee,
  0x00, 0x0e, 0xe4, 0xfd, 0x2e, 0xfe, 0xfd, 0xd9, 0xfb, 0x04, 0xe2, 0xfd,
  0x16, 0x06, 0x09, 0xe3, 0xe6, 0x1d, 0xdd, 0x04, 0x2a, 0xf2, 0xf5, 0xf2,
  0xe0, 0x38, 0x1d, 0x0d, 0x12, 0xf8, 0x07, 0xe2, 0xef, 0x36, 0x11, 0xfa,
  0x1a, 0xee, 0x04, 0xf0, 0xe8, 0x24, 0x07, 0x0e, 0x0d, 0xfb, 0x09, 0xf0,
  0x1a, 0x1d, 0x09, 0x02, 0x0e, 0xff, 0xfa, 0xf0, 0x2b, 0xfc, 0x0a, 0x0b,
  0x0d, 0x05, 0x04, 0x01, 0x18, 0xf6, 0xef, 0xf7, 0xfa, 0xee, 0xfb, 0xfd,
  0x16, 0x04, 0xe1, 0x00, 0x0c, 0xfd, 0xff, 0xec, 0x05, 0x08, 0xee, 0x11,
  0x0a, 0xfb, 0xf4, 0x04, 0x13, 0xf4, 0xfd, 0xff, 0x09, 0xf0, 0xf2, 0x03,
  0x21, 0x0c, 0x06, 0xf2, 0x0e, 0xf5, 0xfe, 0x07, 0xff, 0x12, 0xfe, 0x00,
  0xff, 0xf3, 0x0d, 0x03, 0x12, 0x16, 0x05, 0x00, 0x24, 0x0a, 0x02, 0x0f,
  0x0d, 0x0b, 0x00, 0x02, 0x15, 0x09, 0x03, 0x00, 0x13, 0x0e, 0xed, 0x07,
  0xf1, 0x07, 0xfc, 0x02, 0xe8, 0x0e, 0xf6, 0x11, 0x1d, 0xfc, 0x01, 0xfd,
  0xde, 0x0e, 0x01, 0xfe, 0x24, 0x03, 0xfb, 0xf4, 0xff, 0x06, 0xfa, 0xfd,
  0x2f, 0x09, 0x0a, 0xe4, 0x01, 0x15, 0xf1, 0x0f, 0x2f, 0x05, 0x04, 0xd8,
  0xf2, 0x06, 0xee, 0x04, 0x1c, 0xf4, 0xfd, 0xf3, 0xd2, 0x10, 0xe4, 0x01,
  0x30, 0xfd, 0x00, 0xfa, 0xec, 0x43, 0x18, 0x0a, 0x14, 0xea, 0x06, 0xec,
  0xee, 0x39, 0x19, 0x05, 0x18, 0xfa, 0xff, 0xf8, 0xd3, 0x26, 0x0d, 0x03,
  0x0a, 0x04, 0xff, 0xf1, 0x26, 0x21, 0x08, 0xfc, 0x06, 0xf5, 0xfe, 0xfd,
  0x2c, 0x11, 0xfd, 0x03, 0x00, 0x02, 0x0b, 0x04, 0x1b, 0x08, 0xef, 0x04,
  0xfe, 0x04, 0x0b, 0x0d, 0x1a, 0x0b, 0xe8, 0x05, 0x05, 0xed, 0xf4, 0xfa,
  0xfb, 0xfa, 0xe9, 0x07, 0x10, 0xfe, 0x06, 0xf8, 0x15, 0xf5, 0xf6, 0xfd,
  0x04, 0x05, 0xfc, 0x05, 0x1c, 0x17, 0x11, 0xfc, 0x0e, 0x02, 0x05, 0x07,
  0x13, 0x15, 0x02, 0x06, 0x0c, 0xfe, 0xfd, 0x11, 0x13, 0x1c, 0xfc, 0x03,
  0x1d, 0x07, 0xfd, 0x0b, 0x10, 0x0f, 0x0f, 0x06, 0x11, 0xfc, 0xfc, 0xfd,
  0x02, 0x0e, 0xfe, 0x0a, 0xfb, 0xfa, 0xf2, 0xf9, 0xf1, 0x0f, 0xfc, 0x08,
  0x1c, 0xfd, 0xf4, 0xe9, 0xcf, 0x0d, 0x10, 0xfb, 0x28, 0x00, 0xf2, 0xf0,
  0x10, 0xf9, 0xec, 0x0b, 0x2c, 0x09, 0x09, 0xe5, 0xfc, 0x12, 0xe5, 0x0d,
  0x32, 0xf6, 0x06, 0xd9, 0xf3, 0x0d, 0xf5, 0xfe, 0x16, 0x0d, 0x02, 0xf0,
  0xe2, 0x0b, 0xe2, 0x00, 0x28, 0x00, 0x01, 0xf5, 0xe2, 0x3f, 0x12, 0x06,
  0x10, 0xf7, 0xfc, 0xf3, 0xdf, 0x37, 0x18, 0xff, 0x20, 0x00, 0x05, 0x02,
  0xd1, 0x26, 0x10, 0xf5, 0x02, 0x00, 0x08, 0xf5, 0x1f, 0x1a, 0xf9, 0x02,
  0x03, 0xfd, 0xf8, 0xff, 0x2d, 0x1c, 0x0b, 0x03, 0xfd, 0xf4, 0x00, 0x07,
  0x1c, 0x03, 0xfb, 0x12, 0xfc, 0xf5, 0xf7, 0x01, 0x1e, 0x04, 0xe9, 0x00,
  0xfc, 0xf8, 0xfb, 0xfa, 0x02, 0x08, 0xe8, 0xfb, 0x0d, 0xfc, 0x01, 0xff,
  0xfc, 0x06, 0xfa, 0x03, 0xfe, 0x01, 0x01, 0xfa, 0x23, 0x0b, 0x1b, 0x0d,
  0x14, 0xfd, 0xfa, 0x0d, 0x11, 0x13, 0x04, 0x00, 0x0d, 0xf3, 0x05, 0x0d,
  0x0b, 0x19, 0xfd, 0xfd, 0x15, 0xf6, 0xfe, 0x0f, 0x1a, 0x08, 0x04, 0x08,
  0x0b, 0x07, 0xfc, 0x04, 0x00, 0x12, 0x0f, 0x10, 0xfa, 0x01, 0x05, 0xf2,
  0x05, 0x1b, 0x04, 0x0e, 0x21, 0xf5, 0x08, 0xf6, 0xd3, 0x12, 0x03, 0x00,
  0x20, 0x05, 0xf5, 0xed, 0x0b, 0xf8, 0xfd, 0x03, 0x35, 0x0c, 0x07, 0xe9,
  0x05, 0x04, 0xf4, 0xf9, 0x26, 0x07, 0xfb, 0xc7, 0xed, 0x08, 0xf2, 0xf9,
  0x1d, 0x06, 0x03, 0xd6, 0xdd, 0x14, 0xf2, 0xff, 0x34, 0xef, 0xf5, 0xf4,
  0xe2, 0x3a, 0x18, 0xf2, 0x20, 0xf4, 0xfe, 0xf0, 0xc5, 0x2a, 0x11, 0xfc,
  0x16, 0x00, 0x05, 0xff, 0xe7, 0x1c, 0x0f, 0x07, 0x06, 0x08, 0xfa, 0xf1,
  0x12, 0x17, 0x0e, 0xf5, 0xfb, 0xf8, 0x01, 0x02, 0x1d, 0x0b, 0xfd, 0x05,
  0xf9, 0xf5, 0xf8, 0x03, 0x16, 0x17, 0xf5, 0x05, 0x0c, 0xf9, 0xfb, 0x0e,
  0x13, 0xfb, 0xeb, 0x09, 0x03, 0xf6, 0x07, 0xfa, 0x09, 0x01, 0xea, 0xf9,
  0x06, 0xfe, 0xfc, 0xee, 0x03, 0x0d, 0xf6, 0x03, 0x07, 0x06, 0xff, 0xff,
  0x15, 0x07, 0x0b, 0x07, 0x03, 0xef, 0xf4, 0x02, 0x06, 0x18, 0x00, 0x0b,
  0x08, 0xe6, 0x01, 0xfe, 0x12, 0x1d, 0xfe, 0xf6, 0x09, 0xf8, 0x04, 0x14,
  0x1d, 0x06, 0x13, 0x06, 0x0a, 0x00, 0xfe, 0x00, 0x00, 0x13, 0xff, 0x06,
  0xfa, 0x00, 0x01, 0xee, 0xfd, 0x07, 0x02, 0xfc, 0x1f, 0x06, 0xfe, 0x03,
  0xe4, 0x0d, 0x02, 0x04, 0x21, 0x02, 0xfa, 0xe8, 0x00, 0xf2, 0xfc, 0xf9,
  0x39, 0x0f, 0x00, 0xe5, 0x08, 0x09, 0xed, 0xf8, 0x34, 0xfb, 0xfc, 0xce,
  0xf6, 0x1c, 0xfb, 0x0a, 0x1e, 0x05, 0x02, 0xdb, 0xec, 0x03, 0xf7, 0x06,
  0x3b, 0xf8, 0x0b, 0xf4, 0xe4, 0x34, 0x25, 0x00, 0x1e, 0xf9, 0xf8, 0xf8,
  0xc1, 0x2d, 0x14, 0x04, 0x0f, 0x0c, 0x01, 0x06, 0xe2, 0x26, 0x0a, 0x0a,
  0xff, 0x0b, 0x02, 0xfb, 0x0d, 0x1d, 0x00, 0x04, 0x02, 0xf3, 0x06, 0xff,
  0x26, 0x07, 0xff, 0x07, 0xfa, 0xfc, 0x0d, 0x02, 0x18, 0x15, 0x08, 0x05,
  0x01, 0xfe, 0xfd, 0x04, 0x0f, 0xf4, 0xef, 0x0d, 0x06, 0xf3, 0xfe, 0x03,
  0x05, 0x02, 0xee, 0xfa, 0x09, 0x04, 0xfe, 0xef, 0x0a, 0x03, 0xfb, 0x06,
  0x07, 0xfb, 0xfc, 0xfa, 0x17, 0x0d, 0x0c, 0x03, 0x04, 0xfa, 0xf7, 0xfe,
  0x01, 0x0f, 0x08, 0x04, 0xf8, 0xeb, 0x04, 0x07, 0x09, 0x10, 0x0b, 0x0e,
  0x12, 0xf9, 0xfd, 0x0a, 0x11, 0x0f, 0x09, 0x06, 0x0e, 0x04, 0x01, 0xfe,
  0x0b, 0x05, 0x06, 0xf1, 0x07, 0xfc, 0xfb, 0xf5, 0xfa, 0x06, 0xf1, 0x12,
  0x2a, 0x00, 0xfb, 0x04, 0xea, 0xf7, 0xfd, 0xfb, 0x27, 0x0e, 0x03, 0xe0,
  0x00, 0xea, 0xfc, 0x03, 0x3c, 0x07, 0xf4, 0xed, 0x0d, 0xf9, 0xf2, 0x07,
  0x36, 0x00, 0xed, 0xbd, 0x07, 0x1c, 0xf1, 0xfd, 0x2a, 0x0c, 0x08, 0xde,
  0xfc, 0x05, 0x00, 0xfb, 0x33, 0xf3, 0xf7, 0xf9, 0xe1, 0x22, 0x2a, 0x06,
  0x22, 0x00, 0xfa, 0xf8, 0xb0, 0x31, 0x17, 0xfd, 0x0f, 0x09, 0xfc, 0x06,
  0xe4, 0x22, 0x0c, 0x08, 0x01, 0x0e, 0x0c, 0xfa, 0xfa, 0x27, 0x0e, 0xf4,
  0xf6, 0xf6, 0xff, 0xfe, 0x1a, 0x0d, 0xf8, 0x08, 0xfb, 0xf7, 0x03, 0xeb,
  0x0d, 0x08, 0xf9, 0xfe, 0xf6, 0xff, 0x02, 0x0c, 0x07, 0xf6, 0xf2, 0xf5,
  0x0f, 0xef, 0x02, 0xfd, 0x07, 0x00, 0xef, 0xff, 0x16, 0xf8, 0x0e, 0xea,
  0x09, 0x08, 0xf4, 0x01, 0x0c, 0xf4, 0x0c, 0x06, 0x17, 0x0c, 0x08, 0x09,
  0x07, 0xf4, 0xff, 0x04, 0x05, 0x0e, 0x00, 0x08, 0x00, 0xf3, 0xf8, 0x02,
  0x06, 0xf6, 0x03, 0xf9, 0xf7, 0xf9, 0xfc, 0x00, 0x09, 0x11, 0x09, 0xfa,
  0x17, 0x01, 0x00, 0x00, 0xf5, 0x07, 0x11, 0x00, 0x03, 0xfd, 0x04, 0xfa,
  0x04, 0x0d, 0xfe, 0x04, 0x27, 0x1a, 0xf5, 0xfe, 0xf2, 0x0a, 0x04, 0xf0,
  0x22, 0x1b, 0x08, 0xe7, 0xf7, 0xe4, 0x00, 0x09, 0x41, 0x0b, 0xfd, 0xdc,
  0xfd, 0xea, 0xd7, 0xff, 0x33, 0xfd, 0xf0, 0xb1, 0xf3, 0x14, 0xec, 0xf8,
  0x21, 0x00, 0xf3, 0xd0, 0x00, 0xf3, 0x00, 0xfb, 0x3b, 0x04, 0xf5, 0xfc,
  0xdd, 0x2e, 0x24, 0xfe, 0x25, 0x0a, 0xfc, 0xfe, 0xae, 0x30, 0x16, 0xfd,
  0x0f, 0x1a, 0xff, 0x04, 0xd8, 0x1e, 0x0b, 0x06, 0x05, 0x0e, 0x05, 0xfd,
  0xfa, 0x21, 0x08, 0x03, 0x0c, 0xfb, 0x0a, 0xff, 0x11, 0x04, 0xff, 0x00,
  0xf7, 0xfd, 0x07, 0xff, 0x23, 0x11, 0xf1, 0x0d, 0xfe, 0x04, 0xfe, 0x00,
  0x09, 0xf1, 0xef, 0x09, 0xfd, 0xf1, 0x0a, 0x06, 0x01, 0x02, 0xeb, 0x08,
  0x0e, 0xf9, 0xf0, 0xee, 0x02, 0xff, 0xef, 0x0f, 0xfc, 0xf6, 0xf8, 0x02,
  0x16, 0x08, 0x05, 0x02, 0x05, 0xfd, 0x00, 0xfb, 0x01, 0x12, 0x03, 0xf2,
  0xf2, 0xf8, 0xf9, 0x00, 0xff, 0x04, 0x0a, 0x01, 0x0c, 0xf4, 0xf3, 0x0a,
  0x07, 0x10, 0x04, 0x02, 0x12, 0x03, 0xff, 0x08, 0xf6, 0x0f, 0x0c, 0x06,
  0x09, 0x09, 0xfb, 0x00, 0x06, 0x17, 0xf8, 0x0f, 0x2b, 0x17, 0xfe, 0x0c,
  0xed, 0x0e, 0x08, 0xfd, 0x26, 0x15, 0xfa, 0xee, 0xfa, 0xf1, 0x0b, 0x0a,
  0x38, 0x06, 0xf5, 0xe4, 0x13, 0xe8, 0xe9, 0x00, 0x36, 0x07, 0xf7, 0xbf,
  0xf3, 0x27, 0xe8, 0x0d, 0x31, 0x13, 0xfb, 0xd5, 0xf5, 0x07, 0x05, 0xf4,
  0x38, 0xf2, 0x06, 0x0d, 0xc5, 0x39, 0x2c, 0x0e, 0x13, 0xfc, 0xf9, 0x03,
  0xa2, 0x2c, 0x18, 0xf0, 0x13, 0x04, 0xfd, 0xf8, 0xe4, 0x27, 0x17, 0xfa,
  0x0b, 0x09, 0x07, 0xf3, 0xfd, 0x1d, 0x0d, 0xf6, 0xfa, 0xff, 0x03, 0xfd,
  0x0d, 0x06, 0x09, 0xfc, 0xfd, 0x06, 0xf3, 0xf6, 0x11, 0xfb, 0xec, 0x0e,
  0x02, 0x0e, 0xf0, 0x0e, 0x17, 0xf4, 0xf1, 0x08, 0x15, 0xfe, 0xfc, 0x00,
  0xff, 0xfa, 0xec, 0xff, 0x10, 0xf5, 0x0f, 0xf2, 0x09, 0xf9, 0xf1, 0xfc,
  0xff, 0xf6, 0x00, 0x0e, 0x24, 0x03, 0x0b, 0x02, 0xff, 0xfc, 0xf9, 0x01,
  0x03, 0x13, 0x01, 0x01, 0x03, 0xf1, 0x04, 0xfe, 0xf8, 0x04, 0x01, 0x09,
  0x07, 0xf3, 0xfa, 0xf7, 0x08, 0x10, 0x09, 0xff, 0x09, 0x02, 0xf7, 0x08,
  0x00, 0x20, 0x07, 0xed, 0xfc, 0x06, 0x03, 0x00, 0x05, 0x05, 0xec, 0x00,
  0x22, 0x0e, 0xf0, 0xff, 0xee, 0x09, 0x01, 0xfa, 0x2c, 0x16, 0xfb, 0xeb,
  0xf3, 0xed, 0x0a, 0x01, 0x34, 0x14, 0xfc, 0xea, 0xfd, 0xf2, 0xe1, 0xf4,
  0x3b, 0x13, 0x00, 0xc7, 0xfd, 0x24, 0x02, 0x0c, 0x1f, 0x0e, 0xf9, 0xdb,
  0xfa, 0x0b, 0x00, 0x0a, 0x39, 0xf8, 0xeb, 0x03, 0xdb, 0x2c, 0x29, 0x05,
  0x1b, 0x05, 0xee, 0xf4, 0x8e, 0x1e, 0x17, 0xfa, 0x18, 0xf9, 0xf4, 0x06,
  0xd5, 0x1b, 0x1e, 0xf6, 0x0b, 0x06, 0x07, 0x01, 0xfa, 0x17, 0x0a, 0x02,
  0x07, 0xfd, 0xf8, 0xfa, 0x0b, 0x07, 0xfe, 0x03, 0xfc, 0xf7, 0xfd, 0xf0,
  0x0c, 0x05, 0xfe, 0xf5, 0xfd, 0x06, 0xfb, 0x14, 0x12, 0x00, 0xe4, 0x05,
  0x18, 0x00, 0xee, 0x08, 0x0a, 0xf9, 0xed, 0x10, 0x17, 0xfd, 0x0a, 0xeb,
  0x04, 0xf7, 0xea, 0x0f, 0x09, 0xf8, 0x01, 0x17, 0x16, 0xfe, 0x0a, 0xfc,
  0x08, 0xef, 0x05, 0x05, 0x04, 0x0b, 0x04, 0xfe, 0x04, 0xeb, 0x04, 0x04,
  0xfa, 0x15, 0x0f, 0xfa, 0x01, 0xf3, 0xfe, 0xf8, 0x04, 0x09, 0xf9, 0xff,
  0x14, 0x03, 0x03, 0x03, 0xfe, 0x1c, 0x0f, 0xf6, 0xff, 0xfc, 0x08, 0x00,
  0x02, 0x00, 0xfe, 0xff, 0x28, 0x10, 0x06, 0x06, 0xf5, 0x0d, 0x04, 0xfa,
  0x1f, 0x12, 0xf4, 0xde, 0xfe, 0xfb, 0x06, 0xf9, 0x36, 0x10, 0xf8, 0xe1,
  0xfd, 0xf6, 0xe9, 0xf7, 0x30, 0x0e, 0xee, 0xc8, 0xee, 0x0f, 0xef, 0xf2,
  0x2a, 0x08, 0xfc, 0xe4, 0x00, 0xfb, 0x09, 0xf2, 0x30, 0x01, 0xf3, 0x02,
  0xcc, 0x1b, 0x30, 0xfe, 0x20, 0xf7, 0xf5, 0x0b, 0x82, 0x1a, 0x25, 0xfa,
  0x23, 0xfb, 0xf1, 0x02, 0xc3, 0x17, 0x20, 0xfb, 0x0d, 0xf8, 0xfd, 0x09,
  0xff, 0x16, 0x0d, 0x04, 0xfd, 0xf7, 0x04, 0xf3, 0x15, 0x06, 0xfe, 0xf5,
  0xf5, 0xfc, 0x00, 0xfa, 0x1b, 0xf7, 0xfa, 0x09, 0xfd, 0x00, 0x03, 0x0e,
  0x0d, 0xfb, 0xe5, 0x03, 0x1a, 0xf9, 0xf7, 0x06, 0xfb, 0xf4, 0xff, 0xf1,
  0x22, 0x02, 0xfe, 0xfb, 0x0b, 0x02, 0x00, 0x05, 0x03, 0xe8, 0xf9, 0x0b,
  0x00, 0x00, 0x01, 0x08, 0xf6, 0xfb, 0x06, 0x02, 0x0b, 0x10, 0x0b, 0x07,
  0x06, 0xeb, 0x03, 0x00, 0xff, 0x0b, 0x00, 0x04, 0x0d, 0xf9, 0xf5, 0x06,
  0x0d, 0x20, 0xfd, 0x02, 0x0d, 0xfe, 0xfd, 0x07, 0x03, 0x0b, 0x14, 0x08,
  0x06, 0x0d, 0x02, 0xfc, 0x06, 0x07, 0xfc, 0x11, 0x29, 0x0a, 0x03, 0xf8,
  0xe5, 0x0f, 0x00, 0x0c, 0x2d, 0x18, 0x00, 0xdf, 0xfd, 0xec, 0x03, 0x0a,
  0x38, 0x14, 0x06, 0xe1, 0xfb, 0xef, 0xed, 0xf9, 0x32, 0x10, 0xf9, 0xd6,
  0xe8, 0x0e, 0xed, 0xf8, 0x30, 0x15, 0xf8, 0xe0, 0xf3, 0xf2, 0x00, 0xfb,
  0x2d, 0xfe, 0xf3, 0x08, 0xc5, 0x19, 0x25, 0xec, 0x1e, 0x05, 0xf7, 0x05,
  0x97, 0x1f, 0x24, 0xf6, 0x1c, 0xf5, 0x02, 0x09, 0xc8, 0x14, 0x22, 0x08,
  0x04, 0xfd, 0x00, 0x0e, 0xec, 0x1e, 0x0d, 0xf5, 0xf7, 0xf2, 0x07, 0xe9,
  0x1e, 0xf9, 0xfa, 0xf8, 0xf0, 0xfd, 0xf6, 0xf9, 0x13, 0x01, 0x00, 0xf9,
  0x0e, 0x05, 0xf3, 0x17, 0x13, 0xf9, 0xe3, 0xfb, 0x17, 0x00, 0xfa, 0x02,
  0x06, 0xed, 0xf0, 0xf0, 0x24, 0xf8, 0xef, 0xeb, 0x0c, 0xf0, 0xf0, 0x07,
  0x07, 0xf1, 0xf8, 0x0a, 0x05, 0x00, 0x04, 0x06, 0xff, 0xec, 0xfd, 0xfc,
  0x0e, 0x0e, 0x0a, 0xfe, 0x0e, 0xe8, 0xf7, 0x02, 0x03, 0x21, 0xfe, 0xf5,
  0x12, 0xf8, 0xfa, 0xff, 0x07, 0xfa, 0xfe, 0xf2, 0x15, 0x00, 0xfd, 0x09,
  0x03, 0x1b, 0x15, 0x06, 0x10, 0x08, 0xfe, 0xfe, 0x00, 0x06, 0xfc, 0xfb,
  0x21, 0x0e, 0xf3, 0x0b, 0xe5, 0x08, 0x05, 0xff, 0x26, 0x23, 0xf2, 0xe2,
  0xfd, 0xf4, 0x04, 0xf9, 0x40, 0x16, 0x08, 0xe2, 0x0a, 0xe5, 0xeb, 0x03,
  0x4a, 0x11, 0x00, 0xd1, 0xec, 0xf0, 0x02, 0xf8, 0x36, 0x16, 0xff, 0xed,
  0xe4, 0xf7, 0xf8, 0x02, 0x39, 0xfe, 0xf4, 0xfd, 0xce, 0x0e, 0x25, 0x08,
  0x1f, 0x02, 0xf3, 0x1d, 0x99, 0x18, 0x19, 0xf9, 0x16, 0xf9, 0x05, 0x0e,
